#version: 0.2 - Trained by `huggingface/tokenizers`
Ġ e
Ġ d
Ġd e
o s
Ġ l
e n
Ġ p
Ġ c
e r
Ġ s
e s
Ġ a
c i
o n
a r
q u
o r
a s
Ġe s
t e
qu e
u n
t o
Ġ m
a d
a n
Ġ que
t i
Ã ³
Ġl a
t r
i n
Ġ y
Ġe n
a l
Ġ un
r e
Ġe l
Ã³ n
Ġ n
ci Ã³n
Ġ v
t a
č Ċ
Ġc on
i c
i s
Ġs e
m p
Ġ o
Ġp r
Ã ¡
Ġ in
Ã Ń
Ġ h
Ġc o
d o
a m
Ġl os
Ġ re
i d
Ã ©
a ciÃ³n
Ġ f
te x
i en
tex to
Ġpr o
Ġp ar
t os
Ġun a
Ġ t
e c
e m
ci on
l o
a b
Ġl as
Ġp or
u s
Ġ b
m o
a c
d e
Ġn o
Ġpar a
i z
u e
Ġa l
r es
Ġs i
Ġc u
Ġl o
t er
c u
Ġes t
c es
l e
Ġde l
en te
o l
m a
Ġ ti
Ġp er
d i
Ġ g
id ad
cion es
ad o
ti v
u c
Ġ tr
Ġt en
Ġd i
t u
b i
j e
Ġ to
Ġs u
g o
an do
Ġm e
Ġco mo
ar i
em os
Ġco mp
ti c
g u
Ġ i
l a
ad a
Ġd a
en t
Ġs er
Ġp ue
ta m
ic a
en ci
Ġ us
r a
or m
ad or
Ġs on
Ġde s
tr o
ÃŃ a
i m
Ã º
am os
Ġs o
Ã¡ s
Ġti en
Ġ 1
Ġp o
er a
is te
qu i
Ġda tos
Ġh a
Ġa c
Ġe x
al es
Ã ±
Ġest Ã¡
ien to
g r
Ġen t
b l
i r
Ġh ac
d ad
Ġ or
i v
Ġd is
u es
Ġe mp
Ġin ter
Ġl e
a j
Ġn os
tr a
Ġy a
Ã© n
Ġm o
Ġa p
i ci
on ces
t en
Ġa n
f ic
m in
Ġ res
Ġs iste
ad os
Ġpro ces
tr os
d a
Ġin f
Ġ (
t or
re c
al iz
Ġent onces
d er
u l
Ġcon s
enci a
Ġo p
Ġm Ã¡s
Ġy o
Ġde b
Ġtien e
Ġm an
t an
t ar
i a
Ġo b
Ġes te
r i
tr uc
bi Ã©n
tam biÃ©n
Ġv a
d en
s i
Ġm a
i l
Ġco m
Ġes ta
er o
Ġpue de
Ġde ci
Ġ tambiÃ©n
e l
Ġinf orm
Ġper o
t es
te d
en ta
Ġper s
Ġen tr
Ġpor que
Ġten emos
Ġus ted
qu Ã©
Ġ u
d os
r o
Ġ te
Ġin s
Ġpers on
c e
f er
Ġemp res
am ente
gr am
je mp
ec es
l os
Ġc l
Ġi mp
Ġcu ando
Ġtr ab
Ġv er
Ġe jemp
Ġtrab aj
ar e
s e
Â ¿
ti l
Ġ 2
Ġha y
Ġa h
Ġa r
Ġsiste ma
i b
Ġejemp lo
Ġh ab
Ġhac er
t as
Ġes o
Ġf un
or ma
Ġinform aciÃ³n
Ġv ari
g an
ÃŃ s
tiv o
c o
m en
Ġ 3
Ġentr e
p os
Ġ r
d uc
Ġm is
Ġc a
Ġb as
i o
p o
Ġe j
ent es
Ġ Â¿
m ente
tu ra
g a
Ġd ic
ec u
Ġu til
n o
Ġcon tr
g un
Ġm en
Ġpro gram
tic a
Ġg r
Ġc ada
Ã© s
Ġes p
m i
Ġre g
e z
Ġm em
Ġc ar
tiv os
Ġa s
qu ÃŃ
b re
Ġv al
Ġmo de
ci a
c on
u m
Ġm i
or es
o y
w are
Ġn eces
Ġdeci r
Ġ 5
Ġmem or
o tros
v er
Ġv amos
Ġ 4
ic o
Ġnos otros
Ġtr an
Ġg en
i Ã³n
Ġutil iz
Ġp re
g n
e mp
am iento
Ġempres a
Ġes to
Ġa quÃŃ
Ġtran s
Ġto do
Ġf in
Ġpo der
Ġob je
al mente
Ġor gan
Ã¡ l
Ġa d
Ġej ecu
i t
Ġdi fer
Ġins truc
Ġc Ã³
l ar
Ġp a
Ġc or
Ġs us
Ġcontr ol
an te
Ġ j
Ġmemor ia
Ġtr a
or a
Ġme di
Ġes a
uc h
Ġ 6
ad as
Ġgen er
Ġap l
un to
i er
ari o
m as
qui er
on de
ic aciÃ³n
cu r
Ġorgan iz
idad es
Ġm uch
Ġten er
Ġs ol
Ġc as
ci p
Ġpro duc
Ġdi rec
tic as
u y
Ġdeb e
Ġf orma
ien te
Ġ 8
f t
Ġproces o
Ġcu al
Ġ 9
Ġes e
Ġ quÃ©
Ġs in
Ġde n
Ġp as
Ġ id
Ġpar te
ĠestÃ¡ n
Ġser v
Ġca p
Ġc os
Ã± o
r ol
g ar
ft ware
Ġso ftware
Ġpr im
id a
Ġre p
a je
Ġcom un
f ica
Ġden tro
Ġc re
Ġp os
p er
Ãº n
Ġd os
Ġin c
ar rol
Ġ 7
Ġdic e
c ri
Ġc am
Ġman era
Ġd onde
Ġdes arrol
Ġimp or
Ġto dos
tiv a
ÃŃ n
i do
ab le
on es
Ġpro p
iv el
Ġpo d
Ġre d
Ġn ivel
d as
Ġl le
Ã¡ n
Ġme j
en d
Ġv oy
Ġ1 0
Ġn ues
Ġre aliz
ien do
u r
ador es
Ġb ien
mp l
Ġres p
Ġreg is
ci o
ti r
Ġop era
ti dad
i g
Ġde f
Ġcon o
Ġpr in
i fic
Ġten go
bl em
Ġprin cip
l es
u t
Ġimpor tan
e a
u di
l as
tr as
ien tos
Ġun o
Ġti po
lo g
ti n
cion al
Ġ ta
Ġb us
m os
l am
Ġcl as
cur s
Ġpro blem
Ġv an
p ar
Ġperson as
qu er
Ġes tos
Ġn Ãº
men to
Ġde ter
ce p
Ġus u
Ġserv ici
Ġo tro
Ġmej or
ec to
Ġpue den
Ġb u
Ġse a
ti tu
ue go
Ġdeter min
l an
o m
Ġse gu
Ġdef in
Ġc ic
Ġcam bi
Ġs ab
tu r
h o
Ġs al
Ġsiste mas
Ġre la
Ġin g
Ġtien en
Ġusted es
Ġbas e
te c
v i
Ġd o
en ti
Ã© r
tic o
Ġso bre
Ġtrabaj o
Ġbu en
Ġper mi
Ġah ora
e ci
v e
f ici
Ġin te
Ġcas o
Ġsi gn
Ġl uego
es ti
d ar
m ac
Ġal mac
Ġl lam
Ġes truc
ica ciones
al idad
Ġah ÃŃ
m b
ari os
Ġre curs
m e
ic as
Ġpr es
Ġma y
ic os
Ġti emp
Ġmode lo
Ġt an
a ciones
Ġor den
Ġval or
Ġl en
Ġa b
Ġal gun
Ġv is
Ġcomp ut
em en
v is
Ġun idad
si Ã³n
Ġperson a
Ġalmac en
m iento
c h
Ġex p
n a
Ġlen gu
r en
min is
Ġdis e
er c
Ġf u
Ġprogram a
ul t
t al
Ġpro y
Ġn e
Ġde rec
tam os
Ġhac e
Ġtiemp o
Ġel emen
ĠnÃº m
pos i
Ġv ez
Ġneces i
ab les
Ġinstruc ciÃ³n
Ġcic lo
Ġo tra
Ġmis mo
Ġcomput ador
Ġcon j
Ġal go
bi l
p u
Ġe qui
Ġmay or
j o
ib u
Ġm ues
Ġas ÃŃ
cu er
Ġi gu
p or
Ġcon cep
l aciÃ³n
ta ciÃ³n
Ġesp eci
Ġad minis
Ġpod emos
en do
Ġm uy
a ci
tor es
Ã³ g
log ÃŃa
Ġm Ã©
Ġgr an
Ġh er
Ġde p
v al
al ab
Ġac tiv
Ġrep res
ent ar
c a
Ġ Ã¡
as ta
Ġdes de
Ġop er
Ġin v
Ġn orm
Ġrecurs os
er os
Ġest ado
Ġte c
Ġp on
Ġes os
Ġe cu
di go
Ġhab l
Ġimportan te
tr ibu
Ġa y
Ġconj unto
is is
Ġest as
Ã¡ c
Ġh asta
Ġproces os
Ġpue do
Ġorganiz aciÃ³n
e t
Ġpos i
Ġcomp on
z a
Ã¡l isis
Ġre quer
ĠcÃ³ mo
Ġinc l
ÃŃ as
Ġa u
en tr
Ġinstruc ciones
Ġdesarrol lo
Ġp lan
ien tes
Ġp alab
Ġe con
p on
ue v
Ġan Ã¡lisis
Ġfun cion
Ġcu enta
im iento
c ar
l ec
Ġay u
b le
i fica
Ġs ÃŃ
Ġti pos
Ġigu al
Ġsol u
Ġ Ã©
Ġc an
ac ter
Ġest ar
ĠcÃ³ digo
en e
Ġcomun icaciÃ³n
Ġcon f
Ġes cri
m Ã¡
Ġcons titu
Ġen cu
Ġp e
Ġcar acter
Ġfin an
Ġn uev
Ġlengu aje
Ġto das
Ġdifer entes
Ġdirec ciÃ³n
Ġan aliz
Ġdis posi
ac ciÃ³n
Ġex is
) ,
Ġto m
g Ãºn
b r
Ġo tros
ab il
Ġin d
Ã© c
Ġso ci
0 0
Ġ qui
Ġvari able
Ġv e
Ġsi gu
tam ente
Ġin ici
qui tec
f ec
Ġf orm
enci as
Ġbuen o
v id
ter i
d u
Ġ w
Ġsu b
bil idad
in a
Ġre laciÃ³n
Ġmen s
Ġproblem a
ÃŃs ticas
Ġes as
Ġempres as
Ġi r
ĠmÃ© to
Ġtra v
Ġar quitec
Ġm Ã¡
Ġest udi
Ġimp l
Ġproy ecto
Ġma tr
Ġadminis tr
Ġres ult
Ġv eces
Ġl ÃŃn
Ġtrav Ã©s
Ġv en
Ġes tamos
quier e
Ġel los
Ġdo cu
Ġe r
Ġsegu r
Ġp unto
Ġid enti
ten er
r am
Ġtec no
Ġdeb en
Ġtan to
Ġab s
l ti
Ġe t
Ġse gun
Ãº lti
Ġelemen tos
Ġfinan ci
n os
Ġc ier
Ġen tidad
tiv as
enta ciÃ³n
Ġfun ciÃ³n
Ġval ores
x i
Ġin ver
Ġ Ã³
Ġre f
si ones
Ġle y
ar se
e as
im ientos
Ġdise Ã±o
ĠnÃºm ero
Ġlle v
Ġsign ifica
Ġp ol
bl es
Ġl ib
Ġp ues
Ġejecu ciÃ³n
Ġus o
aliz aciÃ³n
emp re
Ġusu ario
Ġservici os
u p
Ã©c n
b a
d an
Ġsi empre
Ġcu mpl
ÃŃs tica
Ġing res
Ġcono ci
Ġf ac
m is
Ġf i
Ġdi a
Ġidenti fic
Ġvari ables
Ġcos as
um an
Ġt Ã©cn
Ġb Ã¡s
Ġestruc tura
e o
en s
i os
Ġh an
Ġto da
Ã± os
Ġopera ciones
ĠÃ¡ re
Ġet c
Ġgener al
Ġemp le
d es
Ġcon ta
Ġrealiz ar
mp le
m an
Ġse Ã±
Ġregis tro
Ġpro ce
Ġpar ti
e dad
Ġtrabaj ar
Ġsegur idad
Ġcompon entes
cu encia
Ġcan tidad
ci r
Ġm erc
Ġmo mento
Ġrequer imientos
Ġh uman
? ,
Ġinte gr
v en
Ġest ad
h a
Ġver dad
Ġl es
j a
Ġs Ã³
Ġre c
im os
Ġpermi te
Ġd in
id os
Ġc pu
Ġo tras
Ġarquitec tura
ram ien
Ġl in
Ġn a
Ġservici o
Ġc ien
Ġcon tra
Ġman e
Ġmen os
Ġl Ã³g
Ġm on
Ġa cuer
ic ar
Ġt are
Ġg u
an tes
Ġapl icaciÃ³n
Ġejecu tar
Ġm ar
Ġv ien
Ġobje tivo
Ġsin o
Ġher ramien
er ci
Ġo bl
Ġsu per
Ġprim ero
Ġpol ÃŃ
Ġnues tro
Ġcon di
abil idad
Ġm un
is ta
Ġproces ador
g or
Ġt al
r ar
Ġmedi o
Ġnorm as
Ġmuch o
Ġdia gram
ÃŃ amos
Ġdes cri
Ġmedi ante
i ta
iz aciÃ³n
Ġcomp le
Ġcl iente
Ġel ec
Ġalgun a
Ġtecno logÃŃa
Ġne go
tr ar
Ġp la
Ġre almente
ue l
enci al
Ġer r
Ġabs tr
Ġproce di
Ġc al
Ġclas e
Ġcual quier
Ġmatr iz
m bre
que l
tic os
Ġrela cion
Ġa quel
Ġm ic
ti ene
Ġcons id
Ġd ar
Ġnues tra
cu lar
ĠÃ© l
Ġ Ãºlti
bi r
c al
Ġ =
ent as
l ado
ib le
Ġcap aci
Ġac tu
Ġsab er
Ġimpl em
Ġ -
ti z
Ġg esti
Ġdisposi tivos
h os
Ġutiliz ar
Ġmues tra
ĠsÃ³ lo
m ientos
i or
Ġpo bl
i tos
p ro
iv os
Ġapl icaciones
Ġmuch as
Ġa si
Ġusu arios
Ġpobl aciÃ³n
Ġpalab ra
Ġde c
Ġac ces
ĠmÃ¡ qu
Ġacuer do
Ġn orma
Ġproblem as
ci endo
Ġv ida
Ġm ul
Ġex iste
vi amente
ari a
e d
om ÃŃa
Ġhab er
Ġconcep to
Ġhabl amos
Ġcaracter ÃŃsticas
Ġco l
Ġderec ho
i as
ci os
Ġmens aje
l u
Ġa tribu
ci as
Ġcu r
it al
z o
Ġsi m
di fic
Ġ qu
Ġex per
Ġobje tos
ol u
f es
Ġe val
ues to
fic o
Ġso lo
r as
Ġ ra
er v
Ġf as
Ġha cia
Ġllam a
Ġestruc tur
ar d
i ones
r iv
s a
Ġm in
Ġar ch
Ġgr u
Ġ10 0
Ġactiv idades
d in
Ġtr es
c an
Ġb aj
Ġsolu ciÃ³n
Ġdis tin
t ado
Ġ quiere
Ġinter es
Ġprim er
Ġt er
Ġcomp or
Ãº s
Ġc r
id as
Ġf al
Ġob viamente
ĠÃ¡re a
tam iento
Ã³ m
Ġcomp ar
Ġregis tros
Ġta ma
Ġdetermin ar
Ġdep end
e x
p l
ien tras
Ġde riv
Ġesto y
ren der
g os
fer encia
Ġsegun do
Ġsi mpl
u d
Ġproduc to
Ġcapaci dad
en to
g en
Ã©r min
Ġpr Ã¡c
Ġt Ã©rmin
Ġta b
Ġrela ciones
re g
Ġin di
tan te
i e
men tos
Ġmuch os
Ġanaliz ar
ĠlÃŃn ea
Ġm ientras
Ġconstitu ciÃ³n
Ġj ur
Ġexp res
Ġa m
Ġsi mple
Ġasi gn
Ġmul ti
Ġ x
ec tos
Ġpe que
Ġdeci siones
Ġpod r
Ġsigu iente
Ġtama Ã±o
Ġ /
cion ales
b e
f o
bi er
Ġinc re
e b
Ġcambi o
Ġinte l
Ġ ro
Ġcon ten
Ġprop or
Ġing en
ri t
Ġmis ma
Ġesp ec
o ci
Ġpar tir
Ġfun ciones
Ġtom ar
Ġe fec
Ġd ur
Ġinter na
Ġcor rec
Ġmerc ado
Ġeval u
Ġl ec
Ġno mbre
Ġproduc tos
Ġin de
Ġh emos
Ġtare as
Ġf re
Ġobje to
Ġcono c
Ġprincip al
Ġexis ten
Ġa Ã±os
Ġn i
cu Ã¡l
Ġadministr aciÃ³n
Ġacces o
Ġ quer
Ġc entr
Ġm Ã³
Ġ1 1
Ġobje tivos
Ġcon ec
Ġcl ar
i ga
ĠlÃ³g ica
Ġprogram aciÃ³n
Ġresp on
Ġincl uy
v a
tor io
Ġpro du
Ġcomputador a
Ġinv esti
Ġecon omÃŃa
j ar
em ente
Ġutiliz a
Ġconsid er
Ġa udi
Ġm as
Ġcon tiene
Ġtrans mi
es ta
ÃŃ d
Ġjur ÃŃd
Ġ Ãºn
Ġal gor
ol ver
Ġg ra
Ġpre cio
ific aciÃ³n
Ġherramien tas
Ġgesti Ã³n
Ġal ter
Ġcu Ã¡l
Ġecon Ã³m
t ÃŃ
ÃŃ an
ci dad
pro ces
in g
Ġfin al
Ġau to
Ġalgor it
er s
Ġesp a
ĠmÃ¡qu ina
Ġten ga
Ġde no
Ġcon c
Ġsign ific
i ciÃ³n
Ġm al
tr ic
i f
is t
Ġoper aciÃ³n
Ġre ci
Ġmen or
Ġsol amente
d am
i to
Ġh ec
Ġdin ero
b o
m Ã©
ez a
Ġpas o
Ġopera tivo
Ġvien e
Ġcompor tamiento
Ġn um
Ġpro fes
Ġcre ar
p a
Ġre co
Ġs a
Ġsi tu
Ġmues tr
Ġd ÃŃa
ti m
Ġinter Ã©s
Ġfun dam
Ġresult ado
Ġf ÃŃs
Ġclas es
Ġrepres enta
Ġecu aciÃ³n
Ġatribu tos
u al
Ġse gÃºn
cion ar
ent an
Ġob tener
Ġte lec
Ġperson al
om un
Ġfac tores
Ġtelec omun
Ġp un
Ġa rit
qu is
Ġes tra
Ġpa ÃŃs
Ġcor res
Ġs enci
Ġs enti
ab a
Ġinform Ã¡
Ġindi vid
Ġsenci l
iv o
Ġ2 0
Ġequi po
Ġpon er
ĠmÃ©to do
ĠmÃ©to dos
Ġf lu
Ġg o
Ġten d
Ġderec hos
Ġdiagram a
Ġ 0
Ġdis tribu
Ġarit mÃ©
Ġen con
Ġre cuer
Ġhac en
ver s
Ġlle gar
Ġnecesi ta
un que
Ġsi r
Ġalmacen amiento
Ġ [
Ġpro to
Ġdeb emos
me di
Ġdep en
Ġqui ero
Ġc alidad
ci l
Ġan al
Ġan teri
Ġtab la
Ġen car
Ġcom b
Ġproduc ciÃ³n
ĠestÃ¡n dar
Ġcondi ciÃ³n
f ac
Ġf ue
Ġentr ada
Ġr en
Ġarch ivos
a z
b er
Ġse cuencia
Ġpo co
aj es
Ġprocedi mientos
i gu
Ġl u
c Ã³
l ante
Ġcu entas
Ġgr Ã¡
Ġgran des
Ġcu an
ul ar
Ġve lo
Ġa g
Ã¡ p
bl ec
Ġesta blec
Ġtelecomun icaciones
iz ar
Ġg er
Ġha ciendo
Ġbien es
Ġdise Ã±
Ġsoci edad
Ġres tric
y a
Ġse par
ĠnÃºm eros
Ġh oy
Ġac Ã¡
Ġma te
Ġdeci siÃ³n
Ġresult ados
Ġespec ÃŃ
i on
p end
Ġde man
Ġn ada
ter a
Ġ1 9
Ġprincip io
vis iÃ³n
Ġdeno min
g e
p e
Ġp ens
Ġr am
Ġprim era
Ġrealiz a
d ic
Ġo f
Ġre gu
Ġto ma
tic amente
Ġdescri p
Ġ on
Ġv i
Ġins tan
Ġrespon s
Ġtrans f
Ġorganiz a
Ġvelo cidad
Ġpr ue
Ġpalab ras
Ġw eb
Ġmic ro
Ġb Ãºs
Ġproces amiento
Ġvari os
Ġsimpl emente
ĠbÃºs que
Ġt u
ĠtÃ©cn icas
p i
r os
Ġdeb er
Ġrec or
ĠÃºlti mo
Ġe ra
Ġconoci miento
Ġindivid u
Ġmate mÃ¡
Ġcon tin
is tas
cu lo
Ġle g
Ġr Ã¡p
Ġ texto
Ġc h
Ġcl ientes
Ġcap ital
Ġestad ÃŃstica
Ġna tur
Ġinde pend
p re
u er
Ġse c
Ġelemen to
Ġgru po
Ġlec tura
Ġun iv
Ġte mp
Ġmode los
Ġred es
Ġp an
Ġpas a
Ġid ea
Ġman ten
Ġmun do
ard ware
Ġc ab
ar go
Ġdes pu
it s
Ġactiv idad
Ġdespu Ã©s
g er
Ġte ma
Ġid eas
Ġalter na
Ġespa cio
Ġh ardware
Ġdirec ciones
Ġsal ida
Ġayu da
ĠpolÃŃ ticas
q l
Ġf r
Ġ Ã©s
Ġp i
ic amente
Ġpro b
Ġsi g
Ġ1 2
Ġdesarrol lar
c le
n et
Ġcomp il
Ġej erci
Ġdifer encia
Ġentidad es
Ġlin e
Ġcomb in
t ando
Ġprodu cir
Ġl ista
Ġcomp et
Ġpue da
Ġdis pon
Ġhab lar
Ġvari as
Ġresp e
Ġespeci fic
Ġe fici
Ġa unque
Ġmuestr eo
Ġlu gar
g aciÃ³n
t ad
ĠseÃ± al
Ġap render
Ġprogram as
Ġfu er
Ġc ir
Ġm or
Ã³ r
Ġin tro
Ġj er
Ġsenti do
Ġs Ã©
em Ã¡s
Ġ1 6
Ġdefin ir
Ġobl iga
a Ã±
ari as
Ãº bl
Ġincl us
l us
Ġ k
ab or
Ġb an
Ġor ig
Ġan tes
Ġposi ciÃ³n
Ġcentr al
i p
Ġc er
Ġa ta
Ġdi vid
Ġap ar
Ġbas es
Ġintel ig
Ġfundam ent
ĠbÃºsque da
ol Ã³g
Ġex ter
Ġtrans mis
Ġdocu m
Ġingen ier
Ġaudi tor
Ġuniv ers
Ġe ta
Ġllev ar
Ġdi g
Ġi ma
Ġdic en
Ġutiliz an
Ġorganiz aciones
Ġfas e
Ġdur ante
r end
Ġ +
Ġv enta
Ġg ar
Ġcomp ren
Ġop ciones
Ġ3 0
Ġconcep tos
Ġrestric ciones
Ġdi go
ir tu
Ġnivel es
Ġprincip ios
Ġencu entr
Ġun os
Ġmode lado
Ġpa gar
Ġj us
Ġescri bir
Ġsignific ado
ien cia
log ÃŃas
Ġexp l
Ġnecesi to
Ġfuncion amiento
ier e
Ġv ec
Ġabstr ac
Ġter min
i an
ol os
Ġorganiza cional
Ġest ados
Ġpas os
Ġsolu ciones
Ġinici o
t ados
to do
Ġb its
Ġsu p
Ġemp ez
Ġopera tivos
ĠlÃŃn eas
Ġf Ã¡
Ġent en
Ġvis ta
Ġley es
Ġa mb
di miento
Ġser Ã¡
Ġpermi ten
en tos
Ġb i
Ġal ea
Ġda to
Ġinter acciÃ³n
Ġbaj o
Ġhec ho
Ġnatur al
ic an
Ġent or
Ġas oci
Ġref le
Ġidentific ar
Ġconoc er
Ġcontin u
in ar
Ġre quis
Ġ1 8
Ġreg las
Ġ1 5
Ġejecu ta
Ġcam in
cÃ³ mo
ÃŃ o
Ġcu Ã¡n
Ġalgun os
Ġnego cio
Ġpla zo
Ġgar an
ter o
Ġincre m
Ġgo bier
Ġp Ãºbl
Ġb lo
Ġequi pos
Ġre al
Ġf aci
Ġg an
Ġcor r
Ġpos ible
ĠtÃ©cn ica
Ġparti cular
Ġfaci l
u la
Ġh o
Ġal to
Ġdi ri
Ġsu ma
Ġencu en
Ġerr ores
Ġdepend iendo
b as
z ar
Ġre vis
Ġal gÃºn
Ġad emÃ¡s
Ġerr or
Ġcur s
Ġflu jo
Ġdepen de
tr u
Ġg as
ent onces
Ġcos a
Ġcos to
Ġresp ecto
Ġhabl ando
Ġabstr acciÃ³n
Ġes c
Ġcom Ãºn
Ġcar Ã¡c
Ġdisposi tivo
ĠcarÃ¡c ter
g ra
Ġcon v
Ġcu ales
Ġres olver
e p
Ġme d
Ġcomp aÃ±
Ġpre gun
Ġcambi ar
Ġalmacen ar
Ġind ica
Ġa ten
Ġsu pon
Ġimportan cia
Ġfre cuencia
proces ador
ĠaritmÃ© tica
Ġd an
Ġse m
ues ta
Ġnuev o
Ġcas os
Ġsigu ientes
Ġo cur
Ġlo gr
Ġdi vers
Ġcomp rar
Ġemple ados
Ġren dimiento
e ti
o p
Ġl i
Ġse lec
Ġh e
Ġ ri
Ġpar tes
Ġt as
ter ia
Ġma teria
Ġneces idad
Ġ4 0
Ġconta bilidad
m ar
Ġde u
Ġv emos
gu ien
Ġap rend
Ġins titu
Ġcambi os
Ġvis to
olu ciÃ³n
ĠtÃ©rmin os
Ġclar o
Ġsitu aciÃ³n
i ma
v an
ti s
ti en
Ġco p
Ġdo min
Ġnego cios
Ġconten ido
Ġm ÃŃn
tex tos
Ġob s
Ġar ti
Ġ5 0
Ġpa tr
Ġapl icar
Ġsegu ir
Ġa fec
Ġm id
is mo
ac h
Ġinter ac
duc ciÃ³n
Ġca mp
Ġcier tas
Ġobl ig
Ġrequis itos
Ã³n de
Ġf or
Ġcomp u
Ġtra tar
Ġprincip ales
Ġfuncion a
Ġayu dar
Ġcien cia
Ġal guien
Ġdeb o
ĠnÃº cle
Ġinici al
Ġexper iencia
Ġintelig encia
Ġinf er
Ġcom erci
Ġtrans ac
Ġtra ta
Ġfu ente
Ġestudi o
Ġda ta
Ġso por
Ġop ciÃ³n
se a
Ġmejor ar
ĠsÃŃ mb
Ġam or
Ġm ec
Ġm il
Ġac ciÃ³n
Ã± a
Ġsoci al
Ġdocu mento
Ġpropor cion
c r
Ġcons um
Ġas p
Ġdifer encial
me tros
j as
m ul
v o
Ġpr on
Ġor ien
Ġra z
Ġtransmis iÃ³n
m er
Ġcom ien
Ġneces ario
Ġqu ien
Ġmulti pl
Ġentor no
Ġn in
Ġre quiere
Ġpro ve
Ġnues tros
Ġsub s
Ġcumpl ir
Ġaquel los
Ġsa tis
Ġde par
Ġac tivos
Ġencon trar
Ġof rec
Ġdepar tam
Ġl ado
Ġlo cal
Ġme todo
Ġser ÃŃa
Ġmi em
Ġcre a
Ġmanten imiento
Ġc i
ic e
Ġsab en
Ġinver sa
Ġdeman da
b ol
Ġto tal
Ġcons ul
Ġinv ent
Ġcumpl imiento
Ġinteres es
Ġtrabaj a
Ġcono ce
Ġencu esta
ĠÃ³ sea
Ġcorres pon
Ġadminis tra
Ġsir ve
Ġv irtu
Ã¡ r
Ġest Ã©
Ġdic ho
Ġapl ic
Ġr u
Ġcar pe
t ada
u to
Ġd Ã³nde
Ġde co
ad en
se gu
Ġutiliz ando
Ġalgun as
Ġtend r
Ġunivers idad
c os
Ġc en
Ġdes p
Ġencuen tra
Ġl Ã©
Ġtien es
Ġinter net
Ġmo do
ul aciÃ³n
Ġdefin iciÃ³n
Ġproy ectos
ĠseÃ± ales
Ġima g
ĠlÃ© x
Ġb ene
Ġinter pre
Ġap ro
Ġan d
Ġhacer lo
Ġ6 4
Ġvis iÃ³n
Ġecu ador
Ġau tor
Ġtemp or
Ġencuentr an
Ġbene fici
Ġa mpl
an ÃŃa
Ġre con
aliz ar
Ġman tener
Ġcap a
Ġcic los
fici al
Ġenten der
Ã ¼
Ġd u
Ġc la
Ġh i
Ġj u
Ġpas ar
Ġserv id
ĠfÃ¡ cil
Ġtas a
Ġun idades
Ġel lo
ec e
Ġgener ar
ĠÃ³ r
uel ve
n as
Ġdi men
Ġha go
Ġex tr
tan tes
Ġar gu
Ġcomun icaciones
Ġelec tr
Ġalgorit mo
Ġejerci cio
y o
Ġs ac
Ġre ferencia
Ġg us
tu ro
Ġcomp r
Ġex c
Ġdifer ente
Ġfu turo
ĠmÃ¡ xi
Ġhuman os
cuÃ¡l es
Ġsup uesto
Ġobs erv
p as
Ġen vi
Ġel la
Ġv Ã©r
Ġal ta
Ġcons iste
Ġlle g
Ġparti cip
Ġdec ÃŃa
Ġinvesti gaciÃ³n
Ġcab o
Ġamor tiz
Ġ quier
ti do
Ġop tim
par a
Ġcol um
Ġarti ficial
h er
os o
Ġa cu
enci ales
Ġqui Ã©n
Ġgu ar
Ġes cal
Ġcon t
Ġper io
Ġfinanci ero
Ġlib er
Ġrecuer den
c am
p s
u do
or t
Ġse an
Ġno do
Ġdesarrol l
Ġred u
Ġalterna tivas
) :
j os
Ġm br
Ġpr Ã©s
bi do
Ġap or
Ġsol ici
Ġfinanci eros
Ġcier tos
Ġauto mÃ¡
Ġ je
Ġex ten
g Ã¼
m s
u dad
Ġde tal
Ġc Ã¡l
Ġcu l
tor ia
Ġfun cional
Ġcos tos
Ġestructur as
Ġci udad
g ido
Ġel im
tiv idad
Ġprofes ion
Ġingenier ÃŃa
Ġoblig aciÃ³n
Ġse cu
Ġcar r
Ġcual ita
Ġlib ro
Ġo fer
Ġinter r
Ġsol a
Ġrepres entar
ĠpolÃŃ tica
Ġinstan cia
Ġinclus o
Ġa de
tu al
Ġhuman o
Ġimplem entaciÃ³n
Ġ iz
Ġ textos
Ġl im
in as
Ġcon texto
Ġre cep
Ġal can
ific ar
Ġvien en
ĠtÃ©rmin o
ĠjurÃŃd ico
Ġiz quier
Ġl an
ti fic
Ġel e
de d
di r
Ġ1 4
Ġ2 5
Ġbus es
Ġclas ificaciÃ³n
Ġderiv ada
Ġmec an
Ġes cu
Ġen fo
Ġesta ble
00 0
Ġmun di
Ġevalu ar
Ġtransf orm
Ġlogr ar
d emos
Ġh u
Ġdi f
Ġdes cu
Ġac ep
Ġ2 1
Ġ6 0
Ġecu aciones
Ġexis t
ĠÃ³ p
v il
Ġm ir
ti on
Ġno dos
Ġap oy
ĠbÃ¡s icos
ĠgrÃ¡ fico
Ġobliga ciones
Ġempez ar
Ġel las
Ġcu ad
di do
Ġ2 2
Ġprop i
Ġsegun da
Ġref iere
ĠestÃ¡ndar es
Ġd b
Ġl argo
Ġp uer
er on
te l
ti ta
Ġv iv
Ġh or
Ġper ten
Ġpue dan
Ġr ad
Ġsab emos
Ġcal cular
Ġprue bas
Ġjer ar
i mo
o c
Ġl ÃŃ
Ġt erc
lo b
Ġg ente
Ġ1 3
Ġac ciones
Ġhab la
Ġ3 2
Ġbas a
Ġmens ajes
Ġllev a
Ġcir cu
ta f
ta ciones
Ġser ie
Ġah or
Ġar reg
Ġneces idades
Ġnuev as
ort un
Ġa gr
Ġa segu
Ġco lo
Ġac ce
Ġ2 8
Ġprop io
ĠfÃŃs ica
Ġp es
Ġa Ã±o
Ġf ab
ter io
Ġdis co
Ġmode l
Ġcor to
Ġnorm almente
Ġcur va
Ġquer emos
Ġencar ga
Ġmundi al
Ġa van
Ġcomp ro
Ġma teri
Ġbas tante
Ġlin gÃ¼
Ġprocedi miento
Ġmicro procesador
Ġelectr Ã³n
Ġofer ta
es te
Ġv iendo
Ġac tivo
Ġte le
Ġmis mos
Ġcontrol ar
Ġcompon ente
Ġblo que
cam bi
Ġso ber
Ġ2 3
Ġpa p
Ġpos e
Ġdefin e
Ġcompet encia
Ġefici ente
or din
Ġcon ver
Ã¡ m
Ġb in
tiv amente
Ġdi visiÃ³n
Ġop ortun
Ġva y
Ġ4 8
Ġmedi os
Ġmuch a
Ġherramien ta
Ġalgorit mos
i Ã³
Ġd Ã©
in e
ta mo
Ġcon duc
Ġpr ior
Ġre alidad
cu l
Ġan te
si on
Ġtrabaj ando
Ġ2 7
Ġregis trar
Ġmane jar
Ġelec tro
Ġevalu aciÃ³n
Ġpun tos
Ġasp ectos
Ġinterr up
Ġjerar qu
y s
Ġd ado
Ġa di
al an
si to
Ġ3 7
Ġpre ci
Ġ8 0
Ġta bl
br os
Ġpodr ÃŃa
ĠÃºn ico
Ġcuan tita
Ġgobier no
ĠlÃ©x ico
en se
Ġp lante
Ġm ÃŃ
Ġ2 9
Ġgran de
Ġcop ia
Ġcorrespon d
Ġescu ch
g amos
i ero
Ġe mis
Ġf on
Ġinter cambi
Ġr enta
Ġmode lar
Ġ4 4
Ġbus car
mb r
Ġmayor ÃŃa
ĠÃ¡re as
Ġpla taf
Ġdeco dific
ĠprÃ©s tamo
Ġa um
Ġcu a
Ġtr ad
Ġcomp l
Ġar tÃŃ
Ġhab il
Ġmedi a
uy e
Ġposi bles
Ġcien cias
Ġcr Ã©
Ġconc re
medi a
Ġanal ÃŃ
Ġestablec er
Ġfab r
id ez
Ġle er
aj a
da p
Ġob ten
Ġpre par
Ġsab e
Ġderec ha
Ġfas es
Ġderiv adas
Ġincluy e
Ġsatis fac
Ġjerarqu ÃŃa
er as
qu es
Ġh il
Ġb alan
Ġti c
Ġus a
Ġha ga
Ġmo dific
Ġproces adores
tor i
Ġmis iÃ³n
Ġmen cion
gn Ã©
Ġ7 0
Ġdocu mentos
Ġpues to
Ġpi la
Ġtransac ciones
Ġc ach
Ġgener almente
Ġimportan tes
Ġsal ir
Ġnuev a
du lo
Ġingres ar
Ġtare a
Ġacu mul
Ġizquier da
te g
un tos
cu los
Ġr ol
tiz ar
Ġcorrec to
Ġrecor demos
Ġintro ducciÃ³n
ĠcrÃ© di
a v
g ado
t Ã©
Ġe v
Ġc aden
Ġm Ãºlti
Ġme ta
Ġinter f
Ġ9 4
Ġpon e
Ġindepend iente
ĠmÃºlti p
Ġ |
Ġe dad
te gor
Ġel abor
Ġejemp los
Ġprogram ador
Ġ5 5
Ġ6 6
Ġconta ble
Ġcamin o
f e
z as
Ġ *
Ġ4 5
Ġdirec tamente
Ġ9 0
Ġcre aciÃ³n
Ġtransmi tir
Ġsencil lo
Ġregu lar
Ġeta pas
Ġsubs iste
Ġcarr era
Ġpap el
g ir
Ġa Ã±
am il
Ġinter nos
Ġ5 1
Ġinver siÃ³n
Ġindividu os
Ġdomin io
ĠnÃºcle o
er ÃŃa
Ġen v
Ġsu r
Ġac o
bl io
Ġcons tru
Ġ4 3
Ġtrans ferencia
Ġpa go
Ġalmacen a
Ġven der
Ġdiagram as
Ġdistin tos
Ġfundament ales
Ġbi blio
Ġnatural eza
Ġpron to
Ġdepartam ento
Ġamortiz aciÃ³n
Ġ is
Ġe vi
Ġsu je
aj o
Ġcons e
Ġcontr ario
Ġ5 7
Ġmemor ias
Ġcien tÃŃ
Ġanteri or
Ġbiblio tec
Ġe mb
Ġm es
ec er
ac e
co lo
Ġgr ado
Ġad ecu
Ġcor e
Ġ8 1
Ġform as
Ġdin Ã¡m
Ġcontra to
ĠcuÃ¡l es
Ġestra teg
Ġproto colo
Ġline al
b lo
Ġde m
Ġde v
Ġa dap
Ġes que
Ġf Ã³r
Ġt Ãº
iz aje
Ġten iendo
orm ente
iv a
Ġ5 3
Ġrealiz aciÃ³n
Ġllam ado
Ġsuper ior
Ġespecific aciÃ³n
Ġaprend izaje
Ġcarpe ta
Ġtabl as
Ġcua tro
ĠaÃ± ad
Ġ ,
an za
is mos
Ġpr iv
Ġre fer
Ġ1 7
Ġ3 1
Ġ3 6
Ġcomun ica
Ġ10 1
Ġcomputador as
Ġger ente
Ġpan tal
Ġorig en
Ġdocum entaciÃ³n
Ġgas tos
Ġcen tro
Ġcach Ã©
i tar
Ġc ri
er ra
Ġm u
Ġf il
Ġpro te
Ġt ÃŃ
Ġal l
Ġempres ari
Ġ3 3
Ġ3 5
Ġ5 8
Ġ9 9
Ġsin t
Ġprop Ã³
Ġespeci al
Ġrequer imiento
Ġmic ros
ĠprÃ¡c ticas
Ġexpres iÃ³n
ĠmÃ³ vil
Ġconc lus
Ġmed ida
Ġsem Ã¡n
Ġcompu taciÃ³n
Ġcont ador
ci do
Ġv imos
Ġv entas
la z
im on
Ġdis curs
Ġinc or
Ġher encia
Ġingres o
ĠinformÃ¡ tica
Ġsober anÃŃa
t s
an a
Ġen se
Ġf amil
Ġest an
gu ra
ent ado
Ġor din
Ġesp er
Ġreg res
Ġgen era
Ġ9 3
Ġind ic
Ġfinanci era
Ġdeu das
Ġcamp o
Ġdb ms
t Ã³n
y ec
Ġ $
Ġp c
Ġv ol
Ġh ar
Ġcomp render
Ġus ar
Ġhac emos
ÃŃs tico
Ġ4 9
Ġpoder es
Ġ7 3
Ġllam ada
Ġlengu ajes
Ġconf orm
Ġimplem entar
Ġgru pos
ĠprÃ¡c ticamente
ĠÃºn ica
Ġmodel amiento
i ar
m ula
u til
Ġen c
Ġf le
Ġca tegor
Ġ5 4
Ġgener aciÃ³n
Ġ7 1
Ġtecno logÃŃas
Ġmane j
Ġcomien za
Ġdu ro
i le
Ġc ero
on o
on ar
Ġt ales
ec en
Ġal im
Ġcu mple
Ġten ÃŃa
Ġan o
Ġ5 2
Ġ5 6
Ġ6 5
Ġapl ica
Ġ8 8
Ġpres entar
Ġconf igu
Ġnuev os
Ġmiem bros
Ġliber tad
l en
v ien
Ġde tec
an os
Ġin media
Ġre un
ac le
Ġemp i
Ġ9 2
Ġinv ol
Ġintegr aciÃ³n
ĠsÃŃmb olos
Ġhil os
i bilidad
p onde
Ġse g
Ġr an
Ġresp al
Ġincl u
Ġcorres ponde
Ġprue ba
Ġocur re
Ġconsum id
Ġraz Ã³n
Ġrecep tor
Ġinterf az
Ġsint Ã¡c
g ue
Ġde ud
Ġde bido
Ġ4 1
ĠcÃ³ mp
Ġgener alizaciÃ³n
Ġayu dan
Ġcier to
Ġfre cu
Ġgra fo
Ġdescrip ciÃ³n
Ġri es
av or
c as
un d
Ã¡ g
Ġre cu
Ġf avor
ec ha
iz a
fic os
Ġhab ÃŃamos
Ġ4 7
Ġplan o
abil idades
ed ores
Ġcuan to
Ġdenomin a
Ġbibliotec a
Ġe fica
Ġes co
Ġes tim
Ġper f
gu ir
Ġac re
Ġinter con
Ġcons tante
Ġ2 4
Ġ9 5
Ġespeci fica
Ġadministr ar
Ġintegr idad
Ġcondi ciones
Ġdistin tas
Ġacce der
m l
y tes
Ġc able
Ġpar Ã¡
ma gnÃ©
ent al
Ġoper adores
Ġproto c
Ġrespons abilidad
olÃ³g ico
mer g
Ġje fe
Ġelectro magnÃ©
ĠcrÃ©di to
Ġinvol uc
ĠcÃ³mp uto
g ada
Ġc in
ti ma
re ci
bi to
Ġpo t
Ġcons u
Ġ8 2
Ġrep eti
Ġ7 2
Ġrealiz an
tin g
Ġdetermin ado
tur as
Ġsoci ales
ex iÃ³n
ĠmÃ³ dulo
ĠrÃ¡p ido
Ġjus tamente
ĠpÃºbl ico
ĠmÃ¡xi mo
Ġade lante
Ġmir en
ĠpropÃ³ sito
imon io
l ib
Ġpr Ã³
us e
Ġdes emp
ro id
Ġins tal
Ġ6 1
Ġ8 4
ult Ã¡n
ĠbÃ¡s ico
Ġna cional
Ġmon i
Ġsim ultÃ¡n
gen es
Ġalea torio
Ġand roid
Ġrad io
t Ãº
Ġe di
Ġde mos
ti endo
cion amiento
Ġb o
Ġu b
co mp
Ġ5 9
Ġ4 6
Ġmej ores
Ġdefin ido
Ġbuen a
Ġmane jo
ĠpaÃŃs es
medi o
Ġmil l
Ġservid or
Ġredu cir
Ġemis or
b ien
d em
p ero
p ora
s o
v ec
Ġe merg
an o
ue le
Ġi p
Ġor acle
Ġ2 6
Ġ7 8
Ġpermi tir
Ġplan ific
Ġaquel las
Ġli qu
b res
i tu
t adas
Ġ z
Ġv ul
Ġcu o
Ġcons truc
Ġ3 4
Ġ3 9
Ġpre cios
Ġ6 2
Ġproduc e
Ġplan e
Ġer an
edad es
ĠinformÃ¡ tico
Ġencon tr
Ġfundament al
Ġeta pa
Ġnin gÃºn
Ġemb argo
Ġrecu per
m al
Ġs ql
Ġh d
Ġre util
Ġdes e
ÃŃs ticos
Ġmi re
Ġ4 2
Ġ6 3
Ġ8 5
Ġcre o
Ġconstitu y
ĠespecÃŃ fico
Ġpens ar
Ġproporcion a
Ġbalan ce
Ġs uel
Ġen tero
Ġh ora
Ġno taciÃ³n
tu ar
Ġres to
il ar
Ġ3 8
Ġ6 9
Ġ8 9
Ġcap taciÃ³n
Ġresp uesta
Ġequi lib
Ġefec tivo
Ġestablec e
Ġexter nos
ĠfÃ³r mula
t z
x is
Ġp udi
Ġs an
an dos
Ġque da
ti mo
Ġf echa
Ġtr as
Ġneces arios
Ġtrans acciÃ³n
Ġcontrol es
Ġ6 7
Ġ9 1
Ġvis u
Ġtec n
Ġmatr ic
Ġqu iz
ĠÃ©s te
Ġgaran tizar
Ġcomerci al
Ġcla ve
Ġdiscurs o
k e
un a
Ġcon ven
di fica
Ġmo v
tor e
Ġmen Ãº
Ġcar din
Ġpre dic
Ġ8 3
Ġ8 7
Ġ9 8
Ġ7 9
Ġprop ia
ult ad
Ġoper ando
ĠdiseÃ± ar
ĠmatemÃ¡ ticas
Ġcombin aciones
Ġincrem entar
Ġmid e
Ġevi tar
Ġdem Ã¡s
Ġprotoc olos
Ġpar al
Ġex tra
tan cia
den es
Ġca us
Ġreg lam
Ġ6 8
Ġ9 7
Ġdetermin ada
Ġdefin i
Ġven ded
Ġmin is
ĠÃ³r denes
Ġdif ÃŃ
Ġense Ã±
h e
r an
Ġ ]
Ġ ÃŃn
Ġc el
ad ie
Ġn u
Ġn adie
Ġh iz
Ġh om
Ġco dific
ac k
ri o
Ġtrabaj amos
Ġcol abor
Ġreci be
Ġenvi ar
Ġcolum na
Ġhiz o
d b
t h
Ġp Ã¡g
Ġs uele
ta xis
Ġo jo
ac es
Ġg lob
Ġsu ces
ul os
Ġesta ba
tes is
Ġcontrol a
Ġproduc tivos
Ġ7 4
Ġingres os
Ġmane ja
Ġactu aliz
Ġfal los
Ġingen iero
ĠartÃŃ culo
Ġsatisfac er
Ġacumul ador
Ġcin co
i bles
r ado
Ġv ÃŃ
ic h
Ġcomp uesto
Ġinter re
Ġcons tantes
Ġva ya
Ġforma to
Ġ8 6
Ġespeci alizaciÃ³n
Ġestudi antes
ĠjurÃŃd ica
ĠeconÃ³m ico
Ġvi aj
Ġprob abilidad
Ġline ales
Ġgus ta
or ÃŃa
Ġen tra
lo j
Ġb ar
le v
Ġper ÃŃo
ari amente
Ġcor re
Ġgener ales
Ġbus c
ĠbÃ¡s ica
Ġconsid era
ĠÃ©s ta
Ġimag ÃŃn
ĠcÃ¡l culo
Ġa mi
ti ces
ti cia
Ġin al
Ġsi do
Ġsu fici
Ãº til
Ġex ac
Ã± as
gr Ã¡
Ġhay a
co mo
Ġ7 5
Ġoper ador
Ġfuncion ales
Ġfi la
Ġpeque Ã±a
Ġcompet encias
Ġorig in
Ġvec tores
Ġsupon e
Ġextr em
Ġquier en
ĠprÃ³ xi
r ir
ci al
Ã³ metros
Ã¡ tica
Ġus ando
ra g
Ġdes igu
Ġres ul
Ġprogram ar
Ġtrans is
Ġ10 2
Ġconf id
tien en
Ġconduc ta
Ġconstru ir
Ġdeud or
Ġequilib rio
b en
c ada
f os
t Ã³
Ġe mi
Ġa j
ci ente
Ġin ten
Ġb r
Ġten gan
Ġi mÃ¡
Ġman u
Ġimp res
Ġvari anza
Ġad d
Ġmedi r
Ġsal e
Ġrepres entan
ĠmÃ¡qu inas
ed or
Ġpeque Ã±o
Ġdeber ÃŃa
Ġsig ue
Ġaten ciÃ³n
Ġargu m
ĠvÃ©r tices
ĠmÃºltip les
ĠdinÃ¡m ica
Ġpantal la
Ġ Ãºtil
Ġs uc
un dan
Ġun as
am a
Ġdecir le
Ġsal ud
Ġnecesi tamos
ĠÃ¡ m
Ġcaracter ÃŃstica
Ġestad ÃŃsticas
ĠÃºlti ma
Ġcompren siÃ³n
Ġrevis ar
cr on
Ġinterpre tar
Ġcaden a
Ġdesemp e
b or
t Ã¡n
Ġde j
Ġs ent
Ġa men
Ġm os
ad amente
Ã³ s
Ġten ÃŃamos
ten d
Ġan ual
Ã©r icos
Ġfu entes
Ġemple ado
Ġexper im
Ġleg al
Ġdivers os
Ġconver tir
Ġtic s
tr icas
id aciÃ³n
qui era
Ġan u
Ġres oluciÃ³n
Ġ9 6
Ġsin taxis
Ġrep or
Ġne ga
Ġestudi ar
Ġcr ÃŃ
ist encia
Ġprofes or
Ġinstan cias
Ġautor idad
Ġmeta he
Ġesque ma
Ġemerg encia
Ġdesigu al
ĠimÃ¡ genes
ĠÃ¡m bito
Ġmetahe ur
Ġc aja
or den
Ġf ich
Ġti erra
Ġto k
Ġap ren
Ġan ti
Ġcre an
cri p
Ġlle ga
ch a
Ġdec lar
ĠprÃ¡c tica
ĠeconÃ³m ica
Ġplataf orma
Ġcategor ÃŃas
ĠperÃŃo do
f s
g ados
v ia
Ġd ando
on e
Ġco ordin
Ġsi ti
con s
ier on
Ġ7 6
Ġnues tras
Ġbus ca
Ġinver tir
Ġlib re
Ġsuper vis
Ġasign aciÃ³n
Ġquer er
Ġincluy endo
Ġsir ven
Ġfuer za
Ġauditor ÃŃa
Ġconv ier
Ġpregun tas
Ġperio do
Ġprofesion al
ĠparÃ¡ metros
Ġvended ores
a h
d ulos
l ic
l Ã©
Ġv o
id e
Ġf rag
Ġt es
Ġpue blo
Ġinter fac
Ġutil idad
Ġdetermin ante
ĠÃ¡ r
Ġsimple x
ĠmÃ³ dulos
Ġtransmi te
Ġcompil ador
Ġmor al
Ġdivid ir
Ġventa jas
Ġconfigu r
f in
p ec
â Ģ
es truc
un ci
Ġque dar
ti no
Ġv olver
Ġso y
Ġdis min
Ġproces ar
Ġutil idades
ier en
Ġ7 7
Ġcambi a
Ġecu a
Ġconta bles
Ġcombin aciÃ³n
Ġmultipl icaciÃ³n
Ġpes ar
Ġvay an
tori al
Ġconse guir
ĠaÃ±ad ir
Ġestan dar
ĠdifÃŃ cil
f ÃŃa
l Ã©s
Ġd ÃŃas
os iciÃ³n
es to
Ġco ber
Ġpor c
Ġto t
Ġus an
Ġres ta
Ġentre gar
Ġutiliz ado
Ġpa que
Ġing lÃ©s
Ã©r ico
Ġorden amiento
Ġrepres entaciÃ³n
Ġadministr ador
Ġefec tos
Ġjer Ã¡r
Ġabstrac to
Ġho gar
Ġrol es
Ġincor por
ĠÃ¡r bol
Ġcober tura
ĠjerÃ¡r qu
f i
x im
Ġe ven
Ġa tr
Ġen de
Ġn ic
Ġv in
Ġre ales
Ġt ar
ec ta
ab an
Ġg eo
Ġex ig
ir m
ues tos
Ġentre vis
Ġpa gos
Ġcor pora
Ġfinan zas
Ġtom an
Ġfi gura
Ġetc Ã©
Ġdistribu ciÃ³n
Ġdig amos
Ġmed idas
Ġinstitu ciones
Ġalcan zar
Ġprior idad
Ġis o
c re
i te
y te
Ġes tr
un ca
Ġin cu
Ġf lo
qui l
Ġdis tancia
aliz ado
Ġop in
dos e
Ġutiliz ados
Ġab ajo
Ġfu era
Ġanaliz ador
Ġve amos
Ġrelacion ado
Ġasign a
Ġpeque Ã±os
ĠdiseÃ± ado
Ġfr on
Ġrespe tar
ĠseÃ±al a
Ġcamin os
ĠmÃŃn imo
Ġinvent arios
Ġdimen siÃ³n
ĠautomÃ¡ ticamente
Ġapoy o
ĠsintÃ¡c tico
Ġefica z
Ġconsu mo
Ġcuo ta
ĠetcÃ© tera
b ro
g res
g ÃŃa
Ġs en
tr ico
Ġin t
ec on
Ġlo g
Ġcomp ra
tic e
ent ando
Ġdes tino
Ġso cio
Ġinter val
ici o
ici os
Ġma in
Ġred undan
mb res
Ġequi val
Ġfac tor
Ġsim ulaciÃ³n
Ġanteri ores
Ġnin gun
Ġmetodo logÃŃas
Ġdimen siones
Ġsac ar
d ica
e jemp
o co
s on
Ġd ÃŃ
Ġn an
Ġv uel
Ġco la
Ġre loj
Ġtrabaj an
Ġutiliz ada
Ġpres up
Ġplan ificaciÃ³n
Ġmin erÃŃa
Ġro b
ĠeconÃ³m icos
ĠrÃ¡p ida
Ġasoci aciÃ³n
ĠcuÃ¡n to
Ġpatr ones
Ġinvent ario
Ġampl ia
Ġagr up
Ġsubsiste mas
Ġconstruc ciÃ³n
Ġdesigual dad
j er
o lo
Ġ tam
en tidad
Ġa qui
Ġen tien
us tr
Ġcomp eti
Ġor aciÃ³n
iv e
Ġmo d
Ġentr ar
Ġperson alidad
Ġver siÃ³n
Ġorganiz ar
Ġdirec cionamiento
Ġpas ivo
Ġid e
Ġrecurs o
Ġorden ador
Ġnecesi tan
Ġconstitu cional
Ġind ustr
Ġgesti onar
Ġatribu to
Ġam d
Ġincluy en
Ġ20 1
Ġanteri ormente
Ġrespons able
Ġdeu da
ĠmÃŃn ima
Ġprove edores
Ġfuncional idad
Ġsecu enci
ĠelectrÃ³n ico
ĠtÃŃ p
Ġtam bien
g Ã©n
n er
Ġp ier
Ġs ta
Ġa bier
ti da
Ġre lev
Ġsi mb
Ġdes ta
tor ian
Ġdifer enci
Ġmej ora
Ġimpl ica
Ġmar ca
Ġincre mento
Ġnum ero
Ġsitu aciones
Ġag reg
Ġgan ar
Ġsopor te
Ġru tin
Ġtendr Ã¡
Ġinterrup ciÃ³n
Ġcorrespond iente
ĠsimultÃ¡n e
ĠÃŃn dic
Ġecua torian
c ho
on os
Ġb ig
Ġso mos
Ġac erc
ri do
Ġentre ga
Ġj unto
Ġcas a
br ir
Ġconoci mientos
Ġidentific ador
ĠbÃ¡s icas
Ġestra tÃ©
Ġata que
Ġpatr imonio
Ġmetodo logÃŃa
Ġprote ger
Ġtecn olÃ³g
ĠestratÃ© g
Ġe duc
Ġd ra
Ġp ien
Ġs iendo
de o
cu ando
cu la
Ġper if
Ġser es
ten emos
aliz a
tar se
Ġhab ÃŃa
Ġmis mas
it ado
Ġdifer encias
Ġproduc en
Ġclas ific
Ġpres enta
Ġdescri bir
Ġarch ivo
Ġdig ital
ĠsÃŃmb olo
Ġbenefici os
Ġcul tura
Ġhor as
ĠlÃŃ mi
Ġoportun idad
Ġintercambi o
Ġall ÃŃ
Ġhd fs
Ġcel ular
ĠimagÃŃn ense
Ġporc enta
a p
d d
f a
Ġde jar
Ġp se
Ġsu m
tic al
qui to
Ġap un
ĠÃ© xi
Ġform an
ĠbÃ¡s icamente
Ġcomple jo
Ġinterna cionales
ĠcuÃ¡n do
Ġdivers as
Ġofrec er
Ġelim inar
Ġpuer tos
Ġcircu ito
Ġpose e
Ġmes es
ĠsemÃ¡n tico
Ġalim entos
ah ora
Ġgeo grÃ¡
Ġnan Ã³metros
Ġporcenta je
ĠÃ©xi to
Ġa do
an cia
re mos
Ġn unca
ÃŃ ci
Ġco lec
am e
Ġf en
Ġpro f
Ġb ack
Ġcu esti
ador a
Ġte mas
Ġte orÃŃa
gram a
Ġcontr as
Ġcar ga
Ġneces aria
Ġdifer enciales
Ġmedi ciÃ³n
titu d
Ġdefin en
Ġrela cional
Ġcorrec tamente
Ġabstrac ta
Ġamb as
Ġcurs or
Ġofrec e
Ġcompr adores
ĠvÃ©r tice
Ġparticip antes
Ġmecan ismo
Ġaum entar
Ġcompl em
Ġfamil ia
Ġpresup uesto
v es
ci miento
Ġm ac
Ġv ac
Ġv uelve
Ġal u
Ġinf orma
Ġins er
Ġperson ales
Ġval idaciÃ³n
Ġllam an
Ġpres ente
Ġpon en
ĠÃ© tica
ĠlÃ³g icas
Ġactu al
Ġpun tero
Ġindepend ientes
ian za
Ġselec cion
Ġconsul ta
Ġexc el
Ġoptim izaciÃ³n
Ġarreg lo
Ġcolo car
Ġliqu idez
Ġminis terio
Ġcolabor aciÃ³n
Ġaj us
b amos
c p
g lo
tr an
Ġpr ima
Ġson ido
Ġdes tin
Ġnos ql
Ġap p
ici dad
fic as
Ġte lÃ©
Ġbas ado
Ġprop a
Ġcono z
Ġhuman as
Ġactu almente
Ġgra cias
Ġpan dem
Ġsig no
Ġefici encia
Ġcamp os
Ġdesarroll adores
Ġfle xi
Ġsuc e
Ġconvier te
Ġinterfac es
Ġpandem ia
v enta
Ġa f
Ġen ter
Ã¡ mbr
Ġin ci
Ġdi j
ues tas
Ġu ml
Ġescri tura
Ġestructur ado
Ġbaj a
Ġsec tor
Ġdispon ibilidad
Ġsuje to
ĠmÃ³vil es
Ġseg mento
Ġnu be
Ġinal Ã¡mbr
ĠsimultÃ¡ne amente
b an
d r
e fici
g as
g ida
j idad
l ine
er n
tr ing
Ġen te
Ġn ac
Ġco br
am ento
Ġda Ã±
no mbre
it ales
Ġpas ivos
Ġcomun ic
Ġbuen as
Ġelec tor
Ġcompar tir
reg is
Ġpeque Ã±as
if i
Ġindividu ales
Ġcompil aciÃ³n
Ġinterac tuar
Ġbenefici o
Ġrecon oci
Ġcualita tivas
Ġenfo que
Ġdev uelve
Ġviaj an
ĠprÃ³xi ma
Ġanu alidad
ĠdÃŃ g
o cia
Ġl len
Ġm ando
Ġcon vers
Ġlo c
ra y
Ġinter no
Ġres erv
Ġcons ecu
il idad
Ġcap as
Ġcos te
Ġpos teri
Ġmay ores
Ġigu ales
Ġconf i
Ġter ri
Ġcapacidad es
Ġauto ma
ist Ã³r
Ġsepar aciÃ³n
Ġrespe to
Ġcer tific
Ġjus ticia
Ġcorr iente
Ġdiri gido
Ġdesp laz
Ġimag in
Ġcualita tiva
Ġexist entes
Ġestrateg ias
Ġfrecu encias
Ġconfigur aciÃ³n
a ya
v ÃŃa
Ġde ja
Ġp l
Ġv as
Ġf ÃŃ
Ġpro medio
Ġcu ar
Ġpo p
Ġinter ior
Ġman o
Ġcontr ibu
Ġorgan i
Ġad quis
cur r
Ġid entidad
Ġposi bil
Ġpe dir
Ġtoda vÃŃa
Ġgu aya
Ġmin im
ĠfÃŃs ico
Ġger entes
Ġon das
Ġmiem bro
Ġju z
Ġcolum nas
Ġprofesion ales
Ġvul ner
# Â¿
a to
f uer
l ido
p r
Ġ os
Ġc ha
Ġla bor
Ġv end
Ġh istÃ³r
cion almente
Ġten gamos
iv amente
Ġcons tr
Ġpers pec
Ġserv ir
Ġmon e
Ġrecuer de
Ġafec ta
Ġtempor al
Ġcuantita tiva
Ġsufici ente
Ġargum enta
Ġredundan cia
n ing
s an
Ġp us
es tr
Ġa is
on er
Ġse x
Ġpro tec
Ġlo ad
gu lo
gr u
Ġneces arias
Ġcas i
Ġposi bilidad
du cir
Ġestudi ante
Ġverdad era
Ġasign ar
Ġclar amente
Ġamb os
ĠcompaÃ± ero
Ġmid en
ĠnÃºcle os
Ġaco pl
Ġran go
Ġacre edor
itu d
ĠvÃŃ deo
Ġincu mpl
ejemp lo
a quÃŃ
c k
Ġd ue
er gÃŃa
Ġes fuer
Ã³ men
Ġcon exiÃ³n
ic ado
Ġh al
Ġco efici
Ġf ul
Ġest Ã©n
Ġto po
Ġsu mar
Ġesp era
Ġpa ga
Ġprincip almente
Ġsal en
Ġpres entan
Ġproy ec
Ġigual dad
Ġcumpl en
Ġcomple jidad
ĠespecÃŃ fica
Ġtemp er
Ġfr ente
Ġfuer on
Ġfuer te
Ġservid ores
Ġlleg Ã³
ĠcÃ¡l culos
Ġmecan ismos
Ġfil as
Ġempi eza
Ġrespal do
Ġcorpora tiva
Ġperif Ã©ricos
Ġfen Ã³men
f ono
Ġd y
Ġa Ãºn
al idades
Ġcon tar
iz on
Ġpo quito
Ġmo ver
Ġinform e
Ġar ri
Ġas ocia
Ġcomun es
Ã©r amos
Ġpon go
Ġconf ianza
Ġescri to
Ġlib ros
Ġconoci da
Ġidentific adores
Ġcomple jos
Ġpropor cionar
Ġingenier os
Ġcomerci ales
Ġele gir
ĠlÃŃ der
ĠlingÃ¼ ÃŃstica
Ġconsumid ores
Ġencontr amos
Ġmatric es
Ġtransis tores
Ġmetaheur ÃŃstica
Ġtes is
Ġtot almente
Ġsimb ol
g ador
t ÃŃa
t ales
tr ica
Ġen ergÃŃa
Ã© m
Ġt or
Ġcu yo
Ġmo tivo
tor ios
il es
Ġins tru
Ġprogram adores
Ġutiliz aciÃ³n
Ġrep ar
Ġcre ado
Ġnecesi tar
Ġconf lic
Ġmerc an
Ġsencil la
az as
Ġger encia
Ġamb iente
Ġincrem enta
Ġexc lus
oc er
Ġasegu rar
Ġev oluciÃ³n
vien e
Ġinclu ir
Ġries gos
ĠpÃ¡g ina
Ġresul ta
Ġanual idades
Ġpse udo
Ġguaya quil
Ġtopo logÃŃa
v io
Ġd ba
or d
tr ando
Ġv ig
Ġcon curr
Ġse man
Ġo cas
Ġre tro
Ġt cp
Ġno mbres
Ġser Ã¡n
Ġdes c
Ġdes comp
im en
qui Ã©n
Ġsiste mÃ¡
tor ias
tar ÃŃa
Ġver ificar
Ġbas ada
Ġmi ra
Ġpre val
Ġtrans por
Ġfin almente
Ġimpor tar
Ġdetermin a
Ġsegu imos
Ġalmacen an
ca ps
Ġcontra tar
Ġgu i
Ġcomple ta
Ġimplem enta
Ġsim ilar
Ġgra fos
Ġhec hos
Ġdepen der
Ġag re
Ġleg is
Ġban c
Ġmateri as
Ġinterrup ciones
Ġempresari ales
Ġconclus iÃ³n
vec h
Ġeven tos
Ġprotec ciÃ³n
Ġarri ba
o g
o ft
s in
Ġs Ãº
on a
ar lo
is tir
Ġin yec
Ġre m
Ġper der
Ġdes con
Ġinform es
Ġtrabaj adores
it y
Ġcap az
Ġprop ios
tur ales
Ġcomput adores
Ġoper andos
Ġexis tir
Ġind ican
Ġfac ultad
Ġdepend encia
Ġcorrec ta
Ġpens amiento
Ġregu la
ĠmatemÃ¡ tica
Ġsec ciÃ³n
Ġvec torial
Ġcorr ientes
Ġesc as
Ġapro vech
Ġbin aria
Ġrenta bilidad
Ġmicros oft
Ġenc ab
ile g
Ġquiz Ã¡s
Ġamen azas
Ġentrevis ta
Ġincumpl imiento
l on
p ol
r ada
Ġs tore
Ġen caps
Ġo cu
Ġo fici
Ġpro gres
us iÃ³n
gu lar
Ġdes venta
Ġac cion
Ġman da
Ġu d
Ġdic ha
Ġj a
Ġsal do
Ġtiemp os
Ġdep ur
Ġabs olu
Ġram a
Ġfacil itar
ĠmÃ¡xi ma
Ġapor tar
Ġhor izon
Ġcuantita tivas
Ġempresari al
Ġconclus iones
Ġfich eros
Ġp rec
ar on
Ġcon ci
Ġh ici
idad o
Ġi tera
Ãº a
Ġle e
Ġap i
Ġman ip
Ġej erc
Ġcar go
Ġpre de
cip l
Ġdirec to
Ġpas an
Ã©r ica
Ġllam adas
Ġne x
Ġconcep tu
Ġau mento
Ġform ado
ens o
Ġinteres ante
Ġdistribu ido
Ġinstitu ciÃ³n
Ġvirtu alizaciÃ³n
Ġrecon ocer
ĠfÃ¡cil mente
Ġargu mentos
Ġpropi edades
Ġpuer to
Ġtele f
Ġpriv ileg
Ġdetec tar
Ġextrem o
Ġmos trar
d pi
Ġes encial
in ci
in ter
Ġh ol
Ġco pi
Ġre quier
id amente
iz an
Ġdes pl
Ġdis cos
Ġma qu
Ġtrabaj os
Ġvari abilidad
Ġtrans par
Ġexis ta
Ġidentific aciÃ³n
Ġrelacion ar
Ġinteres a
Ġinterna cional
Ġconoc en
ĠgrÃ¡ fica
Ġdescrip tiva
Ġban co
Ġesc en
Ġcompu ta
yo ut
ĠlingÃ¼ ÃŃsticas
Ġhabil idad
Ġrecuper ar
Ġtar je
Ġsen si
Ġningun a
Ġenter os
Ġautoma tiz
Ġperspec tiva
Ġais l
Ġtemper amento
Ġencab ez
b dd
i tas
l er
u ra
w s
ci n
Ġun idos
Ġel Ã©c
mp la
Ġh ip
Ġb bdd
le x
Ġper iÃ³
Ġg ig
Ġdi o
Ġdi ario
Ġimp lan
Ġhab i
Ġorgan ismos
Ġtra yec
Ġcual quiera
blem ente
Ġexp lo
ĠmÃ© tricas
alab ilidad
Ġnorm al
Ġcan al
Ġve o
teri os
Ġw an
xi ones
Ġconta bil
Ġinclus ive
Ġk i
Ġcontinu aciÃ³n
Ġho mo
Ġcurs os
Ġesc alabilidad
Ġaten der
Ġselec cionar
Ġinfer ior
Ġconsul tas
ĠÃ³r gan
Ġelim in
Ġtrad uc
Ġhabil idades
Ġmu jer
Ġrob Ã³
Ġado p
n amente
r adas
s s
Ġd amos
en ce
Ġp enti
Ġc Ã¡
mp oco
Ġpro mo
Ġsi l
Ġdi ciendo
Ġcomp uesta
Ġah i
Ġr as
Ġneces ariamente
Ġtrans fer
Ġj uego
uy en
Ã¡n do
Ġdetermin antes
Ġorden adores
Ġarquitec tÃ³n
Ġfi j
Ġverdad ero
Ġcompar aciÃ³n
Ġag entes
Ġespecific ar
Ġalea toria
Ġgobier nos
Ġgan a
Ġsupon er
Ġhi per
Ġparticip aciÃ³n
ĠautomÃ¡ tico
Ġciudad anos
Ġtransform aciÃ³n
Ġavan z
ĠanalÃŃ tica
Ġev olu
Ġcri terio
Ġmicros erv
Ġende ud
Ġagreg aciÃ³n
Ġposibil idades
Ġpenti um
ĠcÃ¡ mar
b u
u o
Ġl id
Ġp s
Ġa x
ti po
ti za
Ġh is
Ġh ex
iz ado
iz ados
di Ã³
Ġdi vis
ent ales
Ġpue des
fic amente
Ġesta ciones
Ġdeci mal
Ġta mpoco
Ġposi tivo
Ġfuncion ar
Ġqui era
Ġintegr al
ĠsÃ³ lido
Ġna ve
Ġnorma tiva
Ġdepend encias
Ġespec tro
Ġexpl or
Ġfacil idad
Ġhe ur
Ġaprend iendo
Ġadministra tiva
Ġguar dar
Ġdescu ento
Ġcompro b
Ġfon do
Ġdecodific aciÃ³n
Ġmoni tor
Ġmill ones
Ġhom bre
Ġdesplaz amiento
Ġorgani grama
c el
i ales
Ġp ul
es a
Ġa ut
is ten
Ġo la
am ientos
Ġdi ga
Ã± ol
Ġres id
Ġ2 00
Ġmi x
Ġdesarrol lado
Ġdetermin an
Ġespeci ales
Ġqui tar
Ġmon op
Ġinvesti ga
Ġespa Ã±ol
Ġrespons abilidades
Ġindepend encia
Ġalterna tiva
Ġcir cular
Ġima gen
Ġmodific ar
Ġpapel es
Ġestrateg ia
Ġperf ecto
Ġpaque tes
ĠtelÃ© fono
regis tro
Ġterri torio
Ġja va
Ġhorizon tal
Ġrequier en
Ġhip Ã³
Ġola p
h as
j ec
t Ã¡
Ġ âĢ
Ġc erc
Ġque d
ti d
re z
re ded
ta ble
Ġin cons
Ġre mo
Ġal reded
ente mente
ol ec
Ġper fec
Ġsu minis
ent arios
enci alidad
aliz ada
Ġcom er
Ġvari aciÃ³n
Ġbas ados
Ġreg la
Ġas um
Ġutiliz amos
Ġtra te
Ġpres entaciÃ³n
Ġconcep tual
Ġconf irm
Ġfac ti
Ġmerc ados
Ġcal end
Ġrelacion a
Ġconsider ar
Ġconsider an
bo t
Ġdistribu ir
Ġdeman d
Ġvi ol
Ġata ques
Ġcop ias
Ġinterac tÃº
Ġtempor almente
Ġbin ario
Ġpreci siÃ³n
Ġenv ÃŃa
ĠcientÃŃ fico
Ġindic adores
vien en
Ġparal e
Ġreglam entos
Ġdesempe Ã±o
Ġfron tera
ĠinalÃ¡mbr ico
ĠdÃŃg itos
Ġacopl amiento
Ġcoefici entes
ĠrobÃ³ tica
ĠhipÃ³ tesis
Ġalreded or
u men
w it
Ġd arse
Ġde mas
os a
Ġl ig
Ġs ÃŃn
or k
ad eci
Ġen ci
em bre
Ġcu brir
Ġex itos
il lo
Ġad j
Ġusu almente
Ġalmac Ã©n
Ġmues tras
aci os
entr e
Ġind icar
Ġven de
Ġestad ÃŃstico
Ġconoc emos
Ġconec tar
Ġmal a
Ġgo og
ĠaritmÃ© ticas
Ġtransf orma
Ġcab eza
Ġejerci cios
Ġventa ja
Ġvec tor
Ġcarpe tas
her tz
Ġahor rar
Ġasegu r
Ġintercon ec
Ġedi fici
Ġreutil iz
Ġestr el
Ġecuatorian o
Ġback up
Ġcha t
Ġejerc er
Ġnex t
Ġencabez amiento
Ġhex adeci
v irtu
Ġe f
Ġd ada
Ġl is
Ġa t
ad u
ti das
Ġla t
tr aciÃ³n
Ġen l
is co
Ġre v
Ġf l
ue ve
Ġcu mpla
di gos
Ġme ga
orm as
ez as
ĠcÃ³ digos
Ġgener ando
me tro
Ġescri be
Ġsegur amente
Ġinver siones
Ġllev an
Ġestad ÃŃsticos
ĠlÃ³g ico
Ġcomple tamente
ĠÃºlti mos
Ġpodr ÃŃan
Ġconec tado
Ġdispon ible
cr im
Ġorien tado
Ġobserv ar
Ġescal a
Ġalcan ce
Ġahor ita
Ġadi cionales
Ġpreci s
Ġconcre to
Ġordin aria
Ġconsumid or
Ġries go
Ġespecifica ciones
ĠelectromagnÃ© ticas
Ġcardin alidad
Ġcardin alidades
Ġinterre la
Ġconfid encialidad
Ġsent encia
Ġflo tante
Ġeduc aciÃ³n
Ġelector al
ĠfÃŃ j
ĠsÃº per
h ÃŃ
t p
u ta
Ġe mo
Ġc iv
Ġse is
Ã¡ bamos
Ġb or
Ġno min
Ġti r
Ġi ter
Ã± ana
Ġan cho
Ġman tiene
Ġma Ã±ana
Ġhab lo
Ġtra tamiento
Ġcaracter es
Ġfinanci eras
Ġcantidad es
Ġelec ciones
Ġexper tos
Ġcompil adores
Ġban cos
Ġrefle x
Ġobserv aciÃ³n
Ġsolici tar
Ġlim ita
Ġcompro me
Ġcri terios
Ġvin cu
ern el
Ġsex o
Ġagre gar
9 9
i gn
z ado
Ġes ti
ad re
Ġen s
Ġo l
Ġco inci
Ġper man
ado op
tu lo
Ġsu bir
ador as
Ġdes vi
Ġan illo
Ġcons erv
Ġproduc tividad
Ġsin Ã³n
Ġprim i
Ġresp ec
Ġrecurs iva
Ġlengu a
Ġestudi a
Ġcier ta
Ġrec tÃ¡n
Ġfal ta
Ġni if
Ġempez amos
Ġrefle j
Ġdiri gir
gra fÃŃa
Ġguar da
Ġplataf ormas
Ġtrad i
Ġsubsiste ma
Ġrefer imos
Ġsuel en
Ġami gos
Ġtok ens
Ġsuce de
Ġmone da
Ġcalend ar
a te
b la
i tan
r Ã¡
Ġde mo
Ġa i
ar ning
ti dos
Ġun if
Ġv m
Ġin no
ÃŃ r
Ġh adoop
Ġest Ã¡s
Ġg es
Ġdi fic
Ġto ca
Ġi ba
Ġdeci dir
Ġver tical
til es
Ġar istas
Ġas im
Ġas untos
con j
Ġcor reg
Ġgener an
Ġdef ecto
Ġbus can
Ġcambi an
Ġher tz
Ġtom ando
Ġparti da
Ġconten idos
Ġnum er
Ġreco p
ĠinformÃ¡ ticos
cÃ³ digo
ĠespecÃŃ ficas
Ġapar te
Ġcurs o
Ġmil es
Ġorien tada
Ġexten siÃ³n
Ġdetal le
Ġpose en
Ġobten ciÃ³n
ke ting
Ġparal el
Ġglob al
Ġbr in
Ġsiti os
estruc tura
Ġopin iÃ³n
econ omÃŃa
ĠÃŃndic e
Ġesfuer zo
Ġseman a
Ġocas iones
Ġgoog le
Ġunif orm
Ġinno v
a unque
e e
i go
Ġe ti
Ġd x
Ġde tr
Ġp id
Ġp end
ti pos
in do
Ġen ri
Ġcon glo
Ġo tor
Ġb la
Ġten ido
ent ados
Ġdis cipl
Ġmo difica
Ġinf ra
Ġcom e
Ġgr am
Ġutiliz adas
Ġfin ales
Ġcual idades
Ġalmacen ada
Ġexp an
Ġform al
Ġemple o
Ġmar keting
proces adores
Ġtend encia
Ġindividu o
Ġexpl ÃŃci
Ġrefle ja
Ġcontinu ando
Ġblo ques
Ġperio dos
Ġterc era
Ġcorrespond encia
Ġfabr ic
Ġpudi era
Ġpredic ciones
Ġcodific aciÃ³n
Ġinterre laciÃ³n
ĠcrÃŃ tico
Ġatr Ã¡s
Ġrutin as
Ġacerc a
Ġreconoci miento
Ġasocia ciones
Ġmonop ol
Ġconfirm aciÃ³n
Ġens am
Ġeti que
Ġenri que
Ġconglo mer
8 6
c en
f or
h ol
i ado
s t
} ]
Ġ >
Ġe d
Ġde posi
er tid
Ġs wit
Ġes enciales
Ġpro vo
Ġpar cial
ac a
Ġi lus
Ġex cep
ir se
iv as
Ġdis tr
Ġdis crim
Ġcons ta
Ġver emos
Ġver ificaciÃ³n
Ġar te
Ġmen udo
um bre
Ġsus titu
Ġcap aces
Ġinc ertid
Ġlle gan
Ã¡n dose
Ġmejor ando
vis or
Ġespeci aliz
Ġsolu cionar
Ġescri torio
mis o
Ġrec olec
Ġpla tos
Ġrelacion ada
Ġrelacion ados
Ġra ÃŃ
Ġprimer as
Ġexpres iones
Ġasign ado
Ġregu laciÃ³n
Ġapar ece
Ġdig itales
Ġconv iv
Ġfor tal
Ġsolici ta
Ġdetal les
Ġestable ci
Ġperten ecen
Ġtele visiÃ³n
Ġplante ar
Ġdecodific ador
Ġregres ar
Ġano tar
Ġequival e
Ġcuesti Ã³n
Ġmac ro
Ġparale lo
Ġestrel la
Ġef ecto
Ġdesvi aciÃ³n
Ġcalendar izaciÃ³n
Ġpend iente
Ġswit ch
Ġincertid umbre
a ger
d is
d icos
l im
p an
s u
s er
Ġ {
Ġp u
es e
ar es
ar los
Ġv id
Ġin ecu
Ġpar ame
ec re
ac to
Ġson idos
Ġdes ac
gr o
Ġdis per
Ġinter ven
Ġinter vienen
Ġcons ciente
Ġman ual
Ġma xim
ib uye
Ġejecu tan
Ġcomun idad
Ġcomun ican
Ġcre cimiento
Ġprop ias
Ġsegu imiento
Ġpermi ta
Ġform ar
Ġdescri be
Ġdec ÃŃamos
Ġestructur ada
Ġinvesti gador
Ġconsider ado
Ġdistribu idos
ular idad
Ġon line
Ġvelocidad es
Ġsec und
Ġexter no
Ġauditor ia
Ġasoci ada
ĠcompaÃ± ÃŃa
Ġdepartam entos
Ġhu bo
Ġpropi edad
Ġvol un
Ġreun iÃ³n
Ġentien de
Ġdue Ã±o
Ġhomo gÃ©n
Ġresid uo
f as
u x
z an
Ġc rec
ci embre
as ÃŃ
un ta
Ġen unci
Ġcon tienen
Ġf o
ab l
ab ytes
Ġdi ciembre
gu a
Ġdis cre
Ġle x
si mo
Ġejecu tando
Ġpa g
Ġcontrol ador
Ġcomun icar
Ġpos tales
Ġsign os
Ġconj untos
Ġequi ta
Ġigu almente
Ġtec lado
Ġsub ordin
ram e
up ciÃ³n
Ġemple a
Ġmic r
ĠjurÃŃd icas
ĠeconÃ³m icas
Ġreco men
Ġsepar ado
Ġcompren si
Ġpregun ta
Ġtransac cionales
Ġsopor tar
Ġproporcion an
Ġaplic ando
Ġcla ves
Ġoptim izar
ĠÃ³p timo
Ġperten ece
Ġfabr icaciÃ³n
Ġespecial ista
Ġintercon exiÃ³n
Ġub icaciÃ³n
Ġmanu ales
Ġanti cip
Ġinterval os
Ġvac ÃŃa
Ġflexi bles
Ġinci d
Ġcomunic arse
Ġcopi ar
Ġdeposi ta
ĠraÃŃ z
g itud
i al
Ġd ss
Ġl on
Ġc eros
Ġs p
to logÃŃa
Ġcon l
Ã¡ us
Ġh os
Ġpro viene
Ġal tamente
cu Ã¡n
uc le
gu en
Ġac on
Ġex posi
Ġent end
ici p
Ġman ifi
Ġentr adas
Ġcl Ã¡us
Ġimp ul
Ġtrab aje
Ġar m
Ġmem bres
Ġval e
Ġdirec tor
Ġsin cron
Ġserv ice
Ġcos tu
Ġprim eros
Ġdesarrol la
Ġimpor ta
Ġsegu ro
Ġdefin idas
Ġne tamente
Ġhabl ante
Ġinici a
Ġform aciÃ³n
bles p
Ġconoci do
Ġmun icip
Ġexpres ar
Ġpodr Ã¡
Ġefec tiva
Ġinde x
Ġrespon der
bo ard
Ġsepar ados
Ġdeber Ã¡
Ġcer rado
Ġapar ato
Ġexter nas
Ġgaran tÃŃa
Ġparticular idad
bas e
ĠcompaÃ± eros
Ġvirtu al
Ġextr acciÃ³n
Ġfuncional idades
Ġviv ir
ĠcientÃŃ fica
Ġall Ã¡
Ġfle x
Ġmanej an
Ġperf il
Ġinstal aciÃ³n
Ġreutil izaciÃ³n
ke hol
Ġtranspor te
Ġdesventa jas
Ġtarje ta
Ġchat bot
Ġreflex iÃ³n
Ġinfra estructura
Ġenunci ado
kehol der
1 00
e xiones
p lex
al lo
Ġv endo
Ġv olu
Ġcon textos
mp ar
id ar
em a
Ġpara virtu
Ġdi gn
tu l
Ġme z
Ġac a
Ġle tra
Ġmo der
Ġmo mentos
Ġad qui
Ġj udi
Ġforma tos
Ġdo ble
Ġpermi tido
Ġorden ado
Ġplan ifica
Ġayu d
Ġpe le
Ġnuev amente
Ġarquitec turas
Ġinver sion
Ġref ieren
Ġmar co
Ġrelacion adas
Ġaquel lo
Ġactu ar
Ġpodr ÃŃamos
eb ro
Ġlec tor
Ġreci bir
Ġanal istas
Ġcer ebro
Ġtermin a
Ġselec ciÃ³n
Ġasp ecto
Ġpron Ã³s
Ġlleg ue
Ġje fes
Ġsecu encial
Ġele v
Ġcircu itos
Ġvay amos
ĠdÃ© bil
Ġreun iones
Ġempi ez
ĠelectromagnÃ© tico
Ġrecuper aciÃ³n
Ġconstituy en
Ġvisu alizar
Ġsta keholder
Ġrelev antes
Ġminim izar
ĠsistemÃ¡ tico
Ġaccion istas
Ġmujer es
Ġras gos
ĠinteractÃº an
Ġhexadeci mal
ĠfÃŃj ense
Ġvolu men
w ork
Ġ quÃŃ
Ġd oy
Ġl ados
Ġs os
Ġs iente
Ġa bre
ad Ã©m
Ġb l
Ġb lan
Ġper j
Ġg a
Ġto mo
Ġcomp osiciÃ³n
Ġus ado
Ġus ada
Ġac adÃ©m
gr an
Ġor to
Ġmo da
Ġcom en
Ġar ran
Ġvari edad
Ġpre ven
Ġfin alidad
Ġtra er
uy endo
Ġcre ando
Ã¡n gulo
Ġregis ter
Ġinte gra
Ġpon emos
Ġanaliz a
Ġsub gru
Ġsub conj
Ġmens ual
Ġhuman a
lu ir
Ġsim ul
Ġconec tados
Ġmor ales
Ġtransmis or
Ġru tas
Ġhi lo
Ġenfo ca
Ġestable cido
Ġindependiente mente
Ġelabor ar
Ġfamil iar
Ġinvoluc ra
Ġdemos trar
Ġplane aciÃ³n
Ġsiti o
Ġdismin u
Ġprof und
Ġcobr ar
Ġadquis iciÃ³n
ĠÃ³rgan os
Ġenci ma
Ġexitos a
Ġedifici o
indo ws
Ġconglomer ados
Ġvid eo
Ġstakeholder s
) )
c ol
e tir
r er
r im
t us
t ario
v in
Ġp use
Ġs ys
to p
to dos
in tend
Ġv esti
Ġin cur
Ġre ac
Ġb ytes
iz ando
Ġcu idado
Ġtr ib
Ġdi je
Ġme g
Ġme tas
la za
Ġpo bre
Ġesta bilidad
Ġar ray
Ġrep l
Ġdetermin ados
Ġtan tas
Ġven ido
Ġingres a
Ġingres an
Ġintegr ados
Ġsuper intend
Ġsim ula
Ġtab Ãº
ist ente
Ġnum Ã©rico
Ġweb inar
Ġsec tores
Ġpi eza
Ġdispon e
Ġdispon ibles
Ġcontinu a
Ġsupon gamos
Ġcrea te
Ġapro b
tific ado
Ġacep tar
Ġacep taciÃ³n
ĠÃ³p tima
Ġcaden as
Ġextra er
Ġcorre o
Ġbusc ando
Ġbusc amos
Ġcoordin aciÃ³n
ĠlÃŃmi tes
Ġcolec ciÃ³n
Ġcontras e
Ġhici eron
Ġmaqu in
Ġcomer cio
Ġgram Ã¡tica
Ġvolun tad
Ġsuperintend encia
a tel
d ida
e os
i ores
n am
p ue
u ro
Ã Ĺ
Ġs ci
Ġa ma
tr ado
Ġun ific
Ġin tr
cion an
Ġcu ya
Ġto me
Ġto ler
Ġsu f
Ġdes tr
Ġac tiva
ĠestÃ¡ tico
Ġinter medio
Ġmo dos
min a
Ġres umen
Ġob tiene
duc e
Ġesp acios
Ġj ue
Ġtra tando
Ġdirec ta
uy a
Ġred ac
Ġ10 00
Ġdefin iendo
vi as
Ġorden ada
Ġexp on
ĠÃ¡ g
Ġanaliz ando
Ġind is
Ġinici ar
Ġinici ales
Ġfi ja
ĠseÃ± ores
Ġlin ux
Ġmon ol
Ġmar cha
Ġra p
Ġsignific ados
Ġleg alidad
Ġata c
Ġdivid e
Ġli ter
Ġquien es
Ġsubs ecre
Ġdetal lado
Ġtransform ar
Ġexist encia
Ġcuad rada
Ġterc er
Ġrenta ble
ĠartÃŃ culos
Ġadecu ada
Ġenc aden
Ġesco ger
Ġpredic ciÃ³n
Ġcaus as
Ġnega tivo
Ġfrag mento
ĠjerÃ¡rqu ico
Ġsocio cul
Ġinterval o
Ġmain board
Ġsum amente
Ġpropa gaciÃ³n
ĠhistÃ³r ico
Ġcomputa cional
Ġdemand ada
Ġpu bl
Ġlon gitud
Ġmez c
Ġtrib un
h en
z os
z on
Ġ tex
Ġp Ã©r
Ġp Ã¡r
Ġp ide
Ġs ens
es s
Ġa mpar
al im
Ġv on
Ġcon ce
Ġh ice
Ġb yte
Ġtr ian
Ġten ÃŃan
bi mos
Ġha gan
Ġex am
ir us
Ġle van
Ġinf l
Ġcom andos
el ar
Ġimp acto
Ġhacer se
Ġpre fer
Ġpre vio
Ġgener ados
Ġsegu ra
Ġab rir
Ġecon om
Ġw indows
Ġidenti fica
Ġconoci das
Ġcal cul
Ġcol or
Ġconec tor
Ġtransmi ten
Ġpun tu
Ġtend remos
Ġcomb ina
ĠmatemÃ¡ tico
ĠmatemÃ¡ ticos
Ġch ip
Ġk ernel
Ġcorr upciÃ³n
Ġafec tar
ach e
Ġconsum ir
Ġcomien zo
Ġconsul tar
Ġru ta
Ġade lan
ĠanalÃŃ tico
Ġenv ÃŃo
Ġconven iente
Ġsuces ivamente
Ġorigin al
Ġanti gu
Ġvo z
Ġrelev ante
ĠlÃŃmi te
Ġretro alim
Ġdespl ace
Ġhiper visor
ĠcÃ¡mar a
Ġadj unta
Ġprecis amente
Ġrecop il
Ġensam bl
Ġconviv encia
Ġama zon
ĠpÃ¡r ra
Ġtrian gular
. -
f r
g iÃ³
u par
Ġ <
Ġ ul
Ġ rit
Ġde le
Ġde jo
Ġp al
Ġs tan
Ã³n o
Ġn aci
Ġv enci
Ġv ÃŃn
Ġcon tener
Ġcon exiones
Ġf lec
cion a
Ġme tada
la yout
Ġap e
Ġinf o
Ġcons on
Ġcons istencia
Ġob tienen
Ġhay an
Ġvari edades
Ġca e
Ġmen cionar
Ġreg iÃ³n
Ġgen Ã©
it ados
rol l
Ġrep ente
Ġcre Ã³
Ġprop uestas
Ġalmacen ados
val or
Ġrequer ir
Ġproce der
Ġmerc ad
Ġmon to
Ġcomple to
Ġactu ales
Ġquer ÃŃa
Ġreco ge
Ġsencil l
Ġestablec en
ĠespecÃŃ ficos
Ġpens amos
Ġvi aja
Ġtransf iere
Ġnatur ales
Ġprob abil
Ġobliga torio
Ġdivid ido
Ġgaran tiza
Ġsem estr
Ġmec Ã¡n
Ġofrec en
Ġcorrespon den
Ġapro pi
oso fÃŃa
Ġexten siones
Ġagr upar
ĠelectrÃ³n icos
Ġregular es
Ġsuje tos
blo que
Ġfil osofÃŃa
Ġaplica tivo
Ġz ona
Ġrepor tar
Ġindustr iales
Ġabier ta
ĠgeogrÃ¡ fica
Ġcuar ta
Ġsimbol izaciÃ³n
Ġtrayec toria
Ġai re
Ġges tor
Ġdific ultad
Ġcorreg ir
abl emente
Ġarm on
Ġsci ence
Ġrit mo
Ġmetada tos
/ /
c roll
d iendo
d idas
f fer
r c
s ql
t bol
Ġd ma
Ġd dr
Ġp en
Ġc d
Ġs tring
Ġs rc
ar ga
Ġm ol
an zas
Ġcon te
Ġo c
Ġre ducciÃ³n
Ġf Ãº
Ġf ir
Ġf rame
ien da
Ġpar ece
ac as
ue la
cu las
Ġg ama
Ġdes ea
Ġemp a
Ġinter namente
tan cias
Ġver ific
Ġcar gar
it ando
Ġpa ci
Ġcre e
Ġ10 3
ur os
Ġta ble
Ġclas ificar
Ġmejor as
Ġbu ffer
Ġdo c
Ġllam ar
Ġpres taciÃ³n
Ġpres taciones
Ġposi ciones
Ġposi tivos
Ġsub es
Ġaquel la
Ġmulti procesador
Ġdur aciÃ³n
Ġconec ta
Ġestra to
ĠgrÃ¡ ficos
tera tura
Ġon da
Ġleg ales
Ġintro ducir
Ġapar ecen
Ġasoci ados
Ġgas to
Ġli teratura
Ġsopor ta
Ġraz on
Ġdeco difica
Ġampl io
Ġpes o
Ġmateri al
Ġconform ada
Ġpot encial
Ġmoni tore
Ġdemos trando
Ġconstituy e
ĠpÃ¡g inas
Ġdeclar aciÃ³n
Ġopin iones
Ġvuel vo
ĠtecnolÃ³g ica
Ġful l
Ġpseudo cÃ³digo
Ġgui ados
Ġlegis la
Ġki lo
Ġlimita ciones
Ġdiscipl ina
Ġmembres ÃŃa
blesp ace
Ġdign idad
Ġjudi cial
ĠfÃº tbol
% ,
9 8
c un
c las
i fes
o f
v ieron
w ard
Ġ )
en o
Ġp ivo
es tas
Ġn ucle
Ġre visiÃ³n
Ġpar eci
Ġpor ciÃ³n
Ġdi os
gu los
Ġus b
Ġdes car
Ġdes ign
Ġso a
era z
Ġac to
aliz ados
ul as
den ing
Ġesta ciÃ³n
Ġu r
Ġimp rim
Ġtra tados
Ġcas cada
Ġcap tar
Ġprop on
Ġinte lec
Ġexp ecta
Ġoper ar
Ġpe or
ens a
Ġemple ar
Ġsuper visiÃ³n
Ġdescri ben
Ġcal cula
Ġimplem entado
Ġeval Ãºa
Ġfal so
Ġinvesti gar
Ġof reci
Ġrecor rido
ĠrÃ¡p idamente
Ġlugar es
Ġcir cun
Ġcompren de
ĠpÃºbl icos
ĠcompaÃ± ÃŃas
Ġmultipl icar
Ġhi jo
Ġciudad anÃŃa
Ġlim itar
Ġhu bi
Ġdif us
Ġperten encia
Ġplane ar
Ġdefini tiva
estruc tur
econ Ã³m
ĠtÃŃp icamente
Ġprof un
ĠfenÃ³men o
Ġencaps ul
Ġmicroserv icios
Ġretroalim entaciÃ³n
a g
h dpi
s iste
w h
y per
Ġd wh
er po
Ġa lo
in c
Ġo mis
Ġh yper
Ġco ma
Ġre tor
Ġre tir
Ã© trico
ec o
Ġcu bo
Ġcu erpo
Ġlo op
Ġti tu
di rec
ent ada
Ġpo ca
Ġpo bla
era tivo
Ġac or
Ġinf in
el es
Ġvari ar
co mple
Ġcar net
Ġval ios
ver sa
Ġcontrol ado
Ġtra e
Ġinv itado
Ġpe d
br ica
Ġform ul
Ġrec ta
Ġgu ÃŃas
Ġejecutar se
Ġqu is
Ġindi rec
Ġx ml
Ġmuestr al
Ġindivid ual
Ġflu jos
Ġsepar ando
Ġdescrip tivos
Ġmicro procesadores
ĠfÃ¡ brica
tero gÃ©n
ĠpÃºbl ica
ĠpÃºbl icas
Ġhe terogÃ©n
Ġinstitu to
Ġinfer ir
Ġadministra tivos
Ġtendr ÃŃa
Ġlleg ado
Ġrecep ciÃ³n
Ġcuad rado
Ġfon olÃ³gico
Ġseg mentos
Ġpot encia
Ġabier to
ĠestratÃ©g ica
Ġllen a
Ġos i
Ġconflic to
Ġhol gura
Ġescen arios
Ġaut Ã³no
Ġlat ÃŃn
Ġciv il
Ġbor r
Ġesti lo
Ġdetr Ã¡s
Ġredac tar
Ġofreci da
6 4
d Ãº
h z
y th
Ġ q
Ġ za
Ġd up
Ġde dica
Ġs es
ci ales
qu idad
Ġes tima
te m
ti mos
tr iz
Ġen tera
Ġv oc
am bre
Ġre in
Ġre mi
Ġpro vec
Ġpar Ã©n
ec tu
em as
em in
ab ora
Ġg iga
Ġtr i
Ġdi jo
tu ito
Ġi i
Ġus amos
Ġus ados
tro ver
Ãº cle
Ġex ces
Ġex trover
Ġres um
Ġinf lu
Ġcons igo
Ġdeb ajo
Ġman dar
Ġman eras
Ġdeci mos
Ġcl Ã¡s
Ġver s
Ġbas an
Ġas ÃŃn
ico logÃŃa
Ġpre ten
Ġsol id
Ġrep ito
Ġdef ectu
tur al
Ã©r pre
Ġpres encia
Ġespeci alizado
Ġmatr imonio
Ġdin am
Ġcontra tos
Ġqu in
Ġfal lo
Ġfal las
ex o
ex t
Ġ11 0
Ġclar a
ĠÃºn icamente
pa tos
Ġreco gen
ĠfÃŃs icos
Ġestra tificado
Ġanal ista
Ġrestric ciÃ³n
Ġdenomin an
Ġvi abilidad
Ġdeber ÃŃan
Ġrecor dar
Ġcompil ar
Ġabstrac tos
Ġrefle jar
Ġinterpre taciÃ³n
Ġhi po
Ġescal able
Ġcul turales
Ġsecu encias
Ġmateri ales
Ġescuch ar
Ġdecodific ar
Ġprepar ar
Ġmencion ado
Ġordin arias
Ġmatric ulaciÃ³n
Ġincorpor ar
Ġint Ã©rpre
Ġsecuenci ador
ĠtecnolÃ³g icos
Ġajus tar
Ġdij imos
Ġvulner abilidades
Ġmercan c
Ġdesc entr
Ġdescomp osiciÃ³n
Ġitera tivo
Ġtelef Ã³n
Ġtraduc ciÃ³n
Ġtransfer ir
Ġps icologÃŃa
Ġ200 8
Ġreutiliz ables
ĠsinÃ³n imo
Ġexpan siÃ³n
ĠexplÃŃci tamente
Ġrecolec ciÃ³n
Ġconl le
Ġarran que
Ġsubgru pos
Ġpivo te
dÃº plex
yth on
Ġza patos
Ġprovec ho
ĠparÃ©n tesis
Ãºcle o
" "
. )
b ren
c to
c ra
d x
l ig
l Ã³g
t ador
Ġl istas
es tos
Ġa tra
Ġa gua
ci ar
as p
ti o
in t
re a
Ġn Ã³
Ġcon ces
Ġcon ferencia
Ġpr ac
ÃŃ x
Ġb ur
Ġcu entan
Ġlo gra
Ġper ci
di a
Ġsu pre
Ġser i
tam ientos
Ġac ab
Ã± ar
ir al
Ġdis c
Ġman ifes
Ġentr an
Ġpre vias
Ġcor te
Ġ10 4
Ġopera tiva
Ġconcep ciÃ³n
Ġher e
val ores
Ġayu de
ĠÃ© ticos
Ġconstitu ido
Ġcaracter iza
Ġform almente
Ġfi le
Ġidentific an
Ġemple an
Ġintegr an
Ġdistin to
Ġexpres a
Ġasign an
Ġpropor ciÃ³n
Ġconec tan
Ġmal ware
Ġencar gada
Ġtu vi
Ġalterna tivos
Ġprob ar
Ġsig las
Ġmor oso
Ġban da
Ġapar ecer
Ġtermin o
Ġentor nos
Ġconv ir
Ġinfer encia
Ġinfer encial
Ġraz ones
Ġvirtu ales
Ġapro xim
Ġamortiz ar
Ġavan ces
Ġadi cional
Ġtrad u
Ġcompl icado
ĠanalÃŃ ticas
Ġregres o
Ġfavor able
Ġsan ciÃ³n
Ġquiz as
Ġmov imiento
ĠenseÃ± ar
Ġapren de
Ġpaque te
Ġint entar
Ġpier de
Ġdiferenci ar
ĠÃŃndic es
Ġposteri or
Ġcontribu ir
ĠfenÃ³men os
Ġinstru mento
Ġescas os
Ġsensi bles
Ġimplan taciÃ³n
Ġpromo ver
Ġevolu cion
Ġdemo cra
Ġmodifica ciones
Ġfabric antes
ĠÃ¡g il
Ġconlle va
c ando
f olÃ³gico
g on
i la
l i
m t
m Ã³
v ar
Ġ Ã©n
Ġs entar
Ġa v
ti end
Ġen g
al gun
al ea
Ġun ir
Ġv es
Ġcon m
ic on
Ġco her
Ġre Ãºn
Ġre ch
Ġre posi
Ġf irm
ab yte
Ġal um
di ble
tic ar
ent en
Ġdis p
Ġinter s
Ġle emos
Ġmo tor
Ġap reci
si ma
Ġcom entarios
Ġins um
Ġimp erativo
Ġr ene
Ġca tal
Ġutil ice
Ġas es
Ġtran si
Ġrep ite
Ġresp onde
Ġsal idas
Ġab ar
val ue
et ch
Ġcan cel
Ġsigu iendo
Ġform alizaciÃ³n
Ġsub je
Ġpues tos
ha y
Ġmon et
Ġsuper iores
Ġrelacion ales
Ġutilizar la
Ġmin uto
Ġbaj os
Ġfal sa
ex isten
Ġsa ta
Ġsa tÃ©
Ġsepar ar
Ġdescrip ciones
Ġch e
Ġch icos
Ġmor folÃ³gico
Ġtermin al
Ġasoci ado
Ġdiri ge
ĠmÃŃn imos
Ġfor tuito
Ġdesp laza
Ġtempor ales
Ġredu cido
Ġele gido
Ġhu mo
Ġpropi et
Ġterc eros
Ġfabr icar
Ġmencion aba
Ġconse jo
Ġpantal las
Ġinmedia ta
Ġsuel do
Ġcaus a
Ġcodific ar
Ġexac tamente
Ġtransis tor
Ġconfid encial
Ġsent encias
Ġtok en
fi jo
Ġagrup ados
Ġdesta car
Ġconoz ca
Ġloc ales
Ġposteri ormente
Ġconfi abilidad
Ġlabor al
Ġconflic tos
Ġrem un
Ġprede cir
Ġpid en
fas is
Ġparavirtu alizaciÃ³n
ĠpronÃ³s ticos
Ġsubconj unto
Ġunific ado
Ġtribun al
ĠmecÃ¡n ica
Ġexpecta tivas
Ġborr ador
ĠÃ©n fasis
tiend an
Ġrech az
Ġreposi torio
Ġinsum os
Ġrene go
2 0
c ado
d le
g re
l l
p c
t y
t on
Ġe uro
Ġd ual
Ġde dic
Ġp Ã©
Ġc ables
er an
es tan
Ġa th
ar ch
ad emÃ¡s
in tel
Ġen orm
Ġen du
Ġn ar
Ġv Ã¡l
Ġse mÃ¡
mp aÃ±
Ġin con
Ġh t
Ġco gn
Ġre tras
Ġb io
res s
le o
Ġdi bu
Ġcomp uestos
Ġi f
Ġi do
ent s
Ġser ia
Ġpo cos
Ġex ager
Ġinter nas
Ġle a
ri Ã³
il l
Ġte Ã³r
Ġtrabaj ador
ib ra
Ġgr ad
Ġesp iral
Ġas ter
Ġmode la
Ġmi tad
Ġejecu tivo
it aria
Ġmedi ana
Ġapl ican
Ġorganiz ado
Ġprim aria
Ġcre di
Ġdesarrol lan
Ġ10 5
Ġregis tran
Ġclas ifica
Ġvalor ar
Ġne t
por que
Ġpon iendo
Ġplan ificar
Ġcaracter izan
Ġanaliz adores
Ġtom Ã©
Ġpol im
Ġconoci dos
Ġfi able
Ġactu aciÃ³n
Ġestructur ados
Ġcr u
Ġsimpl ific
Ġanalizar lo
Ġpodr Ã¡n
Ġgra tu
proces o
ist entes
Ġreci bo
Ġ[ {
medi os
Ġencar gados
ĠdiseÃ± ador
ĠbÃºsque das
Ġdeber es
Ġsec re
Ġefici entes
Ġintro du
Ġintelig ente
Ġpregun tar
Ġprove e
Ġquier an
Ġarreg los
Ġavan ce
sion ales
Ġbalan ces
Ġaco mpaÃ±
Ġefica cia
Ġvul gar
Ġasigna tura
Ġmod ularidad
Ġindustr ia
Ġflexi bilidad
Ġconsecu encia
Ġpl aca
Ġinstru mentos
Ġconcurr encia
Ġpreval ecer
Ġinyec ciÃ³n
Ġdescon oci
Ġescas ez
Ġmanip ular
Ġmonitor eo
Ġmix tos
Ġinvestiga ciones
Ġqued Ã³
Ġiter aciones
Ġinecu aciones
Ġdisper siÃ³n
Ġdisminu ir
Ġrecopil aciÃ³n
Ġensambl ador
clas e
eraz go
Ġcircun s
Ġestima ciones
Ġtradu cir
Ġdemocra cia
ĠpÃ© rez
Ġath lon
ĠsemÃ¡ for
1 0
4 0
b m
b iendo
c er
g adas
o k
o per
p h
p p
z ca
Ġ ""
Ġe man
Ġe uros
Ġde je
Ġp il
Ġp udo
Ġp ython
on omÃŃa
Ġm ÃŃo
Ġm ental
in f
in o
Ġv ital
Ġin comple
lo go
di men
tiv e
Ġtr Ã¡
Ġi bm
Ġpo cas
Ġinter bloque
Ġle tras
Ã©n do
fic aciÃ³n
Ġman os
Ġma pa
co m
Ġbas adas
Ġpre viamente
Ġpa z
Ġgener ador
Ġpas Ã³
Ġpod ÃŃa
Ġrela tivamente
Ġpres iÃ³n
Ġvis ibilidad
Ġfu tur
Ġanaliz ado
Ġtom Ã³
Ġimpl ican
Ġref iero
Ġpues ta
Ġcumpl an
Ġingres e
Ġfi jar
ven ientes
Ġcontra iga
Ġacuer dos
Ġnorma tivas
Ãºs cula
Ġfal la
Ġ11 5
pa cio
ĠfÃŃs icas
Ġtend encias
Ġproto tipo
Ġpens ando
Ġtu ve
Ġdeber Ã¡n
ip s
Ġencuentr e
Ġexpl icar
ĠcuÃ¡n tos
Ġdivers idad
Ġorien tadas
Ġcrea tividad
Ġrecon o
Ġquier es
Ġoportun idades
Ġadi cionalmente
Ġmodific aciÃ³n
Ġmu tu
ĠtÃŃ tulo
Ġhar Ã¡
Ġhar dening
Ġinmedia tamente
Ġplane ta
Ġhom bres
Ġextrem adamente
Ġdej ando
Ġamen a
Ġsecuenci almente
Ġpien so
Ġconoz can
Ġconvers ar
Ġadquis i
Ġpseudo alea
Ġregula ciones
Ġlid erazgo
Ġdemas iado
Ġenl aces
Ġmonopol io
ĠclÃ¡us ula
ĠquÃŃ m
Ġmaquin arias
ĠpÃ©r dida
Ġsemestr e
Ġmonitore ar
Ġintelec tual
Ġomis iÃ³n
Ġpil as
d ra
d ores
e j
g ando
l y
m us
p aje
Ġ ÃĹ
Ġp adre
Ġs croll
Ġa ver
ci to
on Ãºcleo
Ġm am
an ito
Ġen crip
re ad
Ġv ÃŃa
Ġv eci
Ġre ca
Ġf ras
cion ados
ab its
us o
ac er
Ġal tos
Ġcu y
Ġg ri
bi les
Ġi va
Ġda Ã±os
Ġso bres
Ġdis cu
ici oso
ten ible
Ġan im
Ġres uel
el er
ce der
gram as
Ġejecu te
Ġsus ten
Ġtra en
Ġtra tan
Ġ10 7
Ġta blespace
Ġllam amos
Ġtan ta
Ġtan tos
Ġalgun o
Ġvis ual
Ġne ur
Ġconj u
Ġactiv ity
Ġcompon e
Ġcompon en
Ġsigu en
teri or
Ġfinanci amiento
Ġfi jo
Ġcomple jas
Ġnorma tivo
Ġexper to
Ġdistin gue
Ġcompar ten
Ġsimpl es
Ġro taciÃ³n
Ġro paje
Ġefec tuar
Ġcorrec ciÃ³n
Ġprodu ci
Ġmal icioso
Ġprofes iÃ³n
Ġllegar on
Ġencar gado
fac tura
Ġfr acas
Ġfacil ita
Ġtas as
Ġinfer encias
Ġcomien zan
Ġapor taciones
Ġdetal l
Ġelim ina
Ġcarr eras
Ġviv e
Ġcompro miso
Ġprepar aciÃ³n
Ġelabor ado
Ġcomunica cional
Ġinmedia to
ĠsimultÃ¡n ea
Ġmill Ã³n
Ġconstituy ente
Ġactualiz aciones
Ġami go
Ġsufici entes
Ġinten s
Ġmanu factura
Ġadd ress
cron a
Ġsupervis ado
Ġestandar izaciÃ³n
Ġdesigualdad es
Ġseleccion a
Ġpropa gan
Ġconvers aciÃ³n
Ġcertific ado
Ġvulner abilidad
Ġconstr uye
Ġful anito
Ġimplementa ciones
Ġconci encia
Ġmanip ulaciÃ³n
Ġtelef on
Ġtranspar ente
Ġcontabil izar
Ġendeud amiento
jec t
Ġperfec ta
ĠrectÃ¡n gulos
Ġtradi cionales
Ġdiscrim inar
Ġmicr onÃºcleo
Ġimpul s
Ġsincron izaciÃ³n
Ġaca par
Ġrepl icaciÃ³n
Ġrap idez
Ġche que
Ġaver igu
Ġmam Ã¡
) "
6 8
d ico
h t
m em
t n
t adores
u mp
v iendo
v ard
x il
x hdpi
z Ã³
Ġd Ã³
Ġp ci
Ġp el
Ġc e
ci na
or ia
Ġque dan
ti a
ti ciÃ³n
Ã³ ven
tr Ã³
Ġv ice
Ġcon gru
ic es
Ġse mi
Ã¡ tico
Ġpro vis
Ġpro hÃŃ
Ġt us
Ġb a
Ġb it
Ġest u
le g
Ġme tro
tic s
Ġac tores
ĠestÃ¡ tica
Ġle arning
Ġinf laciÃ³n
Ġcons igu
Ġop cional
il la
el Ã©c
Ġdecir lo
Ġfin es
Ġad mi
Ġj Ã³ven
Ġcomun idades
Ġopera cional
Ġdef ensa
Ġdetermin amos
Ġsab es
Ġpres ta
Ġpres id
Ġorden anzas
Ġne uman
ĠmÃ© dica
Ġactiv ar
Ġau xil
Ġfuncion ando
Ġve an
Ġrec tor
Ġutilizar Ã¡
Ġdec re
Ġdistin guir
Ġcompor tamientos
ex tend
Ġreci bido
Ġreco g
Ġreco gida
ĠmatemÃ¡ ticamente
ĠÃ©s tos
ĠÃ©s tas
Ġprob abilidades
Ġdocum entado
Ġunivers o
Ġbi olÃ³g
Ġalea tori
Ġsem icon
Ġselec t
Ġpatr Ã³n
Ġprove er
Ġadministra tivo
Ġampl i
ĠprÃ©s tamos
Ġciudad ano
Ġdescu brir
Ġexist ente
Ġpreci sa
Ġaum enta
Ġsur gen
Ġsur ge
ĠcientÃŃ ficos
Ġesque mas
Ġhar vard
Ġcategor ÃŃa
Ġalim entaciÃ³n
Ġinvoluc r
Ġradio elÃ©c
Ġplanific Ã³
Ġtras l
Ġreglam ento
Ġexac titud
Ġsupervis ar
Ġfrag mentos
Ġentien den
Ġcompeti tiva
Ġcompeti dores
Ġide al
Ġexcel encia
Ġpop mus
Ġhal lar
Ġtor re
quiÃ©n es
Ġofici na
Ġtranspar encia
Ġaisl ada
Ġhis toria
ĠâĢ ĵ
Ġprimi tivos
Ġvm ware
Ġparalel ismo
Ġsecund aria
Ġmonol ÃŃ
Ġsubes pacio
Ġtri Ã¡ngulo
Ġsolid ario
ÃŃx eles
ĠdÃ³ lar
Ġvice versa
ĠprohÃŃ be
ĠjÃ³ven es
Ġneuman n
ĠradioelÃ©c trico
Ġpopmus ic
1 4
3 3
c y
d y
d eco
p ut
s os
Ġe je
Ġl ist
en as
en tamos
Ġp ac
Ġc ib
Ġc if
er ican
Ġa ter
or gan
Ġes tric
ti to
Ġv ic
Ġv io
Ġcon ti
Ġcon atel
Ġse pan
Ġo k
Ġo mt
am ble
Ġre emp
id imen
Ġf oco
ien e
Ġpro m
Ġpro me
Ġpar ecer
em bol
Ġb on
ac tiva
Ġno mbr
iz e
Ġal f
Ġal tura
Ġdi ariamente
tu ales
la ve
la zar
Ġpo dido
Ġac ord
Ġinter fer
Ġle v
Ġres uelve
tor a
Ġcons istente
Ġma es
Ġempres ario
Ġr ue
Ġbas ta
Ġbas tantes
Ġgr ama
Ġas amble
Ġfin aliza
Ġobje tiva
Ġejecu tiva
Ġj untos
Ġrep Ãºbl
Ġimpor te
Ġprop one
Ġlle go
Ġregis tra
Ġimportan tÃŃ
Ġbuen os
Ġllam ados
Ġorden a
Ġvis ible
Ġalmacen es
ch e
Ġne gra
ĠmÃ© trica
Ġhabl aba
Ġfuncion an
br imiento
Ġqui to
Ġir se
Ġestudi ando
Ġhuman idad
Ġgu iar
Ġcliente la
Ġdec ÃŃan
Ġra cional
gen er
Ġjur is
Ġnum Ã©rica
Ġsenti mientos
Ġsencil los
Ġsencil las
Ġponer le
Ġanal y
Ġdenomin ado
Ġram as
Ġdeber ÃŃamos
Ġexter na
Ġdocum entar
Ġtermin ar
Ġdiri g
Ġconv iene
Ġpregun to
Ġfor ward
Ġaplic adas
Ġtendr ÃŃamos
ĠlÃ©x icos
Ġju icio
Ġlan zar
Ġcuad ro
Ġescuch a
Ġenv ÃŃan
Ġsur gido
Ġrefer ente
Ġcomunica tivas
Ġesper ando
Ġacre edores
Ġrepeti ciÃ³n
Ġmov imientos
ĠprÃ³xi mo
Ġapren dido
Ġdividir se
Ġsocio econÃ³m
Ġvuel ta
ĠestratÃ©g icos
Ġclasific an
Ġdij eron
ĠdaÃ± ado
Ġpus h
Ġescen ario
Ġsil icio
ĠarquitectÃ³n icos
bu eno
Ġincons istencia
Ġasegur arse
Ġcoinci de
Ġespecializ adas
Ġmacro economÃŃa
Ġlex ema
Ġcomprensi ble
cuÃ¡n tos
Ġmoder n
Ġinversion istas
Ġempiez an
Ġvesti dos
ĠpÃ¡rra fo
Ġmercad erÃŃa
of f
Ġdifus a
Ġvoc ab
Ġconvir tiendo
Ġsentar me
Ġcogn i
Ġaster isco
ĠsemÃ¡for o
Ġencrip taciÃ³n
Ġgri e
Ġater r
ĠrepÃºbl ica
) ^
f ismo
h ar
h acer
i que
o cu
t encia
v imos
Ġe timo
Ġe quidad
Ġp istas
er amente
Ġs crip
es o
es t
or fismo
te mos
te ms
Ġm ente
Ġm adu
tr e
Ġun iÃ³n
Ġun it
Ġn ul
Ġv f
Ġv ar
Ġv ea
Ġcon exo
ic ando
ic ados
Ġo ut
Ġpr ud
ÃŃ do
Ġco las
Ġco ciente
Ġsi quiera
Ġg i
Ġi lim
enci oso
Ġus os
tro cin
Ġtien da
Ġhac k
Ġmo tiv
Ġmo use
Ġres t
Ġproces s
Ġma gnÃ©
Ġesta tus
ce d
Ġcl ÃŃn
Ġcl Ãºs
Ġver bo
til la
Ġhab rÃ¡
men es
no do
Ġgr up
Ġcar gos
Ġval idez
Ġmemor y
Ġejecu ten
Ġpa trocin
Ġdirec cionar
Ġrep ro
per son
Ġpod amos
Ġpod ÃŃamos
Ġrealiz ado
Ġdefin idos
Ġpres erv
Ġvis tas
Ġexp or
Ġnecesi tas
ĠmÃ© dicos
Ġactiv as
Ġcan cha
Ġestar Ã¡
Ġescri biendo
Ġconstitu ir
Ġtom ado
Ġve hÃŃ
quitec tura
Ġsub ray
Ġsegun dos
Ġinver tido
Ġref orma
Ġsignifica tiva
Ġfi allo
ĠtÃ©cn icos
Ġmon o
Ġgu erra
Ġmar gen
ĠpolÃŃ tico
Ġcal ifica
Ġcapaci taciÃ³n
Ġestructur aciÃ³n
Ġtama Ã±os
ĠprÃ¡c tico
Ġexpres ada
Ġro de
Ġdur os
Ġ11 2
Ġconec tores
Ġconc entr
Ġreci Ã©n
Ġreco m
ĠfÃŃs icamente
Ġestra tos
Ġon tologÃŃa
Ġrespons ables
Ġfr an
Ġprob able
Ġdivid en
Ġexpl ica
Ġaplic ado
Ġaplic ables
Ġsac an
Ġguar dan
Ġcont encioso
Ġdesarroll ando
Ġapor ten
ĠÃ³p ticos
Ġterc ero
Ġacce de
Ġadecu ados
Ġdev oluciÃ³n
Ġdetec ciÃ³n
Ġesco ge
Ġedi tar
Ġnu lo
Ġbar b
Ġdismin uye
Ġningun o
Ġpien san
Ġconsecu encias
Ġconfi able
Ġargumenta tivos
ck et
Ġinyec tar
Ġconceptu alizaciÃ³n
Ġprivileg i
Ġprivileg ios
Ġexplo taciÃ³n
Ġasum e
Ġfacti bilidad
Ġinterconec tan
Ġinnov aciÃ³n
Ġetique tas
Ġexcep ciÃ³n
Ġmaxim izar
Ġacon te
Ġga us
Ġorto grafÃŃa
Ġprofund idad
Ġpobre za
Ġsimula ciones
Ġsubsecre tarÃŃa
Ġul timo
Ġvenci miento
Ġquis i
ext ents
Ġav iÃ³n
Ġremun er
Ġrechaz ar
Ġcircuns tancias
Ġfutur os
Ġpseudoalea torios
Ġsemicon duc
ĠclÃºs ter
b rec
g Ã¡n
g imen
m enta
o b
p d
u aciÃ³n
v emos
w n
Ġ :
on as
ar nos
as e
to da
Ã³ gn
Ġen sa
Ġen fr
Ġen tiendan
al o
re mo
Ġv irus
is c
Ã¡ ticas
Ġco orden
Ġre ce
Ã© gimen
Ġf om
Ġf etch
Ġf ibra
Ġpar es
de lo
iz adas
Ġal er
Ġdel ante
di cidad
Ġg al
Ġg am
Ġtr Ã¡n
ent ador
Ġser ver
Ġpue das
Ġdes via
im as
Ġpo tes
Ġex tin
Ġor gÃ¡n
Ġinter person
Ġres tar
Ġres tring
Ġres istir
Ġproces ada
da te
Ġop en
den tro
si ficaciÃ³n
Ġcom ent
Ġcom ida
Ġentr ante
Ġimp os
Ġver siones
Ġar ista
Ġhab le
Ġhab itu
Ġr Ã©gimen
no w
Ġmen ores
Ġcor ta
Ġcontrol adores
Ġcap tura
Ġcap tur
Ġinc Ã³gn
Ġ10 6
Ġrealiz ando
Ġresp ecta
tin a
Ġsal iÃ³
Ġpres tado
Ġau tores
Ġescri bo
Ġanaliz o
Ġinici almente
Ġimpl ÃŃci
Ġadministr adores
Ġabs tra
Ġingres Ã³
Ġfi jos
Ġmon tÃ³n
Ġgu ÃŃa
Ġdar le
Ġcompar an
Ġexpres an
Ġx p
Ġro bo
Ġconsider ando
Ġconsider amos
Ġaudi o
ist encias
Ġrepresenta ciones
Ġflu ir
ĠdiseÃ± ados
ion arios
Ġpan or
Ġespecific ado
Ġgan ancia
Ġmid dle
Ġinterac ciones
Ġprove edor
Ġsatis fa
Ġaplic arse
Ġescal ar
Ġizquier do
Ġahor ros
Ġarreg lar
ĠdÃ© biles
Ġsur giÃ³
Ġadap tarse
Ġordin ales
iza cion
Ġestim aciÃ³n
ĠparÃ¡ metro
tÃº a
Ġplanific ado
Ġcuo tas
Ġtecn olÃ³gico
Ġcorre os
Ġorigin ales
Ġemi tir
Ġnega tivos
Ġfich ero
Ġhogar es
Ġvin cul
Ġlog s
Ġequival ente
Ġeduc a
Ġimagin o
Ġjuz gada
ĠlÃŃder es
Ã©m onos
Ġvig encia
Ġdepur aciÃ³n
Ġgig as
Ġfacti ble
Ġtransforma ciones
Ġenl ace
Ġnomin al
ĠhomogÃ©n ea
Ġsubordin ado
Ġexposi ciÃ³n
Ġcostu mbre
Ġbl ue
Ġblan co
Ġsociocul turales
Ġsens ores
Ġape la
Ġacor de
Ġevolucion ando
Ġeng lob
Ġpropagan da
Ġcoorden adas
ĠtrÃ¡n sito
Ġdesvia ciones
Ġpotes tad
. ,
1 2
b ra
g ing
i rec
p ues
s ta
s ize
t aria
u tas
v amos
y ac
Ġ '
Ġd on
Ġd pi
os ticar
Ġl enta
Ġp las
ci les
ar quitectura
Ġm uer
Ġm adre
an cias
Ġla yout
in ess
Ġv ivo
ta bilidad
Ġcon tex
Ġh Ã¡
Ġco fac
id irec
Ġt este
Ġb y
ac tiv
Ġno ta
Ġno tas
Ġal em
Ġal ine
di mos
di eron
gu ar
gr aciÃ³n
da ciones
tar lo
tar nos
Ġob ed
Ġesta ban
Ġdeci dieron
Ġcl ima
Ġver ifica
Ġtrabaj en
Ġtrabaj ado
Ġhab lan
Ġhacer le
po ca
Ġdic hos
Ġmem Ã©
Ġpre ocu
Ġpa utas
Ġpas ando
Ġcap ta
Ġcre ada
Ġ10 8
Ġrealiz adas
ur ÃŃa
Ġta x
Ġsal ga
Ġpermi tan
Ġpres entamos
Ġorden ados
Ġlen titud
Ġespeci almente
uev en
ĠÃ© poca
Ġescri ba
Ġcaracter is
Ġform ando
Ġform ales
Ġform ular
Ġsub proceso
Ġestudi os
Ġimpl icar
Ġcier re
Ġlib res
Ġlib rer
Ġfi gu
Ġdia gn
Ġacuer dan
Ġnego ci
Ġcal ce
Ġactu alizar
olu ciones
Ġbaj ar
Ġinteres adas
Ġter remo
Ġpropor cional
Ġinde fin
Ġconsider aciÃ³n
ĠinformÃ¡ ticas
ĠaritmÃ© tico
Ġch ar
Ġch ina
Ġsig ma
Ġinclus iÃ³n
Ġexpl icaciÃ³n
Ġgan ancias
Ġparticular es
Ġcurs iva
Ġorien taciÃ³n
Ġcen tra
Ġgus te
ĠelectrÃ³n ica
Ġintercambi ar
ĠcrÃ©di tos
Ġcomunica cionales
Ġesper an
Ġregres a
Ġmanej ando
Ġinmedia tos
Ġestim adores
Ġinvoluc radas
Ġbo o
Ġglob ales
Ġviaj ar
Ġimpres o
ĠÃºtil es
Ġnega tiva
ĠcrÃŃ ticas
Ġmetaheur ÃŃsticas
Ġdeclar aciones
Ġestandar izar
Ġagrup aciÃ³n
Ġinser ciÃ³n
glo ba
Ġbanc arias
Ġfacultad es
Ġautomatiz ado
Ġki lob
ĠarquitectÃ³n ico
Ġmicroserv icio
Ġol vid
Ġrespec tivamente
ĠrectÃ¡n gulo
Ġenrique cer
Ġdistr ib
Ġfortal eci
Ġestableci dos
Ġcrec e
Ġdiscre tas
Ġfamiliar es
Ġflec ha
Ġprobabil ÃŃsticos
ĠclÃ¡s ica
ĠintÃ©rpre te
Ġdisp uestos
Ġrenego ciar
Ġnar ra
Ġincon venientes
ĠteÃ³r ica
Ġnet work
Ġamena za
Ġrue das
Ġquisi era
Ġlibrer ÃŃas
) .-
a xi
g si
g esti
i gar
j an
n t
n an
r ados
s as
w w
Ġl ic
Ġp h
er se
ci da
que mos
Ġque hacer
in s
Ġen um
Ġel i
Ġel em
Ġel se
Ġv ÃŃas
is a
Ġo me
ÃŃ tulo
Ġh ÃŃ
Ġco axi
Ġre duc
Ã© tica
Ġt era
Ġb log
de be
Ġno ciones
Ġal ar
Ġal tas
Ġlo co
ter min
Ġdi v
Ġcomp ac
tic ales
Ġi t
Ġi ee
Ġda Ã±o
Ġdes a
Ġdes embol
Ãº an
Ġso brec
Ġex terior
iv idad
Ġap Ã³s
Ġap ache
ul ario
Ġcons istir
Ġop ti
Ġob vio
den s
Ġentr en
Ġu p
Ġins u
Ġar bi
Ġdic has
Ġreg iones
Ġcar ros
con tr
Ġpre via
Ġad yac
Ġj un
Ġmedi cina
Ġproduc tores
Ġcap ÃŃtulo
Ġcre adas
Ġpos tul
Ġ10 9
Ġdefin ida
Ġcambi antes
Ġrela tiva
mb rar
Ġrecurs ivas
Ġalmacen adas
ren unci
Ġequi vo
Ġher ed
Ġau ten
mÃ¡ tica
Ġconstitu idos
Ġir q
Ġir renunci
Ġven ir
Ġllev en
ĠseÃ± or
Ġobl igar
Ġcal cu
Ġactu alidad
Ġestructur ar
Ġcr is
Ġam Ã©rica
Ġro cket
Ġconsider ada
Ġaudi tado
ĠjurÃŃd icos
proces amiento
Ġmal icios
Ġnum Ã©ricos
Ġreco gido
Ġdistribu idas
Ġ19 9
ĠrÃ¡p idos
Ġfr ÃŃo
Ġpi ezas
Ġintro duc
Ġexter namente
Ġcompren den
Ġcompren dido
Ġjus to
Ġho ja
ĠcomÃºn mente
Ġocur r
op era
Ġdomin ios
Ġsopor tan
mul as
Ġtendr Ã¡n
Ġdu da
Ġoptim izando
tific aciÃ³n
Ġbloque ar
Ġeficiente mente
Ġbin arios
Ġobten ida
Ġobten idos
tori ales
Ġelabor aciÃ³n
ĠfÃ³r mulas
Ġpriv ado
Ġindic ando
Ġconform ado
Ġfrecu ente
Ġinstal ar
Ġmill on
Ġexperim entaciÃ³n
âĢ Ļ
ĠtÃŃp ico
Ġrutin a
Ġbig table
Ġproteger se
Ġsum ando
Ġvac ÃŃo
Ġos ea
ĠhistÃ³r icos
san dra
Ġdue Ã±os
Ġdy nam
Ġexclus ivo
Ġaprovech ar
Ġocu pa
Ġprec e
Ġdespl ie
Ġtrayec torias
Ġadop tar
Ġdivis ar
Ġemo ciones
Ġvincu lado
Ġvincu lante
Ġilus tra
Ġmanifi estan
ĠacadÃ©m ica
Ġmeg abits
Ġcontrase Ã±as
Ġencaden ada
Ġtitu lar
Ġconces ionarios
Ġseri es
Ġapreci ar
Ġmodela je
Ġaverigu ar
mem oria
Ġsemi estructur
Ġpresid ente
Ġvocab ulario
Ġhack ers
Ġgaus s
Ġimpos ible
Ġpanor ama
Ġmuer e
Ġterremo to
Ġome ga
Ġiee e
ĠapÃ³s tro
) ;
b os
c d
c end
h ile
i amos
i Ã©n
l uego
p ens
p uesta
s or
u g
u ter
Ġde ducir
Ġp ad
Ġp len
Ġc enso
Ġs d
Ġs y
Ġa val
Ġa rea
on ada
qu en
or n
as a
Ġes encia
un cia
Ġm b
ti di
Ġen globa
re use
mp or
mp ut
Ġh as
Ġco ger
Ġco difica
Ġco tidi
Ġre do
Ġpar ser
Ġt ur
Ġpor tÃ¡
us u
us to
iz ada
res e
di o
Ġtr oy
Ġten gas
tu ando
go db
Ġme tal
Ġcomp etir
ica tion
ra ys
Ġdes en
Ãº menes
Ġha gamos
Ã± Ã³n
Ġinter medios
Ġle jos
Ġap are
fic ar
Ġres al
Ġcons ig
il le
il las
Ġdeci de
Ġinform ar
Ġtrabaj emos
Ġ2 000
Ġar ro
Ġgr adu
ez can
Ġcar ro
Ġmi ti
ver tencia
Ġorgan ismo
Ġad vertencia
Ġejecu tivos
Ġj o
Ġmuch ÃŃs
Ġdirec tivos
Ġcual ific
Ġden s
Ġrep etir
Ġcre ciente
Ġrealiz ados
Ġresp uestas
Ġvis ibles
Ġexp ro
aci dad
Ġestar ÃŃa
Ġescri tos
Ġescri ben
Ġw ifi
Ġw arning
Ġw hile
Ġabs ur
Ġref or
Ġfi abilidad
Ġdia posi
Ġintegr ante
Ġmon godb
Ġrelacion an
Ġactu alizaciÃ³n
Ġmul tiv
ed ora
ed iendo
Ġcol Ã©rico
Ġprimer amente
Ġcompar tido
Ġcompar tida
Ġdepend iente
Ġam bi
Ġmulti dimen
Ġro uter
Ġefec tivamente
Ġ11 4
Ġprodu zca
Ġreci entemente
Ġnum eros
Ġreco ger
Ġfundam entaciÃ³n
Ġrepresenta tiva
Ġtelecomun icaciÃ³n
Ġrecuer do
Ġrecuer da
Ġren uncia
Ġbienes tar
Ġsepar ables
ĠespecÃŃ ficamente
Ġdeman dar
Ġdenomin ar
Ġtransf ieren
Ġtu vo
Ġprob ablemente
Ġk b
Ġk il
Ġenten dible
Ġasoci adas
Ġencuen tro
Ġgas tar
gra fo
Ġri ge
cr ono
Ġmultipl icidad
Ġinterpre ta
Ġelectr icidad
Ġcompr Ã©
Ġescal onada
Ġperio dicidad
Ġdescu brimiento
ys is
Ġplante a
Ġescuch ado
Ġconcre ta
Ġconcre tos
Ġsatisfac e
ĠsemÃ¡n tica
Ġense Ã±a
Ġesper ar
Ġaplica tivos
Ġrespal dos
Ġpot ente
Ġrepeti dos
Ġsan itaria
Ġconsidera ciones
ĠimagÃŃn ate
Ġsuc ediendo
Ġdej aba
ĠÃ¡rbol es
Ġ201 9
Ġsta tic
Ġcuesti on
Ġcomplem ent
Ġseleccion ado
tran s
Ġdestin a
Ġdestin adas
Ġelector ales
Ġpop ular
Ġcontribu ido
Ġvend iendo
Ġargumenta tivo
Ġpus o
Ġexclus ivamente
Ġdesc end
Ġpreval ece
pol itan
Ġocu p
Ġcomputa cionales
ĠelÃ©c trico
Ġremo ta
Ġreutiliz able
Ġlis tado
Ġrev oluciÃ³n
Ġnomin ales
Ġcomprome ter
Ġparame triz
Ġfo to
Ġcostu mbres
Ġflex ible
Ġayud ando
Ġindis pens
Ġtex tual
Ġantigu os
ĠvÃŃn culo
Ġsencill ito
Ġdificultad es
siste ma
Ġalo jar
Ġinflu encia
Ġprac tica
Ġperci ben
Ġht tp
Ġpolim orfismo
inf orm
ĠtrÃ¡ fico
Ġcuy as
Ġmetro politan
ĠsocioeconÃ³m ica
Ġnul l
Ġgi gan
ĠhÃ¡ bito
Ġenum er
Ġconsig ue
- >
5 00
? :
] [
f ras
g ables
l f
r idad
r iendo
z co
Ġ &
Ġe dos
os as
Ġl lave
Ġp iz
Ġc uel
Ġc isco
er to
ci almente
on ales
on om
ar me
Ġque de
tr icos
in amiento
Ġen em
Ġen fer
Ġen cam
Ġv ieron
ÃŃ gen
Ġh ambre
Ġco de
Ġre cur
id urÃŃa
Ġpro log
Ġpar tn
Ġt h
cion ario
lo op
Ġpor quÃ©
Ġpor tal
de fin
Ġdel im
ma x
Ġdi Ã¡
tu m
Ġme ter
Ġme tida
Ġcomp ras
Ġi br
Ġac eler
dad os
Ġemp ÃŃr
Ġmo oc
Ġres oluciones
aliz ando
Ġcons isten
Ġdeb a
Ġman d
el ec
Ġcl ic
it adas
Ġpa gado
Ġdirec tiva
Ġprim ada
Ġcre er
Ġred acciÃ³n
log y
Ġdeter ior
Ġdetermin aciÃ³n
Ġsab idurÃŃa
tur ar
tico mput
Ġab ono
Ġrepres ente
Ġnorm alizaciÃ³n
Ġhabl ado
Ġay er
Ġplan es
lec tura
Ġescri ta
Ġescri bimos
Ġtom ada
br ar
Ġsoci os
Ġw ord
Ġmens aj
Ġven imos
Ġet her
Ġley endo
Ġllev ado
Ġemple ando
Ġconta cto
Ġna cionales
ĠÃºlti mas
Ġimplem entados
Ġdec reci
Ġmul ticomput
Ġcol abora
Ġeval Ãºan
Ġra tÃ³n
Ġdistin ta
Ġtab ular
bier on
Ġ11 3
Ġclar os
Ġdeno ta
Ġpun ta
Ġproto tipos
Ġdenomin ada
Ġpens amientos
dic ciÃ³n
Ġch i
Ġmanten iendo
Ġrespe ten
ĠseÃ±al an
Ġmor ir
olÃ³g ica
Ġvec toriales
Ġalea torios
Ġrequis ito
Ġrevis iones
gra ph
ĠcompaÃ± era
Ġcambiar lo
Ġlogr an
Ġafec tan
Ġinterac tuando
Ġorien tados
Ġmultipl ica
Ġvirtu des
segu ridad
Ġand ina
Ġtempor izaciÃ³n
Ġcla Ãºs
Ġargu mento
Ġliber al
Ġdesarroll adas
tel la
Ġavan zar
Ġoportun a
Ġprior it
Ġescuch ando
ĠmÃºltip le
Ġadecu ado
Ġincor pora
Ġmanej amos
Ġinvoluc ran
Ġmoni tores
Ġdemos traciÃ³n
Ġbo tella
Ġdese an
Ġsuel dos
Ġpudi eran
Ġdefini ciones
ĠenseÃ± aron
Ġimpres iÃ³n
cron as
Ġexperim ento
crip ciÃ³n
Ġcoordin an
Ġestandar izados
Ġentrevis tas
Ġfactor izaciÃ³n
Ġpier den
ĠgeogrÃ¡ ficamente
Ġreserv adas
Ġcertific ados
Ġconstr uyen
Ġexclus iÃ³n
Ġconcurr ente
Ġitera tiva
Ġavanz ando
Ġavanz ada
Ġendeud Ã©
ĠcÃ¡mar as
Ġheur ÃŃsticos
Ġcerc anÃŃa
Ġprimi tivo
Ġreflej an
Ġtradi cional
Ġinterven ciÃ³n
Ġinterven ir
Ġequita tiva
Ġrecomen daciones
Ġincid entes
Ġhos p
Ġacon se
Ġpele a
Ġelev ado
Ġcontrase Ã±a
Ġatac antes
Ġliter ario
Ġmezc lar
Ġeconom istas
Ġadelan tado
Ġconson ante
Ġpaci entes
Ġrazon amiento
Ġlegisla tivo
Ġkilo va
Ġprofun da
Ġretor no
Ġped idos
Ġdup l
Ġvers us
Ġmercanc ÃŃas
Ġsupre ma
Ġalum nos
Ġinterbloque o
Ġproduci dos
Ġtrasl ad
Ġmaes tro
ĠimportantÃŃ simo
Ġjuris dicciÃ³n
ĠvehÃŃ culo
Ġrecom ienda
Ġbarb ero
Ġensa yo
Ġcofac tores
Ġalem Ã¡n
Ġcaracteris ticas
Ġsobrec arga
usu ario
Ġpiz za
Ġenfer m
Ġpartn ers
Ġether net
+ +
1 1
1 98
5 0
a u
a y
d Ã³nde
e y
g ente
g iere
h ip
l ite
m ent
n g
n ic
r ÃŃan
s em
u tos
u era
v as
Ġe res
Ġe gres
os tu
Ġl ar
Ġl Ã¡
Ġl uch
Ġc aj
Ġc ientos
or ar
Ġm Ãºs
an d
Ġun ido
Ġin tan
ÃŃ genes
Ġh um
Ġco procesador
Ġre l
Ġpar tÃŃ
Ġt Ã¡c
Ġt hen
cion ada
us iones
Ġcu bre
ter ales
le z
Ġper tin
Ġg ol
Ġg pr
Ġdi rÃ¡
Ġsu br
Ġsu giere
Ġme todos
Ġcomp rend
Ġser ÃŃan
Ġdes orden
im estr
Ã¡s tica
Ġac tos
Ġac ostu
Ġor aciones
Ġle ÃŃ
Ġres ol
Ġres truc
Ġproces a
tor sion
aliz aciones
tar t
ri ll
Ġma gn
Ġinform al
Ġins tante
Ġvari antes
Ġca y
Ġbas Ã¡ndose
ware ho
ver tidas
Ġpre f
emp res
Ġtra tamos
Ġorganiz an
Ġproduc tivo
Ġid io
ur as
Ġresp et
Ġregis trado
lan tes
om or
mb o
me j
Ġpres entando
Ġorden ar
emen to
Ġlengu as
Ã³g ico
Ġposi blemente
Ġpe trÃ³
abil ity
xi onar
Ġsignifica tivo
Ġidentific ado
Ġparti ciones
Ġintegr ado
ja te
Ġgu ber
Ġejecutar lo
Ġimplem entan
tiz aciÃ³n
Ġacces os
Ġmin utos
can z
Ġcompar able
Ġderiv aciÃ³n
Ġpodr ia
Ġincre mente
Ġro mbo
Ġlec turas
Ġaudi tores
ĠÃºn icas
Ġauto valores
Ġprofes ores
Ġsencil lez
Ġren unci
Ġdescrip tivo
Ġmicro economÃŃa
Ġtu vimos
Ġrecor rer
ĠsÃ© p
Ġk ey
Ġencuentr en
Ġrefle xionar
Ġreal ice
Ġrevis tas
Ġocur rido
Ġafec ten
Ġproporcion ados
Ġorien ta
Ġju an
Ġgus tan
Ġdesarroll ador
Ġapor taciÃ³n
Ġsolici tÃ³
Ġinterr ump
Ġele g
Ġtransform ado
Ġacep ta
Ġpropi amente
Ġviv en
Ġcolo c
Ġconver siÃ³n
Ġconduc tas
Ġ27 000
ys ql
Ġelabor ados
Ġregular mente
Ġadecu adamente
Ġpriv ada
Ġespecial istas
Ġincor rec
Ġesper ado
Ġreun ir
Ġran uras
Ġconsu mi
Ġdese os
Ġpudi Ã©ramos
Ġsan gre
Ġvisu ales
ĠenseÃ± an
Ġcolabor ar
Ġcorre la
Ġinal canz
Ġemi ta
Ġmanu almente
Ġimpres ora
Ġexig e
Ġapun tadores
Ġcomplem entarios
Ġexcel ente
Ġimagin Ã©monos
ĠfÃŃ jate
Ġcuar to
Ġvend rÃŃan
Ġargumenta tiva
Ġesfuer zos
Ġhal f
Ġmercan tiles
Ġrem ueve
Ġofici nas
Ġdesventa ja
Ġsensi ble
ĠperiÃ³ dicos
Ġhabi amos
Ġfij arse
Ġincons istencias
Ġviol aciÃ³n
Ġdemas i
Ġcomprome te
Ġasim ismo
Ġbrin dan
Ġestableci das
Ġpag Ã³
Ġrecomen d
Ġjue gan
Ġexpon ente
Ġconson ancia
Ġcd ma
Ġframe work
Ġhipo tec
Ġdescentr alizaciÃ³n
Ġbur gu
gon al
Ġabar ca
ĠsatÃ© lite
Ġeuro p
Ġdedic an
arch ivo
Ġbio inform
Ġsecre tarÃŃa
Ġmutu a
ĠbiolÃ³g icos
Ġaleatori amente
ĠdÃ³lar es
Ġalf ab
Ġlev el
Ġmadu rez
Ġprocess ing
Ġrepro ducciÃ³n
gesti Ã³n
Ġelem entales
Ġcoaxi al
contr ol
Ġdesplie gue
Ġsemiestructur ados
Ġrecur rir
Ġintan g
ĠpetrÃ³ leo
Ġguber nam
Ġbioinform Ã¡tica
' '
a ti
a uto
b x
c ache
f un
f igu
g l
g los
l uye
m entaciÃ³n
n b
n eces
o t
o th
p ma
p ed
s en
t arios
Ġd adas
Ġd om
Ġde ep
Ġp ÃŃxeles
er vi
Ġs tora
Ġs gsi
es os
ci d
to oth
Ġla menta
Ġen co
al or
re ciendo
Ġn ervi
Ġv elar
ta ba
is tic
Ġse pa
mp er
ÃŃ simo
Ġco g
Ġre tribu
