{"<s>":0,"<pad>":1,"</s>":2,"<unk>":3,"<mask>":4,"!":5,"\"":6,"#":7,"$":8,"%":9,"&":10,"'":11,"(":12,")":13,"*":14,"+":15,",":16,"-":17,".":18,"/":19,"0":20,"1":21,"2":22,"3":23,"4":24,"5":25,"6":26,"7":27,"8":28,"9":29,":":30,";":31,"<":32,"=":33,">":34,"?":35,"@":36,"A":37,"B":38,"C":39,"D":40,"E":41,"F":42,"G":43,"H":44,"I":45,"J":46,"K":47,"L":48,"M":49,"N":50,"O":51,"P":52,"Q":53,"R":54,"S":55,"T":56,"U":57,"V":58,"W":59,"X":60,"Y":61,"Z":62,"[":63,"\\":64,"]":65,"^":66,"_":67,"`":68,"a":69,"b":70,"c":71,"d":72,"e":73,"f":74,"g":75,"h":76,"i":77,"j":78,"k":79,"l":80,"m":81,"n":82,"o":83,"p":84,"q":85,"r":86,"s":87,"t":88,"u":89,"v":90,"w":91,"x":92,"y":93,"z":94,"{":95,"|":96,"}":97,"~":98,"¡":99,"¢":100,"£":101,"¤":102,"¥":103,"¦":104,"§":105,"¨":106,"©":107,"ª":108,"«":109,"¬":110,"®":111,"¯":112,"°":113,"±":114,"²":115,"³":116,"´":117,"µ":118,"¶":119,"·":120,"¸":121,"¹":122,"º":123,"»":124,"¼":125,"½":126,"¾":127,"¿":128,"À":129,"Á":130,"Â":131,"Ã":132,"Ä":133,"Å":134,"Æ":135,"Ç":136,"È":137,"É":138,"Ê":139,"Ë":140,"Ì":141,"Í":142,"Î":143,"Ï":144,"Ð":145,"Ñ":146,"Ò":147,"Ó":148,"Ô":149,"Õ":150,"Ö":151,"×":152,"Ø":153,"Ù":154,"Ú":155,"Û":156,"Ü":157,"Ý":158,"Þ":159,"ß":160,"à":161,"á":162,"â":163,"ã":164,"ä":165,"å":166,"æ":167,"ç":168,"è":169,"é":170,"ê":171,"ë":172,"ì":173,"í":174,"î":175,"ï":176,"ð":177,"ñ":178,"ò":179,"ó":180,"ô":181,"õ":182,"ö":183,"÷":184,"ø":185,"ù":186,"ú":187,"û":188,"ü":189,"ý":190,"þ":191,"ÿ":192,"Ā":193,"ā":194,"Ă":195,"ă":196,"Ą":197,"ą":198,"Ć":199,"ć":200,"Ĉ":201,"ĉ":202,"Ċ":203,"ċ":204,"Č":205,"č":206,"Ď":207,"ď":208,"Đ":209,"đ":210,"Ē":211,"ē":212,"Ĕ":213,"ĕ":214,"Ė":215,"ė":216,"Ę":217,"ę":218,"Ě":219,"ě":220,"Ĝ":221,"ĝ":222,"Ğ":223,"ğ":224,"Ġ":225,"ġ":226,"Ģ":227,"ģ":228,"Ĥ":229,"ĥ":230,"Ħ":231,"ħ":232,"Ĩ":233,"ĩ":234,"Ī":235,"ī":236,"Ĭ":237,"ĭ":238,"Į":239,"į":240,"İ":241,"ı":242,"Ĳ":243,"ĳ":244,"Ĵ":245,"ĵ":246,"Ķ":247,"ķ":248,"ĸ":249,"Ĺ":250,"ĺ":251,"Ļ":252,"ļ":253,"Ľ":254,"ľ":255,"Ŀ":256,"ŀ":257,"Ł":258,"ł":259,"Ń":260,"Ġe":261,"Ġd":262,"Ġde":263,"os":264,"Ġl":265,"en":266,"Ġp":267,"Ġc":268,"er":269,"Ġs":270,"es":271,"Ġa":272,"ci":273,"on":274,"ar":275,"qu":276,"or":277,"as":278,"Ġes":279,"te":280,"que":281,"un":282,"to":283,"Ġm":284,"ad":285,"an":286,"Ġque":287,"ti":288,"Ã³":289,"Ġla":290,"tr":291,"in":292,"Ġy":293,"Ġen":294,"al":295,"Ġun":296,"re":297,"Ġel":298,"Ã³n":299,"Ġn":300,"ciÃ³n":301,"Ġv":302,"ta":303,"čĊ":304,"Ġcon":305,"ic":306,"is":307,"Ġse":308,"mp":309,"Ġo":310,"Ġpr":311,"Ã¡":312,"Ġin":313,"ÃŃ":314,"Ġh":315,"Ġco":316,"do":317,"am":318,"Ġlos":319,"Ġre":320,"id":321,"Ã©":322,"aciÃ³n":323,"Ġf":324,"tex":325,"ien":326,"texto":327,"Ġpro":328,"Ġpar":329,"tos":330,"Ġuna":331,"Ġt":332,"ec":333,"em":334,"cion":335,"lo":336,"ab":337,"Ġlas":338,"Ġpor":339,"us":340,"Ġb":341,"mo":342,"ac":343,"de":344,"Ġno":345,"Ġpara":346,"iz":347,"ue":348,"Ġal":349,"res":350,"Ġsi":351,"Ġcu":352,"Ġlo":353,"ter":354,"cu":355,"Ġest":356,"ces":357,"le":358,"Ġdel":359,"ente":360,"ol":361,"ma":362,"Ġti":363,"Ġper":364,"di":365,"Ġg":366,"idad":367,"ciones":368,"ado":369,"tiv":370,"uc":371,"Ġtr":372,"Ġten":373,"Ġdi":374,"tu":375,"bi":376,"je":377,"Ġto":378,"Ġsu":379,"go":380,"ando":381,"Ġme":382,"Ġcomo":383,"ari":384,"emos":385,"Ġcomp":386,"tic":387,"gu":388,"Ġi":389,"la":390,"ada":391,"Ġda":392,"ent":393,"Ġser":394,"Ġpue":395,"tam":396,"ica":397,"enci":398,"Ġus":399,"ra":400,"orm":401,"ador":402,"Ġson":403,"Ġdes":404,"tro":405,"ÃŃa":406,"im":407,"Ãº":408,"amos":409,"Ġso":410,"Ã¡s":411,"Ġtien":412,"Ġ1":413,"Ġpo":414,"era":415,"iste":416,"qui":417,"Ġdatos":418,"Ġha":419,"Ġac":420,"Ġex":421,"ales":422,"Ã±":423,"ĠestÃ¡":424,"iento":425,"gr":426,"Ġent":427,"bl":428,"ir":429,"Ġhac":430,"dad":431,"Ġor":432,"iv":433,"Ġdis":434,"ues":435,"Ġemp":436,"Ġinter":437,"Ġle":438,"aj":439,"Ġnos":440,"tra":441,"Ġya":442,"Ã©n":443,"Ġmo":444,"Ġap":445,"ici":446,"onces":447,"ten":448,"Ġan":449,"fic":450,"min":451,"Ġres":452,"Ġsiste":453,"ados":454,"Ġproces":455,"tros":456,"da":457,"Ġinf":458,"Ġ(":459,"tor":460,"rec":461,"aliz":462,"Ġentonces":463,"der":464,"ul":465,"Ġcons":466,"encia":467,"Ġop":468,"ĠmÃ¡s":469,"Ġyo":470,"Ġdeb":471,"Ġtiene":472,"Ġman":473,"tan":474,"tar":475,"ia":476,"Ġob":477,"Ġeste":478,"ri":479,"truc":480,"biÃ©n":481,"tambiÃ©n":482,"Ġva":483,"den":484,"si":485,"Ġma":486,"il":487,"Ġcom":488,"Ġesta":489,"ero":490,"Ġpuede":491,"Ġdeci":492,"ĠtambiÃ©n":493,"el":494,"Ġinform":495,"Ġpero":496,"tes":497,"ted":498,"enta":499,"Ġpers":500,"Ġentr":501,"Ġporque":502,"Ġtenemos":503,"Ġusted":504,"quÃ©":505,"Ġu":506,"dos":507,"ro":508,"Ġte":509,"Ġins":510,"Ġperson":511,"ce":512,"fer":513,"Ġempres":514,"amente":515,"gram":516,"jemp":517,"eces":518,"los":519,"Ġcl":520,"Ġimp":521,"Ġcuando":522,"Ġtrab":523,"Ġver":524,"Ġejemp":525,"Ġtrabaj":526,"are":527,"se":528,"Â¿":529,"til":530,"Ġ2":531,"Ġhay":532,"Ġah":533,"Ġar":534,"Ġsistema":535,"ib":536,"Ġejemplo":537,"Ġhab":538,"Ġhacer":539,"tas":540,"Ġeso":541,"Ġfun":542,"orma":543,"ĠinformaciÃ³n":544,"Ġvari":545,"gan":546,"ÃŃs":547,"tivo":548,"co":549,"men":550,"Ġ3":551,"Ġentre":552,"pos":553,"Ġr":554,"duc":555,"Ġmis":556,"Ġca":557,"Ġbas":558,"io":559,"po":560,"Ġej":561,"entes":562,"ĠÂ¿":563,"mente":564,"tura":565,"ga":566,"Ġdic":567,"ecu":568,"Ġutil":569,"no":570,"Ġcontr":571,"gun":572,"Ġmen":573,"Ġprogram":574,"tica":575,"Ġgr":576,"Ġcada":577,"Ã©s":578,"Ġesp":579,"mi":580,"Ġreg":581,"ez":582,"Ġmem":583,"Ġcar":584,"tivos":585,"Ġas":586,"quÃŃ":587,"bre":588,"Ġval":589,"Ġmode":590,"cia":591,"con":592,"um":593,"Ġmi":594,"ores":595,"oy":596,"ware":597,"Ġneces":598,"Ġdecir":599,"Ġ5":600,"Ġmemor":601,"otros":602,"ver":603,"Ġvamos":604,"Ġ4":605,"ico":606,"Ġnosotros":607,"Ġtran":608,"Ġgen":609,"iÃ³n":610,"Ġutiliz":611,"Ġpre":612,"gn":613,"emp":614,"amiento":615,"Ġempresa":616,"Ġesto":617,"ĠaquÃŃ":618,"Ġtrans":619,"Ġtodo":620,"Ġfin":621,"Ġpoder":622,"Ġobje":623,"almente":624,"Ġorgan":625,"Ã¡l":626,"Ġad":627,"Ġejecu":628,"it":629,"Ġdifer":630,"Ġinstruc":631,"ĠcÃ³":632,"lar":633,"Ġpa":634,"Ġcor":635,"Ġsus":636,"Ġcontrol":637,"ante":638,"Ġj":639,"Ġmemoria":640,"Ġtra":641,"ora":642,"Ġmedi":643,"Ġesa":644,"uch":645,"Ġ6":646,"adas":647,"Ġgener":648,"Ġapl":649,"unto":650,"ier":651,"ario":652,"mas":653,"quier":654,"onde":655,"icaciÃ³n":656,"cur":657,"Ġorganiz":658,"idades":659,"Ġmuch":660,"Ġtener":661,"Ġsol":662,"Ġcas":663,"cip":664,"Ġproduc":665,"Ġdirec":666,"ticas":667,"uy":668,"Ġdebe":669,"Ġforma":670,"iente":671,"Ġ8":672,"ft":673,"Ġproceso":674,"Ġcual":675,"Ġ9":676,"Ġese":677,"ĠquÃ©":678,"Ġsin":679,"Ġden":680,"Ġpas":681,"Ġid":682,"Ġparte":683,"ĠestÃ¡n":684,"Ġserv":685,"Ġcap":686,"Ġcos":687,"Ã±o":688,"rol":689,"gar":690,"ftware":691,"Ġsoftware":692,"Ġprim":693,"ida":694,"Ġrep":695,"aje":696,"Ġcomun":697,"fica":698,"Ġdentro":699,"Ġcre":700,"Ġpos":701,"per":702,"Ãºn":703,"Ġdos":704,"Ġinc":705,"arrol":706,"Ġ7":707,"Ġdice":708,"cri":709,"Ġcam":710,"Ġmanera":711,"Ġdonde":712,"Ġdesarrol":713,"Ġimpor":714,"Ġtodos":715,"tiva":716,"ÃŃn":717,"ido":718,"able":719,"ones":720,"Ġprop":721,"ivel":722,"Ġpod":723,"Ġred":724,"Ġnivel":725,"das":726,"Ġlle":727,"Ã¡n":728,"Ġmej":729,"end":730,"Ġvoy":731,"Ġ10":732,"Ġnues":733,"Ġrealiz":734,"iendo":735,"ur":736,"adores":737,"Ġbien":738,"mpl":739,"Ġresp":740,"Ġregis":741,"cio":742,"tir":743,"Ġopera":744,"tidad":745,"ig":746,"Ġdef":747,"Ġcono":748,"Ġprin":749,"ific":750,"Ġtengo":751,"blem":752,"Ġprincip":753,"les":754,"ut":755,"Ġimportan":756,"ea":757,"udi":758,"las":759,"tras":760,"ientos":761,"Ġuno":762,"Ġtipo":763,"log":764,"tin":765,"cional":766,"Ġta":767,"Ġbus":768,"mos":769,"lam":770,"Ġclas":771,"curs":772,"Ġproblem":773,"Ġvan":774,"par":775,"Ġpersonas":776,"quer":777,"Ġestos":778,"ĠnÃº":779,"mento":780,"Ġdeter":781,"cep":782,"Ġusu":783,"Ġservici":784,"Ġotro":785,"Ġmejor":786,"ecto":787,"Ġpueden":788,"Ġbu":789,"Ġsea":790,"titu":791,"uego":792,"Ġdetermin":793,"lan":794,"om":795,"Ġsegu":796,"Ġdefin":797,"Ġcic":798,"Ġcambi":799,"Ġsab":800,"tur":801,"ho":802,"Ġsal":803,"Ġsistemas":804,"Ġrela":805,"Ġing":806,"Ġtienen":807,"Ġustedes":808,"Ġbase":809,"tec":810,"vi":811,"Ġdo":812,"enti":813,"Ã©r":814,"tico":815,"Ġsobre":816,"Ġtrabajo":817,"Ġbuen":818,"Ġpermi":819,"Ġahora":820,"eci":821,"ve":822,"fici":823,"Ġinte":824,"Ġcaso":825,"Ġsign":826,"Ġluego":827,"esti":828,"dar":829,"mac":830,"Ġalmac":831,"Ġllam":832,"Ġestruc":833,"icaciones":834,"alidad":835,"ĠahÃŃ":836,"mb":837,"arios":838,"Ġrecurs":839,"me":840,"icas":841,"Ġpres":842,"Ġmay":843,"icos":844,"Ġtiemp":845,"Ġmodelo":846,"Ġtan":847,"aciones":848,"Ġorden":849,"Ġvalor":850,"Ġlen":851,"Ġab":852,"Ġalgun":853,"Ġvis":854,"Ġcomput":855,"emen":856,"vis":857,"Ġunidad":858,"siÃ³n":859,"Ġpersona":860,"Ġalmacen":861,"miento":862,"ch":863,"Ġexp":864,"na":865,"Ġlengu":866,"ren":867,"minis":868,"Ġdise":869,"erc":870,"Ġfu":871,"Ġprograma":872,"ult":873,"tal":874,"Ġproy":875,"Ġne":876,"Ġderec":877,"tamos":878,"Ġhace":879,"Ġtiempo":880,"Ġelemen":881,"ĠnÃºm":882,"posi":883,"Ġvez":884,"Ġnecesi":885,"ables":886,"ĠinstrucciÃ³n":887,"Ġciclo":888,"Ġotra":889,"Ġmismo":890,"Ġcomputador":891,"Ġconj":892,"Ġalgo":893,"bil":894,"pu":895,"Ġequi":896,"Ġmayor":897,"jo":898,"ibu":899,"Ġmues":900,"ĠasÃŃ":901,"cuer":902,"Ġigu":903,"por":904,"Ġconcep":905,"laciÃ³n":906,"taciÃ³n":907,"Ġespeci":908,"Ġadminis":909,"Ġpodemos":910,"endo":911,"Ġmuy":912,"aci":913,"tores":914,"Ã³g":915,"logÃŃa":916,"ĠmÃ©":917,"Ġgran":918,"Ġher":919,"Ġdep":920,"val":921,"alab":922,"Ġactiv":923,"Ġrepres":924,"entar":925,"ca":926,"ĠÃ¡":927,"asta":928,"Ġdesde":929,"Ġoper":930,"Ġinv":931,"Ġnorm":932,"Ġrecursos":933,"eros":934,"Ġestado":935,"Ġtec":936,"Ġpon":937,"Ġesos":938,"Ġecu":939,"digo":940,"Ġhabl":941,"Ġimportante":942,"tribu":943,"Ġay":944,"Ġconjunto":945,"isis":946,"Ġestas":947,"Ã¡c":948,"Ġhasta":949,"Ġprocesos":950,"Ġpuedo":951,"ĠorganizaciÃ³n":952,"et":953,"Ġposi":954,"Ġcompon":955,"za":956,"Ã¡lisis":957,"Ġrequer":958,"ĠcÃ³mo":959,"Ġincl":960,"ÃŃas":961,"Ġau":962,"entr":963,"Ġinstrucciones":964,"Ġdesarrollo":965,"Ġplan":966,"ientes":967,"Ġpalab":968,"Ġecon":969,"pon":970,"uev":971,"ĠanÃ¡lisis":972,"Ġfuncion":973,"Ġcuenta":974,"imiento":975,"car":976,"lec":977,"Ġayu":978,"ble":979,"ifica":980,"ĠsÃŃ":981,"Ġtipos":982,"Ġigual":983,"Ġsolu":984,"ĠÃ©":985,"Ġcan":986,"acter":987,"Ġestar":988,"ĠcÃ³digo":989,"ene":990,"ĠcomunicaciÃ³n":991,"Ġconf":992,"Ġescri":993,"mÃ¡":994,"Ġconstitu":995,"Ġencu":996,"Ġpe":997,"Ġcaracter":998,"Ġfinan":999,"Ġnuev":1000,"Ġlenguaje":1001,"Ġtodas":1002,"Ġdiferentes":1003,"ĠdirecciÃ³n":1004,"Ġanaliz":1005,"Ġdisposi":1006,"acciÃ³n":1007,"Ġexis":1008,"),":1009,"Ġtom":1010,"gÃºn":1011,"br":1012,"Ġotros":1013,"abil":1014,"Ġind":1015,"Ã©c":1016,"Ġsoci":1017,"00":1018,"Ġqui":1019,"Ġvariable":1020,"Ġve":1021,"Ġsigu":1022,"tamente":1023,"Ġinici":1024,"quitec":1025,"fec":1026,"Ġform":1027,"encias":1028,"Ġbueno":1029,"vid":1030,"teri":1031,"du":1032,"Ġw":1033,"Ġsub":1034,"bilidad":1035,"ina":1036,"ĠrelaciÃ³n":1037,"Ġmens":1038,"Ġproblema":1039,"ÃŃsticas":1040,"Ġesas":1041,"Ġempresas":1042,"Ġir":1043,"ĠmÃ©to":1044,"Ġtrav":1045,"Ġarquitec":1046,"ĠmÃ¡":1047,"Ġestudi":1048,"Ġimpl":1049,"Ġproyecto":1050,"Ġmatr":1051,"Ġadministr":1052,"Ġresult":1053,"Ġveces":1054,"ĠlÃŃn":1055,"ĠtravÃ©s":1056,"Ġven":1057,"Ġestamos":1058,"quiere":1059,"Ġellos":1060,"Ġdocu":1061,"Ġer":1062,"Ġsegur":1063,"Ġpunto":1064,"Ġidenti":1065,"tener":1066,"ram":1067,"Ġtecno":1068,"Ġdeben":1069,"Ġtanto":1070,"Ġabs":1071,"lti":1072,"Ġet":1073,"Ġsegun":1074,"Ãºlti":1075,"Ġelementos":1076,"Ġfinanci":1077,"nos":1078,"Ġcier":1079,"Ġentidad":1080,"tivas":1081,"entaciÃ³n":1082,"ĠfunciÃ³n":1083,"Ġvalores":1084,"xi":1085,"Ġinver":1086,"ĠÃ³":1087,"Ġref":1088,"siones":1089,"Ġley":1090,"arse":1091,"eas":1092,"imientos":1093,"ĠdiseÃ±o":1094,"ĠnÃºmero":1095,"Ġllev":1096,"Ġsignifica":1097,"Ġpol":1098,"bles":1099,"Ġlib":1100,"Ġpues":1101,"ĠejecuciÃ³n":1102,"Ġuso":1103,"alizaciÃ³n":1104,"empre":1105,"Ġusuario":1106,"Ġservicios":1107,"up":1108,"Ã©cn":1109,"ba":1110,"dan":1111,"Ġsiempre":1112,"Ġcumpl":1113,"ÃŃstica":1114,"Ġingres":1115,"Ġconoci":1116,"Ġfac":1117,"mis":1118,"Ġfi":1119,"Ġdia":1120,"Ġidentific":1121,"Ġvariables":1122,"Ġcosas":1123,"uman":1124,"ĠtÃ©cn":1125,"ĠbÃ¡s":1126,"Ġestructura":1127,"eo":1128,"ens":1129,"ios":1130,"Ġhan":1131,"Ġtoda":1132,"Ã±os":1133,"Ġoperaciones":1134,"ĠÃ¡re":1135,"Ġetc":1136,"Ġgeneral":1137,"Ġemple":1138,"des":1139,"Ġconta":1140,"Ġrealizar":1141,"mple":1142,"man":1143,"ĠseÃ±":1144,"Ġregistro":1145,"Ġproce":1146,"Ġparti":1147,"edad":1148,"Ġtrabajar":1149,"Ġseguridad":1150,"Ġcomponentes":1151,"cuencia":1152,"Ġcantidad":1153,"cir":1154,"Ġmerc":1155,"Ġmomento":1156,"Ġrequerimientos":1157,"Ġhuman":1158,"?,":1159,"Ġintegr":1160,"ven":1161,"Ġestad":1162,"ha":1163,"Ġverdad":1164,"Ġles":1165,"ja":1166,"ĠsÃ³":1167,"Ġrec":1168,"imos":1169,"Ġpermite":1170,"Ġdin":1171,"idos":1172,"Ġcpu":1173,"Ġotras":1174,"Ġarquitectura":1175,"ramien":1176,"Ġlin":1177,"Ġna":1178,"Ġservicio":1179,"Ġcien":1180,"Ġcontra":1181,"Ġmane":1182,"Ġmenos":1183,"ĠlÃ³g":1184,"Ġmon":1185,"Ġacuer":1186,"icar":1187,"Ġtare":1188,"Ġgu":1189,"antes":1190,"ĠaplicaciÃ³n":1191,"Ġejecutar":1192,"Ġmar":1193,"Ġvien":1194,"Ġobjetivo":1195,"Ġsino":1196,"Ġherramien":1197,"erci":1198,"Ġobl":1199,"Ġsuper":1200,"Ġprimero":1201,"ĠpolÃŃ":1202,"Ġnuestro":1203,"Ġcondi":1204,"abilidad":1205,"Ġmun":1206,"ista":1207,"Ġprocesador":1208,"gor":1209,"Ġtal":1210,"rar":1211,"Ġmedio":1212,"Ġnormas":1213,"Ġmucho":1214,"Ġdiagram":1215,"ÃŃamos":1216,"Ġdescri":1217,"Ġmediante":1218,"ita":1219,"izaciÃ³n":1220,"Ġcomple":1221,"Ġcliente":1222,"Ġelec":1223,"Ġalguna":1224,"ĠtecnologÃŃa":1225,"Ġnego":1226,"trar":1227,"Ġpla":1228,"Ġrealmente":1229,"uel":1230,"encial":1231,"Ġerr":1232,"Ġabstr":1233,"Ġprocedi":1234,"Ġcal":1235,"Ġclase":1236,"Ġcualquier":1237,"Ġmatriz":1238,"mbre":1239,"quel":1240,"ticos":1241,"Ġrelacion":1242,"Ġaquel":1243,"Ġmic":1244,"tiene":1245,"Ġconsid":1246,"Ġdar":1247,"Ġnuestra":1248,"cular":1249,"ĠÃ©l":1250,"ĠÃºlti":1251,"bir":1252,"cal":1253,"Ġ=":1254,"entas":1255,"lado":1256,"ible":1257,"Ġcapaci":1258,"Ġactu":1259,"Ġsaber":1260,"Ġimplem":1261,"Ġ-":1262,"tiz":1263,"Ġgesti":1264,"Ġdispositivos":1265,"hos":1266,"Ġutilizar":1267,"Ġmuestra":1268,"ĠsÃ³lo":1269,"mientos":1270,"ior":1271,"Ġpobl":1272,"itos":1273,"pro":1274,"ivos":1275,"Ġaplicaciones":1276,"Ġmuchas":1277,"Ġasi":1278,"Ġusuarios":1279,"ĠpoblaciÃ³n":1280,"Ġpalabra":1281,"Ġdec":1282,"Ġacces":1283,"ĠmÃ¡qu":1284,"Ġacuerdo":1285,"Ġnorma":1286,"Ġproblemas":1287,"ciendo":1288,"Ġvida":1289,"Ġmul":1290,"Ġexiste":1291,"viamente":1292,"aria":1293,"ed":1294,"omÃŃa":1295,"Ġhaber":1296,"Ġconcepto":1297,"Ġhablamos":1298,"ĠcaracterÃŃsticas":1299,"Ġcol":1300,"Ġderecho":1301,"ias":1302,"cios":1303,"Ġmensaje":1304,"lu":1305,"Ġatribu":1306,"cias":1307,"Ġcur":1308,"ital":1309,"zo":1310,"Ġsim":1311,"dific":1312,"Ġqu":1313,"Ġexper":1314,"Ġobjetos":1315,"olu":1316,"fes":1317,"Ġeval":1318,"uesto":1319,"fico":1320,"Ġsolo":1321,"ras":1322,"Ġra":1323,"erv":1324,"Ġfas":1325,"Ġhacia":1326,"Ġllama":1327,"Ġestructur":1328,"ard":1329,"iones":1330,"riv":1331,"sa":1332,"Ġmin":1333,"Ġarch":1334,"Ġgru":1335,"Ġ100":1336,"Ġactividades":1337,"din":1338,"Ġtres":1339,"can":1340,"Ġbaj":1341,"ĠsoluciÃ³n":1342,"Ġdistin":1343,"tado":1344,"Ġquiere":1345,"Ġinteres":1346,"Ġprimer":1347,"Ġter":1348,"Ġcompor":1349,"Ãºs":1350,"Ġcr":1351,"idas":1352,"Ġfal":1353,"Ġobviamente":1354,"ĠÃ¡rea":1355,"tamiento":1356,"Ã³m":1357,"Ġcompar":1358,"Ġregistros":1359,"Ġtama":1360,"Ġdeterminar":1361,"Ġdepend":1362,"ex":1363,"pl":1364,"ientras":1365,"Ġderiv":1366,"Ġestoy":1367,"render":1368,"gos":1369,"ferencia":1370,"Ġsegundo":1371,"Ġsimpl":1372,"ud":1373,"Ġproducto":1374,"Ġcapacidad":1375,"ento":1376,"gen":1377,"Ã©rmin":1378,"ĠprÃ¡c":1379,"ĠtÃ©rmin":1380,"Ġtab":1381,"Ġrelaciones":1382,"reg":1383,"Ġindi":1384,"tante":1385,"ie":1386,"mentos":1387,"Ġmuchos":1388,"Ġanalizar":1389,"ĠlÃŃnea":1390,"Ġmientras":1391,"ĠconstituciÃ³n":1392,"Ġjur":1393,"Ġexpres":1394,"Ġam":1395,"Ġsimple":1396,"Ġasign":1397,"Ġmulti":1398,"Ġx":1399,"ectos":1400,"Ġpeque":1401,"Ġdecisiones":1402,"Ġpodr":1403,"Ġsiguiente":1404,"ĠtamaÃ±o":1405,"Ġ/":1406,"cionales":1407,"be":1408,"fo":1409,"bier":1410,"Ġincre":1411,"eb":1412,"Ġcambio":1413,"Ġintel":1414,"Ġro":1415,"Ġconten":1416,"Ġpropor":1417,"Ġingen":1418,"rit":1419,"Ġmisma":1420,"Ġespec":1421,"oci":1422,"Ġpartir":1423,"Ġfunciones":1424,"Ġtomar":1425,"Ġefec":1426,"Ġdur":1427,"Ġinterna":1428,"Ġcorrec":1429,"Ġmercado":1430,"Ġevalu":1431,"Ġlec":1432,"Ġnombre":1433,"Ġproductos":1434,"Ġinde":1435,"Ġhemos":1436,"Ġtareas":1437,"Ġfre":1438,"Ġobjeto":1439,"Ġconoc":1440,"Ġprincipal":1441,"Ġexisten":1442,"ĠaÃ±os":1443,"Ġni":1444,"cuÃ¡l":1445,"ĠadministraciÃ³n":1446,"Ġacceso":1447,"Ġquer":1448,"Ġcentr":1449,"ĠmÃ³":1450,"Ġ11":1451,"Ġobjetivos":1452,"Ġconec":1453,"Ġclar":1454,"iga":1455,"ĠlÃ³gica":1456,"ĠprogramaciÃ³n":1457,"Ġrespon":1458,"Ġincluy":1459,"va":1460,"torio":1461,"Ġprodu":1462,"Ġcomputadora":1463,"Ġinvesti":1464,"ĠeconomÃŃa":1465,"jar":1466,"emente":1467,"Ġutiliza":1468,"Ġconsider":1469,"Ġaudi":1470,"Ġmas":1471,"Ġcontiene":1472,"Ġtransmi":1473,"esta":1474,"ÃŃd":1475,"ĠjurÃŃd":1476,"ĠÃºn":1477,"Ġalgor":1478,"olver":1479,"Ġgra":1480,"Ġprecio":1481,"ificaciÃ³n":1482,"Ġherramientas":1483,"ĠgestiÃ³n":1484,"Ġalter":1485,"ĠcuÃ¡l":1486,"ĠeconÃ³m":1487,"tÃŃ":1488,"ÃŃan":1489,"cidad":1490,"proces":1491,"ing":1492,"Ġfinal":1493,"Ġauto":1494,"Ġalgorit":1495,"ers":1496,"Ġespa":1497,"ĠmÃ¡quina":1498,"Ġtenga":1499,"Ġdeno":1500,"Ġconc":1501,"Ġsignific":1502,"iciÃ³n":1503,"Ġmal":1504,"tric":1505,"if":1506,"ist":1507,"ĠoperaciÃ³n":1508,"Ġreci":1509,"Ġmenor":1510,"Ġsolamente":1511,"dam":1512,"ito":1513,"Ġhec":1514,"Ġdinero":1515,"bo":1516,"mÃ©":1517,"eza":1518,"Ġpaso":1519,"Ġoperativo":1520,"Ġviene":1521,"Ġcomportamiento":1522,"Ġnum":1523,"Ġprofes":1524,"Ġcrear":1525,"pa":1526,"Ġreco":1527,"Ġsa":1528,"Ġsitu":1529,"Ġmuestr":1530,"ĠdÃŃa":1531,"tim":1532,"ĠinterÃ©s":1533,"Ġfundam":1534,"Ġresultado":1535,"ĠfÃŃs":1536,"Ġclases":1537,"Ġrepresenta":1538,"ĠecuaciÃ³n":1539,"Ġatributos":1540,"ual":1541,"ĠsegÃºn":1542,"cionar":1543,"entan":1544,"Ġobtener":1545,"Ġtelec":1546,"Ġpersonal":1547,"omun":1548,"Ġfactores":1549,"Ġtelecomun":1550,"Ġpun":1551,"Ġarit":1552,"quis":1553,"Ġestra":1554,"ĠpaÃŃs":1555,"Ġcorres":1556,"Ġsenci":1557,"Ġsenti":1558,"aba":1559,"ĠinformÃ¡":1560,"Ġindivid":1561,"Ġsencil":1562,"ivo":1563,"Ġ20":1564,"Ġequipo":1565,"Ġponer":1566,"ĠmÃ©todo":1567,"ĠmÃ©todos":1568,"Ġflu":1569,"Ġgo":1570,"Ġtend":1571,"Ġderechos":1572,"Ġdiagrama":1573,"Ġ0":1574,"Ġdistribu":1575,"ĠaritmÃ©":1576,"Ġencon":1577,"Ġrecuer":1578,"Ġhacen":1579,"vers":1580,"Ġllegar":1581,"Ġnecesita":1582,"unque":1583,"Ġsir":1584,"Ġalmacenamiento":1585,"Ġ[":1586,"Ġproto":1587,"Ġdebemos":1588,"medi":1589,"Ġdepen":1590,"Ġquiero":1591,"Ġcalidad":1592,"cil":1593,"Ġanal":1594,"Ġanteri":1595,"Ġtabla":1596,"Ġencar":1597,"Ġcomb":1598,"ĠproducciÃ³n":1599,"ĠestÃ¡ndar":1600,"ĠcondiciÃ³n":1601,"fac":1602,"Ġfue":1603,"Ġentrada":1604,"Ġren":1605,"Ġarchivos":1606,"az":1607,"ber":1608,"Ġsecuencia":1609,"Ġpoco":1610,"ajes":1611,"Ġprocedimientos":1612,"igu":1613,"Ġlu":1614,"cÃ³":1615,"lante":1616,"Ġcuentas":1617,"ĠgrÃ¡":1618,"Ġgrandes":1619,"Ġcuan":1620,"ular":1621,"Ġvelo":1622,"Ġag":1623,"Ã¡p":1624,"blec":1625,"Ġestablec":1626,"Ġtelecomunicaciones":1627,"izar":1628,"Ġger":1629,"Ġhaciendo":1630,"Ġbienes":1631,"ĠdiseÃ±":1632,"Ġsociedad":1633,"Ġrestric":1634,"ya":1635,"Ġsepar":1636,"ĠnÃºmeros":1637,"Ġhoy":1638,"ĠacÃ¡":1639,"Ġmate":1640,"ĠdecisiÃ³n":1641,"Ġresultados":1642,"ĠespecÃŃ":1643,"ion":1644,"pend":1645,"Ġdeman":1646,"Ġnada":1647,"tera":1648,"Ġ19":1649,"Ġprincipio":1650,"visiÃ³n":1651,"Ġdenomin":1652,"ge":1653,"pe":1654,"Ġpens":1655,"Ġram":1656,"Ġprimera":1657,"Ġrealiza":1658,"dic":1659,"Ġof":1660,"Ġregu":1661,"Ġtoma":1662,"ticamente":1663,"Ġdescrip":1664,"Ġon":1665,"Ġvi":1666,"Ġinstan":1667,"Ġrespons":1668,"Ġtransf":1669,"Ġorganiza":1670,"Ġvelocidad":1671,"Ġprue":1672,"Ġpalabras":1673,"Ġweb":1674,"Ġmicro":1675,"ĠbÃºs":1676,"Ġprocesamiento":1677,"Ġvarios":1678,"Ġsimplemente":1679,"ĠbÃºsque":1680,"Ġtu":1681,"ĠtÃ©cnicas":1682,"pi":1683,"ros":1684,"Ġdeber":1685,"Ġrecor":1686,"ĠÃºltimo":1687,"Ġera":1688,"Ġconocimiento":1689,"Ġindividu":1690,"ĠmatemÃ¡":1691,"Ġcontin":1692,"istas":1693,"culo":1694,"Ġleg":1695,"ĠrÃ¡p":1696,"Ġtexto":1697,"Ġch":1698,"Ġclientes":1699,"Ġcapital":1700,"ĠestadÃŃstica":1701,"Ġnatur":1702,"Ġindepend":1703,"pre":1704,"uer":1705,"Ġsec":1706,"Ġelemento":1707,"Ġgrupo":1708,"Ġlectura":1709,"Ġuniv":1710,"Ġtemp":1711,"Ġmodelos":1712,"Ġredes":1713,"Ġpan":1714,"Ġpasa":1715,"Ġidea":1716,"Ġmanten":1717,"Ġmundo":1718,"ardware":1719,"Ġcab":1720,"argo":1721,"Ġdespu":1722,"its":1723,"Ġactividad":1724,"ĠdespuÃ©s":1725,"ger":1726,"Ġtema":1727,"Ġideas":1728,"Ġalterna":1729,"Ġespacio":1730,"Ġhardware":1731,"Ġdirecciones":1732,"Ġsalida":1733,"Ġayuda":1734,"ĠpolÃŃticas":1735,"ql":1736,"Ġfr":1737,"ĠÃ©s":1738,"Ġpi":1739,"icamente":1740,"Ġprob":1741,"Ġsig":1742,"Ġ12":1743,"Ġdesarrollar":1744,"cle":1745,"net":1746,"Ġcompil":1747,"Ġejerci":1748,"Ġdiferencia":1749,"Ġentidades":1750,"Ġline":1751,"Ġcombin":1752,"tando":1753,"Ġproducir":1754,"Ġlista":1755,"Ġcompet":1756,"Ġpueda":1757,"Ġdispon":1758,"Ġhablar":1759,"Ġvarias":1760,"Ġrespe":1761,"Ġespecific":1762,"Ġefici":1763,"Ġaunque":1764,"Ġmuestreo":1765,"Ġlugar":1766,"gaciÃ³n":1767,"tad":1768,"ĠseÃ±al":1769,"Ġaprender":1770,"Ġprogramas":1771,"Ġfuer":1772,"Ġcir":1773,"Ġmor":1774,"Ã³r":1775,"Ġintro":1776,"Ġjer":1777,"Ġsentido":1778,"ĠsÃ©":1779,"emÃ¡s":1780,"Ġ16":1781,"Ġdefinir":1782,"Ġobliga":1783,"aÃ±":1784,"arias":1785,"Ãºbl":1786,"Ġinclus":1787,"lus":1788,"Ġk":1789,"abor":1790,"Ġban":1791,"Ġorig":1792,"Ġantes":1793,"ĠposiciÃ³n":1794,"Ġcentral":1795,"ip":1796,"Ġcer":1797,"Ġata":1798,"Ġdivid":1799,"Ġapar":1800,"Ġbases":1801,"Ġintelig":1802,"Ġfundament":1803,"ĠbÃºsqueda":1804,"olÃ³g":1805,"Ġexter":1806,"Ġtransmis":1807,"Ġdocum":1808,"Ġingenier":1809,"Ġauditor":1810,"Ġunivers":1811,"Ġeta":1812,"Ġllevar":1813,"Ġdig":1814,"Ġima":1815,"Ġdicen":1816,"Ġutilizan":1817,"Ġorganizaciones":1818,"Ġfase":1819,"Ġdurante":1820,"rend":1821,"Ġ+":1822,"Ġventa":1823,"Ġgar":1824,"Ġcompren":1825,"Ġopciones":1826,"Ġ30":1827,"Ġconceptos":1828,"Ġrestricciones":1829,"Ġdigo":1830,"irtu":1831,"Ġniveles":1832,"Ġprincipios":1833,"Ġencuentr":1834,"Ġunos":1835,"Ġmodelado":1836,"Ġpagar":1837,"Ġjus":1838,"Ġescribir":1839,"Ġsignificado":1840,"iencia":1841,"logÃŃas":1842,"Ġexpl":1843,"Ġnecesito":1844,"Ġfuncionamiento":1845,"iere":1846,"Ġvec":1847,"Ġabstrac":1848,"Ġtermin":1849,"ian":1850,"olos":1851,"Ġorganizacional":1852,"Ġestados":1853,"Ġpasos":1854,"Ġsoluciones":1855,"Ġinicio":1856,"tados":1857,"todo":1858,"Ġbits":1859,"Ġsup":1860,"Ġempez":1861,"Ġoperativos":1862,"ĠlÃŃneas":1863,"ĠfÃ¡":1864,"Ġenten":1865,"Ġvista":1866,"Ġleyes":1867,"Ġamb":1868,"dimiento":1869,"ĠserÃ¡":1870,"Ġpermiten":1871,"entos":1872,"Ġbi":1873,"Ġalea":1874,"Ġdato":1875,"ĠinteracciÃ³n":1876,"Ġbajo":1877,"Ġhecho":1878,"Ġnatural":1879,"ican":1880,"Ġentor":1881,"Ġasoci":1882,"Ġrefle":1883,"Ġidentificar":1884,"Ġconocer":1885,"Ġcontinu":1886,"inar":1887,"Ġrequis":1888,"Ġ18":1889,"Ġreglas":1890,"Ġ15":1891,"Ġejecuta":1892,"Ġcamin":1893,"cÃ³mo":1894,"ÃŃo":1895,"ĠcuÃ¡n":1896,"Ġalgunos":1897,"Ġnegocio":1898,"Ġplazo":1899,"Ġgaran":1900,"tero":1901,"Ġincrem":1902,"Ġgobier":1903,"ĠpÃºbl":1904,"Ġblo":1905,"Ġequipos":1906,"Ġreal":1907,"Ġfaci":1908,"Ġgan":1909,"Ġcorr":1910,"Ġposible":1911,"ĠtÃ©cnica":1912,"Ġparticular":1913,"Ġfacil":1914,"ula":1915,"Ġho":1916,"Ġalto":1917,"Ġdiri":1918,"Ġsuma":1919,"Ġencuen":1920,"Ġerrores":1921,"Ġdependiendo":1922,"bas":1923,"zar":1924,"Ġrevis":1925,"ĠalgÃºn":1926,"ĠademÃ¡s":1927,"Ġerror":1928,"Ġcurs":1929,"Ġflujo":1930,"Ġdepende":1931,"tru":1932,"Ġgas":1933,"entonces":1934,"Ġcosa":1935,"Ġcosto":1936,"Ġrespecto":1937,"Ġhablando":1938,"ĠabstracciÃ³n":1939,"Ġesc":1940,"ĠcomÃºn":1941,"ĠcarÃ¡c":1942,"Ġdispositivo":1943,"ĠcarÃ¡cter":1944,"gra":1945,"Ġconv":1946,"Ġcuales":1947,"Ġresolver":1948,"ep":1949,"Ġmed":1950,"ĠcompaÃ±":1951,"Ġpregun":1952,"Ġcambiar":1953,"Ġalmacenar":1954,"Ġindica":1955,"Ġaten":1956,"Ġsupon":1957,"Ġimportancia":1958,"Ġfrecuencia":1959,"procesador":1960,"ĠaritmÃ©tica":1961,"Ġdan":1962,"Ġsem":1963,"uesta":1964,"Ġnuevo":1965,"Ġcasos":1966,"Ġsiguientes":1967,"Ġocur":1968,"Ġlogr":1969,"Ġdivers":1970,"Ġcomprar":1971,"Ġempleados":1972,"Ġrendimiento":1973,"eti":1974,"op":1975,"Ġli":1976,"Ġselec":1977,"Ġhe":1978,"Ġri":1979,"Ġpartes":1980,"Ġtas":1981,"teria":1982,"Ġmateria":1983,"Ġnecesidad":1984,"Ġ40":1985,"Ġcontabilidad":1986,"mar":1987,"Ġdeu":1988,"Ġvemos":1989,"guien":1990,"Ġaprend":1991,"Ġinstitu":1992,"Ġcambios":1993,"Ġvisto":1994,"oluciÃ³n":1995,"ĠtÃ©rminos":1996,"Ġclaro":1997,"ĠsituaciÃ³n":1998,"ima":1999,"van":2000,"tis":2001,"tien":2002,"Ġcop":2003,"Ġdomin":2004,"Ġnegocios":2005,"Ġcontenido":2006,"ĠmÃŃn":2007,"textos":2008,"Ġobs":2009,"Ġarti":2010,"Ġ50":2011,"Ġpatr":2012,"Ġaplicar":2013,"Ġseguir":2014,"Ġafec":2015,"Ġmid":2016,"ismo":2017,"ach":2018,"Ġinterac":2019,"ducciÃ³n":2020,"Ġcamp":2021,"Ġciertas":2022,"Ġoblig":2023,"Ġrequisitos":2024,"Ã³nde":2025,"Ġfor":2026,"Ġcompu":2027,"Ġtratar":2028,"Ġprincipales":2029,"Ġfunciona":2030,"Ġayudar":2031,"Ġciencia":2032,"Ġalguien":2033,"Ġdebo":2034,"ĠnÃºcle":2035,"Ġinicial":2036,"Ġexperiencia":2037,"Ġinteligencia":2038,"Ġinfer":2039,"Ġcomerci":2040,"Ġtransac":2041,"Ġtrata":2042,"Ġfuente":2043,"Ġestudio":2044,"Ġdata":2045,"Ġsopor":2046,"ĠopciÃ³n":2047,"sea":2048,"Ġmejorar":2049,"ĠsÃŃmb":2050,"Ġamor":2051,"Ġmec":2052,"Ġmil":2053,"ĠacciÃ³n":2054,"Ã±a":2055,"Ġsocial":2056,"Ġdocumento":2057,"Ġproporcion":2058,"cr":2059,"Ġconsum":2060,"Ġasp":2061,"Ġdiferencial":2062,"metros":2063,"jas":2064,"mul":2065,"vo":2066,"Ġpron":2067,"Ġorien":2068,"Ġraz":2069,"ĠtransmisiÃ³n":2070,"mer":2071,"Ġcomien":2072,"Ġnecesario":2073,"Ġquien":2074,"Ġmultipl":2075,"Ġentorno":2076,"Ġnin":2077,"Ġrequiere":2078,"Ġprove":2079,"Ġnuestros":2080,"Ġsubs":2081,"Ġcumplir":2082,"Ġaquellos":2083,"Ġsatis":2084,"Ġdepar":2085,"Ġactivos":2086,"Ġencontrar":2087,"Ġofrec":2088,"Ġdepartam":2089,"Ġlado":2090,"Ġlocal":2091,"Ġmetodo":2092,"ĠserÃŃa":2093,"Ġmiem":2094,"Ġcrea":2095,"Ġmantenimiento":2096,"Ġci":2097,"ice":2098,"Ġsaben":2099,"Ġinversa":2100,"Ġdemanda":2101,"bol":2102,"Ġtotal":2103,"Ġconsul":2104,"Ġinvent":2105,"Ġcumplimiento":2106,"Ġintereses":2107,"Ġtrabaja":2108,"Ġconoce":2109,"Ġencuesta":2110,"ĠÃ³sea":2111,"Ġcorrespon":2112,"Ġadministra":2113,"Ġsirve":2114,"Ġvirtu":2115,"Ã¡r":2116,"ĠestÃ©":2117,"Ġdicho":2118,"Ġaplic":2119,"Ġru":2120,"Ġcarpe":2121,"tada":2122,"uto":2123,"ĠdÃ³nde":2124,"Ġdeco":2125,"aden":2126,"segu":2127,"Ġutilizando":2128,"Ġalgunas":2129,"Ġtendr":2130,"Ġuniversidad":2131,"cos":2132,"Ġcen":2133,"Ġdesp":2134,"Ġencuentra":2135,"ĠlÃ©":2136,"Ġtienes":2137,"Ġinternet":2138,"Ġmodo":2139,"ulaciÃ³n":2140,"ĠdefiniciÃ³n":2141,"Ġproyectos":2142,"ĠseÃ±ales":2143,"Ġimag":2144,"ĠlÃ©x":2145,"Ġbene":2146,"Ġinterpre":2147,"Ġapro":2148,"Ġand":2149,"Ġhacerlo":2150,"Ġ64":2151,"ĠvisiÃ³n":2152,"Ġecuador":2153,"Ġautor":2154,"Ġtempor":2155,"Ġencuentran":2156,"Ġbenefici":2157,"Ġampl":2158,"anÃŃa":2159,"Ġrecon":2160,"alizar":2161,"Ġmantener":2162,"Ġcapa":2163,"Ġciclos":2164,"ficial":2165,"Ġentender":2166,"Ã¼":2167,"Ġdu":2168,"Ġcla":2169,"Ġhi":2170,"Ġju":2171,"Ġpasar":2172,"Ġservid":2173,"ĠfÃ¡cil":2174,"Ġtasa":2175,"Ġunidades":2176,"Ġello":2177,"ece":2178,"Ġgenerar":2179,"ĠÃ³r":2180,"uelve":2181,"nas":2182,"Ġdimen":2183,"Ġhago":2184,"Ġextr":2185,"tantes":2186,"Ġargu":2187,"Ġcomunicaciones":2188,"Ġelectr":2189,"Ġalgoritmo":2190,"Ġejercicio":2191,"yo":2192,"Ġsac":2193,"Ġreferencia":2194,"Ġgus":2195,"turo":2196,"Ġcompr":2197,"Ġexc":2198,"Ġdiferente":2199,"Ġfuturo":2200,"ĠmÃ¡xi":2201,"Ġhumanos":2202,"cuÃ¡les":2203,"Ġsupuesto":2204,"Ġobserv":2205,"pas":2206,"Ġenvi":2207,"Ġella":2208,"ĠvÃ©r":2209,"Ġalta":2210,"Ġconsiste":2211,"Ġlleg":2212,"Ġparticip":2213,"ĠdecÃŃa":2214,"ĠinvestigaciÃ³n":2215,"Ġcabo":2216,"Ġamortiz":2217,"Ġquier":2218,"tido":2219,"Ġoptim":2220,"para":2221,"Ġcolum":2222,"Ġartificial":2223,"her":2224,"oso":2225,"Ġacu":2226,"enciales":2227,"ĠquiÃ©n":2228,"Ġguar":2229,"Ġescal":2230,"Ġcont":2231,"Ġperio":2232,"Ġfinanciero":2233,"Ġliber":2234,"Ġrecuerden":2235,"cam":2236,"ps":2237,"udo":2238,"ort":2239,"Ġsean":2240,"Ġnodo":2241,"Ġdesarroll":2242,"Ġredu":2243,"Ġalternativas":2244,"):":2245,"jos":2246,"Ġmbr":2247,"ĠprÃ©s":2248,"bido":2249,"Ġapor":2250,"Ġsolici":2251,"Ġfinancieros":2252,"Ġciertos":2253,"ĠautomÃ¡":2254,"Ġje":2255,"Ġexten":2256,"gÃ¼":2257,"ms":2258,"udad":2259,"Ġdetal":2260,"ĠcÃ¡l":2261,"Ġcul":2262,"toria":2263,"Ġfuncional":2264,"Ġcostos":2265,"Ġestructuras":2266,"Ġciudad":2267,"gido":2268,"Ġelim":2269,"tividad":2270,"Ġprofesion":2271,"ĠingenierÃŃa":2272,"ĠobligaciÃ³n":2273,"Ġsecu":2274,"Ġcarr":2275,"Ġcualita":2276,"Ġlibro":2277,"Ġofer":2278,"Ġinterr":2279,"Ġsola":2280,"Ġrepresentar":2281,"ĠpolÃŃtica":2282,"Ġinstancia":2283,"Ġincluso":2284,"Ġade":2285,"tual":2286,"Ġhumano":2287,"ĠimplementaciÃ³n":2288,"Ġiz":2289,"Ġtextos":2290,"Ġlim":2291,"inas":2292,"Ġcontexto":2293,"Ġrecep":2294,"Ġalcan":2295,"ificar":2296,"Ġvienen":2297,"ĠtÃ©rmino":2298,"ĠjurÃŃdico":2299,"Ġizquier":2300,"Ġlan":2301,"tific":2302,"Ġele":2303,"ded":2304,"dir":2305,"Ġ14":2306,"Ġ25":2307,"Ġbuses":2308,"ĠclasificaciÃ³n":2309,"Ġderivada":2310,"Ġmecan":2311,"Ġescu":2312,"Ġenfo":2313,"Ġestable":2314,"000":2315,"Ġmundi":2316,"Ġevaluar":2317,"Ġtransform":2318,"Ġlograr":2319,"demos":2320,"Ġhu":2321,"Ġdif":2322,"Ġdescu":2323,"Ġacep":2324,"Ġ21":2325,"Ġ60":2326,"Ġecuaciones":2327,"Ġexist":2328,"ĠÃ³p":2329,"vil":2330,"Ġmir":2331,"tion":2332,"Ġnodos":2333,"Ġapoy":2334,"ĠbÃ¡sicos":2335,"ĠgrÃ¡fico":2336,"Ġobligaciones":2337,"Ġempezar":2338,"Ġellas":2339,"Ġcuad":2340,"dido":2341,"Ġ22":2342,"Ġpropi":2343,"Ġsegunda":2344,"Ġrefiere":2345,"ĠestÃ¡ndares":2346,"Ġdb":2347,"Ġlargo":2348,"Ġpuer":2349,"eron":2350,"tel":2351,"tita":2352,"Ġviv":2353,"Ġhor":2354,"Ġperten":2355,"Ġpuedan":2356,"Ġrad":2357,"Ġsabemos":2358,"Ġcalcular":2359,"Ġpruebas":2360,"Ġjerar":2361,"imo":2362,"oc":2363,"ĠlÃŃ":2364,"Ġterc":2365,"lob":2366,"Ġgente":2367,"Ġ13":2368,"Ġacciones":2369,"Ġhabla":2370,"Ġ32":2371,"Ġbasa":2372,"Ġmensajes":2373,"Ġlleva":2374,"Ġcircu":2375,"taf":2376,"taciones":2377,"Ġserie":2378,"Ġahor":2379,"Ġarreg":2380,"Ġnecesidades":2381,"Ġnuevas":2382,"ortun":2383,"Ġagr":2384,"Ġasegu":2385,"Ġcolo":2386,"Ġacce":2387,"Ġ28":2388,"Ġpropio":2389,"ĠfÃŃsica":2390,"Ġpes":2391,"ĠaÃ±o":2392,"Ġfab":2393,"terio":2394,"Ġdisco":2395,"Ġmodel":2396,"Ġcorto":2397,"Ġnormalmente":2398,"Ġcurva":2399,"Ġqueremos":2400,"Ġencarga":2401,"Ġmundial":2402,"Ġavan":2403,"Ġcompro":2404,"Ġmateri":2405,"Ġbastante":2406,"ĠlingÃ¼":2407,"Ġprocedimiento":2408,"Ġmicroprocesador":2409,"ĠelectrÃ³n":2410,"Ġoferta":2411,"este":2412,"Ġviendo":2413,"Ġactivo":2414,"Ġtele":2415,"Ġmismos":2416,"Ġcontrolar":2417,"Ġcomponente":2418,"Ġbloque":2419,"cambi":2420,"Ġsober":2421,"Ġ23":2422,"Ġpap":2423,"Ġpose":2424,"Ġdefine":2425,"Ġcompetencia":2426,"Ġeficiente":2427,"ordin":2428,"Ġconver":2429,"Ã¡m":2430,"Ġbin":2431,"tivamente":2432,"ĠdivisiÃ³n":2433,"Ġoportun":2434,"Ġvay":2435,"Ġ48":2436,"Ġmedios":2437,"Ġmucha":2438,"Ġherramienta":2439,"Ġalgoritmos":2440,"iÃ³":2441,"ĠdÃ©":2442,"ine":2443,"tamo":2444,"Ġconduc":2445,"Ġprior":2446,"Ġrealidad":2447,"cul":2448,"Ġante":2449,"sion":2450,"Ġtrabajando":2451,"Ġ27":2452,"Ġregistrar":2453,"Ġmanejar":2454,"Ġelectro":2455,"ĠevaluaciÃ³n":2456,"Ġpuntos":2457,"Ġaspectos":2458,"Ġinterrup":2459,"Ġjerarqu":2460,"ys":2461,"Ġdado":2462,"Ġadi":2463,"alan":2464,"sito":2465,"Ġ37":2466,"Ġpreci":2467,"Ġ80":2468,"Ġtabl":2469,"bros":2470,"ĠpodrÃŃa":2471,"ĠÃºnico":2472,"Ġcuantita":2473,"Ġgobierno":2474,"ĠlÃ©xico":2475,"ense":2476,"Ġplante":2477,"ĠmÃŃ":2478,"Ġ29":2479,"Ġgrande":2480,"Ġcopia":2481,"Ġcorrespond":2482,"Ġescuch":2483,"gamos":2484,"iero":2485,"Ġemis":2486,"Ġfon":2487,"Ġintercambi":2488,"Ġrenta":2489,"Ġmodelar":2490,"Ġ44":2491,"Ġbuscar":2492,"mbr":2493,"ĠmayorÃŃa":2494,"ĠÃ¡reas":2495,"Ġplataf":2496,"Ġdecodific":2497,"ĠprÃ©stamo":2498,"Ġaum":2499,"Ġcua":2500,"Ġtrad":2501,"Ġcompl":2502,"ĠartÃŃ":2503,"Ġhabil":2504,"Ġmedia":2505,"uye":2506,"Ġposibles":2507,"Ġciencias":2508,"ĠcrÃ©":2509,"Ġconcre":2510,"media":2511,"ĠanalÃŃ":2512,"Ġestablecer":2513,"Ġfabr":2514,"idez":2515,"Ġleer":2516,"aja":2517,"dap":2518,"Ġobten":2519,"Ġprepar":2520,"Ġsabe":2521,"Ġderecha":2522,"Ġfases":2523,"Ġderivadas":2524,"Ġincluye":2525,"Ġsatisfac":2526,"ĠjerarquÃŃa":2527,"eras":2528,"ques":2529,"Ġhil":2530,"Ġbalan":2531,"Ġtic":2532,"Ġusa":2533,"Ġhaga":2534,"Ġmodific":2535,"Ġprocesadores":2536,"tori":2537,"ĠmisiÃ³n":2538,"Ġmencion":2539,"gnÃ©":2540,"Ġ70":2541,"Ġdocumentos":2542,"Ġpuesto":2543,"Ġpila":2544,"Ġtransacciones":2545,"Ġcach":2546,"Ġgeneralmente":2547,"Ġimportantes":2548,"Ġsalir":2549,"Ġnueva":2550,"dulo":2551,"Ġingresar":2552,"Ġtarea":2553,"Ġacumul":2554,"Ġizquierda":2555,"teg":2556,"untos":2557,"culos":2558,"Ġrol":2559,"tizar":2560,"Ġcorrecto":2561,"Ġrecordemos":2562,"ĠintroducciÃ³n":2563,"ĠcrÃ©di":2564,"av":2565,"gado":2566,"tÃ©":2567,"Ġev":2568,"Ġcaden":2569,"ĠmÃºlti":2570,"Ġmeta":2571,"Ġinterf":2572,"Ġ94":2573,"Ġpone":2574,"Ġindependiente":2575,"ĠmÃºltip":2576,"Ġ|":2577,"Ġedad":2578,"tegor":2579,"Ġelabor":2580,"Ġejemplos":2581,"Ġprogramador":2582,"Ġ55":2583,"Ġ66":2584,"Ġcontable":2585,"Ġcamino":2586,"fe":2587,"zas":2588,"Ġ*":2589,"Ġ45":2590,"Ġdirectamente":2591,"Ġ90":2592,"ĠcreaciÃ³n":2593,"Ġtransmitir":2594,"Ġsencillo":2595,"Ġregular":2596,"Ġetapas":2597,"Ġsubsiste":2598,"Ġcarrera":2599,"Ġpapel":2600,"gir":2601,"ĠaÃ±":2602,"amil":2603,"Ġinternos":2604,"Ġ51":2605,"ĠinversiÃ³n":2606,"Ġindividuos":2607,"Ġdominio":2608,"ĠnÃºcleo":2609,"erÃŃa":2610,"Ġenv":2611,"Ġsur":2612,"Ġaco":2613,"blio":2614,"Ġconstru":2615,"Ġ43":2616,"Ġtransferencia":2617,"Ġpago":2618,"Ġalmacena":2619,"Ġvender":2620,"Ġdiagramas":2621,"Ġdistintos":2622,"Ġfundamentales":2623,"Ġbiblio":2624,"Ġnaturaleza":2625,"Ġpronto":2626,"Ġdepartamento":2627,"ĠamortizaciÃ³n":2628,"Ġis":2629,"Ġevi":2630,"Ġsuje":2631,"ajo":2632,"Ġconse":2633,"Ġcontrario":2634,"Ġ57":2635,"Ġmemorias":2636,"ĠcientÃŃ":2637,"Ġanterior":2638,"Ġbibliotec":2639,"Ġemb":2640,"Ġmes":2641,"ecer":2642,"ace":2643,"colo":2644,"Ġgrado":2645,"Ġadecu":2646,"Ġcore":2647,"Ġ81":2648,"Ġformas":2649,"ĠdinÃ¡m":2650,"Ġcontrato":2651,"ĠcuÃ¡les":2652,"Ġestrateg":2653,"Ġprotocolo":2654,"Ġlineal":2655,"blo":2656,"Ġdem":2657,"Ġdev":2658,"Ġadap":2659,"Ġesque":2660,"ĠfÃ³r":2661,"ĠtÃº":2662,"izaje":2663,"Ġteniendo":2664,"ormente":2665,"iva":2666,"Ġ53":2667,"ĠrealizaciÃ³n":2668,"Ġllamado":2669,"Ġsuperior":2670,"ĠespecificaciÃ³n":2671,"Ġaprendizaje":2672,"Ġcarpeta":2673,"Ġtablas":2674,"Ġcuatro":2675,"ĠaÃ±ad":2676,"Ġ,":2677,"anza":2678,"ismos":2679,"Ġpriv":2680,"Ġrefer":2681,"Ġ17":2682,"Ġ31":2683,"Ġ36":2684,"Ġcomunica":2685,"Ġ101":2686,"Ġcomputadoras":2687,"Ġgerente":2688,"Ġpantal":2689,"Ġorigen":2690,"ĠdocumentaciÃ³n":2691,"Ġgastos":2692,"Ġcentro":2693,"ĠcachÃ©":2694,"itar":2695,"Ġcri":2696,"erra":2697,"Ġmu":2698,"Ġfil":2699,"Ġprote":2700,"ĠtÃŃ":2701,"Ġall":2702,"Ġempresari":2703,"Ġ33":2704,"Ġ35":2705,"Ġ58":2706,"Ġ99":2707,"Ġsint":2708,"ĠpropÃ³":2709,"Ġespecial":2710,"Ġrequerimiento":2711,"Ġmicros":2712,"ĠprÃ¡cticas":2713,"ĠexpresiÃ³n":2714,"ĠmÃ³vil":2715,"Ġconclus":2716,"Ġmedida":2717,"ĠsemÃ¡n":2718,"ĠcomputaciÃ³n":2719,"Ġcontador":2720,"cido":2721,"Ġvimos":2722,"Ġventas":2723,"laz":2724,"imon":2725,"Ġdiscurs":2726,"Ġincor":2727,"Ġherencia":2728,"Ġingreso":2729,"ĠinformÃ¡tica":2730,"ĠsoberanÃŃa":2731,"ts":2732,"ana":2733,"Ġense":2734,"Ġfamil":2735,"Ġestan":2736,"gura":2737,"entado":2738,"Ġordin":2739,"Ġesper":2740,"Ġregres":2741,"Ġgenera":2742,"Ġ93":2743,"Ġindic":2744,"Ġfinanciera":2745,"Ġdeudas":2746,"Ġcampo":2747,"Ġdbms":2748,"tÃ³n":2749,"yec":2750,"Ġ$":2751,"Ġpc":2752,"Ġvol":2753,"Ġhar":2754,"Ġcomprender":2755,"Ġusar":2756,"Ġhacemos":2757,"ÃŃstico":2758,"Ġ49":2759,"Ġpoderes":2760,"Ġ73":2761,"Ġllamada":2762,"Ġlenguajes":2763,"Ġconform":2764,"Ġimplementar":2765,"Ġgrupos":2766,"ĠprÃ¡cticamente":2767,"ĠÃºnica":2768,"Ġmodelamiento":2769,"iar":2770,"mula":2771,"util":2772,"Ġenc":2773,"Ġfle":2774,"Ġcategor":2775,"Ġ54":2776,"ĠgeneraciÃ³n":2777,"Ġ71":2778,"ĠtecnologÃŃas":2779,"Ġmanej":2780,"Ġcomienza":2781,"Ġduro":2782,"ile":2783,"Ġcero":2784,"ono":2785,"onar":2786,"Ġtales":2787,"ecen":2788,"Ġalim":2789,"Ġcumple":2790,"ĠtenÃŃa":2791,"Ġano":2792,"Ġ52":2793,"Ġ56":2794,"Ġ65":2795,"Ġaplica":2796,"Ġ88":2797,"Ġpresentar":2798,"Ġconfigu":2799,"Ġnuevos":2800,"Ġmiembros":2801,"Ġlibertad":2802,"len":2803,"vien":2804,"Ġdetec":2805,"anos":2806,"Ġinmedia":2807,"Ġreun":2808,"acle":2809,"Ġempi":2810,"Ġ92":2811,"Ġinvol":2812,"ĠintegraciÃ³n":2813,"ĠsÃŃmbolos":2814,"Ġhilos":2815,"ibilidad":2816,"ponde":2817,"Ġseg":2818,"Ġran":2819,"Ġrespal":2820,"Ġinclu":2821,"Ġcorresponde":2822,"Ġprueba":2823,"Ġocurre":2824,"Ġconsumid":2825,"ĠrazÃ³n":2826,"Ġreceptor":2827,"Ġinterfaz":2828,"ĠsintÃ¡c":2829,"gue":2830,"Ġdeud":2831,"Ġdebido":2832,"Ġ41":2833,"ĠcÃ³mp":2834,"ĠgeneralizaciÃ³n":2835,"Ġayudan":2836,"Ġcierto":2837,"Ġfrecu":2838,"Ġgrafo":2839,"ĠdescripciÃ³n":2840,"Ġries":2841,"avor":2842,"cas":2843,"und":2844,"Ã¡g":2845,"Ġrecu":2846,"Ġfavor":2847,"echa":2848,"iza":2849,"ficos":2850,"ĠhabÃŃamos":2851,"Ġ47":2852,"Ġplano":2853,"abilidades":2854,"edores":2855,"Ġcuanto":2856,"Ġdenomina":2857,"Ġbiblioteca":2858,"Ġefica":2859,"Ġesco":2860,"Ġestim":2861,"Ġperf":2862,"guir":2863,"Ġacre":2864,"Ġintercon":2865,"Ġconstante":2866,"Ġ24":2867,"Ġ95":2868,"Ġespecifica":2869,"Ġadministrar":2870,"Ġintegridad":2871,"Ġcondiciones":2872,"Ġdistintas":2873,"Ġacceder":2874,"ml":2875,"ytes":2876,"Ġcable":2877,"ĠparÃ¡":2878,"magnÃ©":2879,"ental":2880,"Ġoperadores":2881,"Ġprotoc":2882,"Ġresponsabilidad":2883,"olÃ³gico":2884,"merg":2885,"Ġjefe":2886,"ĠelectromagnÃ©":2887,"ĠcrÃ©dito":2888,"Ġinvoluc":2889,"ĠcÃ³mputo":2890,"gada":2891,"Ġcin":2892,"tima":2893,"reci":2894,"bito":2895,"Ġpot":2896,"Ġconsu":2897,"Ġ82":2898,"Ġrepeti":2899,"Ġ72":2900,"Ġrealizan":2901,"ting":2902,"Ġdeterminado":2903,"turas":2904,"Ġsociales":2905,"exiÃ³n":2906,"ĠmÃ³dulo":2907,"ĠrÃ¡pido":2908,"Ġjustamente":2909,"ĠpÃºblico":2910,"ĠmÃ¡ximo":2911,"Ġadelante":2912,"Ġmiren":2913,"ĠpropÃ³sito":2914,"imonio":2915,"lib":2916,"ĠprÃ³":2917,"use":2918,"Ġdesemp":2919,"roid":2920,"Ġinstal":2921,"Ġ61":2922,"Ġ84":2923,"ultÃ¡n":2924,"ĠbÃ¡sico":2925,"Ġnacional":2926,"Ġmoni":2927,"ĠsimultÃ¡n":2928,"genes":2929,"Ġaleatorio":2930,"Ġandroid":2931,"Ġradio":2932,"tÃº":2933,"Ġedi":2934,"Ġdemos":2935,"tiendo":2936,"cionamiento":2937,"Ġbo":2938,"Ġub":2939,"comp":2940,"Ġ59":2941,"Ġ46":2942,"Ġmejores":2943,"Ġdefinido":2944,"Ġbuena":2945,"Ġmanejo":2946,"ĠpaÃŃses":2947,"medio":2948,"Ġmill":2949,"Ġservidor":2950,"Ġreducir":2951,"Ġemisor":2952,"bien":2953,"dem":2954,"pero":2955,"pora":2956,"so":2957,"vec":2958,"Ġemerg":2959,"ano":2960,"uele":2961,"Ġip":2962,"Ġoracle":2963,"Ġ26":2964,"Ġ78":2965,"Ġpermitir":2966,"Ġplanific":2967,"Ġaquellas":2968,"Ġliqu":2969,"bres":2970,"itu":2971,"tadas":2972,"Ġz":2973,"Ġvul":2974,"Ġcuo":2975,"Ġconstruc":2976,"Ġ34":2977,"Ġ39":2978,"Ġprecios":2979,"Ġ62":2980,"Ġproduce":2981,"Ġplane":2982,"Ġeran":2983,"edades":2984,"ĠinformÃ¡tico":2985,"Ġencontr":2986,"Ġfundamental":2987,"Ġetapa":2988,"ĠningÃºn":2989,"Ġembargo":2990,"Ġrecuper":2991,"mal":2992,"Ġsql":2993,"Ġhd":2994,"Ġreutil":2995,"Ġdese":2996,"ÃŃsticos":2997,"Ġmire":2998,"Ġ42":2999,"Ġ63":3000,"Ġ85":3001,"Ġcreo":3002,"Ġconstituy":3003,"ĠespecÃŃfico":3004,"Ġpensar":3005,"Ġproporciona":3006,"Ġbalance":3007,"Ġsuel":3008,"Ġentero":3009,"Ġhora":3010,"ĠnotaciÃ³n":3011,"tuar":3012,"Ġresto":3013,"ilar":3014,"Ġ38":3015,"Ġ69":3016,"Ġ89":3017,"ĠcaptaciÃ³n":3018,"Ġrespuesta":3019,"Ġequilib":3020,"Ġefectivo":3021,"Ġestablece":3022,"Ġexternos":3023,"ĠfÃ³rmula":3024,"tz":3025,"xis":3026,"Ġpudi":3027,"Ġsan":3028,"andos":3029,"Ġqueda":3030,"timo":3031,"Ġfecha":3032,"Ġtras":3033,"Ġnecesarios":3034,"ĠtransacciÃ³n":3035,"Ġcontroles":3036,"Ġ67":3037,"Ġ91":3038,"Ġvisu":3039,"Ġtecn":3040,"Ġmatric":3041,"Ġquiz":3042,"ĠÃ©ste":3043,"Ġgarantizar":3044,"Ġcomercial":3045,"Ġclave":3046,"Ġdiscurso":3047,"ke":3048,"una":3049,"Ġconven":3050,"difica":3051,"Ġmov":3052,"tore":3053,"ĠmenÃº":3054,"Ġcardin":3055,"Ġpredic":3056,"Ġ83":3057,"Ġ87":3058,"Ġ98":3059,"Ġ79":3060,"Ġpropia":3061,"ultad":3062,"Ġoperando":3063,"ĠdiseÃ±ar":3064,"ĠmatemÃ¡ticas":3065,"Ġcombinaciones":3066,"Ġincrementar":3067,"Ġmide":3068,"Ġevitar":3069,"ĠdemÃ¡s":3070,"Ġprotocolos":3071,"Ġparal":3072,"Ġextra":3073,"tancia":3074,"denes":3075,"Ġcaus":3076,"Ġreglam":3077,"Ġ68":3078,"Ġ97":3079,"Ġdeterminada":3080,"Ġdefini":3081,"Ġvended":3082,"Ġminis":3083,"ĠÃ³rdenes":3084,"ĠdifÃŃ":3085,"ĠenseÃ±":3086,"he":3087,"ran":3088,"Ġ]":3089,"ĠÃŃn":3090,"Ġcel":3091,"adie":3092,"Ġnu":3093,"Ġnadie":3094,"Ġhiz":3095,"Ġhom":3096,"Ġcodific":3097,"ack":3098,"rio":3099,"Ġtrabajamos":3100,"Ġcolabor":3101,"Ġrecibe":3102,"Ġenviar":3103,"Ġcolumna":3104,"Ġhizo":3105,"db":3106,"th":3107,"ĠpÃ¡g":3108,"Ġsuele":3109,"taxis":3110,"Ġojo":3111,"aces":3112,"Ġglob":3113,"Ġsuces":3114,"ulos":3115,"Ġestaba":3116,"tesis":3117,"Ġcontrola":3118,"Ġproductivos":3119,"Ġ74":3120,"Ġingresos":3121,"Ġmaneja":3122,"Ġactualiz":3123,"Ġfallos":3124,"Ġingeniero":3125,"ĠartÃŃculo":3126,"Ġsatisfacer":3127,"Ġacumulador":3128,"Ġcinco":3129,"ibles":3130,"rado":3131,"ĠvÃŃ":3132,"ich":3133,"Ġcompuesto":3134,"Ġinterre":3135,"Ġconstantes":3136,"Ġvaya":3137,"Ġformato":3138,"Ġ86":3139,"ĠespecializaciÃ³n":3140,"Ġestudiantes":3141,"ĠjurÃŃdica":3142,"ĠeconÃ³mico":3143,"Ġviaj":3144,"Ġprobabilidad":3145,"Ġlineales":3146,"Ġgusta":3147,"orÃŃa":3148,"Ġentra":3149,"loj":3150,"Ġbar":3151,"lev":3152,"ĠperÃŃo":3153,"ariamente":3154,"Ġcorre":3155,"Ġgenerales":3156,"Ġbusc":3157,"ĠbÃ¡sica":3158,"Ġconsidera":3159,"ĠÃ©sta":3160,"ĠimagÃŃn":3161,"ĠcÃ¡lculo":3162,"Ġami":3163,"tices":3164,"ticia":3165,"Ġinal":3166,"Ġsido":3167,"Ġsufici":3168,"Ãºtil":3169,"Ġexac":3170,"Ã±as":3171,"grÃ¡":3172,"Ġhaya":3173,"como":3174,"Ġ75":3175,"Ġoperador":3176,"Ġfuncionales":3177,"Ġfila":3178,"ĠpequeÃ±a":3179,"Ġcompetencias":3180,"Ġorigin":3181,"Ġvectores":3182,"Ġsupone":3183,"Ġextrem":3184,"Ġquieren":3185,"ĠprÃ³xi":3186,"rir":3187,"cial":3188,"Ã³metros":3189,"Ã¡tica":3190,"Ġusando":3191,"rag":3192,"Ġdesigu":3193,"Ġresul":3194,"Ġprogramar":3195,"Ġtransis":3196,"Ġ102":3197,"Ġconfid":3198,"tienen":3199,"Ġconducta":3200,"Ġconstruir":3201,"Ġdeudor":3202,"Ġequilibrio":3203,"ben":3204,"cada":3205,"fos":3206,"tÃ³":3207,"Ġemi":3208,"Ġaj":3209,"ciente":3210,"Ġinten":3211,"Ġbr":3212,"Ġtengan":3213,"ĠimÃ¡":3214,"Ġmanu":3215,"Ġimpres":3216,"Ġvarianza":3217,"Ġadd":3218,"Ġmedir":3219,"Ġsale":3220,"Ġrepresentan":3221,"ĠmÃ¡quinas":3222,"edor":3223,"ĠpequeÃ±o":3224,"ĠdeberÃŃa":3225,"Ġsigue":3226,"ĠatenciÃ³n":3227,"Ġargum":3228,"ĠvÃ©rtices":3229,"ĠmÃºltiples":3230,"ĠdinÃ¡mica":3231,"Ġpantalla":3232,"ĠÃºtil":3233,"Ġsuc":3234,"undan":3235,"Ġunas":3236,"ama":3237,"Ġdecirle":3238,"Ġsalud":3239,"Ġnecesitamos":3240,"ĠÃ¡m":3241,"ĠcaracterÃŃstica":3242,"ĠestadÃŃsticas":3243,"ĠÃºltima":3244,"ĠcomprensiÃ³n":3245,"Ġrevisar":3246,"cron":3247,"Ġinterpretar":3248,"Ġcadena":3249,"Ġdesempe":3250,"bor":3251,"tÃ¡n":3252,"Ġdej":3253,"Ġsent":3254,"Ġamen":3255,"Ġmos":3256,"adamente":3257,"Ã³s":3258,"ĠtenÃŃamos":3259,"tend":3260,"Ġanual":3261,"Ã©ricos":3262,"Ġfuentes":3263,"Ġempleado":3264,"Ġexperim":3265,"Ġlegal":3266,"Ġdiversos":3267,"Ġconvertir":3268,"Ġtics":3269,"tricas":3270,"idaciÃ³n":3271,"quiera":3272,"Ġanu":3273,"ĠresoluciÃ³n":3274,"Ġ96":3275,"Ġsintaxis":3276,"Ġrepor":3277,"Ġnega":3278,"Ġestudiar":3279,"ĠcrÃŃ":3280,"istencia":3281,"Ġprofesor":3282,"Ġinstancias":3283,"Ġautoridad":3284,"Ġmetahe":3285,"Ġesquema":3286,"Ġemergencia":3287,"Ġdesigual":3288,"ĠimÃ¡genes":3289,"ĠÃ¡mbito":3290,"Ġmetaheur":3291,"Ġcaja":3292,"orden":3293,"Ġfich":3294,"Ġtierra":3295,"Ġtok":3296,"Ġapren":3297,"Ġanti":3298,"Ġcrean":3299,"crip":3300,"Ġllega":3301,"cha":3302,"Ġdeclar":3303,"ĠprÃ¡ctica":3304,"ĠeconÃ³mica":3305,"Ġplataforma":3306,"ĠcategorÃŃas":3307,"ĠperÃŃodo":3308,"fs":3309,"gados":3310,"via":3311,"Ġdando":3312,"one":3313,"Ġcoordin":3314,"Ġsiti":3315,"cons":3316,"ieron":3317,"Ġ76":3318,"Ġnuestras":3319,"Ġbusca":3320,"Ġinvertir":3321,"Ġlibre":3322,"Ġsupervis":3323,"ĠasignaciÃ³n":3324,"Ġquerer":3325,"Ġincluyendo":3326,"Ġsirven":3327,"Ġfuerza":3328,"ĠauditorÃŃa":3329,"Ġconvier":3330,"Ġpreguntas":3331,"Ġperiodo":3332,"Ġprofesional":3333,"ĠparÃ¡metros":3334,"Ġvendedores":3335,"ah":3336,"dulos":3337,"lic":3338,"lÃ©":3339,"Ġvo":3340,"ide":3341,"Ġfrag":3342,"Ġtes":3343,"Ġpueblo":3344,"Ġinterfac":3345,"Ġutilidad":3346,"Ġdeterminante":3347,"ĠÃ¡r":3348,"Ġsimplex":3349,"ĠmÃ³dulos":3350,"Ġtransmite":3351,"Ġcompilador":3352,"Ġmoral":3353,"Ġdividir":3354,"Ġventajas":3355,"Ġconfigur":3356,"fin":3357,"pec":3358,"âĢ":3359,"estruc":3360,"unci":3361,"Ġquedar":3362,"tino":3363,"Ġvolver":3364,"Ġsoy":3365,"Ġdismin":3366,"Ġprocesar":3367,"Ġutilidades":3368,"ieren":3369,"Ġ77":3370,"Ġcambia":3371,"Ġecua":3372,"Ġcontables":3373,"ĠcombinaciÃ³n":3374,"ĠmultiplicaciÃ³n":3375,"Ġpesar":3376,"Ġvayan":3377,"torial":3378,"Ġconseguir":3379,"ĠaÃ±adir":3380,"Ġestandar":3381,"ĠdifÃŃcil":3382,"fÃŃa":3383,"lÃ©s":3384,"ĠdÃŃas":3385,"osiciÃ³n":3386,"esto":3387,"Ġcober":3388,"Ġporc":3389,"Ġtot":3390,"Ġusan":3391,"Ġresta":3392,"Ġentregar":3393,"Ġutilizado":3394,"Ġpaque":3395,"ĠinglÃ©s":3396,"Ã©rico":3397,"Ġordenamiento":3398,"ĠrepresentaciÃ³n":3399,"Ġadministrador":3400,"Ġefectos":3401,"ĠjerÃ¡r":3402,"Ġabstracto":3403,"Ġhogar":3404,"Ġroles":3405,"Ġincorpor":3406,"ĠÃ¡rbol":3407,"Ġcobertura":3408,"ĠjerÃ¡rqu":3409,"fi":3410,"xim":3411,"Ġeven":3412,"Ġatr":3413,"Ġende":3414,"Ġnic":3415,"Ġvin":3416,"Ġreales":3417,"Ġtar":3418,"ecta":3419,"aban":3420,"Ġgeo":3421,"Ġexig":3422,"irm":3423,"uestos":3424,"Ġentrevis":3425,"Ġpagos":3426,"Ġcorpora":3427,"Ġfinanzas":3428,"Ġtoman":3429,"Ġfigura":3430,"ĠetcÃ©":3431,"ĠdistribuciÃ³n":3432,"Ġdigamos":3433,"Ġmedidas":3434,"Ġinstituciones":3435,"Ġalcanzar":3436,"Ġprioridad":3437,"Ġiso":3438,"cre":3439,"ite":3440,"yte":3441,"Ġestr":3442,"unca":3443,"Ġincu":3444,"Ġflo":3445,"quil":3446,"Ġdistancia":3447,"alizado":3448,"Ġopin":3449,"dose":3450,"Ġutilizados":3451,"Ġabajo":3452,"Ġfuera":3453,"Ġanalizador":3454,"Ġveamos":3455,"Ġrelacionado":3456,"Ġasigna":3457,"ĠpequeÃ±os":3458,"ĠdiseÃ±ado":3459,"Ġfron":3460,"Ġrespetar":3461,"ĠseÃ±ala":3462,"Ġcaminos":3463,"ĠmÃŃnimo":3464,"Ġinventarios":3465,"ĠdimensiÃ³n":3466,"ĠautomÃ¡ticamente":3467,"Ġapoyo":3468,"ĠsintÃ¡ctico":3469,"Ġeficaz":3470,"Ġconsumo":3471,"Ġcuota":3472,"ĠetcÃ©tera":3473,"bro":3474,"gres":3475,"gÃŃa":3476,"Ġsen":3477,"trico":3478,"Ġint":3479,"econ":3480,"Ġlog":3481,"Ġcompra":3482,"tice":3483,"entando":3484,"Ġdestino":3485,"Ġsocio":3486,"Ġinterval":3487,"icio":3488,"icios":3489,"Ġmain":3490,"Ġredundan":3491,"mbres":3492,"Ġequival":3493,"Ġfactor":3494,"ĠsimulaciÃ³n":3495,"Ġanteriores":3496,"Ġningun":3497,"ĠmetodologÃŃas":3498,"Ġdimensiones":3499,"Ġsacar":3500,"dica":3501,"ejemp":3502,"oco":3503,"son":3504,"ĠdÃŃ":3505,"Ġnan":3506,"Ġvuel":3507,"Ġcola":3508,"Ġreloj":3509,"Ġtrabajan":3510,"Ġutilizada":3511,"Ġpresup":3512,"ĠplanificaciÃ³n":3513,"ĠminerÃŃa":3514,"Ġrob":3515,"ĠeconÃ³micos":3516,"ĠrÃ¡pida":3517,"ĠasociaciÃ³n":3518,"ĠcuÃ¡nto":3519,"Ġpatrones":3520,"Ġinventario":3521,"Ġamplia":3522,"Ġagrup":3523,"Ġsubsistemas":3524,"ĠconstrucciÃ³n":3525,"Ġdesigualdad":3526,"jer":3527,"olo":3528,"Ġtam":3529,"entidad":3530,"Ġaqui":3531,"Ġentien":3532,"ustr":3533,"Ġcompeti":3534,"ĠoraciÃ³n":3535,"ive":3536,"Ġmod":3537,"Ġentrar":3538,"Ġpersonalidad":3539,"ĠversiÃ³n":3540,"Ġorganizar":3541,"Ġdireccionamiento":3542,"Ġpasivo":3543,"Ġide":3544,"Ġrecurso":3545,"Ġordenador":3546,"Ġnecesitan":3547,"Ġconstitucional":3548,"Ġindustr":3549,"Ġgestionar":3550,"Ġatributo":3551,"Ġamd":3552,"Ġincluyen":3553,"Ġ201":3554,"Ġanteriormente":3555,"Ġresponsable":3556,"Ġdeuda":3557,"ĠmÃŃnima":3558,"Ġproveedores":3559,"Ġfuncionalidad":3560,"Ġsecuenci":3561,"ĠelectrÃ³nico":3562,"ĠtÃŃp":3563,"Ġtambien":3564,"gÃ©n":3565,"ner":3566,"Ġpier":3567,"Ġsta":3568,"Ġabier":3569,"tida":3570,"Ġrelev":3571,"Ġsimb":3572,"Ġdesta":3573,"torian":3574,"Ġdiferenci":3575,"Ġmejora":3576,"Ġimplica":3577,"Ġmarca":3578,"Ġincremento":3579,"Ġnumero":3580,"Ġsituaciones":3581,"Ġagreg":3582,"Ġganar":3583,"Ġsoporte":3584,"Ġrutin":3585,"ĠtendrÃ¡":3586,"ĠinterrupciÃ³n":3587,"Ġcorrespondiente":3588,"ĠsimultÃ¡ne":3589,"ĠÃŃndic":3590,"Ġecuatorian":3591,"cho":3592,"onos":3593,"Ġbig":3594,"Ġsomos":3595,"Ġacerc":3596,"rido":3597,"Ġentrega":3598,"Ġjunto":3599,"Ġcasa":3600,"brir":3601,"Ġconocimientos":3602,"Ġidentificador":3603,"ĠbÃ¡sicas":3604,"ĠestratÃ©":3605,"Ġataque":3606,"Ġpatrimonio":3607,"ĠmetodologÃŃa":3608,"Ġproteger":3609,"ĠtecnolÃ³g":3610,"ĠestratÃ©g":3611,"Ġeduc":3612,"Ġdra":3613,"Ġpien":3614,"Ġsiendo":3615,"deo":3616,"cuando":3617,"cula":3618,"Ġperif":3619,"Ġseres":3620,"tenemos":3621,"aliza":3622,"tarse":3623,"ĠhabÃŃa":3624,"Ġmismas":3625,"itado":3626,"Ġdiferencias":3627,"Ġproducen":3628,"Ġclasific":3629,"Ġpresenta":3630,"Ġdescribir":3631,"Ġarchivo":3632,"Ġdigital":3633,"ĠsÃŃmbolo":3634,"Ġbeneficios":3635,"Ġcultura":3636,"Ġhoras":3637,"ĠlÃŃmi":3638,"Ġoportunidad":3639,"Ġintercambio":3640,"ĠallÃŃ":3641,"Ġhdfs":3642,"Ġcelular":3643,"ĠimagÃŃnense":3644,"Ġporcenta":3645,"ap":3646,"dd":3647,"fa":3648,"Ġdejar":3649,"Ġpse":3650,"Ġsum":3651,"tical":3652,"quito":3653,"Ġapun":3654,"ĠÃ©xi":3655,"Ġforman":3656,"ĠbÃ¡sicamente":3657,"Ġcomplejo":3658,"Ġinternacionales":3659,"ĠcuÃ¡ndo":3660,"Ġdiversas":3661,"Ġofrecer":3662,"Ġeliminar":3663,"Ġpuertos":3664,"Ġcircuito":3665,"Ġposee":3666,"Ġmeses":3667,"ĠsemÃ¡ntico":3668,"Ġalimentos":3669,"ahora":3670,"ĠgeogrÃ¡":3671,"ĠnanÃ³metros":3672,"Ġporcentaje":3673,"ĠÃ©xito":3674,"Ġado":3675,"ancia":3676,"remos":3677,"Ġnunca":3678,"ÃŃci":3679,"Ġcolec":3680,"ame":3681,"Ġfen":3682,"Ġprof":3683,"Ġback":3684,"Ġcuesti":3685,"adora":3686,"Ġtemas":3687,"ĠteorÃŃa":3688,"grama":3689,"Ġcontras":3690,"Ġcarga":3691,"Ġnecesaria":3692,"Ġdiferenciales":3693,"ĠmediciÃ³n":3694,"titud":3695,"Ġdefinen":3696,"Ġrelacional":3697,"Ġcorrectamente":3698,"Ġabstracta":3699,"Ġambas":3700,"Ġcursor":3701,"Ġofrece":3702,"Ġcompradores":3703,"ĠvÃ©rtice":3704,"Ġparticipantes":3705,"Ġmecanismo":3706,"Ġaumentar":3707,"Ġcomplem":3708,"Ġfamilia":3709,"Ġpresupuesto":3710,"ves":3711,"cimiento":3712,"Ġmac":3713,"Ġvac":3714,"Ġvuelve":3715,"Ġalu":3716,"Ġinforma":3717,"Ġinser":3718,"Ġpersonales":3719,"ĠvalidaciÃ³n":3720,"Ġllaman":3721,"Ġpresente":3722,"Ġponen":3723,"ĠÃ©tica":3724,"ĠlÃ³gicas":3725,"Ġactual":3726,"Ġpuntero":3727,"Ġindependientes":3728,"ianza":3729,"Ġseleccion":3730,"Ġconsulta":3731,"Ġexcel":3732,"ĠoptimizaciÃ³n":3733,"Ġarreglo":3734,"Ġcolocar":3735,"Ġliquidez":3736,"Ġministerio":3737,"ĠcolaboraciÃ³n":3738,"Ġajus":3739,"bamos":3740,"cp":3741,"glo":3742,"tran":3743,"Ġprima":3744,"Ġsonido":3745,"Ġdestin":3746,"Ġnosql":3747,"Ġapp":3748,"icidad":3749,"ficas":3750,"ĠtelÃ©":3751,"Ġbasado":3752,"Ġpropa":3753,"Ġconoz":3754,"Ġhumanas":3755,"Ġactualmente":3756,"Ġgracias":3757,"Ġpandem":3758,"Ġsigno":3759,"Ġeficiencia":3760,"Ġcampos":3761,"Ġdesarrolladores":3762,"Ġflexi":3763,"Ġsuce":3764,"Ġconvierte":3765,"Ġinterfaces":3766,"Ġpandemia":3767,"venta":3768,"Ġaf":3769,"Ġenter":3770,"Ã¡mbr":3771,"Ġinci":3772,"Ġdij":3773,"uestas":3774,"Ġuml":3775,"Ġescritura":3776,"Ġestructurado":3777,"Ġbaja":3778,"Ġsector":3779,"Ġdisponibilidad":3780,"Ġsujeto":3781,"ĠmÃ³viles":3782,"Ġsegmento":3783,"Ġnube":3784,"ĠinalÃ¡mbr":3785,"ĠsimultÃ¡neamente":3786,"ban":3787,"dr":3788,"efici":3789,"gas":3790,"gida":3791,"jidad":3792,"line":3793,"ern":3794,"tring":3795,"Ġente":3796,"Ġnac":3797,"Ġcobr":3798,"amento":3799,"ĠdaÃ±":3800,"nombre":3801,"itales":3802,"Ġpasivos":3803,"Ġcomunic":3804,"Ġbuenas":3805,"Ġelector":3806,"Ġcompartir":3807,"regis":3808,"ĠpequeÃ±as":3809,"ifi":3810,"Ġindividuales":3811,"ĠcompilaciÃ³n":3812,"Ġinteractuar":3813,"Ġbeneficio":3814,"Ġreconoci":3815,"Ġcualitativas":3816,"Ġenfoque":3817,"Ġdevuelve":3818,"Ġviajan":3819,"ĠprÃ³xima":3820,"Ġanualidad":3821,"ĠdÃŃg":3822,"ocia":3823,"Ġllen":3824,"Ġmando":3825,"Ġconvers":3826,"Ġloc":3827,"ray":3828,"Ġinterno":3829,"Ġreserv":3830,"Ġconsecu":3831,"ilidad":3832,"Ġcapas":3833,"Ġcoste":3834,"Ġposteri":3835,"Ġmayores":3836,"Ġiguales":3837,"Ġconfi":3838,"Ġterri":3839,"Ġcapacidades":3840,"Ġautoma":3841,"istÃ³r":3842,"ĠseparaciÃ³n":3843,"Ġrespeto":3844,"Ġcertific":3845,"Ġjusticia":3846,"Ġcorriente":3847,"Ġdirigido":3848,"Ġdesplaz":3849,"Ġimagin":3850,"Ġcualitativa":3851,"Ġexistentes":3852,"Ġestrategias":3853,"Ġfrecuencias":3854,"ĠconfiguraciÃ³n":3855,"aya":3856,"vÃŃa":3857,"Ġdeja":3858,"Ġpl":3859,"Ġvas":3860,"ĠfÃŃ":3861,"Ġpromedio":3862,"Ġcuar":3863,"Ġpop":3864,"Ġinterior":3865,"Ġmano":3866,"Ġcontribu":3867,"Ġorgani":3868,"Ġadquis":3869,"curr":3870,"Ġidentidad":3871,"Ġposibil":3872,"Ġpedir":3873,"ĠtodavÃŃa":3874,"Ġguaya":3875,"Ġminim":3876,"ĠfÃŃsico":3877,"Ġgerentes":3878,"Ġondas":3879,"Ġmiembro":3880,"Ġjuz":3881,"Ġcolumnas":3882,"Ġprofesionales":3883,"Ġvulner":3884,"#Â¿":3885,"ato":3886,"fuer":3887,"lido":3888,"pr":3889,"Ġos":3890,"Ġcha":3891,"Ġlabor":3892,"Ġvend":3893,"ĠhistÃ³r":3894,"cionalmente":3895,"Ġtengamos":3896,"ivamente":3897,"Ġconstr":3898,"Ġperspec":3899,"Ġservir":3900,"Ġmone":3901,"Ġrecuerde":3902,"Ġafecta":3903,"Ġtemporal":3904,"Ġcuantitativa":3905,"Ġsuficiente":3906,"Ġargumenta":3907,"Ġredundancia":3908,"ning":3909,"san":3910,"Ġpus":3911,"estr":3912,"Ġais":3913,"oner":3914,"Ġsex":3915,"Ġprotec":3916,"Ġload":3917,"gulo":3918,"gru":3919,"Ġnecesarias":3920,"Ġcasi":3921,"Ġposibilidad":3922,"ducir":3923,"Ġestudiante":3924,"Ġverdadera":3925,"Ġasignar":3926,"Ġclaramente":3927,"Ġambos":3928,"ĠcompaÃ±ero":3929,"Ġmiden":3930,"ĠnÃºcleos":3931,"Ġacopl":3932,"Ġrango":3933,"Ġacreedor":3934,"itud":3935,"ĠvÃŃdeo":3936,"Ġincumpl":3937,"ejemplo":3938,"aquÃŃ":3939,"ck":3940,"Ġdue":3941,"ergÃŃa":3942,"Ġesfuer":3943,"Ã³men":3944,"ĠconexiÃ³n":3945,"icado":3946,"Ġhal":3947,"Ġcoefici":3948,"Ġful":3949,"ĠestÃ©n":3950,"Ġtopo":3951,"Ġsumar":3952,"Ġespera":3953,"Ġpaga":3954,"Ġprincipalmente":3955,"Ġsalen":3956,"Ġpresentan":3957,"Ġproyec":3958,"Ġigualdad":3959,"Ġcumplen":3960,"Ġcomplejidad":3961,"ĠespecÃŃfica":3962,"Ġtemper":3963,"Ġfrente":3964,"Ġfueron":3965,"Ġfuerte":3966,"Ġservidores":3967,"ĠllegÃ³":3968,"ĠcÃ¡lculos":3969,"Ġmecanismos":3970,"Ġfilas":3971,"Ġempieza":3972,"Ġrespaldo":3973,"Ġcorporativa":3974,"ĠperifÃ©ricos":3975,"ĠfenÃ³men":3976,"fono":3977,"Ġdy":3978,"ĠaÃºn":3979,"alidades":3980,"Ġcontar":3981,"izon":3982,"Ġpoquito":3983,"Ġmover":3984,"Ġinforme":3985,"Ġarri":3986,"Ġasocia":3987,"Ġcomunes":3988,"Ã©ramos":3989,"Ġpongo":3990,"Ġconfianza":3991,"Ġescrito":3992,"Ġlibros":3993,"Ġconocida":3994,"Ġidentificadores":3995,"Ġcomplejos":3996,"Ġproporcionar":3997,"Ġingenieros":3998,"Ġcomerciales":3999,"Ġelegir":4000,"ĠlÃŃder":4001,"ĠlingÃ¼ÃŃstica":4002,"Ġconsumidores":4003,"Ġencontramos":4004,"Ġmatrices":4005,"Ġtransistores":4006,"ĠmetaheurÃŃstica":4007,"Ġtesis":4008,"Ġtotalmente":4009,"Ġsimbol":4010,"gador":4011,"tÃŃa":4012,"tales":4013,"trica":4014,"ĠenergÃŃa":4015,"Ã©m":4016,"Ġtor":4017,"Ġcuyo":4018,"Ġmotivo":4019,"torios":4020,"iles":4021,"Ġinstru":4022,"Ġprogramadores":4023,"ĠutilizaciÃ³n":4024,"Ġrepar":4025,"Ġcreado":4026,"Ġnecesitar":4027,"Ġconflic":4028,"Ġmercan":4029,"Ġsencilla":4030,"azas":4031,"Ġgerencia":4032,"Ġambiente":4033,"Ġincrementa":4034,"Ġexclus":4035,"ocer":4036,"Ġasegurar":4037,"ĠevoluciÃ³n":4038,"viene":4039,"Ġincluir":4040,"Ġriesgos":4041,"ĠpÃ¡gina":4042,"Ġresulta":4043,"Ġanualidades":4044,"Ġpseudo":4045,"Ġguayaquil":4046,"ĠtopologÃŃa":4047,"vio":4048,"Ġdba":4049,"ord":4050,"trando":4051,"Ġvig":4052,"Ġconcurr":4053,"Ġseman":4054,"Ġocas":4055,"Ġretro":4056,"Ġtcp":4057,"Ġnombres":4058,"ĠserÃ¡n":4059,"Ġdesc":4060,"Ġdescomp":4061,"imen":4062,"quiÃ©n":4063,"ĠsistemÃ¡":4064,"torias":4065,"tarÃŃa":4066,"Ġverificar":4067,"Ġbasada":4068,"Ġmira":4069,"Ġpreval":4070,"Ġtranspor":4071,"Ġfinalmente":4072,"Ġimportar":4073,"Ġdetermina":4074,"Ġseguimos":4075,"Ġalmacenan":4076,"caps":4077,"Ġcontratar":4078,"Ġgui":4079,"Ġcompleta":4080,"Ġimplementa":4081,"Ġsimilar":4082,"Ġgrafos":4083,"Ġhechos":4084,"Ġdepender":4085,"Ġagre":4086,"Ġlegis":4087,"Ġbanc":4088,"Ġmaterias":4089,"Ġinterrupciones":4090,"Ġempresariales":4091,"ĠconclusiÃ³n":4092,"vech":4093,"Ġeventos":4094,"ĠprotecciÃ³n":4095,"Ġarriba":4096,"og":4097,"oft":4098,"sin":4099,"ĠsÃº":4100,"ona":4101,"arlo":4102,"istir":4103,"Ġinyec":4104,"Ġrem":4105,"Ġperder":4106,"Ġdescon":4107,"Ġinformes":4108,"Ġtrabajadores":4109,"ity":4110,"Ġcapaz":4111,"Ġpropios":4112,"turales":4113,"Ġcomputadores":4114,"Ġoperandos":4115,"Ġexistir":4116,"Ġindican":4117,"Ġfacultad":4118,"Ġdependencia":4119,"Ġcorrecta":4120,"Ġpensamiento":4121,"Ġregula":4122,"ĠmatemÃ¡tica":4123,"ĠsecciÃ³n":4124,"Ġvectorial":4125,"Ġcorrientes":4126,"Ġescas":4127,"Ġaprovech":4128,"Ġbinaria":4129,"Ġrentabilidad":4130,"Ġmicrosoft":4131,"Ġencab":4132,"ileg":4133,"ĠquizÃ¡s":4134,"Ġamenazas":4135,"Ġentrevista":4136,"Ġincumplimiento":4137,"lon":4138,"pol":4139,"rada":4140,"Ġstore":4141,"Ġencaps":4142,"Ġocu":4143,"Ġofici":4144,"Ġprogres":4145,"usiÃ³n":4146,"gular":4147,"Ġdesventa":4148,"Ġaccion":4149,"Ġmanda":4150,"Ġud":4151,"Ġdicha":4152,"Ġja":4153,"Ġsaldo":4154,"Ġtiempos":4155,"Ġdepur":4156,"Ġabsolu":4157,"Ġrama":4158,"Ġfacilitar":4159,"ĠmÃ¡xima":4160,"Ġaportar":4161,"Ġhorizon":4162,"Ġcuantitativas":4163,"Ġempresarial":4164,"Ġconclusiones":4165,"Ġficheros":4166,"Ġprec":4167,"aron":4168,"Ġconci":4169,"Ġhici":4170,"idado":4171,"Ġitera":4172,"Ãºa":4173,"Ġlee":4174,"Ġapi":4175,"Ġmanip":4176,"Ġejerc":4177,"Ġcargo":4178,"Ġprede":4179,"cipl":4180,"Ġdirecto":4181,"Ġpasan":4182,"Ã©rica":4183,"Ġllamadas":4184,"Ġnex":4185,"Ġconceptu":4186,"Ġaumento":4187,"Ġformado":4188,"enso":4189,"Ġinteresante":4190,"Ġdistribuido":4191,"ĠinstituciÃ³n":4192,"ĠvirtualizaciÃ³n":4193,"Ġreconocer":4194,"ĠfÃ¡cilmente":4195,"Ġargumentos":4196,"Ġpropiedades":4197,"Ġpuerto":4198,"Ġtelef":4199,"Ġprivileg":4200,"Ġdetectar":4201,"Ġextremo":4202,"Ġmostrar":4203,"dpi":4204,"Ġesencial":4205,"inci":4206,"inter":4207,"Ġhol":4208,"Ġcopi":4209,"Ġrequier":4210,"idamente":4211,"izan":4212,"Ġdespl":4213,"Ġdiscos":4214,"Ġmaqu":4215,"Ġtrabajos":4216,"Ġvariabilidad":4217,"Ġtranspar":4218,"Ġexista":4219,"ĠidentificaciÃ³n":4220,"Ġrelacionar":4221,"Ġinteresa":4222,"Ġinternacional":4223,"Ġconocen":4224,"ĠgrÃ¡fica":4225,"Ġdescriptiva":4226,"Ġbanco":4227,"Ġescen":4228,"Ġcomputa":4229,"yout":4230,"ĠlingÃ¼ÃŃsticas":4231,"Ġhabilidad":4232,"Ġrecuperar":4233,"Ġtarje":4234,"Ġsensi":4235,"Ġninguna":4236,"Ġenteros":4237,"Ġautomatiz":4238,"Ġperspectiva":4239,"Ġaisl":4240,"Ġtemperamento":4241,"Ġencabez":4242,"bdd":4243,"itas":4244,"ler":4245,"ura":4246,"ws":4247,"cin":4248,"Ġunidos":4249,"ĠelÃ©c":4250,"mpla":4251,"Ġhip":4252,"Ġbbdd":4253,"lex":4254,"ĠperiÃ³":4255,"Ġgig":4256,"Ġdio":4257,"Ġdiario":4258,"Ġimplan":4259,"Ġhabi":4260,"Ġorganismos":4261,"Ġtrayec":4262,"Ġcualquiera":4263,"blemente":4264,"Ġexplo":4265,"ĠmÃ©tricas":4266,"alabilidad":4267,"Ġnormal":4268,"Ġcanal":4269,"Ġveo":4270,"terios":4271,"Ġwan":4272,"xiones":4273,"Ġcontabil":4274,"Ġinclusive":4275,"Ġki":4276,"ĠcontinuaciÃ³n":4277,"Ġhomo":4278,"Ġcursos":4279,"Ġescalabilidad":4280,"Ġatender":4281,"Ġseleccionar":4282,"Ġinferior":4283,"Ġconsultas":4284,"ĠÃ³rgan":4285,"Ġelimin":4286,"Ġtraduc":4287,"Ġhabilidades":4288,"Ġmujer":4289,"ĠrobÃ³":4290,"Ġadop":4291,"namente":4292,"radas":4293,"ss":4294,"Ġdamos":4295,"ence":4296,"Ġpenti":4297,"ĠcÃ¡":4298,"mpoco":4299,"Ġpromo":4300,"Ġsil":4301,"Ġdiciendo":4302,"Ġcompuesta":4303,"Ġahi":4304,"Ġras":4305,"Ġnecesariamente":4306,"Ġtransfer":4307,"Ġjuego":4308,"uyen":4309,"Ã¡ndo":4310,"Ġdeterminantes":4311,"Ġordenadores":4312,"ĠarquitectÃ³n":4313,"Ġfij":4314,"Ġverdadero":4315,"ĠcomparaciÃ³n":4316,"Ġagentes":4317,"Ġespecificar":4318,"Ġaleatoria":4319,"Ġgobiernos":4320,"Ġgana":4321,"Ġsuponer":4322,"Ġhiper":4323,"ĠparticipaciÃ³n":4324,"ĠautomÃ¡tico":4325,"Ġciudadanos":4326,"ĠtransformaciÃ³n":4327,"Ġavanz":4328,"ĠanalÃŃtica":4329,"Ġevolu":4330,"Ġcriterio":4331,"Ġmicroserv":4332,"Ġendeud":4333,"ĠagregaciÃ³n":4334,"Ġposibilidades":4335,"Ġpentium":4336,"ĠcÃ¡mar":4337,"bu":4338,"uo":4339,"Ġlid":4340,"Ġps":4341,"Ġax":4342,"tipo":4343,"tiza":4344,"Ġhis":4345,"Ġhex":4346,"izado":4347,"izados":4348,"diÃ³":4349,"Ġdivis":4350,"entales":4351,"Ġpuedes":4352,"ficamente":4353,"Ġestaciones":4354,"Ġdecimal":4355,"Ġtampoco":4356,"Ġpositivo":4357,"Ġfuncionar":4358,"Ġquiera":4359,"Ġintegral":4360,"ĠsÃ³lido":4361,"Ġnave":4362,"Ġnormativa":4363,"Ġdependencias":4364,"Ġespectro":4365,"Ġexplor":4366,"Ġfacilidad":4367,"Ġheur":4368,"Ġaprendiendo":4369,"Ġadministrativa":4370,"Ġguardar":4371,"Ġdescuento":4372,"Ġcomprob":4373,"Ġfondo":4374,"ĠdecodificaciÃ³n":4375,"Ġmonitor":4376,"Ġmillones":4377,"Ġhombre":4378,"Ġdesplazamiento":4379,"Ġorganigrama":4380,"cel":4381,"iales":4382,"Ġpul":4383,"esa":4384,"Ġaut":4385,"isten":4386,"Ġola":4387,"amientos":4388,"Ġdiga":4389,"Ã±ol":4390,"Ġresid":4391,"Ġ200":4392,"Ġmix":4393,"Ġdesarrollado":4394,"Ġdeterminan":4395,"Ġespeciales":4396,"Ġquitar":4397,"Ġmonop":4398,"Ġinvestiga":4399,"ĠespaÃ±ol":4400,"Ġresponsabilidades":4401,"Ġindependencia":4402,"Ġalternativa":4403,"Ġcircular":4404,"Ġimagen":4405,"Ġmodificar":4406,"Ġpapeles":4407,"Ġestrategia":4408,"Ġperfecto":4409,"Ġpaquetes":4410,"ĠtelÃ©fono":4411,"registro":4412,"Ġterritorio":4413,"Ġjava":4414,"Ġhorizontal":4415,"Ġrequieren":4416,"ĠhipÃ³":4417,"Ġolap":4418,"has":4419,"jec":4420,"tÃ¡":4421,"ĠâĢ":4422,"Ġcerc":4423,"Ġqued":4424,"tid":4425,"rez":4426,"reded":4427,"table":4428,"Ġincons":4429,"Ġremo":4430,"Ġalreded":4431,"entemente":4432,"olec":4433,"Ġperfec":4434,"Ġsuminis":4435,"entarios":4436,"encialidad":4437,"alizada":4438,"Ġcomer":4439,"ĠvariaciÃ³n":4440,"Ġbasados":4441,"Ġregla":4442,"Ġasum":4443,"Ġutilizamos":4444,"Ġtrate":4445,"ĠpresentaciÃ³n":4446,"Ġconceptual":4447,"Ġconfirm":4448,"Ġfacti":4449,"Ġmercados":4450,"Ġcalend":4451,"Ġrelaciona":4452,"Ġconsiderar":4453,"Ġconsideran":4454,"bot":4455,"Ġdistribuir":4456,"Ġdemand":4457,"Ġviol":4458,"Ġataques":4459,"Ġcopias":4460,"ĠinteractÃº":4461,"Ġtemporalmente":4462,"Ġbinario":4463,"ĠprecisiÃ³n":4464,"ĠenvÃŃa":4465,"ĠcientÃŃfico":4466,"Ġindicadores":4467,"vienen":4468,"Ġparale":4469,"Ġreglamentos":4470,"ĠdesempeÃ±o":4471,"Ġfrontera":4472,"ĠinalÃ¡mbrico":4473,"ĠdÃŃgitos":4474,"Ġacoplamiento":4475,"Ġcoeficientes":4476,"ĠrobÃ³tica":4477,"ĠhipÃ³tesis":4478,"Ġalrededor":4479,"umen":4480,"wit":4481,"Ġdarse":4482,"Ġdemas":4483,"osa":4484,"Ġlig":4485,"ĠsÃŃn":4486,"ork":4487,"adeci":4488,"Ġenci":4489,"embre":4490,"Ġcubrir":4491,"Ġexitos":4492,"illo":4493,"Ġadj":4494,"Ġusualmente":4495,"ĠalmacÃ©n":4496,"Ġmuestras":4497,"acios":4498,"entre":4499,"Ġindicar":4500,"Ġvende":4501,"ĠestadÃŃstico":4502,"Ġconocemos":4503,"Ġconectar":4504,"Ġmala":4505,"Ġgoog":4506,"ĠaritmÃ©ticas":4507,"Ġtransforma":4508,"Ġcabeza":4509,"Ġejercicios":4510,"Ġventaja":4511,"Ġvector":4512,"Ġcarpetas":4513,"hertz":4514,"Ġahorrar":4515,"Ġasegur":4516,"Ġinterconec":4517,"Ġedifici":4518,"Ġreutiliz":4519,"Ġestrel":4520,"Ġecuatoriano":4521,"Ġbackup":4522,"Ġchat":4523,"Ġejercer":4524,"Ġnext":4525,"Ġencabezamiento":4526,"Ġhexadeci":4527,"virtu":4528,"Ġef":4529,"Ġdada":4530,"Ġlis":4531,"Ġat":4532,"adu":4533,"tidas":4534,"Ġlat":4535,"traciÃ³n":4536,"Ġenl":4537,"isco":4538,"Ġrev":4539,"Ġfl":4540,"ueve":4541,"Ġcumpla":4542,"digos":4543,"Ġmega":4544,"ormas":4545,"ezas":4546,"ĠcÃ³digos":4547,"Ġgenerando":4548,"metro":4549,"Ġescribe":4550,"Ġseguramente":4551,"Ġinversiones":4552,"Ġllevan":4553,"ĠestadÃŃsticos":4554,"ĠlÃ³gico":4555,"Ġcompletamente":4556,"ĠÃºltimos":4557,"ĠpodrÃŃan":4558,"Ġconectado":4559,"Ġdisponible":4560,"crim":4561,"Ġorientado":4562,"Ġobservar":4563,"Ġescala":4564,"Ġalcance":4565,"Ġahorita":4566,"Ġadicionales":4567,"Ġprecis":4568,"Ġconcreto":4569,"Ġordinaria":4570,"Ġconsumidor":4571,"Ġriesgo":4572,"Ġespecificaciones":4573,"ĠelectromagnÃ©ticas":4574,"Ġcardinalidad":4575,"Ġcardinalidades":4576,"Ġinterrela":4577,"Ġconfidencialidad":4578,"Ġsentencia":4579,"Ġflotante":4580,"ĠeducaciÃ³n":4581,"Ġelectoral":4582,"ĠfÃŃj":4583,"ĠsÃºper":4584,"hÃŃ":4585,"tp":4586,"uta":4587,"Ġemo":4588,"Ġciv":4589,"Ġseis":4590,"Ã¡bamos":4591,"Ġbor":4592,"Ġnomin":4593,"Ġtir":4594,"Ġiter":4595,"Ã±ana":4596,"Ġancho":4597,"Ġmantiene":4598,"ĠmaÃ±ana":4599,"Ġhablo":4600,"Ġtratamiento":4601,"Ġcaracteres":4602,"Ġfinancieras":4603,"Ġcantidades":4604,"Ġelecciones":4605,"Ġexpertos":4606,"Ġcompiladores":4607,"Ġbancos":4608,"Ġreflex":4609,"ĠobservaciÃ³n":4610,"Ġsolicitar":4611,"Ġlimita":4612,"Ġcomprome":4613,"Ġcriterios":4614,"Ġvincu":4615,"ernel":4616,"Ġsexo":4617,"Ġagregar":4618,"99":4619,"ign":4620,"zado":4621,"Ġesti":4622,"adre":4623,"Ġens":4624,"Ġol":4625,"Ġcoinci":4626,"Ġperman":4627,"adoop":4628,"tulo":4629,"Ġsubir":4630,"adoras":4631,"Ġdesvi":4632,"Ġanillo":4633,"Ġconserv":4634,"Ġproductividad":4635,"ĠsinÃ³n":4636,"Ġprimi":4637,"Ġrespec":4638,"Ġrecursiva":4639,"Ġlengua":4640,"Ġestudia":4641,"Ġcierta":4642,"ĠrectÃ¡n":4643,"Ġfalta":4644,"Ġniif":4645,"Ġempezamos":4646,"Ġreflej":4647,"Ġdirigir":4648,"grafÃŃa":4649,"Ġguarda":4650,"Ġplataformas":4651,"Ġtradi":4652,"Ġsubsistema":4653,"Ġreferimos":4654,"Ġsuelen":4655,"Ġamigos":4656,"Ġtokens":4657,"Ġsucede":4658,"Ġmoneda":4659,"Ġcalendar":4660,"ate":4661,"bla":4662,"itan":4663,"rÃ¡":4664,"Ġdemo":4665,"Ġai":4666,"arning":4667,"tidos":4668,"Ġunif":4669,"Ġvm":4670,"Ġinno":4671,"ÃŃr":4672,"Ġhadoop":4673,"ĠestÃ¡s":4674,"Ġges":4675,"Ġdific":4676,"Ġtoca":4677,"Ġiba":4678,"Ġdecidir":4679,"Ġvertical":4680,"tiles":4681,"Ġaristas":4682,"Ġasim":4683,"Ġasuntos":4684,"conj":4685,"Ġcorreg":4686,"Ġgeneran":4687,"Ġdefecto":4688,"Ġbuscan":4689,"Ġcambian":4690,"Ġhertz":4691,"Ġtomando":4692,"Ġpartida":4693,"Ġcontenidos":4694,"Ġnumer":4695,"Ġrecop":4696,"ĠinformÃ¡ticos":4697,"cÃ³digo":4698,"ĠespecÃŃficas":4699,"Ġaparte":4700,"Ġcurso":4701,"Ġmiles":4702,"Ġorientada":4703,"ĠextensiÃ³n":4704,"Ġdetalle":4705,"Ġposeen":4706,"ĠobtenciÃ³n":4707,"keting":4708,"Ġparalel":4709,"Ġglobal":4710,"Ġbrin":4711,"Ġsitios":4712,"estructura":4713,"ĠopiniÃ³n":4714,"economÃŃa":4715,"ĠÃŃndice":4716,"Ġesfuerzo":4717,"Ġsemana":4718,"Ġocasiones":4719,"Ġgoogle":4720,"Ġuniform":4721,"Ġinnov":4722,"aunque":4723,"ee":4724,"igo":4725,"Ġeti":4726,"Ġdx":4727,"Ġdetr":4728,"Ġpid":4729,"Ġpend":4730,"tipos":4731,"indo":4732,"Ġenri":4733,"Ġconglo":4734,"Ġotor":4735,"Ġbla":4736,"Ġtenido":4737,"entados":4738,"Ġdiscipl":4739,"Ġmodifica":4740,"Ġinfra":4741,"Ġcome":4742,"Ġgram":4743,"Ġutilizadas":4744,"Ġfinales":4745,"Ġcualidades":4746,"Ġalmacenada":4747,"Ġexpan":4748,"Ġformal":4749,"Ġempleo":4750,"Ġmarketing":4751,"procesadores":4752,"Ġtendencia":4753,"Ġindividuo":4754,"ĠexplÃŃci":4755,"Ġrefleja":4756,"Ġcontinuando":4757,"Ġbloques":4758,"Ġperiodos":4759,"Ġtercera":4760,"Ġcorrespondencia":4761,"Ġfabric":4762,"Ġpudiera":4763,"Ġpredicciones":4764,"ĠcodificaciÃ³n":4765,"ĠinterrelaciÃ³n":4766,"ĠcrÃŃtico":4767,"ĠatrÃ¡s":4768,"Ġrutinas":4769,"Ġacerca":4770,"Ġreconocimiento":4771,"Ġasociaciones":4772,"Ġmonopol":4773,"ĠconfirmaciÃ³n":4774,"Ġensam":4775,"Ġetique":4776,"Ġenrique":4777,"Ġconglomer":4778,"86":4779,"cen":4780,"for":4781,"hol":4782,"iado":4783,"st":4784,"}]":4785,"Ġ>":4786,"Ġed":4787,"Ġdeposi":4788,"ertid":4789,"Ġswit":4790,"Ġesenciales":4791,"Ġprovo":4792,"Ġparcial":4793,"aca":4794,"Ġilus":4795,"Ġexcep":4796,"irse":4797,"ivas":4798,"Ġdistr":4799,"Ġdiscrim":4800,"Ġconsta":4801,"Ġveremos":4802,"ĠverificaciÃ³n":4803,"Ġarte":4804,"Ġmenudo":4805,"umbre":4806,"Ġsustitu":4807,"Ġcapaces":4808,"Ġincertid":4809,"Ġllegan":4810,"Ã¡ndose":4811,"Ġmejorando":4812,"visor":4813,"Ġespecializ":4814,"Ġsolucionar":4815,"Ġescritorio":4816,"miso":4817,"Ġrecolec":4818,"Ġplatos":4819,"Ġrelacionada":4820,"Ġrelacionados":4821,"ĠraÃŃ":4822,"Ġprimeras":4823,"Ġexpresiones":4824,"Ġasignado":4825,"ĠregulaciÃ³n":4826,"Ġaparece":4827,"Ġdigitales":4828,"Ġconviv":4829,"Ġfortal":4830,"Ġsolicita":4831,"Ġdetalles":4832,"Ġestableci":4833,"Ġpertenecen":4834,"ĠtelevisiÃ³n":4835,"Ġplantear":4836,"Ġdecodificador":4837,"Ġregresar":4838,"Ġanotar":4839,"Ġequivale":4840,"ĠcuestiÃ³n":4841,"Ġmacro":4842,"Ġparalelo":4843,"Ġestrella":4844,"Ġefecto":4845,"ĠdesviaciÃ³n":4846,"ĠcalendarizaciÃ³n":4847,"Ġpendiente":4848,"Ġswitch":4849,"Ġincertidumbre":4850,"ager":4851,"dis":4852,"dicos":4853,"lim":4854,"pan":4855,"su":4856,"ser":4857,"Ġ{":4858,"Ġpu":4859,"ese":4860,"ares":4861,"arlos":4862,"Ġvid":4863,"Ġinecu":4864,"Ġparame":4865,"ecre":4866,"acto":4867,"Ġsonidos":4868,"Ġdesac":4869,"gro":4870,"Ġdisper":4871,"Ġinterven":4872,"Ġintervienen":4873,"Ġconsciente":4874,"Ġmanual":4875,"Ġmaxim":4876,"ibuye":4877,"Ġejecutan":4878,"Ġcomunidad":4879,"Ġcomunican":4880,"Ġcrecimiento":4881,"Ġpropias":4882,"Ġseguimiento":4883,"Ġpermita":4884,"Ġformar":4885,"Ġdescribe":4886,"ĠdecÃŃamos":4887,"Ġestructurada":4888,"Ġinvestigador":4889,"Ġconsiderado":4890,"Ġdistribuidos":4891,"ularidad":4892,"Ġonline":4893,"Ġvelocidades":4894,"Ġsecund":4895,"Ġexterno":4896,"Ġauditoria":4897,"Ġasociada":4898,"ĠcompaÃ±ÃŃa":4899,"Ġdepartamentos":4900,"Ġhubo":4901,"Ġpropiedad":4902,"Ġvolun":4903,"ĠreuniÃ³n":4904,"Ġentiende":4905,"ĠdueÃ±o":4906,"ĠhomogÃ©n":4907,"Ġresiduo":4908,"fas":4909,"ux":4910,"zan":4911,"Ġcrec":4912,"ciembre":4913,"asÃŃ":4914,"unta":4915,"Ġenunci":4916,"Ġcontienen":4917,"Ġfo":4918,"abl":4919,"abytes":4920,"Ġdiciembre":4921,"gua":4922,"Ġdiscre":4923,"Ġlex":4924,"simo":4925,"Ġejecutando":4926,"Ġpag":4927,"Ġcontrolador":4928,"Ġcomunicar":4929,"Ġpostales":4930,"Ġsignos":4931,"Ġconjuntos":4932,"Ġequita":4933,"Ġigualmente":4934,"Ġteclado":4935,"Ġsubordin":4936,"rame":4937,"upciÃ³n":4938,"Ġemplea":4939,"Ġmicr":4940,"ĠjurÃŃdicas":4941,"ĠeconÃ³micas":4942,"Ġrecomen":4943,"Ġseparado":4944,"Ġcomprensi":4945,"Ġpregunta":4946,"Ġtransaccionales":4947,"Ġsoportar":4948,"Ġproporcionan":4949,"Ġaplicando":4950,"Ġclaves":4951,"Ġoptimizar":4952,"ĠÃ³ptimo":4953,"Ġpertenece":4954,"ĠfabricaciÃ³n":4955,"Ġespecialista":4956,"ĠinterconexiÃ³n":4957,"ĠubicaciÃ³n":4958,"Ġmanuales":4959,"Ġanticip":4960,"Ġintervalos":4961,"ĠvacÃŃa":4962,"Ġflexibles":4963,"Ġincid":4964,"Ġcomunicarse":4965,"Ġcopiar":4966,"Ġdeposita":4967,"ĠraÃŃz":4968,"gitud":4969,"ial":4970,"Ġdss":4971,"Ġlon":4972,"Ġceros":4973,"Ġsp":4974,"tologÃŃa":4975,"Ġconl":4976,"Ã¡us":4977,"Ġhos":4978,"Ġproviene":4979,"Ġaltamente":4980,"cuÃ¡n":4981,"ucle":4982,"guen":4983,"Ġacon":4984,"Ġexposi":4985,"Ġentend":4986,"icip":4987,"Ġmanifi":4988,"Ġentradas":4989,"ĠclÃ¡us":4990,"Ġimpul":4991,"Ġtrabaje":4992,"Ġarm":4993,"Ġmembres":4994,"Ġvale":4995,"Ġdirector":4996,"Ġsincron":4997,"Ġservice":4998,"Ġcostu":4999,"Ġprimeros":5000,"Ġdesarrolla":5001,"Ġimporta":5002,"Ġseguro":5003,"Ġdefinidas":5004,"Ġnetamente":5005,"Ġhablante":5006,"Ġinicia":5007,"ĠformaciÃ³n":5008,"blesp":5009,"Ġconocido":5010,"Ġmunicip":5011,"Ġexpresar":5012,"ĠpodrÃ¡":5013,"Ġefectiva":5014,"Ġindex":5015,"Ġresponder":5016,"board":5017,"Ġseparados":5018,"ĠdeberÃ¡":5019,"Ġcerrado":5020,"Ġaparato":5021,"Ġexternas":5022,"ĠgarantÃŃa":5023,"Ġparticularidad":5024,"base":5025,"ĠcompaÃ±eros":5026,"Ġvirtual":5027,"ĠextracciÃ³n":5028,"Ġfuncionalidades":5029,"Ġvivir":5030,"ĠcientÃŃfica":5031,"ĠallÃ¡":5032,"Ġflex":5033,"Ġmanejan":5034,"Ġperfil":5035,"ĠinstalaciÃ³n":5036,"ĠreutilizaciÃ³n":5037,"kehol":5038,"Ġtransporte":5039,"Ġdesventajas":5040,"Ġtarjeta":5041,"Ġchatbot":5042,"ĠreflexiÃ³n":5043,"Ġinfraestructura":5044,"Ġenunciado":5045,"keholder":5046,"100":5047,"exiones":5048,"plex":5049,"allo":5050,"Ġvendo":5051,"Ġvolu":5052,"Ġcontextos":5053,"mpar":5054,"idar":5055,"ema":5056,"Ġparavirtu":5057,"Ġdign":5058,"tul":5059,"Ġmez":5060,"Ġaca":5061,"Ġletra":5062,"Ġmoder":5063,"Ġmomentos":5064,"Ġadqui":5065,"Ġjudi":5066,"Ġformatos":5067,"Ġdoble":5068,"Ġpermitido":5069,"Ġordenado":5070,"Ġplanifica":5071,"Ġayud":5072,"Ġpele":5073,"Ġnuevamente":5074,"Ġarquitecturas":5075,"Ġinversion":5076,"Ġrefieren":5077,"Ġmarco":5078,"Ġrelacionadas":5079,"Ġaquello":5080,"Ġactuar":5081,"ĠpodrÃŃamos":5082,"ebro":5083,"Ġlector":5084,"Ġrecibir":5085,"Ġanalistas":5086,"Ġcerebro":5087,"Ġtermina":5088,"ĠselecciÃ³n":5089,"Ġaspecto":5090,"ĠpronÃ³s":5091,"Ġllegue":5092,"Ġjefes":5093,"Ġsecuencial":5094,"Ġelev":5095,"Ġcircuitos":5096,"Ġvayamos":5097,"ĠdÃ©bil":5098,"Ġreuniones":5099,"Ġempiez":5100,"ĠelectromagnÃ©tico":5101,"ĠrecuperaciÃ³n":5102,"Ġconstituyen":5103,"Ġvisualizar":5104,"Ġstakeholder":5105,"Ġrelevantes":5106,"Ġminimizar":5107,"ĠsistemÃ¡tico":5108,"Ġaccionistas":5109,"Ġmujeres":5110,"Ġrasgos":5111,"ĠinteractÃºan":5112,"Ġhexadecimal":5113,"ĠfÃŃjense":5114,"Ġvolumen":5115,"work":5116,"ĠquÃŃ":5117,"Ġdoy":5118,"Ġlados":5119,"Ġsos":5120,"Ġsiente":5121,"Ġabre":5122,"adÃ©m":5123,"Ġbl":5124,"Ġblan":5125,"Ġperj":5126,"Ġga":5127,"Ġtomo":5128,"ĠcomposiciÃ³n":5129,"Ġusado":5130,"Ġusada":5131,"ĠacadÃ©m":5132,"gran":5133,"Ġorto":5134,"Ġmoda":5135,"Ġcomen":5136,"Ġarran":5137,"Ġvariedad":5138,"Ġpreven":5139,"Ġfinalidad":5140,"Ġtraer":5141,"uyendo":5142,"Ġcreando":5143,"Ã¡ngulo":5144,"Ġregister":5145,"Ġintegra":5146,"Ġponemos":5147,"Ġanaliza":5148,"Ġsubgru":5149,"Ġsubconj":5150,"Ġmensual":5151,"Ġhumana":5152,"luir":5153,"Ġsimul":5154,"Ġconectados":5155,"Ġmorales":5156,"Ġtransmisor":5157,"Ġrutas":5158,"Ġhilo":5159,"Ġenfoca":5160,"Ġestablecido":5161,"Ġindependientemente":5162,"Ġelaborar":5163,"Ġfamiliar":5164,"Ġinvolucra":5165,"Ġdemostrar":5166,"ĠplaneaciÃ³n":5167,"Ġsitio":5168,"Ġdisminu":5169,"Ġprofund":5170,"Ġcobrar":5171,"ĠadquisiciÃ³n":5172,"ĠÃ³rganos":5173,"Ġencima":5174,"Ġexitosa":5175,"Ġedificio":5176,"indows":5177,"Ġconglomerados":5178,"Ġvideo":5179,"Ġstakeholders":5180,"))":5181,"col":5182,"etir":5183,"rer":5184,"rim":5185,"tus":5186,"tario":5187,"vin":5188,"Ġpuse":5189,"Ġsys":5190,"top":5191,"todos":5192,"intend":5193,"Ġvesti":5194,"Ġincur":5195,"Ġreac":5196,"Ġbytes":5197,"izando":5198,"Ġcuidado":5199,"Ġtrib":5200,"Ġdije":5201,"Ġmeg":5202,"Ġmetas":5203,"laza":5204,"Ġpobre":5205,"Ġestabilidad":5206,"Ġarray":5207,"Ġrepl":5208,"Ġdeterminados":5209,"Ġtantas":5210,"Ġvenido":5211,"Ġingresa":5212,"Ġingresan":5213,"Ġintegrados":5214,"Ġsuperintend":5215,"Ġsimula":5216,"ĠtabÃº":5217,"istente":5218,"ĠnumÃ©rico":5219,"Ġwebinar":5220,"Ġsectores":5221,"Ġpieza":5222,"Ġdispone":5223,"Ġdisponibles":5224,"Ġcontinua":5225,"Ġsupongamos":5226,"Ġcreate":5227,"Ġaprob":5228,"tificado":5229,"Ġaceptar":5230,"ĠaceptaciÃ³n":5231,"ĠÃ³ptima":5232,"Ġcadenas":5233,"Ġextraer":5234,"Ġcorreo":5235,"Ġbuscando":5236,"Ġbuscamos":5237,"ĠcoordinaciÃ³n":5238,"ĠlÃŃmites":5239,"ĠcolecciÃ³n":5240,"Ġcontrase":5241,"Ġhicieron":5242,"Ġmaquin":5243,"Ġcomercio":5244,"ĠgramÃ¡tica":5245,"Ġvoluntad":5246,"Ġsuperintendencia":5247,"atel":5248,"dida":5249,"eos":5250,"iores":5251,"nam":5252,"pue":5253,"uro":5254,"ÃĹ":5255,"Ġsci":5256,"Ġama":5257,"trado":5258,"Ġunific":5259,"Ġintr":5260,"cionan":5261,"Ġcuya":5262,"Ġtome":5263,"Ġtoler":5264,"Ġsuf":5265,"Ġdestr":5266,"Ġactiva":5267,"ĠestÃ¡tico":5268,"Ġintermedio":5269,"Ġmodos":5270,"mina":5271,"Ġresumen":5272,"Ġobtiene":5273,"duce":5274,"Ġespacios":5275,"Ġjue":5276,"Ġtratando":5277,"Ġdirecta":5278,"uya":5279,"Ġredac":5280,"Ġ1000":5281,"Ġdefiniendo":5282,"vias":5283,"Ġordenada":5284,"Ġexpon":5285,"ĠÃ¡g":5286,"Ġanalizando":5287,"Ġindis":5288,"Ġiniciar":5289,"Ġiniciales":5290,"Ġfija":5291,"ĠseÃ±ores":5292,"Ġlinux":5293,"Ġmonol":5294,"Ġmarcha":5295,"Ġrap":5296,"Ġsignificados":5297,"Ġlegalidad":5298,"Ġatac":5299,"Ġdivide":5300,"Ġliter":5301,"Ġquienes":5302,"Ġsubsecre":5303,"Ġdetallado":5304,"Ġtransformar":5305,"Ġexistencia":5306,"Ġcuadrada":5307,"Ġtercer":5308,"Ġrentable":5309,"ĠartÃŃculos":5310,"Ġadecuada":5311,"Ġencaden":5312,"Ġescoger":5313,"ĠpredicciÃ³n":5314,"Ġcausas":5315,"Ġnegativo":5316,"Ġfragmento":5317,"ĠjerÃ¡rquico":5318,"Ġsociocul":5319,"Ġintervalo":5320,"Ġmainboard":5321,"Ġsumamente":5322,"ĠpropagaciÃ³n":5323,"ĠhistÃ³rico":5324,"Ġcomputacional":5325,"Ġdemandada":5326,"Ġpubl":5327,"Ġlongitud":5328,"Ġmezc":5329,"Ġtribun":5330,"hen":5331,"zos":5332,"zon":5333,"Ġtex":5334,"ĠpÃ©r":5335,"ĠpÃ¡r":5336,"Ġpide":5337,"Ġsens":5338,"ess":5339,"Ġampar":5340,"alim":5341,"Ġvon":5342,"Ġconce":5343,"Ġhice":5344,"Ġbyte":5345,"Ġtrian":5346,"ĠtenÃŃan":5347,"bimos":5348,"Ġhagan":5349,"Ġexam":5350,"irus":5351,"Ġlevan":5352,"Ġinfl":5353,"Ġcomandos":5354,"elar":5355,"Ġimpacto":5356,"Ġhacerse":5357,"Ġprefer":5358,"Ġprevio":5359,"Ġgenerados":5360,"Ġsegura":5361,"Ġabrir":5362,"Ġeconom":5363,"Ġwindows":5364,"Ġidentifica":5365,"Ġconocidas":5366,"Ġcalcul":5367,"Ġcolor":5368,"Ġconector":5369,"Ġtransmiten":5370,"Ġpuntu":5371,"Ġtendremos":5372,"Ġcombina":5373,"ĠmatemÃ¡tico":5374,"ĠmatemÃ¡ticos":5375,"Ġchip":5376,"Ġkernel":5377,"ĠcorrupciÃ³n":5378,"Ġafectar":5379,"ache":5380,"Ġconsumir":5381,"Ġcomienzo":5382,"Ġconsultar":5383,"Ġruta":5384,"Ġadelan":5385,"ĠanalÃŃtico":5386,"ĠenvÃŃo":5387,"Ġconveniente":5388,"Ġsucesivamente":5389,"Ġoriginal":5390,"Ġantigu":5391,"Ġvoz":5392,"Ġrelevante":5393,"ĠlÃŃmite":5394,"Ġretroalim":5395,"Ġdesplace":5396,"Ġhipervisor":5397,"ĠcÃ¡mara":5398,"Ġadjunta":5399,"Ġprecisamente":5400,"Ġrecopil":5401,"Ġensambl":5402,"Ġconvivencia":5403,"Ġamazon":5404,"ĠpÃ¡rra":5405,"Ġtriangular":5406,".-":5407,"fr":5408,"giÃ³":5409,"upar":5410,"Ġ<":5411,"Ġul":5412,"Ġrit":5413,"Ġdele":5414,"Ġdejo":5415,"Ġpal":5416,"Ġstan":5417,"Ã³no":5418,"Ġnaci":5419,"Ġvenci":5420,"ĠvÃŃn":5421,"Ġcontener":5422,"Ġconexiones":5423,"Ġflec":5424,"ciona":5425,"Ġmetada":5426,"layout":5427,"Ġape":5428,"Ġinfo":5429,"Ġconson":5430,"Ġconsistencia":5431,"Ġobtienen":5432,"Ġhayan":5433,"Ġvariedades":5434,"Ġcae":5435,"Ġmencionar":5436,"ĠregiÃ³n":5437,"ĠgenÃ©":5438,"itados":5439,"roll":5440,"Ġrepente":5441,"ĠcreÃ³":5442,"Ġpropuestas":5443,"Ġalmacenados":5444,"valor":5445,"Ġrequerir":5446,"Ġproceder":5447,"Ġmercad":5448,"Ġmonto":5449,"Ġcompleto":5450,"Ġactuales":5451,"ĠquerÃŃa":5452,"Ġrecoge":5453,"Ġsencill":5454,"Ġestablecen":5455,"ĠespecÃŃficos":5456,"Ġpensamos":5457,"Ġviaja":5458,"Ġtransfiere":5459,"Ġnaturales":5460,"Ġprobabil":5461,"Ġobligatorio":5462,"Ġdividido":5463,"Ġgarantiza":5464,"Ġsemestr":5465,"ĠmecÃ¡n":5466,"Ġofrecen":5467,"Ġcorresponden":5468,"Ġapropi":5469,"osofÃŃa":5470,"Ġextensiones":5471,"Ġagrupar":5472,"ĠelectrÃ³nicos":5473,"Ġregulares":5474,"Ġsujetos":5475,"bloque":5476,"ĠfilosofÃŃa":5477,"Ġaplicativo":5478,"Ġzona":5479,"Ġreportar":5480,"Ġindustriales":5481,"Ġabierta":5482,"ĠgeogrÃ¡fica":5483,"Ġcuarta":5484,"ĠsimbolizaciÃ³n":5485,"Ġtrayectoria":5486,"Ġaire":5487,"Ġgestor":5488,"Ġdificultad":5489,"Ġcorregir":5490,"ablemente":5491,"Ġarmon":5492,"Ġscience":5493,"Ġritmo":5494,"Ġmetadatos":5495,"//":5496,"croll":5497,"diendo":5498,"didas":5499,"ffer":5500,"rc":5501,"sql":5502,"tbol":5503,"Ġdma":5504,"Ġddr":5505,"Ġpen":5506,"Ġcd":5507,"Ġstring":5508,"Ġsrc":5509,"arga":5510,"Ġmol":5511,"anzas":5512,"Ġconte":5513,"Ġoc":5514,"ĠreducciÃ³n":5515,"ĠfÃº":5516,"Ġfir":5517,"Ġframe":5518,"ienda":5519,"Ġparece":5520,"acas":5521,"uela":5522,"culas":5523,"Ġgama":5524,"Ġdesea":5525,"Ġempa":5526,"Ġinternamente":5527,"tancias":5528,"Ġverific":5529,"Ġcargar":5530,"itando":5531,"Ġpaci":5532,"Ġcree":5533,"Ġ103":5534,"uros":5535,"Ġtable":5536,"Ġclasificar":5537,"Ġmejoras":5538,"Ġbuffer":5539,"Ġdoc":5540,"Ġllamar":5541,"ĠprestaciÃ³n":5542,"Ġprestaciones":5543,"Ġposiciones":5544,"Ġpositivos":5545,"Ġsubes":5546,"Ġaquella":5547,"Ġmultiprocesador":5548,"ĠduraciÃ³n":5549,"Ġconecta":5550,"Ġestrato":5551,"ĠgrÃ¡ficos":5552,"teratura":5553,"Ġonda":5554,"Ġlegales":5555,"Ġintroducir":5556,"Ġaparecen":5557,"Ġasociados":5558,"Ġgasto":5559,"Ġliteratura":5560,"Ġsoporta":5561,"Ġrazon":5562,"Ġdecodifica":5563,"Ġamplio":5564,"Ġpeso":5565,"Ġmaterial":5566,"Ġconformada":5567,"Ġpotencial":5568,"Ġmonitore":5569,"Ġdemostrando":5570,"Ġconstituye":5571,"ĠpÃ¡ginas":5572,"ĠdeclaraciÃ³n":5573,"Ġopiniones":5574,"Ġvuelvo":5575,"ĠtecnolÃ³gica":5576,"Ġfull":5577,"ĠpseudocÃ³digo":5578,"Ġguiados":5579,"Ġlegisla":5580,"Ġkilo":5581,"Ġlimitaciones":5582,"Ġdisciplina":5583,"ĠmembresÃŃa":5584,"blespace":5585,"Ġdignidad":5586,"Ġjudicial":5587,"ĠfÃºtbol":5588,"%,":5589,"98":5590,"cun":5591,"clas":5592,"ifes":5593,"of":5594,"vieron":5595,"ward":5596,"Ġ)":5597,"eno":5598,"Ġpivo":5599,"estas":5600,"Ġnucle":5601,"ĠrevisiÃ³n":5602,"Ġpareci":5603,"ĠporciÃ³n":5604,"Ġdios":5605,"gulos":5606,"Ġusb":5607,"Ġdescar":5608,"Ġdesign":5609,"Ġsoa":5610,"eraz":5611,"Ġacto":5612,"alizados":5613,"ulas":5614,"dening":5615,"ĠestaciÃ³n":5616,"Ġur":5617,"Ġimprim":5618,"Ġtratados":5619,"Ġcascada":5620,"Ġcaptar":5621,"Ġpropon":5622,"Ġintelec":5623,"Ġexpecta":5624,"Ġoperar":5625,"Ġpeor":5626,"ensa":5627,"Ġemplear":5628,"ĠsupervisiÃ³n":5629,"Ġdescriben":5630,"Ġcalcula":5631,"Ġimplementado":5632,"ĠevalÃºa":5633,"Ġfalso":5634,"Ġinvestigar":5635,"Ġofreci":5636,"Ġrecorrido":5637,"ĠrÃ¡pidamente":5638,"Ġlugares":5639,"Ġcircun":5640,"Ġcomprende":5641,"ĠpÃºblicos":5642,"ĠcompaÃ±ÃŃas":5643,"Ġmultiplicar":5644,"Ġhijo":5645,"ĠciudadanÃŃa":5646,"Ġlimitar":5647,"Ġhubi":5648,"Ġdifus":5649,"Ġpertenencia":5650,"Ġplanear":5651,"Ġdefinitiva":5652,"estructur":5653,"econÃ³m":5654,"ĠtÃŃpicamente":5655,"Ġprofun":5656,"ĠfenÃ³meno":5657,"Ġencapsul":5658,"Ġmicroservicios":5659,"ĠretroalimentaciÃ³n":5660,"ag":5661,"hdpi":5662,"siste":5663,"wh":5664,"yper":5665,"Ġdwh":5666,"erpo":5667,"Ġalo":5668,"inc":5669,"Ġomis":5670,"Ġhyper":5671,"Ġcoma":5672,"Ġretor":5673,"Ġretir":5674,"Ã©trico":5675,"eco":5676,"Ġcubo":5677,"Ġcuerpo":5678,"Ġloop":5679,"Ġtitu":5680,"direc":5681,"entada":5682,"Ġpoca":5683,"Ġpobla":5684,"erativo":5685,"Ġacor":5686,"Ġinfin":5687,"eles":5688,"Ġvariar":5689,"comple":5690,"Ġcarnet":5691,"Ġvalios":5692,"versa":5693,"Ġcontrolado":5694,"Ġtrae":5695,"Ġinvitado":5696,"Ġped":5697,"brica":5698,"Ġformul":5699,"Ġrecta":5700,"ĠguÃŃas":5701,"Ġejecutarse":5702,"Ġquis":5703,"Ġindirec":5704,"Ġxml":5705,"Ġmuestral":5706,"Ġindividual":5707,"Ġflujos":5708,"Ġseparando":5709,"Ġdescriptivos":5710,"Ġmicroprocesadores":5711,"ĠfÃ¡brica":5712,"terogÃ©n":5713,"ĠpÃºblica":5714,"ĠpÃºblicas":5715,"ĠheterogÃ©n":5716,"Ġinstituto":5717,"Ġinferir":5718,"Ġadministrativos":5719,"ĠtendrÃŃa":5720,"Ġllegado":5721,"ĠrecepciÃ³n":5722,"Ġcuadrado":5723,"ĠfonolÃ³gico":5724,"Ġsegmentos":5725,"Ġpotencia":5726,"Ġabierto":5727,"ĠestratÃ©gica":5728,"Ġllena":5729,"Ġosi":5730,"Ġconflicto":5731,"Ġholgura":5732,"Ġescenarios":5733,"ĠautÃ³no":5734,"ĠlatÃŃn":5735,"Ġcivil":5736,"Ġborr":5737,"Ġestilo":5738,"ĠdetrÃ¡s":5739,"Ġredactar":5740,"Ġofrecida":5741,"64":5742,"dÃº":5743,"hz":5744,"yth":5745,"Ġq":5746,"Ġza":5747,"Ġdup":5748,"Ġdedica":5749,"Ġses":5750,"ciales":5751,"quidad":5752,"Ġestima":5753,"tem":5754,"timos":5755,"triz":5756,"Ġentera":5757,"Ġvoc":5758,"ambre":5759,"Ġrein":5760,"Ġremi":5761,"Ġprovec":5762,"ĠparÃ©n":5763,"ectu":5764,"emas":5765,"emin":5766,"abora":5767,"Ġgiga":5768,"Ġtri":5769,"Ġdijo":5770,"tuito":5771,"Ġii":5772,"Ġusamos":5773,"Ġusados":5774,"trover":5775,"Ãºcle":5776,"Ġexces":5777,"Ġextrover":5778,"Ġresum":5779,"Ġinflu":5780,"Ġconsigo":5781,"Ġdebajo":5782,"Ġmandar":5783,"Ġmaneras":5784,"Ġdecimos":5785,"ĠclÃ¡s":5786,"Ġvers":5787,"Ġbasan":5788,"ĠasÃŃn":5789,"icologÃŃa":5790,"Ġpreten":5791,"Ġsolid":5792,"Ġrepito":5793,"Ġdefectu":5794,"tural":5795,"Ã©rpre":5796,"Ġpresencia":5797,"Ġespecializado":5798,"Ġmatrimonio":5799,"Ġdinam":5800,"Ġcontratos":5801,"Ġquin":5802,"Ġfallo":5803,"Ġfallas":5804,"exo":5805,"ext":5806,"Ġ110":5807,"Ġclara":5808,"ĠÃºnicamente":5809,"patos":5810,"Ġrecogen":5811,"ĠfÃŃsicos":5812,"Ġestratificado":5813,"Ġanalista":5814,"ĠrestricciÃ³n":5815,"Ġdenominan":5816,"Ġviabilidad":5817,"ĠdeberÃŃan":5818,"Ġrecordar":5819,"Ġcompilar":5820,"Ġabstractos":5821,"Ġreflejar":5822,"ĠinterpretaciÃ³n":5823,"Ġhipo":5824,"Ġescalable":5825,"Ġculturales":5826,"Ġsecuencias":5827,"Ġmateriales":5828,"Ġescuchar":5829,"Ġdecodificar":5830,"Ġpreparar":5831,"Ġmencionado":5832,"Ġordinarias":5833,"ĠmatriculaciÃ³n":5834,"Ġincorporar":5835,"ĠintÃ©rpre":5836,"Ġsecuenciador":5837,"ĠtecnolÃ³gicos":5838,"Ġajustar":5839,"Ġdijimos":5840,"Ġvulnerabilidades":5841,"Ġmercanc":5842,"Ġdescentr":5843,"ĠdescomposiciÃ³n":5844,"Ġiterativo":5845,"ĠtelefÃ³n":5846,"ĠtraducciÃ³n":5847,"Ġtransferir":5848,"ĠpsicologÃŃa":5849,"Ġ2008":5850,"Ġreutilizables":5851,"ĠsinÃ³nimo":5852,"ĠexpansiÃ³n":5853,"ĠexplÃŃcitamente":5854,"ĠrecolecciÃ³n":5855,"Ġconlle":5856,"Ġarranque":5857,"Ġsubgrupos":5858,"Ġpivote":5859,"dÃºplex":5860,"ython":5861,"Ġzapatos":5862,"Ġprovecho":5863,"ĠparÃ©ntesis":5864,"Ãºcleo":5865,"\"\"":5866,".)":5867,"bren":5868,"cto":5869,"cra":5870,"dx":5871,"lig":5872,"lÃ³g":5873,"tador":5874,"Ġlistas":5875,"estos":5876,"Ġatra":5877,"Ġagua":5878,"ciar":5879,"asp":5880,"tio":5881,"int":5882,"rea":5883,"ĠnÃ³":5884,"Ġconces":5885,"Ġconferencia":5886,"Ġprac":5887,"ÃŃx":5888,"Ġbur":5889,"Ġcuentan":5890,"Ġlogra":5891,"Ġperci":5892,"dia":5893,"Ġsupre":5894,"Ġseri":5895,"tamientos":5896,"Ġacab":5897,"Ã±ar":5898,"iral":5899,"Ġdisc":5900,"Ġmanifes":5901,"Ġentran":5902,"Ġprevias":5903,"Ġcorte":5904,"Ġ104":5905,"Ġoperativa":5906,"ĠconcepciÃ³n":5907,"Ġhere":5908,"valores":5909,"Ġayude":5910,"ĠÃ©ticos":5911,"Ġconstituido":5912,"Ġcaracteriza":5913,"Ġformalmente":5914,"Ġfile":5915,"Ġidentifican":5916,"Ġemplean":5917,"Ġintegran":5918,"Ġdistinto":5919,"Ġexpresa":5920,"Ġasignan":5921,"ĠproporciÃ³n":5922,"Ġconectan":5923,"Ġmalware":5924,"Ġencargada":5925,"Ġtuvi":5926,"Ġalternativos":5927,"Ġprobar":5928,"Ġsiglas":5929,"Ġmoroso":5930,"Ġbanda":5931,"Ġaparecer":5932,"Ġtermino":5933,"Ġentornos":5934,"Ġconvir":5935,"Ġinferencia":5936,"Ġinferencial":5937,"Ġrazones":5938,"Ġvirtuales":5939,"Ġaproxim":5940,"Ġamortizar":5941,"Ġavances":5942,"Ġadicional":5943,"Ġtradu":5944,"Ġcomplicado":5945,"ĠanalÃŃticas":5946,"Ġregreso":5947,"Ġfavorable":5948,"ĠsanciÃ³n":5949,"Ġquizas":5950,"Ġmovimiento":5951,"ĠenseÃ±ar":5952,"Ġaprende":5953,"Ġpaquete":5954,"Ġintentar":5955,"Ġpierde":5956,"Ġdiferenciar":5957,"ĠÃŃndices":5958,"Ġposterior":5959,"Ġcontribuir":5960,"ĠfenÃ³menos":5961,"Ġinstrumento":5962,"Ġescasos":5963,"Ġsensibles":5964,"ĠimplantaciÃ³n":5965,"Ġpromover":5966,"Ġevolucion":5967,"Ġdemocra":5968,"Ġmodificaciones":5969,"Ġfabricantes":5970,"ĠÃ¡gil":5971,"Ġconlleva":5972,"cando":5973,"folÃ³gico":5974,"gon":5975,"ila":5976,"li":5977,"mt":5978,"mÃ³":5979,"var":5980,"ĠÃ©n":5981,"Ġsentar":5982,"Ġav":5983,"tiend":5984,"Ġeng":5985,"algun":5986,"alea":5987,"Ġunir":5988,"Ġves":5989,"Ġconm":5990,"icon":5991,"Ġcoher":5992,"ĠreÃºn":5993,"Ġrech":5994,"Ġreposi":5995,"Ġfirm":5996,"abyte":5997,"Ġalum":5998,"dible":5999,"ticar":6000,"enten":6001,"Ġdisp":6002,"Ġinters":6003,"Ġleemos":6004,"Ġmotor":6005,"Ġapreci":6006,"sima":6007,"Ġcomentarios":6008,"Ġinsum":6009,"Ġimperativo":6010,"Ġrene":6011,"Ġcatal":6012,"Ġutilice":6013,"Ġases":6014,"Ġtransi":6015,"Ġrepite":6016,"Ġresponde":6017,"Ġsalidas":6018,"Ġabar":6019,"value":6020,"etch":6021,"Ġcancel":6022,"Ġsiguiendo":6023,"ĠformalizaciÃ³n":6024,"Ġsubje":6025,"Ġpuestos":6026,"hay":6027,"Ġmonet":6028,"Ġsuperiores":6029,"Ġrelacionales":6030,"Ġutilizarla":6031,"Ġminuto":6032,"Ġbajos":6033,"Ġfalsa":6034,"existen":6035,"Ġsata":6036,"ĠsatÃ©":6037,"Ġseparar":6038,"Ġdescripciones":6039,"Ġche":6040,"Ġchicos":6041,"ĠmorfolÃ³gico":6042,"Ġterminal":6043,"Ġasociado":6044,"Ġdirige":6045,"ĠmÃŃnimos":6046,"Ġfortuito":6047,"Ġdesplaza":6048,"Ġtemporales":6049,"Ġreducido":6050,"Ġelegido":6051,"Ġhumo":6052,"Ġpropiet":6053,"Ġterceros":6054,"Ġfabricar":6055,"Ġmencionaba":6056,"Ġconsejo":6057,"Ġpantallas":6058,"Ġinmediata":6059,"Ġsueldo":6060,"Ġcausa":6061,"Ġcodificar":6062,"Ġexactamente":6063,"Ġtransistor":6064,"Ġconfidencial":6065,"Ġsentencias":6066,"Ġtoken":6067,"fijo":6068,"Ġagrupados":6069,"Ġdestacar":6070,"Ġconozca":6071,"Ġlocales":6072,"Ġposteriormente":6073,"Ġconfiabilidad":6074,"Ġlaboral":6075,"Ġconflictos":6076,"Ġremun":6077,"Ġpredecir":6078,"Ġpiden":6079,"fasis":6080,"ĠparavirtualizaciÃ³n":6081,"ĠpronÃ³sticos":6082,"Ġsubconjunto":6083,"Ġunificado":6084,"Ġtribunal":6085,"ĠmecÃ¡nica":6086,"Ġexpectativas":6087,"Ġborrador":6088,"ĠÃ©nfasis":6089,"tiendan":6090,"Ġrechaz":6091,"Ġrepositorio":6092,"Ġinsumos":6093,"Ġrenego":6094,"20":6095,"cado":6096,"dle":6097,"gre":6098,"ll":6099,"pc":6100,"ty":6101,"ton":6102,"Ġeuro":6103,"Ġdual":6104,"Ġdedic":6105,"ĠpÃ©":6106,"Ġcables":6107,"eran":6108,"estan":6109,"Ġath":6110,"arch":6111,"ademÃ¡s":6112,"intel":6113,"Ġenorm":6114,"Ġendu":6115,"Ġnar":6116,"ĠvÃ¡l":6117,"ĠsemÃ¡":6118,"mpaÃ±":6119,"Ġincon":6120,"Ġht":6121,"Ġcogn":6122,"Ġretras":6123,"Ġbio":6124,"ress":6125,"leo":6126,"Ġdibu":6127,"Ġcompuestos":6128,"Ġif":6129,"Ġido":6130,"ents":6131,"Ġseria":6132,"Ġpocos":6133,"Ġexager":6134,"Ġinternas":6135,"Ġlea":6136,"riÃ³":6137,"ill":6138,"ĠteÃ³r":6139,"Ġtrabajador":6140,"ibra":6141,"Ġgrad":6142,"Ġespiral":6143,"Ġaster":6144,"Ġmodela":6145,"Ġmitad":6146,"Ġejecutivo":6147,"itaria":6148,"Ġmediana":6149,"Ġaplican":6150,"Ġorganizado":6151,"Ġprimaria":6152,"Ġcredi":6153,"Ġdesarrollan":6154,"Ġ105":6155,"Ġregistran":6156,"Ġclasifica":6157,"Ġvalorar":6158,"Ġnet":6159,"porque":6160,"Ġponiendo":6161,"Ġplanificar":6162,"Ġcaracterizan":6163,"Ġanalizadores":6164,"ĠtomÃ©":6165,"Ġpolim":6166,"Ġconocidos":6167,"Ġfiable":6168,"ĠactuaciÃ³n":6169,"Ġestructurados":6170,"Ġcru":6171,"Ġsimplific":6172,"Ġanalizarlo":6173,"ĠpodrÃ¡n":6174,"Ġgratu":6175,"proceso":6176,"istentes":6177,"Ġrecibo":6178,"Ġ[{":6179,"medios":6180,"Ġencargados":6181,"ĠdiseÃ±ador":6182,"ĠbÃºsquedas":6183,"Ġdeberes":6184,"Ġsecre":6185,"Ġeficientes":6186,"Ġintrodu":6187,"Ġinteligente":6188,"Ġpreguntar":6189,"Ġprovee":6190,"Ġquieran":6191,"Ġarreglos":6192,"Ġavance":6193,"sionales":6194,"Ġbalances":6195,"ĠacompaÃ±":6196,"Ġeficacia":6197,"Ġvulgar":6198,"Ġasignatura":6199,"Ġmodularidad":6200,"Ġindustria":6201,"Ġflexibilidad":6202,"Ġconsecuencia":6203,"Ġplaca":6204,"Ġinstrumentos":6205,"Ġconcurrencia":6206,"Ġprevalecer":6207,"ĠinyecciÃ³n":6208,"Ġdesconoci":6209,"Ġescasez":6210,"Ġmanipular":6211,"Ġmonitoreo":6212,"Ġmixtos":6213,"Ġinvestigaciones":6214,"ĠquedÃ³":6215,"Ġiteraciones":6216,"Ġinecuaciones":6217,"ĠdispersiÃ³n":6218,"Ġdisminuir":6219,"ĠrecopilaciÃ³n":6220,"Ġensamblador":6221,"clase":6222,"erazgo":6223,"Ġcircuns":6224,"Ġestimaciones":6225,"Ġtraducir":6226,"Ġdemocracia":6227,"ĠpÃ©rez":6228,"Ġathlon":6229,"ĠsemÃ¡for":6230,"10":6231,"40":6232,"bm":6233,"biendo":6234,"cer":6235,"gadas":6236,"ok":6237,"oper":6238,"ph":6239,"pp":6240,"zca":6241,"Ġ\"\"":6242,"Ġeman":6243,"Ġeuros":6244,"Ġdeje":6245,"Ġpil":6246,"Ġpudo":6247,"Ġpython":6248,"onomÃŃa":6249,"ĠmÃŃo":6250,"Ġmental":6251,"inf":6252,"ino":6253,"Ġvital":6254,"Ġincomple":6255,"logo":6256,"dimen":6257,"tive":6258,"ĠtrÃ¡":6259,"Ġibm":6260,"Ġpocas":6261,"Ġinterbloque":6262,"Ġletras":6263,"Ã©ndo":6264,"ficaciÃ³n":6265,"Ġmanos":6266,"Ġmapa":6267,"com":6268,"Ġbasadas":6269,"Ġpreviamente":6270,"Ġpaz":6271,"Ġgenerador":6272,"ĠpasÃ³":6273,"ĠpodÃŃa":6274,"Ġrelativamente":6275,"ĠpresiÃ³n":6276,"Ġvisibilidad":6277,"Ġfutur":6278,"Ġanalizado":6279,"ĠtomÃ³":6280,"Ġimplican":6281,"Ġrefiero":6282,"Ġpuesta":6283,"Ġcumplan":6284,"Ġingrese":6285,"Ġfijar":6286,"venientes":6287,"Ġcontraiga":6288,"Ġacuerdos":6289,"Ġnormativas":6290,"Ãºscula":6291,"Ġfalla":6292,"Ġ115":6293,"pacio":6294,"ĠfÃŃsicas":6295,"Ġtendencias":6296,"Ġprototipo":6297,"Ġpensando":6298,"Ġtuve":6299,"ĠdeberÃ¡n":6300,"ips":6301,"Ġencuentre":6302,"Ġexplicar":6303,"ĠcuÃ¡ntos":6304,"Ġdiversidad":6305,"Ġorientadas":6306,"Ġcreatividad":6307,"Ġrecono":6308,"Ġquieres":6309,"Ġoportunidades":6310,"Ġadicionalmente":6311,"ĠmodificaciÃ³n":6312,"Ġmutu":6313,"ĠtÃŃtulo":6314,"ĠharÃ¡":6315,"Ġhardening":6316,"Ġinmediatamente":6317,"Ġplaneta":6318,"Ġhombres":6319,"Ġextremadamente":6320,"Ġdejando":6321,"Ġamena":6322,"Ġsecuencialmente":6323,"Ġpienso":6324,"Ġconozcan":6325,"Ġconversar":6326,"Ġadquisi":6327,"Ġpseudoalea":6328,"Ġregulaciones":6329,"Ġliderazgo":6330,"Ġdemasiado":6331,"Ġenlaces":6332,"Ġmonopolio":6333,"ĠclÃ¡usula":6334,"ĠquÃŃm":6335,"Ġmaquinarias":6336,"ĠpÃ©rdida":6337,"Ġsemestre":6338,"Ġmonitorear":6339,"Ġintelectual":6340,"ĠomisiÃ³n":6341,"Ġpilas":6342,"dra":6343,"dores":6344,"ej":6345,"gando":6346,"ly":6347,"mus":6348,"paje":6349,"ĠÃĹ":6350,"Ġpadre":6351,"Ġscroll":6352,"Ġaver":6353,"cito":6354,"onÃºcleo":6355,"Ġmam":6356,"anito":6357,"Ġencrip":6358,"read":6359,"ĠvÃŃa":6360,"Ġveci":6361,"Ġreca":6362,"Ġfras":6363,"cionados":6364,"abits":6365,"uso":6366,"acer":6367,"Ġaltos":6368,"Ġcuy":6369,"Ġgri":6370,"biles":6371,"Ġiva":6372,"ĠdaÃ±os":6373,"Ġsobres":6374,"Ġdiscu":6375,"icioso":6376,"tenible":6377,"Ġanim":6378,"Ġresuel":6379,"eler":6380,"ceder":6381,"gramas":6382,"Ġejecute":6383,"Ġsusten":6384,"Ġtraen":6385,"Ġtratan":6386,"Ġ107":6387,"Ġtablespace":6388,"Ġllamamos":6389,"Ġtanta":6390,"Ġtantos":6391,"Ġalguno":6392,"Ġvisual":6393,"Ġneur":6394,"Ġconju":6395,"Ġactivity":6396,"Ġcompone":6397,"Ġcomponen":6398,"Ġsiguen":6399,"terior":6400,"Ġfinanciamiento":6401,"Ġfijo":6402,"Ġcomplejas":6403,"Ġnormativo":6404,"Ġexperto":6405,"Ġdistingue":6406,"Ġcomparten":6407,"Ġsimples":6408,"ĠrotaciÃ³n":6409,"Ġropaje":6410,"Ġefectuar":6411,"ĠcorrecciÃ³n":6412,"Ġproduci":6413,"Ġmalicioso":6414,"ĠprofesiÃ³n":6415,"Ġllegaron":6416,"Ġencargado":6417,"factura":6418,"Ġfracas":6419,"Ġfacilita":6420,"Ġtasas":6421,"Ġinferencias":6422,"Ġcomienzan":6423,"Ġaportaciones":6424,"Ġdetall":6425,"Ġelimina":6426,"Ġcarreras":6427,"Ġvive":6428,"Ġcompromiso":6429,"ĠpreparaciÃ³n":6430,"Ġelaborado":6431,"Ġcomunicacional":6432,"Ġinmediato":6433,"ĠsimultÃ¡nea":6434,"ĠmillÃ³n":6435,"Ġconstituyente":6436,"Ġactualizaciones":6437,"Ġamigo":6438,"Ġsuficientes":6439,"Ġintens":6440,"Ġmanufactura":6441,"Ġaddress":6442,"crona":6443,"Ġsupervisado":6444,"ĠestandarizaciÃ³n":6445,"Ġdesigualdades":6446,"Ġselecciona":6447,"Ġpropagan":6448,"ĠconversaciÃ³n":6449,"Ġcertificado":6450,"Ġvulnerabilidad":6451,"Ġconstruye":6452,"Ġfulanito":6453,"Ġimplementaciones":6454,"Ġconciencia":6455,"ĠmanipulaciÃ³n":6456,"Ġtelefon":6457,"Ġtransparente":6458,"Ġcontabilizar":6459,"Ġendeudamiento":6460,"ject":6461,"Ġperfecta":6462,"ĠrectÃ¡ngulos":6463,"Ġtradicionales":6464,"Ġdiscriminar":6465,"ĠmicronÃºcleo":6466,"Ġimpuls":6467,"ĠsincronizaciÃ³n":6468,"Ġacapar":6469,"ĠreplicaciÃ³n":6470,"Ġrapidez":6471,"Ġcheque":6472,"Ġaverigu":6473,"ĠmamÃ¡":6474,")\"":6475,"68":6476,"dico":6477,"ht":6478,"mem":6479,"tn":6480,"tadores":6481,"ump":6482,"viendo":6483,"vard":6484,"xil":6485,"xhdpi":6486,"zÃ³":6487,"ĠdÃ³":6488,"Ġpci":6489,"Ġpel":6490,"Ġce":6491,"cina":6492,"oria":6493,"Ġquedan":6494,"tia":6495,"ticiÃ³n":6496,"Ã³ven":6497,"trÃ³":6498,"Ġvice":6499,"Ġcongru":6500,"ices":6501,"Ġsemi":6502,"Ã¡tico":6503,"Ġprovis":6504,"ĠprohÃŃ":6505,"Ġtus":6506,"Ġba":6507,"Ġbit":6508,"Ġestu":6509,"leg":6510,"Ġmetro":6511,"tics":6512,"Ġactores":6513,"ĠestÃ¡tica":6514,"Ġlearning":6515,"ĠinflaciÃ³n":6516,"Ġconsigu":6517,"Ġopcional":6518,"illa":6519,"elÃ©c":6520,"Ġdecirlo":6521,"Ġfines":6522,"Ġadmi":6523,"ĠjÃ³ven":6524,"Ġcomunidades":6525,"Ġoperacional":6526,"Ġdefensa":6527,"Ġdeterminamos":6528,"Ġsabes":6529,"Ġpresta":6530,"Ġpresid":6531,"Ġordenanzas":6532,"Ġneuman":6533,"ĠmÃ©dica":6534,"Ġactivar":6535,"Ġauxil":6536,"Ġfuncionando":6537,"Ġvean":6538,"Ġrector":6539,"ĠutilizarÃ¡":6540,"Ġdecre":6541,"Ġdistinguir":6542,"Ġcomportamientos":6543,"extend":6544,"Ġrecibido":6545,"Ġrecog":6546,"Ġrecogida":6547,"ĠmatemÃ¡ticamente":6548,"ĠÃ©stos":6549,"ĠÃ©stas":6550,"Ġprobabilidades":6551,"Ġdocumentado":6552,"Ġuniverso":6553,"ĠbiolÃ³g":6554,"Ġaleatori":6555,"Ġsemicon":6556,"Ġselect":6557,"ĠpatrÃ³n":6558,"Ġproveer":6559,"Ġadministrativo":6560,"Ġampli":6561,"ĠprÃ©stamos":6562,"Ġciudadano":6563,"Ġdescubrir":6564,"Ġexistente":6565,"Ġprecisa":6566,"Ġaumenta":6567,"Ġsurgen":6568,"Ġsurge":6569,"ĠcientÃŃficos":6570,"Ġesquemas":6571,"Ġharvard":6572,"ĠcategorÃŃa":6573,"ĠalimentaciÃ³n":6574,"Ġinvolucr":6575,"ĠradioelÃ©c":6576,"ĠplanificÃ³":6577,"Ġtrasl":6578,"Ġreglamento":6579,"Ġexactitud":6580,"Ġsupervisar":6581,"Ġfragmentos":6582,"Ġentienden":6583,"Ġcompetitiva":6584,"Ġcompetidores":6585,"Ġideal":6586,"Ġexcelencia":6587,"Ġpopmus":6588,"Ġhallar":6589,"Ġtorre":6590,"quiÃ©nes":6591,"Ġoficina":6592,"Ġtransparencia":6593,"Ġaislada":6594,"Ġhistoria":6595,"ĠâĢĵ":6596,"Ġprimitivos":6597,"Ġvmware":6598,"Ġparalelismo":6599,"Ġsecundaria":6600,"ĠmonolÃŃ":6601,"Ġsubespacio":6602,"ĠtriÃ¡ngulo":6603,"Ġsolidario":6604,"ÃŃxeles":6605,"ĠdÃ³lar":6606,"Ġviceversa":6607,"ĠprohÃŃbe":6608,"ĠjÃ³venes":6609,"Ġneumann":6610,"ĠradioelÃ©ctrico":6611,"Ġpopmusic":6612,"14":6613,"33":6614,"cy":6615,"dy":6616,"deco":6617,"put":6618,"sos":6619,"Ġeje":6620,"Ġlist":6621,"enas":6622,"entamos":6623,"Ġpac":6624,"Ġcib":6625,"Ġcif":6626,"erican":6627,"Ġater":6628,"organ":6629,"Ġestric":6630,"tito":6631,"Ġvic":6632,"Ġvio":6633,"Ġconti":6634,"Ġconatel":6635,"Ġsepan":6636,"Ġok":6637,"Ġomt":6638,"amble":6639,"Ġreemp":6640,"idimen":6641,"Ġfoco":6642,"iene":6643,"Ġprom":6644,"Ġprome":6645,"Ġparecer":6646,"embol":6647,"Ġbon":6648,"activa":6649,"Ġnombr":6650,"ize":6651,"Ġalf":6652,"Ġaltura":6653,"Ġdiariamente":6654,"tuales":6655,"lave":6656,"lazar":6657,"Ġpodido":6658,"Ġacord":6659,"Ġinterfer":6660,"Ġlev":6661,"Ġresuelve":6662,"tora":6663,"Ġconsistente":6664,"Ġmaes":6665,"Ġempresario":6666,"Ġrue":6667,"Ġbasta":6668,"Ġbastantes":6669,"Ġgrama":6670,"Ġasamble":6671,"Ġfinaliza":6672,"Ġobjetiva":6673,"Ġejecutiva":6674,"Ġjuntos":6675,"ĠrepÃºbl":6676,"Ġimporte":6677,"Ġpropone":6678,"Ġllego":6679,"Ġregistra":6680,"ĠimportantÃŃ":6681,"Ġbuenos":6682,"Ġllamados":6683,"Ġordena":6684,"Ġvisible":6685,"Ġalmacenes":6686,"che":6687,"Ġnegra":6688,"ĠmÃ©trica":6689,"Ġhablaba":6690,"Ġfuncionan":6691,"brimiento":6692,"Ġquito":6693,"Ġirse":6694,"Ġestudiando":6695,"Ġhumanidad":6696,"Ġguiar":6697,"Ġclientela":6698,"ĠdecÃŃan":6699,"Ġracional":6700,"gener":6701,"Ġjuris":6702,"ĠnumÃ©rica":6703,"Ġsentimientos":6704,"Ġsencillos":6705,"Ġsencillas":6706,"Ġponerle":6707,"Ġanaly":6708,"Ġdenominado":6709,"Ġramas":6710,"ĠdeberÃŃamos":6711,"Ġexterna":6712,"Ġdocumentar":6713,"Ġterminar":6714,"Ġdirig":6715,"Ġconviene":6716,"Ġpregunto":6717,"Ġforward":6718,"Ġaplicadas":6719,"ĠtendrÃŃamos":6720,"ĠlÃ©xicos":6721,"Ġjuicio":6722,"Ġlanzar":6723,"Ġcuadro":6724,"Ġescucha":6725,"ĠenvÃŃan":6726,"Ġsurgido":6727,"Ġreferente":6728,"Ġcomunicativas":6729,"Ġesperando":6730,"Ġacreedores":6731,"ĠrepeticiÃ³n":6732,"Ġmovimientos":6733,"ĠprÃ³ximo":6734,"Ġaprendido":6735,"Ġdividirse":6736,"ĠsocioeconÃ³m":6737,"Ġvuelta":6738,"ĠestratÃ©gicos":6739,"Ġclasifican":6740,"Ġdijeron":6741,"ĠdaÃ±ado":6742,"Ġpush":6743,"Ġescenario":6744,"Ġsilicio":6745,"ĠarquitectÃ³nicos":6746,"bueno":6747,"Ġinconsistencia":6748,"Ġasegurarse":6749,"Ġcoincide":6750,"Ġespecializadas":6751,"ĠmacroeconomÃŃa":6752,"Ġlexema":6753,"Ġcomprensible":6754,"cuÃ¡ntos":6755,"Ġmodern":6756,"Ġinversionistas":6757,"Ġempiezan":6758,"Ġvestidos":6759,"ĠpÃ¡rrafo":6760,"ĠmercaderÃŃa":6761,"off":6762,"Ġdifusa":6763,"Ġvocab":6764,"Ġconvirtiendo":6765,"Ġsentarme":6766,"Ġcogni":6767,"Ġasterisco":6768,"ĠsemÃ¡foro":6769,"ĠencriptaciÃ³n":6770,"Ġgrie":6771,"Ġaterr":6772,"ĠrepÃºblica":6773,")^":6774,"fismo":6775,"har":6776,"hacer":6777,"ique":6778,"ocu":6779,"tencia":6780,"vimos":6781,"Ġetimo":6782,"Ġequidad":6783,"Ġpistas":6784,"eramente":6785,"Ġscrip":6786,"eso":6787,"est":6788,"orfismo":6789,"temos":6790,"tems":6791,"Ġmente":6792,"Ġmadu":6793,"tre":6794,"ĠuniÃ³n":6795,"Ġunit":6796,"Ġnul":6797,"Ġvf":6798,"Ġvar":6799,"Ġvea":6800,"Ġconexo":6801,"icando":6802,"icados":6803,"Ġout":6804,"Ġprud":6805,"ÃŃdo":6806,"Ġcolas":6807,"Ġcociente":6808,"Ġsiquiera":6809,"Ġgi":6810,"Ġilim":6811,"encioso":6812,"Ġusos":6813,"trocin":6814,"Ġtienda":6815,"Ġhack":6816,"Ġmotiv":6817,"Ġmouse":6818,"Ġrest":6819,"Ġprocess":6820,"ĠmagnÃ©":6821,"Ġestatus":6822,"ced":6823,"ĠclÃŃn":6824,"ĠclÃºs":6825,"Ġverbo":6826,"tilla":6827,"ĠhabrÃ¡":6828,"menes":6829,"nodo":6830,"Ġgrup":6831,"Ġcargos":6832,"Ġvalidez":6833,"Ġmemory":6834,"Ġejecuten":6835,"Ġpatrocin":6836,"Ġdireccionar":6837,"Ġrepro":6838,"person":6839,"Ġpodamos":6840,"ĠpodÃŃamos":6841,"Ġrealizado":6842,"Ġdefinidos":6843,"Ġpreserv":6844,"Ġvistas":6845,"Ġexpor":6846,"Ġnecesitas":6847,"ĠmÃ©dicos":6848,"Ġactivas":6849,"Ġcancha":6850,"ĠestarÃ¡":6851,"Ġescribiendo":6852,"Ġconstituir":6853,"Ġtomado":6854,"ĠvehÃŃ":6855,"quitectura":6856,"Ġsubray":6857,"Ġsegundos":6858,"Ġinvertido":6859,"Ġreforma":6860,"Ġsignificativa":6861,"Ġfiallo":6862,"ĠtÃ©cnicos":6863,"Ġmono":6864,"Ġguerra":6865,"Ġmargen":6866,"ĠpolÃŃtico":6867,"Ġcalifica":6868,"ĠcapacitaciÃ³n":6869,"ĠestructuraciÃ³n":6870,"ĠtamaÃ±os":6871,"ĠprÃ¡ctico":6872,"Ġexpresada":6873,"Ġrode":6874,"Ġduros":6875,"Ġ112":6876,"Ġconectores":6877,"Ġconcentr":6878,"ĠreciÃ©n":6879,"Ġrecom":6880,"ĠfÃŃsicamente":6881,"Ġestratos":6882,"ĠontologÃŃa":6883,"Ġresponsables":6884,"Ġfran":6885,"Ġprobable":6886,"Ġdividen":6887,"Ġexplica":6888,"Ġaplicado":6889,"Ġaplicables":6890,"Ġsacan":6891,"Ġguardan":6892,"Ġcontencioso":6893,"Ġdesarrollando":6894,"Ġaporten":6895,"ĠÃ³pticos":6896,"Ġtercero":6897,"Ġaccede":6898,"Ġadecuados":6899,"ĠdevoluciÃ³n":6900,"ĠdetecciÃ³n":6901,"Ġescoge":6902,"Ġeditar":6903,"Ġnulo":6904,"Ġbarb":6905,"Ġdisminuye":6906,"Ġninguno":6907,"Ġpiensan":6908,"Ġconsecuencias":6909,"Ġconfiable":6910,"Ġargumentativos":6911,"cket":6912,"Ġinyectar":6913,"ĠconceptualizaciÃ³n":6914,"Ġprivilegi":6915,"Ġprivilegios":6916,"ĠexplotaciÃ³n":6917,"Ġasume":6918,"Ġfactibilidad":6919,"Ġinterconectan":6920,"ĠinnovaciÃ³n":6921,"Ġetiquetas":6922,"ĠexcepciÃ³n":6923,"Ġmaximizar":6924,"Ġaconte":6925,"Ġgaus":6926,"ĠortografÃŃa":6927,"Ġprofundidad":6928,"Ġpobreza":6929,"Ġsimulaciones":6930,"ĠsubsecretarÃŃa":6931,"Ġultimo":6932,"Ġvencimiento":6933,"Ġquisi":6934,"extents":6935,"ĠaviÃ³n":6936,"Ġremuner":6937,"Ġrechazar":6938,"Ġcircunstancias":6939,"Ġfuturos":6940,"Ġpseudoaleatorios":6941,"Ġsemiconduc":6942,"ĠclÃºster":6943,"brec":6944,"gÃ¡n":6945,"gimen":6946,"menta":6947,"ob":6948,"pd":6949,"uaciÃ³n":6950,"vemos":6951,"wn":6952,"Ġ:":6953,"onas":6954,"arnos":6955,"ase":6956,"toda":6957,"Ã³gn":6958,"Ġensa":6959,"Ġenfr":6960,"Ġentiendan":6961,"alo":6962,"remo":6963,"Ġvirus":6964,"isc":6965,"Ã¡ticas":6966,"Ġcoorden":6967,"Ġrece":6968,"Ã©gimen":6969,"Ġfom":6970,"Ġfetch":6971,"Ġfibra":6972,"Ġpares":6973,"delo":6974,"izadas":6975,"Ġaler":6976,"Ġdelante":6977,"dicidad":6978,"Ġgal":6979,"Ġgam":6980,"ĠtrÃ¡n":6981,"entador":6982,"Ġserver":6983,"Ġpuedas":6984,"Ġdesvia":6985,"imas":6986,"Ġpotes":6987,"Ġextin":6988,"ĠorgÃ¡n":6989,"Ġinterperson":6990,"Ġrestar":6991,"Ġrestring":6992,"Ġresistir":6993,"Ġprocesada":6994,"date":6995,"Ġopen":6996,"dentro":6997,"sificaciÃ³n":6998,"Ġcoment":6999,"Ġcomida":7000,"Ġentrante":7001,"Ġimpos":7002,"Ġversiones":7003,"Ġarista":7004,"Ġhable":7005,"Ġhabitu":7006,"ĠrÃ©gimen":7007,"now":7008,"Ġmenores":7009,"Ġcorta":7010,"Ġcontroladores":7011,"Ġcaptura":7012,"Ġcaptur":7013,"ĠincÃ³gn":7014,"Ġ106":7015,"Ġrealizando":7016,"Ġrespecta":7017,"tina":7018,"ĠsaliÃ³":7019,"Ġprestado":7020,"Ġautores":7021,"Ġescribo":7022,"Ġanalizo":7023,"Ġinicialmente":7024,"ĠimplÃŃci":7025,"Ġadministradores":7026,"Ġabstra":7027,"ĠingresÃ³":7028,"Ġfijos":7029,"ĠmontÃ³n":7030,"ĠguÃŃa":7031,"Ġdarle":7032,"Ġcomparan":7033,"Ġexpresan":7034,"Ġxp":7035,"Ġrobo":7036,"Ġconsiderando":7037,"Ġconsideramos":7038,"Ġaudio":7039,"istencias":7040,"Ġrepresentaciones":7041,"Ġfluir":7042,"ĠdiseÃ±ados":7043,"ionarios":7044,"Ġpanor":7045,"Ġespecificado":7046,"Ġganancia":7047,"Ġmiddle":7048,"Ġinteracciones":7049,"Ġproveedor":7050,"Ġsatisfa":7051,"Ġaplicarse":7052,"Ġescalar":7053,"Ġizquierdo":7054,"Ġahorros":7055,"Ġarreglar":7056,"ĠdÃ©biles":7057,"ĠsurgiÃ³":7058,"Ġadaptarse":7059,"Ġordinales":7060,"izacion":7061,"ĠestimaciÃ³n":7062,"ĠparÃ¡metro":7063,"tÃºa":7064,"Ġplanificado":7065,"Ġcuotas":7066,"ĠtecnolÃ³gico":7067,"Ġcorreos":7068,"Ġoriginales":7069,"Ġemitir":7070,"Ġnegativos":7071,"Ġfichero":7072,"Ġhogares":7073,"Ġvincul":7074,"Ġlogs":7075,"Ġequivalente":7076,"Ġeduca":7077,"Ġimagino":7078,"Ġjuzgada":7079,"ĠlÃŃderes":7080,"Ã©monos":7081,"Ġvigencia":7082,"ĠdepuraciÃ³n":7083,"Ġgigas":7084,"Ġfactible":7085,"Ġtransformaciones":7086,"Ġenlace":7087,"Ġnominal":7088,"ĠhomogÃ©nea":7089,"Ġsubordinado":7090,"ĠexposiciÃ³n":7091,"Ġcostumbre":7092,"Ġblue":7093,"Ġblanco":7094,"Ġsocioculturales":7095,"Ġsensores":7096,"Ġapela":7097,"Ġacorde":7098,"Ġevolucionando":7099,"Ġenglob":7100,"Ġpropaganda":7101,"Ġcoordenadas":7102,"ĠtrÃ¡nsito":7103,"Ġdesviaciones":7104,"Ġpotestad":7105,".,":7106,"12":7107,"bra":7108,"ging":7109,"irec":7110,"pues":7111,"sta":7112,"size":7113,"taria":7114,"utas":7115,"vamos":7116,"yac":7117,"Ġ'":7118,"Ġdon":7119,"Ġdpi":7120,"osticar":7121,"Ġlenta":7122,"Ġplas":7123,"ciles":7124,"arquitectura":7125,"Ġmuer":7126,"Ġmadre":7127,"ancias":7128,"Ġlayout":7129,"iness":7130,"Ġvivo":7131,"tabilidad":7132,"Ġcontex":7133,"ĠhÃ¡":7134,"Ġcofac":7135,"idirec":7136,"Ġteste":7137,"Ġby":7138,"activ":7139,"Ġnota":7140,"Ġnotas":7141,"Ġalem":7142,"Ġaline":7143,"dimos":7144,"dieron":7145,"guar":7146,"graciÃ³n":7147,"daciones":7148,"tarlo":7149,"tarnos":7150,"Ġobed":7151,"Ġestaban":7152,"Ġdecidieron":7153,"Ġclima":7154,"Ġverifica":7155,"Ġtrabajen":7156,"Ġtrabajado":7157,"Ġhablan":7158,"Ġhacerle":7159,"poca":7160,"Ġdichos":7161,"ĠmemÃ©":7162,"Ġpreocu":7163,"Ġpautas":7164,"Ġpasando":7165,"Ġcapta":7166,"Ġcreada":7167,"Ġ108":7168,"Ġrealizadas":7169,"urÃŃa":7170,"Ġtax":7171,"Ġsalga":7172,"Ġpermitan":7173,"Ġpresentamos":7174,"Ġordenados":7175,"Ġlentitud":7176,"Ġespecialmente":7177,"ueven":7178,"ĠÃ©poca":7179,"Ġescriba":7180,"Ġcaracteris":7181,"Ġformando":7182,"Ġformales":7183,"Ġformular":7184,"Ġsubproceso":7185,"Ġestudios":7186,"Ġimplicar":7187,"Ġcierre":7188,"Ġlibres":7189,"Ġlibrer":7190,"Ġfigu":7191,"Ġdiagn":7192,"Ġacuerdan":7193,"Ġnegoci":7194,"Ġcalce":7195,"Ġactualizar":7196,"oluciones":7197,"Ġbajar":7198,"Ġinteresadas":7199,"Ġterremo":7200,"Ġproporcional":7201,"Ġindefin":7202,"ĠconsideraciÃ³n":7203,"ĠinformÃ¡ticas":7204,"ĠaritmÃ©tico":7205,"Ġchar":7206,"Ġchina":7207,"Ġsigma":7208,"ĠinclusiÃ³n":7209,"ĠexplicaciÃ³n":7210,"Ġganancias":7211,"Ġparticulares":7212,"Ġcursiva":7213,"ĠorientaciÃ³n":7214,"Ġcentra":7215,"Ġguste":7216,"ĠelectrÃ³nica":7217,"Ġintercambiar":7218,"ĠcrÃ©ditos":7219,"Ġcomunicacionales":7220,"Ġesperan":7221,"Ġregresa":7222,"Ġmanejando":7223,"Ġinmediatos":7224,"Ġestimadores":7225,"Ġinvolucradas":7226,"Ġboo":7227,"Ġglobales":7228,"Ġviajar":7229,"Ġimpreso":7230,"ĠÃºtiles":7231,"Ġnegativa":7232,"ĠcrÃŃticas":7233,"ĠmetaheurÃŃsticas":7234,"Ġdeclaraciones":7235,"Ġestandarizar":7236,"ĠagrupaciÃ³n":7237,"ĠinserciÃ³n":7238,"globa":7239,"Ġbancarias":7240,"Ġfacultades":7241,"Ġautomatizado":7242,"Ġkilob":7243,"ĠarquitectÃ³nico":7244,"Ġmicroservicio":7245,"Ġolvid":7246,"Ġrespectivamente":7247,"ĠrectÃ¡ngulo":7248,"Ġenriquecer":7249,"Ġdistrib":7250,"Ġfortaleci":7251,"Ġestablecidos":7252,"Ġcrece":7253,"Ġdiscretas":7254,"Ġfamiliares":7255,"Ġflecha":7256,"ĠprobabilÃŃsticos":7257,"ĠclÃ¡sica":7258,"ĠintÃ©rprete":7259,"Ġdispuestos":7260,"Ġrenegociar":7261,"Ġnarra":7262,"Ġinconvenientes":7263,"ĠteÃ³rica":7264,"Ġnetwork":7265,"Ġamenaza":7266,"Ġruedas":7267,"Ġquisiera":7268,"ĠlibrerÃŃas":7269,").-":7270,"axi":7271,"gsi":7272,"gesti":7273,"igar":7274,"jan":7275,"nt":7276,"nan":7277,"rados":7278,"sas":7279,"ww":7280,"Ġlic":7281,"Ġph":7282,"erse":7283,"cida":7284,"quemos":7285,"Ġquehacer":7286,"ins":7287,"Ġenum":7288,"Ġeli":7289,"Ġelem":7290,"Ġelse":7291,"ĠvÃŃas":7292,"isa":7293,"Ġome":7294,"ÃŃtulo":7295,"ĠhÃŃ":7296,"Ġcoaxi":7297,"Ġreduc":7298,"Ã©tica":7299,"Ġtera":7300,"Ġblog":7301,"debe":7302,"Ġnociones":7303,"Ġalar":7304,"Ġaltas":7305,"Ġloco":7306,"termin":7307,"Ġdiv":7308,"Ġcompac":7309,"ticales":7310,"Ġit":7311,"Ġiee":7312,"ĠdaÃ±o":7313,"Ġdesa":7314,"Ġdesembol":7315,"Ãºan":7316,"Ġsobrec":7317,"Ġexterior":7318,"ividad":7319,"ĠapÃ³s":7320,"Ġapache":7321,"ulario":7322,"Ġconsistir":7323,"Ġopti":7324,"Ġobvio":7325,"dens":7326,"Ġentren":7327,"Ġup":7328,"Ġinsu":7329,"Ġarbi":7330,"Ġdichas":7331,"Ġregiones":7332,"Ġcarros":7333,"contr":7334,"Ġprevia":7335,"Ġadyac":7336,"Ġjun":7337,"Ġmedicina":7338,"Ġproductores":7339,"ĠcapÃŃtulo":7340,"Ġcreadas":7341,"Ġpostul":7342,"Ġ109":7343,"Ġdefinida":7344,"Ġcambiantes":7345,"Ġrelativa":7346,"mbrar":7347,"Ġrecursivas":7348,"Ġalmacenadas":7349,"renunci":7350,"Ġequivo":7351,"Ġhered":7352,"Ġauten":7353,"mÃ¡tica":7354,"Ġconstituidos":7355,"Ġirq":7356,"Ġirrenunci":7357,"Ġvenir":7358,"Ġlleven":7359,"ĠseÃ±or":7360,"Ġobligar":7361,"Ġcalcu":7362,"Ġactualidad":7363,"Ġestructurar":7364,"Ġcris":7365,"ĠamÃ©rica":7366,"Ġrocket":7367,"Ġconsiderada":7368,"Ġauditado":7369,"ĠjurÃŃdicos":7370,"procesamiento":7371,"Ġmalicios":7372,"ĠnumÃ©ricos":7373,"Ġrecogido":7374,"Ġdistribuidas":7375,"Ġ199":7376,"ĠrÃ¡pidos":7377,"ĠfrÃŃo":7378,"Ġpiezas":7379,"Ġintroduc":7380,"Ġexternamente":7381,"Ġcomprenden":7382,"Ġcomprendido":7383,"Ġjusto":7384,"Ġhoja":7385,"ĠcomÃºnmente":7386,"Ġocurr":7387,"opera":7388,"Ġdominios":7389,"Ġsoportan":7390,"mulas":7391,"ĠtendrÃ¡n":7392,"Ġduda":7393,"Ġoptimizando":7394,"tificaciÃ³n":7395,"Ġbloquear":7396,"Ġeficientemente":7397,"Ġbinarios":7398,"Ġobtenida":7399,"Ġobtenidos":7400,"toriales":7401,"ĠelaboraciÃ³n":7402,"ĠfÃ³rmulas":7403,"Ġprivado":7404,"Ġindicando":7405,"Ġconformado":7406,"Ġfrecuente":7407,"Ġinstalar":7408,"Ġmillon":7409,"ĠexperimentaciÃ³n":7410,"âĢĻ":7411,"ĠtÃŃpico":7412,"Ġrutina":7413,"Ġbigtable":7414,"Ġprotegerse":7415,"Ġsumando":7416,"ĠvacÃŃo":7417,"Ġosea":7418,"ĠhistÃ³ricos":7419,"sandra":7420,"ĠdueÃ±os":7421,"Ġdynam":7422,"Ġexclusivo":7423,"Ġaprovechar":7424,"Ġocupa":7425,"Ġprece":7426,"Ġdesplie":7427,"Ġtrayectorias":7428,"Ġadoptar":7429,"Ġdivisar":7430,"Ġemociones":7431,"Ġvinculado":7432,"Ġvinculante":7433,"Ġilustra":7434,"Ġmanifiestan":7435,"ĠacadÃ©mica":7436,"Ġmegabits":7437,"ĠcontraseÃ±as":7438,"Ġencadenada":7439,"Ġtitular":7440,"Ġconcesionarios":7441,"Ġseries":7442,"Ġapreciar":7443,"Ġmodelaje":7444,"Ġaveriguar":7445,"memoria":7446,"Ġsemiestructur":7447,"Ġpresidente":7448,"Ġvocabulario":7449,"Ġhackers":7450,"Ġgauss":7451,"Ġimposible":7452,"Ġpanorama":7453,"Ġmuere":7454,"Ġterremoto":7455,"Ġomega":7456,"Ġieee":7457,"ĠapÃ³stro":7458,");":7459,"bos":7460,"cd":7461,"cend":7462,"hile":7463,"iamos":7464,"iÃ©n":7465,"luego":7466,"pens":7467,"puesta":7468,"sor":7469,"ug":7470,"uter":7471,"Ġdeducir":7472,"Ġpad":7473,"Ġplen":7474,"Ġcenso":7475,"Ġsd":7476,"Ġsy":7477,"Ġaval":7478,"Ġarea":7479,"onada":7480,"quen":7481,"orn":7482,"asa":7483,"Ġesencia":7484,"uncia":7485,"Ġmb":7486,"tidi":7487,"Ġengloba":7488,"reuse":7489,"mpor":7490,"mput":7491,"Ġhas":7492,"Ġcoger":7493,"Ġcodifica":7494,"Ġcotidi":7495,"Ġredo":7496,"Ġparser":7497,"Ġtur":7498,"ĠportÃ¡":7499,"usu":7500,"usto":7501,"izada":7502,"rese":7503,"dio":7504,"Ġtroy":7505,"Ġtengas":7506,"tuando":7507,"godb":7508,"Ġmetal":7509,"Ġcompetir":7510,"ication":7511,"rays":7512,"Ġdesen":7513,"Ãºmenes":7514,"Ġhagamos":7515,"Ã±Ã³n":7516,"Ġintermedios":7517,"Ġlejos":7518,"Ġapare":7519,"ficar":7520,"Ġresal":7521,"Ġconsig":7522,"ille":7523,"illas":7524,"Ġdecide":7525,"Ġinformar":7526,"Ġtrabajemos":7527,"Ġ2000":7528,"Ġarro":7529,"Ġgradu":7530,"ezcan":7531,"Ġcarro":7532,"Ġmiti":7533,"vertencia":7534,"Ġorganismo":7535,"Ġadvertencia":7536,"Ġejecutivos":7537,"Ġjo":7538,"ĠmuchÃŃs":7539,"Ġdirectivos":7540,"Ġcualific":7541,"Ġdens":7542,"Ġrepetir":7543,"Ġcreciente":7544,"Ġrealizados":7545,"Ġrespuestas":7546,"Ġvisibles":7547,"Ġexpro":7548,"acidad":7549,"ĠestarÃŃa":7550,"Ġescritos":7551,"Ġescriben":7552,"Ġwifi":7553,"Ġwarning":7554,"Ġwhile":7555,"Ġabsur":7556,"Ġrefor":7557,"Ġfiabilidad":7558,"Ġdiaposi":7559,"Ġintegrante":7560,"Ġmongodb":7561,"Ġrelacionan":7562,"ĠactualizaciÃ³n":7563,"Ġmultiv":7564,"edora":7565,"ediendo":7566,"ĠcolÃ©rico":7567,"Ġprimeramente":7568,"Ġcompartido":7569,"Ġcompartida":7570,"Ġdependiente":7571,"Ġambi":7572,"Ġmultidimen":7573,"Ġrouter":7574,"Ġefectivamente":7575,"Ġ114":7576,"Ġproduzca":7577,"Ġrecientemente":7578,"Ġnumeros":7579,"Ġrecoger":7580,"ĠfundamentaciÃ³n":7581,"Ġrepresentativa":7582,"ĠtelecomunicaciÃ³n":7583,"Ġrecuerdo":7584,"Ġrecuerda":7585,"Ġrenuncia":7586,"Ġbienestar":7587,"Ġseparables":7588,"ĠespecÃŃficamente":7589,"Ġdemandar":7590,"Ġdenominar":7591,"Ġtransfieren":7592,"Ġtuvo":7593,"Ġprobablemente":7594,"Ġkb":7595,"Ġkil":7596,"Ġentendible":7597,"Ġasociadas":7598,"Ġencuentro":7599,"Ġgastar":7600,"grafo":7601,"Ġrige":7602,"crono":7603,"Ġmultiplicidad":7604,"Ġinterpreta":7605,"Ġelectricidad":7606,"ĠcomprÃ©":7607,"Ġescalonada":7608,"Ġperiodicidad":7609,"Ġdescubrimiento":7610,"ysis":7611,"Ġplantea":7612,"Ġescuchado":7613,"Ġconcreta":7614,"Ġconcretos":7615,"Ġsatisface":7616,"ĠsemÃ¡ntica":7617,"ĠenseÃ±a":7618,"Ġesperar":7619,"Ġaplicativos":7620,"Ġrespaldos":7621,"Ġpotente":7622,"Ġrepetidos":7623,"Ġsanitaria":7624,"Ġconsideraciones":7625,"ĠimagÃŃnate":7626,"Ġsucediendo":7627,"Ġdejaba":7628,"ĠÃ¡rboles":7629,"Ġ2019":7630,"Ġstatic":7631,"Ġcuestion":7632,"Ġcomplement":7633,"Ġseleccionado":7634,"trans":7635,"Ġdestina":7636,"Ġdestinadas":7637,"Ġelectorales":7638,"Ġpopular":7639,"Ġcontribuido":7640,"Ġvendiendo":7641,"Ġargumentativo":7642,"Ġpuso":7643,"Ġexclusivamente":7644,"Ġdescend":7645,"Ġprevalece":7646,"politan":7647,"Ġocup":7648,"Ġcomputacionales":7649,"ĠelÃ©ctrico":7650,"Ġremota":7651,"Ġreutilizable":7652,"Ġlistado":7653,"ĠrevoluciÃ³n":7654,"Ġnominales":7655,"Ġcomprometer":7656,"Ġparametriz":7657,"Ġfoto":7658,"Ġcostumbres":7659,"Ġflexible":7660,"Ġayudando":7661,"Ġindispens":7662,"Ġtextual":7663,"Ġantiguos":7664,"ĠvÃŃnculo":7665,"Ġsencillito":7666,"Ġdificultades":7667,"sistema":7668,"Ġalojar":7669,"Ġinfluencia":7670,"Ġpractica":7671,"Ġperciben":7672,"Ġhttp":7673,"Ġpolimorfismo":7674,"inform":7675,"ĠtrÃ¡fico":7676,"Ġcuyas":7677,"Ġmetropolitan":7678,"ĠsocioeconÃ³mica":7679,"Ġnull":7680,"Ġgigan":7681,"ĠhÃ¡bito":7682,"Ġenumer":7683,"Ġconsigue":7684,"->":7685,"500":7686,"?:":7687,"][":7688,"fras":7689,"gables":7690,"lf":7691,"ridad":7692,"riendo":7693,"zco":7694,"Ġ&":7695,"Ġedos":7696,"osas":7697,"Ġllave":7698,"Ġpiz":7699,"Ġcuel":7700,"Ġcisco":7701,"erto":7702,"cialmente":7703,"onales":7704,"onom":7705,"arme":7706,"Ġquede":7707,"tricos":7708,"inamiento":7709,"Ġenem":7710,"Ġenfer":7711,"Ġencam":7712,"Ġvieron":7713,"ÃŃgen":7714,"Ġhambre":7715,"Ġcode":7716,"Ġrecur":7717,"idurÃŃa":7718,"Ġprolog":7719,"Ġpartn":7720,"Ġth":7721,"cionario":7722,"loop":7723,"ĠporquÃ©":7724,"Ġportal":7725,"defin":7726,"Ġdelim":7727,"max":7728,"ĠdiÃ¡":7729,"tum":7730,"Ġmeter":7731,"Ġmetida":7732,"Ġcompras":7733,"Ġibr":7734,"Ġaceler":7735,"dados":7736,"ĠempÃŃr":7737,"Ġmooc":7738,"Ġresoluciones":7739,"alizando":7740,"Ġconsisten":7741,"Ġdeba":7742,"Ġmand":7743,"elec":7744,"Ġclic":7745,"itadas":7746,"Ġpagado":7747,"Ġdirectiva":7748,"Ġprimada":7749,"Ġcreer":7750,"ĠredacciÃ³n":7751,"logy":7752,"Ġdeterior":7753,"ĠdeterminaciÃ³n":7754,"ĠsabidurÃŃa":7755,"turar":7756,"ticomput":7757,"Ġabono":7758,"Ġrepresente":7759,"ĠnormalizaciÃ³n":7760,"Ġhablado":7761,"Ġayer":7762,"Ġplanes":7763,"lectura":7764,"Ġescrita":7765,"Ġescribimos":7766,"Ġtomada":7767,"brar":7768,"Ġsocios":7769,"Ġword":7770,"Ġmensaj":7771,"Ġvenimos":7772,"Ġether":7773,"Ġleyendo":7774,"Ġllevado":7775,"Ġempleando":7776,"Ġcontacto":7777,"Ġnacionales":7778,"ĠÃºltimas":7779,"Ġimplementados":7780,"Ġdecreci":7781,"Ġmulticomput":7782,"Ġcolabora":7783,"ĠevalÃºan":7784,"ĠratÃ³n":7785,"Ġdistinta":7786,"Ġtabular":7787,"bieron":7788,"Ġ113":7789,"Ġclaros":7790,"Ġdenota":7791,"Ġpunta":7792,"Ġprototipos":7793,"Ġdenominada":7794,"Ġpensamientos":7795,"dicciÃ³n":7796,"Ġchi":7797,"Ġmanteniendo":7798,"Ġrespeten":7799,"ĠseÃ±alan":7800,"Ġmorir":7801,"olÃ³gica":7802,"Ġvectoriales":7803,"Ġaleatorios":7804,"Ġrequisito":7805,"Ġrevisiones":7806,"graph":7807,"ĠcompaÃ±era":7808,"Ġcambiarlo":7809,"Ġlogran":7810,"Ġafectan":7811,"Ġinteractuando":7812,"Ġorientados":7813,"Ġmultiplica":7814,"Ġvirtudes":7815,"seguridad":7816,"Ġandina":7817,"ĠtemporizaciÃ³n":7818,"ĠclaÃºs":7819,"Ġargumento":7820,"Ġliberal":7821,"Ġdesarrolladas":7822,"tella":7823,"Ġavanzar":7824,"Ġoportuna":7825,"Ġpriorit":7826,"Ġescuchando":7827,"ĠmÃºltiple":7828,"Ġadecuado":7829,"Ġincorpora":7830,"Ġmanejamos":7831,"Ġinvolucran":7832,"Ġmonitores":7833,"ĠdemostraciÃ³n":7834,"Ġbotella":7835,"Ġdesean":7836,"Ġsueldos":7837,"Ġpudieran":7838,"Ġdefiniciones":7839,"ĠenseÃ±aron":7840,"ĠimpresiÃ³n":7841,"cronas":7842,"Ġexperimento":7843,"cripciÃ³n":7844,"Ġcoordinan":7845,"Ġestandarizados":7846,"Ġentrevistas":7847,"ĠfactorizaciÃ³n":7848,"Ġpierden":7849,"ĠgeogrÃ¡ficamente":7850,"Ġreservadas":7851,"Ġcertificados":7852,"Ġconstruyen":7853,"ĠexclusiÃ³n":7854,"Ġconcurrente":7855,"Ġiterativa":7856,"Ġavanzando":7857,"Ġavanzada":7858,"ĠendeudÃ©":7859,"ĠcÃ¡maras":7860,"ĠheurÃŃsticos":7861,"ĠcercanÃŃa":7862,"Ġprimitivo":7863,"Ġreflejan":7864,"Ġtradicional":7865,"ĠintervenciÃ³n":7866,"Ġintervenir":7867,"Ġequitativa":7868,"Ġrecomendaciones":7869,"Ġincidentes":7870,"Ġhosp":7871,"Ġaconse":7872,"Ġpelea":7873,"Ġelevado":7874,"ĠcontraseÃ±a":7875,"Ġatacantes":7876,"Ġliterario":7877,"Ġmezclar":7878,"Ġeconomistas":7879,"Ġadelantado":7880,"Ġconsonante":7881,"Ġpacientes":7882,"Ġrazonamiento":7883,"Ġlegislativo":7884,"Ġkilova":7885,"Ġprofunda":7886,"Ġretorno":7887,"Ġpedidos":7888,"Ġdupl":7889,"Ġversus":7890,"ĠmercancÃŃas":7891,"Ġsuprema":7892,"Ġalumnos":7893,"Ġinterbloqueo":7894,"Ġproducidos":7895,"Ġtraslad":7896,"Ġmaestro":7897,"ĠimportantÃŃsimo":7898,"ĠjurisdicciÃ³n":7899,"ĠvehÃŃculo":7900,"Ġrecomienda":7901,"Ġbarbero":7902,"Ġensayo":7903,"Ġcofactores":7904,"ĠalemÃ¡n":7905,"Ġcaracteristicas":7906,"Ġsobrecarga":7907,"usuario":7908,"Ġpizza":7909,"Ġenferm":7910,"Ġpartners":7911,"Ġethernet":7912,"++":7913,"11":7914,"198":7915,"50":7916,"au":7917,"ay":7918,"dÃ³nde":7919,"ey":7920,"gente":7921,"giere":7922,"hip":7923,"lite":7924,"ment":7925,"ng":7926,"nic":7927,"rÃŃan":7928,"sem":7929,"utos":7930,"uera":7931,"vas":7932,"Ġeres":7933,"Ġegres":7934,"ostu":7935,"Ġlar":7936,"ĠlÃ¡":7937,"Ġluch":7938,"Ġcaj":7939,"Ġcientos":7940,"orar":7941,"ĠmÃºs":7942,"and":7943,"Ġunido":7944,"Ġintan":7945,"ÃŃgenes":7946,"Ġhum":7947,"Ġcoprocesador":7948,"Ġrel":7949,"ĠpartÃŃ":7950,"ĠtÃ¡c":7951,"Ġthen":7952,"cionada":7953,"usiones":7954,"Ġcubre":7955,"terales":7956,"lez":7957,"Ġpertin":7958,"Ġgol":7959,"Ġgpr":7960,"ĠdirÃ¡":7961,"Ġsubr":7962,"Ġsugiere":7963,"Ġmetodos":7964,"Ġcomprend":7965,"ĠserÃŃan":7966,"Ġdesorden":7967,"imestr":7968,"Ã¡stica":7969,"Ġactos":7970,"Ġacostu":7971,"Ġoraciones":7972,"ĠleÃŃ":7973,"Ġresol":7974,"Ġrestruc":7975,"Ġprocesa":7976,"torsion":7977,"alizaciones":7978,"tart":7979,"rill":7980,"Ġmagn":7981,"Ġinformal":7982,"Ġinstante":7983,"Ġvariantes":7984,"Ġcay":7985,"ĠbasÃ¡ndose":7986,"wareho":7987,"vertidas":7988,"Ġpref":7989,"empres":7990,"Ġtratamos":7991,"Ġorganizan":7992,"Ġproductivo":7993,"Ġidio":7994,"uras":7995,"Ġrespet":7996,"Ġregistrado":7997,"lantes":7998,"omor":7999,"mbo":8000,"mej":8001,"Ġpresentando":8002,"Ġordenar":8003,"emento":8004,"Ġlenguas":8005,"Ã³gico":8006,"Ġposiblemente":8007,"ĠpetrÃ³":8008,"ability":8009,"xionar":8010,"Ġsignificativo":8011,"Ġidentificado":8012,"Ġparticiones":8013,"Ġintegrado":8014,"jate":8015,"Ġguber":8016,"Ġejecutarlo":8017,"Ġimplementan":8018,"tizaciÃ³n":8019,"Ġaccesos":8020,"Ġminutos":8021,"canz":8022,"Ġcomparable":8023,"ĠderivaciÃ³n":8024,"Ġpodria":8025,"Ġincremente":8026,"Ġrombo":8027,"Ġlecturas":8028,"Ġauditores":8029,"ĠÃºnicas":8030,"Ġautovalores":8031,"Ġprofesores":8032,"Ġsencillez":8033,"Ġrenunci":8034,"Ġdescriptivo":8035,"ĠmicroeconomÃŃa":8036,"Ġtuvimos":8037,"Ġrecorrer":8038,"ĠsÃ©p":8039,"Ġkey":8040,"Ġencuentren":8041,"Ġreflexionar":8042,"Ġrealice":8043,"Ġrevistas":8044,"Ġocurrido":8045,"Ġafecten":8046,"Ġproporcionados":8047,"Ġorienta":8048,"Ġjuan":8049,"Ġgustan":8050,"Ġdesarrollador":8051,"ĠaportaciÃ³n":8052,"ĠsolicitÃ³":8053,"Ġinterrump":8054,"Ġeleg":8055,"Ġtransformado":8056,"Ġacepta":8057,"Ġpropiamente":8058,"Ġviven":8059,"Ġcoloc":8060,"ĠconversiÃ³n":8061,"Ġconductas":8062,"Ġ27000":8063,"ysql":8064,"Ġelaborados":8065,"Ġregularmente":8066,"Ġadecuadamente":8067,"Ġprivada":8068,"Ġespecialistas":8069,"Ġincorrec":8070,"Ġesperado":8071,"Ġreunir":8072,"Ġranuras":8073,"Ġconsumi":8074,"Ġdeseos":8075,"ĠpudiÃ©ramos":8076,"Ġsangre":8077,"Ġvisuales":8078,"ĠenseÃ±an":8079,"Ġcolaborar":8080,"Ġcorrela":8081,"Ġinalcanz":8082,"Ġemita":8083,"Ġmanualmente":8084,"Ġimpresora":8085,"Ġexige":8086,"Ġapuntadores":8087,"Ġcomplementarios":8088,"Ġexcelente":8089,"ĠimaginÃ©monos":8090,"ĠfÃŃjate":8091,"Ġcuarto":8092,"ĠvendrÃŃan":8093,"Ġargumentativa":8094,"Ġesfuerzos":8095,"Ġhalf":8096,"Ġmercantiles":8097,"Ġremueve":8098,"Ġoficinas":8099,"Ġdesventaja":8100,"Ġsensible":8101,"ĠperiÃ³dicos":8102,"Ġhabiamos":8103,"Ġfijarse":8104,"Ġinconsistencias":8105,"ĠviolaciÃ³n":8106,"Ġdemasi":8107,"Ġcompromete":8108,"Ġasimismo":8109,"Ġbrindan":8110,"Ġestablecidas":8111,"ĠpagÃ³":8112,"Ġrecomend":8113,"Ġjuegan":8114,"Ġexponente":8115,"Ġconsonancia":8116,"Ġcdma":8117,"Ġframework":8118,"Ġhipotec":8119,"ĠdescentralizaciÃ³n":8120,"Ġburgu":8121,"gonal":8122,"Ġabarca":8123,"ĠsatÃ©lite":8124,"Ġeurop":8125,"Ġdedican":8126,"archivo":8127,"Ġbioinform":8128,"ĠsecretarÃŃa":8129,"Ġmutua":8130,"ĠbiolÃ³gicos":8131,"Ġaleatoriamente":8132,"ĠdÃ³lares":8133,"Ġalfab":8134,"Ġlevel":8135,"Ġmadurez":8136,"Ġprocessing":8137,"ĠreproducciÃ³n":8138,"gestiÃ³n":8139,"Ġelementales":8140,"Ġcoaxial":8141,"control":8142,"Ġdespliegue":8143,"Ġsemiestructurados":8144,"Ġrecurrir":8145,"Ġintang":8146,"ĠpetrÃ³leo":8147,"Ġgubernam":8148,"ĠbioinformÃ¡tica":8149,"''":8150,"ati":8151,"auto":8152,"bx":8153,"cache":8154,"fun":8155,"figu":8156,"gl":8157,"glos":8158,"luye":8159,"mentaciÃ³n":8160,"nb":8161,"neces":8162,"ot":8163,"oth":8164,"pma":8165,"ped":8166,"sen":8167,"tarios":8168,"Ġdadas":8169,"Ġdom":8170,"Ġdeep":8171,"ĠpÃŃxeles":8172,"ervi":8173,"Ġstora":8174,"Ġsgsi":8175,"esos":8176,"cid":8177,"tooth":8178,"Ġlamenta":8179,"Ġenco":8180,"alor":8181,"reciendo":8182,"Ġnervi":8183,"Ġvelar":8184,"taba":8185,"istic":8186,"Ġsepa":8187,"mper":8188,"ÃŃsimo":8189,"Ġcog":8190,"Ġretribu":8191}