#version: 0.2 - Trained by `huggingface/tokenizers`
Ġ e
d e
Ġ de
o s
Ġ l
e n
Ġ p
Ġ c
Ġ s
e r
c i
Ġ a
e s
o n
a r
q u
o r
a s
Ġe s
t e
qu e
u n
t o
Ġ m
Ġ que
a n
t i
Ã ³
t r
a d
Ġl a
i n
Ġ y
a l
Ġe n
Ġ un
r e
Ã³ n
Ġe l
Ġ d
Ġ n
ci Ã³n
t a
Ġ v
č Ċ
i c
i s
Ġc on
Ġs e
m p
Ã ¡
Ġ o
Ã Ń
Ġp r
Ġ in
d o
a m
Ġ h
Ġc o
Ġl os
Ġ re
Ã ©
a ciÃ³n
i en
Ġ f
Ġpr o
t os
Ġp ar
x to
e c
ci on
Ġun a
te xto
i d
Ġ t
l o
a b
Ġl as
l e
Ġp or
u s
m o
a c
Ġn o
Ġpar a
u e
i z
Ġ b
r es
t er
Ġa l
m en
m a
Ġs i
m os
Ġl o
Ġc u
c es
Ġes t
Ġde l
o l
u r
Ġm e
d i
Ġ ti
Ġp er
ad o
cion es
ti v
u c
Ġ g
Ġ tr
Ġt en
j e
b i
Ġd i
c u
Ġ i
Ġ to
an do
g o
id ad
Ġs u
ar i
Ġco mp
Ġco mo
ti c
Ġ E
ad a
Ġp ue
ic a
Ġs er
Ġd a
ci a
Ġ us
l a
ad or
t es
tr o
ÃŃ a
or m
Ġs on
t en
Ã º
e mos
am os
Ġde s
o de
de n
en te
Ã¡ s
Ġ 1
Ġti en
g u
is te
qu i
d a
Ġda tos
de s
er a
Ġs o
Ġh a
g r
Ã ±
al es
Ġa c
Ġe x
Ġest Ã¡
ien to
t ar
i m
i r
Ġ ta
Ġh ac
i v
u es
Ġe mp
a j
t on
Ġl e
tr a
Ã© n
Ġd is
m in
t or
ton ces
Ġ or
ad os
Ġy a
f ic
Ġn os
Ġo b
i ci
tr os
Ġin ter
t an
Ġpro ces
Ġ (
Ġ res
al iz
Ġa p
re c
Ġes ta
t u
t ur
men te
Ġs iste
s i
Ġin f
Ġ C
Ġa n
u l
Ġm Ã¡s
i b
i a
Ġde b
Ġtien e
Ġy o
Ġ L
Ġm an
Ġo p
id a
d ad
tr uc
bi Ã©n
er o
Ġv a
Ġ S
Ġes te
i l
tr e
t as
Ġpue de
Ġ te
Ġde ci
Ġm a
c e
Ġ r
s on
Ġta m
Ġus te
Ġ A
er en
Ġinf orm
Ġper son
Ġtam biÃ©n
d os
Ġper o
Ġco m
l es
am ente
Ġemp res
Ġp ode
Ġpor que
gr am
Ġ P
je mp
Ġten emos
Ġin s
ec es
Ġen tonces
Ġcon s
Ġa r
Ġtr ab
Ġ u
Ġv er
Ġi mp
Ġc l
Â ¿
Ġtrab aj
jemp lo
ar e
Ġ 2
i g
ti l
Ġhac er
l os
Ġh ab
Ġsiste ma
Ġcu ando
r a
s e
or ma
Ġes o
Ġe jemplo
Ġv ari
Ġha y
Ġ qu
g an
ÃŃ s
Ġ D
r o
Ġc a
Ġf un
tiv o
Ġinform aciÃ³n
i o
Ġ 3
m or
d uc
p os
Ġm is
p o
Ġen tre
Ġre c
i t
Ġ Â¿
m as
Ġa h
Ġe j
tur a
en ta
Ġd ic
Ġm en
Ġb as
Ġu til
ec u
g un
Ġ I
Ġg r
f eren
m b
Ġm i
tic a
Ã© s
Ġcon tr
tiv os
Ġpro gram
b le
n o
Ġc ada
qu ÃŃ
or es
Ġes p
Ġdeci r
o y
Ġ 5
Ġn eces
Ġv al
o tros
Ġ 4
v er
ic o
w are
Ġre g
Ġc ar
m i
Ġm ode
de r
e mp
i Ã³n
Ġa s
Ġnos otros
an s
Ġp o
Ġme mor
Ġutil iz
Ġv amos
am iento
Ġp re
Ġempres a
uc h
e l
Ġtr ans
Ġg en
e z
al mente
Ġf in
Ġob je
Ġto do
g n
l ar
Ġes to
c o
Ġej ecu
g a
an te
Ġs us
Ġp a
Ġor gan
Ġuste d
Ġins truc
Ġa quÃŃ
or a
r i
Ġc Ã³
Ġtr a
men to
Ġpode r
Ġmemor ia
l ic
Ġes a
Ġme di
Ġc or
ĠE n
Ġ 6
u m
Ġcontr ol
un to
ad as
ari o
T E
Ġ M
on de
ida des
Ġm o
ĠE s
u y
Ġf orma
Ġpro duc
Ġm uch
ien te
Ġs ol
Ġten er
tic as
Ġdeb e
c on
Ġ 8
ci p
f t
Ġgen er
Ġ 9
Ġproces o
i er
Ġc as
Ġes e
Ġcu al
Ġ j
Ġorgan iz
Ġdi rec
Ġpar te
en cia
Ġdi feren
ĠestÃ¡ n
Ġp as
T O
Ã± o
n tro
Ġs in
ft ware
a je
ar r
Ġc os
ab le
Ġ T
g ar
Ġin c
f ica
n a
Ãº n
qui er
Ġqu Ã©
Ġca p
Ġpr im
p er
Ġ 7
Ġdic e
arr ol
Ġman era
Ġd os
Ġcom un
Ã¡ l
Ġre p
Ġp os
Ġc am
tiv a
m iento
on es
Ġimp or
i do
Ġd onde
Ġc re
Ġn iv
Ġto dos
Ġde ntro
Ã¡ n
Ġser v
d as
l aciÃ³n
Q u
Ġpro p
Ġl le
Ġme j
Ġdes arrol
ÃŃ n
Ġ1 0
Ġv oy
Ġes c
Ġn ues
ta ciÃ³n
ien do
Ġre aliz
ador es
Ġso b
ti r
Ġb ien
ci o
Ġres p
Ġa u
u en
Ġso ftware
Ġcon o
f in
i fic
X TO
TE XTO
r en
tr as
Ġten go
ĠL a
ien tos
Qu Ã©
l as
Ġun o
in cip
tan te
ur s
Ġ U
lo g
Ġcomp u
Ġop era
cion al
Ġti po
t al
v i
Ġreg is
Ġpr incip
men tos
a ciones
Ġa d
l am
Ġperson as
ĠE l
ci al
ce p
l an
Ġn Ãº
ter min
Ġb us
Ġpro ble
t ador
ci as
ec to
Ġmej or
Ġpue den
ti tu
Ġel e
Ġus u
ue go
p en
ti n
Ġcl as
Ġs ab
Ġes tos
Ġ R
Ġse a
Ġniv el
h o
Ġcam bi
Ġserv ici
Ġs al
Ġv an
Ġtien en
d ar
Ã© r
te c
Ġde termin
Ġse g
Ġo tro
Ġsob re
tic o
Ġtrabaj o
Ġuste des
Ġbas e
Ġde fin
Ġc ic
v e
Ġre d
o m
Ġin g
Ġre la
f ici
l ec
Ġper mi
es ti
Ġcas o
m ac
Ġsi gn
Ġl lam
m e
Ġd o
Ġal mac
ica ciones
ari os
Ġma y
Ġrec urs
Ġre qu
i ta
Ġa b
Ġti emp
Ġpr es
Ġt an
Ġ N
Ġah ÃŃ
p ar
en tes
Ġb uen
Ġor den
si Ã³n
Ġperson a
Ġv is
Ġ O
Ġl en
Ġes truc
min is
Ġal gun
Ġl uego
v is
Ġap lic
Ġval or
ic as
Ġsiste mas
Ġalmac en
Ġv en
ic os
Ġs en
Ġex p
er c
Ġprogram a
Ġpro y
ti dad
al idad
Ġhac e
Ġtiemp o
Ġlen gu
Ġcomun ic
ĠnÃº m
Ġv ez
mp l
t ado
Ġinstruc ciÃ³n
Ġde rec
ab les
Ġmis mo
Ġmode lo
ci l
Ġdis e
Ġmay or
mp le
Ġcompu tador
Ġcic lo
Ġun idad
bi l
Ġe qui
Ġal go
ib u
Ġm ues
j o
ti en
pos i
Ġcon j
u di
tor es
gu al
Ġin te
Ġo tra
Ġpode mos
Ġesp e
Ġm uy
Ġ B
Ã³ g
log ÃŃa
al ab
ĠI n
Ġgr an
v en
as ta
Ġah ora
l ig
Ġcon cep
cu en
Ġas ÃŃ
Ġrecurs os
er os
Ġop er
Ġm Ã©
tr ibu
Ġac tiv
Ġest ado
Ġte c
Ġ Ã¡
Ġimpor tante
Ġf u
Ġrep res
Ġad minis
c a
is is
Ġn e
di go
cu er
Ġdes de
z a
Ġp on
Ġa y
is ten
Ã¡ c
Ġhab l
Ġes os
Ġpue do
i or
m Ã¡
Ġ V
ĠEn tonces
ÃŃ as
Ã¡l isis
ti fic
Ġcomp on
Ġproces os
v al
Ġn orm
Ġconj unto
Ġh asta
Ġ H
Ġp alab
p on
E n
ien tes
Ġcu enta
im iento
tr ar
Ġres ul
i fica
Ġay u
Ġest as
Ġrequ er
Ġ qui
Ġinc l
Ġest ar
Ġe con
c ar
Ġfun cion
Ġsol u
f ec
Ġp lan
Ġcomunic aciÃ³n
ac ter
c h
d u
Ġv e
Ġc an
ue v
Ġi gual
ĠcÃ³ mo
Ġ Ã©
ĠcÃ³ digo
Ġs ÃŃ
Ġfin an
Ġinstruc ciones
Ġdiferen tes
Ġp e
Ġde pen
ac ciÃ³n
Ġn uev
Ġan Ã¡lisis
Ġorganiz aciÃ³n
Ġdis posi
ab il
) ,
i to
Ġsu b
Ġo tros
Ġre f
Ġdesarrol lo
Ġlengu aje
Ġcap a
Ã© c
Ġan aliz
Ġi den
Ġto m
Ġdirec ciÃ³n
Ġcon f
0 0
Ġvari able
ta mente
d r
qui tec
Ġcar acter
t ados
Ġsi gu
Ġto das
Ġcons titu
Ġespe ci
bil idad
i os
Ġre laciÃ³n
Ġf orm
er r
Ġ G
Ġmen s
Ġproble ma
en do
Ġti pos
Ġempres as
Ġi de
Ġseg ur
in a
ÃŃs ticas
d an
Ġtra v
e a
Ġes as
Ġin d
Ġproy ecto
ar a
Ġm Ã¡
da des
ci dad
Ġl ÃŃn
Ġv eces
Ġsi mple
Ġtrav Ã©s
quier e
Ġma tr
ĠmÃ© to
Ġest udi
ĠC on
E s
Ġ Y
Ġesta mos
Ġel los
Ġdeb en
l ti
Ãº lti
ĠL os
Ġc ier
tiv as
Ġfinan ci
Ġtan to
in g
ten er
Ġele mentos
Ġin ici
Ġtec no
si ones
im ientos
Ġe r
Ġin ver
ĠP or
Ġval ores
i ciÃ³n
n os
ĠnÃºm ero
Ġle y
Ġse gun
Ġcomp le
Ġdo cu
aliz aciÃ³n
emp re
Ġsign ifica
Ġab s
Ã©c n
Ġfun ciÃ³n
Ġusu ario
Ġus o
Ġl ib
ar se
ÃŃs tica
Ġe t
v id
Ġsi empre
Ġi r
Ġap l
mb re
i e
m is
Ġp ol
Ġin v
Ġbuen o
Ġap ren
u p
ues to
Ġvari ables
Ġejecu ciÃ³n
Ġcos as
Ġar quitec
um an
Ġcono ci
Ġdise Ã±o
Ġ Ã³
Ġta b
Ġing res
Ġp unto
Ġf ac
Ġal g
Ġh an
Ã± os
Ġservici os
Ġt Ã©cn
Ġlle v
Ġcon ta
Ġet c
iz aciÃ³n
Ġiden tific
Ġemp le
Ġb Ã¡s
Ġto da
Ġc en
ci os
ĠÃ¡ re
c ri
Ġesc ri
Ġrealiz ar
Ġ F
Ġcu mpl
Ġgener al
Ġse Ã±
Ġopera ciones
is ta
m an
Ġe cu
Ġa de
Ġtrabaj ar
ĠS e
Ġpo b
f er
Ġinte gr
Ġcompon entes
h a
Ġcon si
cu encia
Ġmo mento
ĠU n
Ġestruc tura
? ,
ci r
Ġm erc
Ġh uman
Ġdes p
Ġpro ce
Ġl es
er v
Ġn a
j a
Ġest ad
err am
id os
Ġregis tro
erram ien
Ġo tras
Ġc ien
Ġs Ã³
Ġman e
Ġdi a
Ġcon tra
tan cia
Ġmen os
Ġrequer imientos
Ġl Ã³g
Ġobje tivo
Ġejecu tar
Ġpar ti
Ġsin o
Ġa cuer
Ġv ien
Ġt are
abil idad
Ġd in
Ġaplic aciÃ³n
an tes
Ġob lig
Ġnues tro
Ġpermi te
Ġservici o
p or
Ġm un
Ġproces ador
Ġmedi o
Ġsu per
Ġt al
i as
m ientos
ÃŃ amos
ib le
Ġv i
Ġmuch o
Ġen cuen
Ġcon di
Ġalgun a
Ġmedi ante
Ġpol ÃŃ
x i
Ġh erramien
Ġne go
Ġen tr
ue l
T e
Ġcl iente
Ġcan tidad
Ġsegur idad
Ġer r
en s
m ul
que l
Ġre almente
Ġprim ero
Ġclas e
l ado
ci endo
Ġel ec
Ġtecno logÃŃa
Ġnues tra
Ġcual quier
Ġm on
Ġabs tr
Ġp la
C u
b a
Ġa quel
Ġmatr iz
Ġ Ãºlti
Ġd ur
tic os
Ġrela cion
ĠÃ© l
P U
bi r
Ġex isten
E l
Ġ =
Ġc al
Ġd ar
cu lar
Ġnorm as
Te xto
tien e
Ġproce di
ti z
Ġsab er
Ġ -
ti do
Ġutiliz ar
Ġmues tra
Ġdisposi tivos
ĠsÃ³ lo
i tos
iv os
h os
Ġso ci
Ġmuch as
Ġpalab ra
r ar
Ġarquitec tura
Ġpob laciÃ³n
Ġa si
ĠmÃ¡ qu
ces o
Ġadminis tr
Ġac tu
Ġv ida
vi amente
Ġusu arios
e b
le men
Ġacuer do
e t
ari a
Ġimp lemen
Ġhab er
Ġproble mas
om ÃŃa
or ta
Ġdia gram
Ġapl icaciones
r os
Ġf i
Ġmens aje
Ġa tribu
it al
Ġhabl amos
Ġobje tos
Ġderec ho
di fic
Ġex per
Ġneces ita
am en
ĠC PU
Ġllam a
Ġconcep to
Ġso lo
Ġha cia
Ġex iste
esti Ã³n
i ones
Ġgr u
s a
ul ti
Ġ10 0
p e
Ġde c
ol u
fic o
z o
Ġg u
Ġco l
Ġsolu ciÃ³n
f es
Ġtr es
Ġrepres enta
d in
l u
Ġ quiere
Ġm ic
Ġprim er
te g
Ġb aj
Ãº s
Ġdis tin
id as
a z
ar d
Ġde r
Ġactiv idades
c an
f orm
Ã³ m
Ġf al
ien tras
feren cia
Ġestruc tur
Ġcaracter ÃŃsticas
Ġcu r
a tor
Ġf as
ĠÃ¡re a
Ġe val
Ġcon c
Ġinter es
p a
Ġar ch
Ġproduc to
Ġder iv
r as
Ġt er
L a
p ro
Ġta ma
Ġesto y
cri p
A R
g en
o ci
Ġcomp ren
Ã©r min
Ġp ues
Ġt Ã©rmin
Ġ w
Ġcon ten
Ġrela ciones
ĠlÃŃn ea
cion ales
Ġsegun do
Ġpr Ã¡c
d iendo
Ġn orma
Ġver dad
in e
Ġj ur
Ġdetermin ar
m Ã¡s
Ġin di
Ġma ter
Ġanaliz ar
m Ã©
Ġob viamente
Ġpe que
Ġsigu iente
Ġasi gn
Ġ /
Ġpo dr
Ġmuch os
Ġcomp ar
Ġdeci siones
Ġesp a
Ġexp res
bi er
ec tos
Ġcomp e
Ġcomp orta
f o
ĠL as
Ġr en
Ġmis ma
Ġtama Ã±o
t ando
Ġc r
Ġm in
Ġpar tir
Ġinc re
Ġl ec
Ġregis tros
Ġcambi o
P or
Ġtom ar
Ġesp ec
c er
Ġe fec
Ġf a
Ġobje to
Ġprincip al
om un
er ci
Ġprop or
Ġmerc ado
Ġm Ã³
Ġ1 1
Ġproduc tos
Ġcor rec
Ġtare as
o p
on s
t ÃŃ
Ġa Ã±os
Ġm ientras
Ġf re
Ġcomputador a
Ġinv esti
j ar
Ġpro du
ĠlÃ³g ica
e d
e dad
u d
Ġm ulti
Ġqu er
Ġprogram aciÃ³n
ÃŃ d
den cia
Ġfun ciones
Ġjur ÃŃd
Ġ Ãºn
Ġincl uy
Ġcon ec
Ġutiliz a
Ġpre cio
Ġecon Ã³m
ÃŃ an
ol ver
Ġac ceso
tan tes
ific aciÃ³n
Ġrepres en
Ġh emos
Ġfin al
g os
u al
or it
tr ic
Ġconstitu ciÃ³n
ĠmÃ¡qu ina
Ġm as
ti dades
Ġin de
ter ior
Ġten ga
Ġtrans mi
Ġeval u
Ġn i
gu ir
Ġo c
ter na
Ġing en
Ġsign ific
Ġinter na
Ġm ar
Ġre ci
g aciÃ³n
Ġen tidad
Ġh ec
Ġmen or
Ġobje tivos
ĠR e
Ġecon omÃŃa
Ġdin ero
Ġde no
er s
Ġvien e
Ġno mbre
Ġesta b
Ġsol amente
Ġcre ar
v a
Ġp i
Ġsi tu
Ġcu en
Ġfun d
i mos
Ġd ÃŃa
Ġpas o
Ġoper aciÃ³n
Ġherramien tas
Ġcomporta miento
Ġresul tado
Ġadministr aciÃ³n
Ġatribu tos
omun icaciones
Ġopera tivo
Ġfac tores
Ġcen tr
r ib
Ġf ÃŃs
Ġte lec
Ġpa ÃŃs
Ġau to
Ġes tra
ab a
Ġclas es
Ġsen cil
Ġindi vid
Ġn um
Ã¡ les
iv o
Ġperson al
Ġ2 0
Ġpos i
Ġequi po
Ġob tener
Ġ 0
it mÃ©
ez a
Ġpon er
Ġalg orit
Ġconsi der
d ic
cion ar
Ġdis c
ver s
Ġlle gar
un que
Ġpro fes
Ġ [
Ġhac en
Ġcl ar
Ġm al
Ġcor res
Ġalmacen amiento
Ġp un
ti m
B R
ĠC o
a cional
Ġen con
Ġf lu
Ġsi r
Ġar itmÃ©
Ġproduc ciÃ³n
ĠmÃ©to dos
Ġcapa cidad
Ġcondi ciÃ³n
Ġc alidad
Ġen car
ĠmÃ©to do
Ġentr ada
aj es
Ġpo co
me di
f ac
u er
Ġf ue
Ġdeb emos
Ġderec hos
Ġtab la
h ora
l ante
Ġgr Ã¡
Ġgran des
e as
Ġh o
ĠestÃ¡n dar
Ġqui ero
Ġve lo
d iente
Ġse cuencia
Ã¡ p
ib les
b o
Ġcu an
Ġtelec omunicaciones
iz ar
Ġha ciendo
Ġbien es
Ġprocedi mientos
Ġau di
ĠnÃºm eros
pro ces
Ġdeci siÃ³n
Ġma te
Ġcuen tas
u gar
Ġde man
Ġ1 9
Ġres tric
Ġcom b
Ġespec ÃŃ
Ġg estiÃ³n
Ġprim era
Ġrealiz a
Ġarch ivos
Ġestab lec
o g
Ġn ada
Ġcon tiene
Ġre gu
Ġpro to
tic amente
Ġfund amen
u Ã©s
Ġs a
Ġa g
Ġto ma
ĠC u
vis iÃ³n
Ġecu aciÃ³n
e x
ter a
Ġresul tados
g ue
ĠD E
Ġpalab ras
Ġdeno min
Ġdes crip
Ġvari os
Ãºs que
g ur
Ġp ens
Ġen ten
Ġresp ons
Ġmic ro
e les
is tas
ĠÃºlti mo
Ġe ra
Ġse par
Ġindivid u
Ġmate mÃ¡
Ġt u
Ġg ra
cu lo
ten cia
Ġproces amiento
Ġr Ã¡p
ĠtÃ©cn icas
Ġsoci edad
Ġ texto
Ġconoci miento
t ales
Ġse c
Ã©s ta
Ġele mento
Ġgru po
Ġlec tura
i on
t ad
Ġac Ã¡
Ġle g
Ġdeb er
Ġcl ientes
ĠU na
es ta
men tar
Ġpas a
Ġna tur
p re
ul ar
Ġmun do
ard ware
ar go
Ġinform Ã¡
Ġmues tre
Ġide a
Ã³ mo
Ġf r
it s
Ġresp e
Ġestad ÃŃstica
Ġinde pen
l us
Ġdis tribu
Ġte ma
Ġide as
Ġpr ue
Ġinter Ã©s
Ġdirec ciones
Ġ W
tr an
Ġo f
Ġh oy
Ġco p
Ġr o
ig ur
Ġsal ida
Ġseg Ãºn
Ġpres en
Ġdise Ã±
Ġactiv idad
Ġa le
Ġ1 2
Ġdesarrol lar
Ġayu da
Ġsimple mente
Ġc ab
Ġen tidades
Ġcomp il
Ġtra ta
Ġdesp uÃ©s
ic amente
O N
y a
Ġal terna
iv ers
Ġman ten
Ġdiferen cia
Ġcomb in
Ġb Ãºsque
Ġprodu cir
E N
Ġre des
Ġpue da
Ġhab lar
Ġvari as
Ġmode los
Ġl ugar
Ġcap ital
Ġprincip io
Ġdiagram a
Ġmuestre o
a Ã±
re g
men taciÃ³n
ĠseÃ± al
I C
c al
Ġe fici
A N
Ã³ r
men ta
ĠA n
eren cia
ĠD e
Ġapren der
Ġs Ã©
Ġ1 6
Ġan al
ĠpolÃŃ ticas
L os
Ġpro b
Ãº b
Ġsen tido
Ġespa cio
g amos
ab or
Ġdis pon
Ġprogram as
Ġpos iciÃ³n
Ġfu er
e fici
Ġp an
am biÃ©n
ĠP ro
Ġj er
Ġespeci fic
n et
Ġm or
ol Ã³g
Ġtrans mis
Ġind ic
c le
z ar
di miento
Ġg o
ari as
Ġor ig
Ġdic en
Ġutiliz an
Ġdefin ir
Ġcentr al
A C
iste mas
A M
Ġ +
Ġc ir
Ġlo gr
Ġop ciones
Ġ3 0
Ġrec or
Ġej erci
Ġorganiz aciones
r ig
Ġsi mul
Ġdi go
ir tu
Ġpos ible
Ġniv eles
Ġun os
Ġh i
ien cia
Ġte mp
tin u
Ġconf i
i f
Ġa unque
Ġre cuer
Ġan tes
log ÃŃas
Ġllev ar
Ġfas e
Ġsignific ado
Ġrestric ciones
Ġe ta
Ġl i
Ġpa gar
ier e
Q L
x tos
ar an
en emos
er an
ol os
Ġorganiz acional
Ġneces ito
Ġb its
Ġemp ez
Ġejecu ta
Ġincl us
ĠlÃŃn eas
Ġvelo cidad
e mb
Ġvis ta
Ġfuncion amiento
Ġescri bir
Ġabstr ac
Ġl ista
Ġf Ã¡
Ġter min
b e
t Ã¡n
Ġser Ã¡
Ġda to
Ġw eb
Ġhec ho
O S
Ġa ten
Ġb an
Ġsu p
ĠP ara
Ġsolu ciones
Ġref le
Ġley es
u la
Ġa ta
Ġa mb
Ġ1 8
Ġpermi ten
Ġbaj o
Ġingen ier
Ġnatur al
Ġv enta
Ġ1 5
Ġreg las
ĠbÃºsque da
b les
ÃŃ o
tor no
Ġas oci
Ġnego cio
Ġale ator
Ġi ma
Ġinter acciÃ³n
Ġcono cer
Ġrequ is
Ġpla zo
Ġgo bier
Ġl ine
Ġp Ãºb
to do
an za
ĠS i
Ġprincip ios
Ġequi pos
ĠCu ando
t ada
Ġdepen de
Ġinici o
Ġparti cular
C Ã³mo
Ġal to
Ġsu ma
Ġex ter
Ġcor r
Ġinte lig
Ġerr ores
Ġfa cil
I N
e o
Ġcam in
Ġalg Ãºn
Ġerr or
Ġun ivers
Ġg as
Ġcos a
Ġhabl ando
ĠtÃ©cn ica
u ir
Ġc h
on o
an a
Ġcu Ã¡n
Ġcom Ãºn
Ġconcep tos
Ã¡c ter
Ġdisposi tivo
Ġidentific ar
l ica
Ġcu ales
ues ta
Ġmode lado
Ġpas os
Ġdur ante
A S
Ġ on
Ġpre gun
Ġj us
En tonces
b r
Ġg aran
Ġcomp aÃ±
Ġres olver
Ġan terior
Ġcar Ã¡cter
Ġresp ecto
Ġabstr acciÃ³n
Ġfre cuencia
proces ador
ti s
Ġd an
ĠA hora
Ġdepen diendo
Ġcambi ar
Ġsigu ientes
Ġind ica
Ġse m
Ġre vis
Ġdi vers
Ġcomp rar
Ġalmacen ar
Ġemple ados
Ġren dimiento
Ġflu jo
ĠaritmÃ© tica
im in
Ġnuev o
Ġade mÃ¡s
c en
ci ales
Ġen cu
Ġ4 0
olu ciÃ³n
Ġmater ia
Ġoc ur
Ġaudi tor
R E
Ġde u
Ġm ir
Ġpar tes
Ġme d
ĠE cu
gu ien
Ġcambi os
ĠtÃ©rmin os
Ġsitu aciÃ³n
m er
Ġcon v
Ġvis to
Ġalgun os
Ġconten ido
Ġmulti p
i ma
de ra
Ġb lo
Ġ5 0
Ġcas os
Ġnego cios
Ġa fec
Ġm ÃŃn
is mo
Ġse guir
Ġdi rig
duc ciÃ³n
Ġneces idad
Ġimpor tancia
ĠN o
Ġcier tas
Ġclar o
Ġrequis itos
Ã³n de
Ġdi fer
Ã± a
Ġneces i
Ġtra tar
Ġayu dar
Ġfuncion a
Ġconta bilidad
e p
Ġh e
Ġdeb o
Ġcos to
ĠnÃº cle
Ġcien cia
Ġexper iencia
P I
b as
Ġin ven
Ġca mp
A D
Ġre al
Ġal guien
se a
Ġtrans ac
Ġpa tr
ĠsÃŃ mb
Ġ x
Ġv ec
Ġso cial
Ġinter ac
il es
Ġcons tr
Ġcons um
Ġar ti
Ġbas es
Ġmejor ar
A L
Ġob s
Ġop ciÃ³n
Ġas p
Ġdiferen cial
me tros
j as
ic e
Ã¡ m
Ġpr on
Ġor ien
Ġinici al
Ġpropor cion
Ġtransmis iÃ³n
v o
Ġac ciÃ³n
Ġqu ien
Ġneces ario
Ġfu tur
Ġv emos
aliz ar
Ġcom ien
Ġsub s
Ġaquel los
Ġsa tis
Ġde par
Ġm ec
Ġsu pon
Ġcons ul
Ġcumpl ir
Ġcur s
Ġdepar ta
v an
Ġl ado
Ġto tal
Ġser ÃŃa
Ġprincip ales
Ġaplic ar
Ġdocu mento
Ġso por
Ġmi emb
Ġnues tros
Ġsab en
Ġinver sa
Ġdeman da
Ġins titu
Ġcumpl imiento
Ġof rec
as a
Ġpro ve
ter o
Ġcu Ã¡l
Ġcono ce
Ġdo min
Ġestudi o
Ġencu esta
Ġa mor
Ġen torno
Ġap ar
Ġtrabaj a
Ġadminis tra
Ġencon trar
l amiento
ac h
Ġest Ã©
Ġest ados
ĠS o
Ġcorres pon
Ġmanten imiento
O R
Ġd Ã³nde
Ã¡ r
Ġr az
Ġdic ho
Ġfu ente
de mos
Ġsir ve
Ġl Ã©
Ġmo do
ĠseÃ± ales
ĠlÃ© x
L as
Ġtien es
Ġap ro
Ġhacer lo
Ġ6 4
Ġencuen tran
Ġinteres es
Ġa mpl
Ġre quiere
Ġten dr
Ġutiliz ando
Ġau tor
Ġopera tivos
fici al
Ġenten der
Ġinven t
Ã ¼
Ġinter pre
Ġalgun as
Ġproy ectos
Ġel lo
tor io
Ġvis iÃ³n
uel ve
ĠfÃ¡ cil
n as
Ġac tivos
Ġar gu
Ġpas ar
Ġencuen tra
Ġelec tr
Ġejerci cio
S e
a y
Ġs ac
Ġun idades
Ġre ferencia
ec e
Ġg us
Ġdi vid
ĠmÃ¡ xi
Ġsup uesto
Ġintelig encia
Ġdifer ente
u do
en efici
Ġc i
Ġen vi
Ġel la
Ġse lec
Ġdec ÃŃa
Ġinvesti gaciÃ³n
Ġcab o
Ġobs erv
i p
i es
i al
Ġde co
Ġv Ã©r
Ġha go
ĠÃ³ r
Ġal ta
ĠIn ter
Ġtemp or
ĠEcu ador
Ġc la
Ġcon tinu
Ġesc al
Ġfinanci ero
Ġhuman os
Ġarti ficial
Ġv irtu
se gur
Ġserv id
Ġdesarrol l
tiz ar
) :
j os
u to
er ente
Ġpr Ã©sta
Ġlo cal
Ġper io
tiv idad
bi do
tu al
ĠM BR
Ġsol ici
Ġcier tos
Ġfinanci eros
Ġauto mÃ¡
am a
Ġme todo
il l
ĠSo ftware
c am
l ÃŃ
Ġdi men
ĠP ero
Ġcos tos
ĠT ambiÃ©n
Ġalgorit mo
Ġima g
Ġci u
or t
Ġse an
Ġb enefici
Ġcu l
Ġcomp r
Ġred u
Ġparti cip
Ġoblig aciÃ³n
g ado
p as
Ġ J
Ġde tal
Ġc Ã¡l
Ġa cu
te l
an o
Ġco b
Ġman tener
Ġop tim
ĠA l
Ġgener ar
ĠO r
Ġlib ro
b ol
Ġo fer
Ġsol a
Ġlib er
Ġrepresen tar
Ġalterna tivas
Ġunivers idad
m ula
Ġ X
Ġ je
Ġfun cional
Ġcar r
Ġhuman o
Ġciu dad
P ara
i ar
Ġ iz
Ġl im
in as
Ġcon texto
Ġin tro
Ġre cep
Ġte xtos
ĠD a
lic aciÃ³n
ific ar
ing Ã¼
Ġcol um
ĠtÃ©rmin o
ĠjurÃŃd ico
ĠCo mo
Ġiz quier
de d
Ġno do
di r
Ġ1 4
Ġcom er
Ġ2 5
ĠR AM
Ġqui Ã©n
ĠpolÃŃ tica
Ġderiv ada
Ġfutur o
r up
Ġh ardware
Ġal can
Ġr u
Ġcons iste
00 0
ĠÃ³ sea
Ġlogr ar
di al
Ġdi f
Ġac ep
Ġex ten
Ġesta ble
Ġr a
Ġ2 1
Ġ6 0
ĠÃ³ p
Ġvien en
tiz aciÃ³n
Ġimplemen taciÃ³n
t Ã³n
y o
os o
Ġen fo
Ġg an
ĠD es
Ġtrans form
Ġdefin iciÃ³n
ĠbÃ¡s icos
Ġoblig aciones
ĠgrÃ¡ fico
Ġempez ar
Ġ Ã©s
Ġel las
di do
ĠS I
Ġins tancia
Ġ2 2
Ġcual ita
Ġpres enta
Ġref iere
f orma
Ġl argo
er on
ti ta
Ġv iv
Ġpue dan
Ġr ad
Ġcomun icaciones
Ġmec an
g is
i mo
Ġh er
Ġh or
Ġg ente
Ġ1 3
Ġac ciones
Ġhab la
Ġ3 2
Ġbas a
mb res
ĠEs te
ĠT enemos
ĠPor que
Ġcir cu
O M
i ero
Ġno dos
Ġper ten
Ġdi g
Ġser ie
Ġbus es
Cu Ã¡l
Ġgu ar
Ġevalu ar
Ġprofes ion
Ġinclus o
ort un
f ecto
Ġt erc
Ġac ce
Ġ2 8
Ġneces idades
Ġesc uch
Ġnuev as
Ġmens ajes
Ġjer ar
Ġa gr
Ġf ab
Ġcor to
Ġprop io
Ġsegun da
Ġllev a
Cu Ã¡les
Ġestructur as
Ġcur va
Ġquer emos
Ġencar ga
ĠestÃ¡ndar es
Ġingenier ÃŃa
D D
Ġl ingÃ¼
Ġp es
ter io
jemp los
Ġah or
Ġbas tante
Ġcar pe
Ġsab emos
ĠfÃŃs ica
Ġmicro procesador
Ġelectr Ã³n
Ġofer ta
z as
Ġv iendo
Ġmis mos
Ġcal cular
Ġl ÃŃ
Ġt asa
Ġcu a
Ġap oy
Ġte le
Ġ2 3
uy e
Ġpos e
Ġsob eran
Ġefici ente
l ac
Ġp uer
or din
un tos
Ġb in
tiv amente
Ġcomp ro
ten cias
gr a
Ġop ortun
Ġva y
Ġ4 8
Ġmedi os
Ġmuch a
Ġj u
Ġcre a
Ġesc rib
Ġmun dial
S I
i Ã³
t s
Ġa Ã±o
Ġd Ã©
Ġco lo
Ġre alidad
cu l
Ġdis co
Ġtrabaj ando
Ġ2 7
Ġcontrol ar
Ġregis trar
Ġmane jar
Ġblo que
cam bi
Ġcon duc
ĠE x
si to
ĠS on
Ġ3 7
Ġ8 0
Ġcompon ente
Ġherramien ta
ĠÃºn ico
Ġprue bas
Ġgobier no
ĠlÃ©x ico
d iz
t Ã©
Ġm ÃŃ
al an
Ġh u
le x
Ġdi visiÃ³n
Ġac tivo
aj a
Ġ2 9
Ġpre ci
ĠM e
Ġcic los
Ġgran de
Ġpodr ÃŃa
Ġcop ia
c r
l io
m ar
p i
Ġ Q
Ġe mis
en se
Ġa segur
Ġd ado
Ġf on
Ġal i
Ġsi g
Ġinter cambi
Ġar reg
Ġ4 4
Ġmayor ÃŃa
ĠÃ¡re as
Ġcuan tita
ĠprÃ©sta mo
Ġjerar qu
Ġe vi
Ġcon ver
iv a
Ġap or
Ġar tÃŃ
Ġpos ibles
Ġcien cias
Ġpla ta
Ġconc re
medi a
Ġasp ectos
Ġfab r
de z
ta ciones
men t
Ġle er
Ġsab e
Ġderec ha
Ġcr Ã©
Ġsatis fac
Ġp uesto
qu es
ti on
Ġse cuen
Ġcu ad
Ġtr ad
Ġus a
Ġha ga
Ġob ten
Ġinter net
Ġproces adores
Ġmis iÃ³n
Ġmen cion
gn Ã©
Ġmo dific
Ġ7 0
Ġbus car
Ġfas es
Ġacu mul
f e
p u
s o
Ġa van
ien e
Ġme ta
Ġmedi a
Ġimpor tantes
Ġsal ir
Ġnorm almente
du lo
Ġnuev a
Ġtare a
Ġcompe tencia
Ġestablec er
Ġtransac ciones
Ġizquier da
g e
ci miento
on ar
Ġel imin
Ġb alan
cu los
Ġmode lar
Ġprocedi miento
Ġderiv adas
Ġjerarqu ÃŃa
er as
Ġca den
Ġ9 4
Ġdefin e
Ġespe cial
Ãºlti p
Ġalgorit mos
Ġpun tos
ĠcrÃ© di
Ġ |
Ġinter f
Ġr enta
Ġhab il
Ġ5 5
Ġ6 6
Ġprop ie
Ġingres ar
Ġconta ble
Ġelec tro
teg or
Ġindepen diente
I S
i ores
m s
Ġ *
Ġe dad
Ġa di
lo b
ĠS istemas
Ġver da
Ġ4 5
Ġpre par
Ġ9 0
Ġdirec tamente
Ġrep e
Ġdocu mentos
Ġincluy e
Ġsencil lo
Ġregu lar
Ġcarr era
Ġfabr ic
Ġ k
Ġe v
Ġin ten
aj o
Ġr ol
Ġrec og
Ġ5 1
ĠEs ta
Ġcre aciÃ³n
Ġindividu os
ĠnÃºcle o
I n
Ġp lante
Ġs ur
ci do
Ġm Ãºltip
Ġen v
Ġpr ior
Ġb ib
da p
Ġinter nos
ĠP C
Ġ4 3
Ġpa go
ĠM AR
Ġpon e
Ġecu aciones
Ġdiagram as
Ġcorrec to
Ġfundamen tales
Ġanal ÃŃ
Ġnatural eza
Ġpron to
Ġdeparta mento
Ġdeco dific
Ġbib lio
Ġc ach
am il
Ġsu je
tan cias
Ġan te
Ġ5 7
tin g
Ġven der
Ġcien tÃŃ
Ġcamin o
Ġbiblio tec
E S
g er
Ġe mb
Ġm es
Ġtrans ferencia
co lo
Ġ8 1
Ġcapa ci
Ġform as
Ġinver siÃ³n
Ġade cu
Ġcontra to
Ġdistin tos
Ġtransmi tir
i tar
an os
Ġen se
Ġt Ãº
Ġ5 3
Ġrealiz aciÃ³n
Ġtab las
Ġestra teg
Ġcua tro
diz aje
d ro
m bi
r an
Ġ ,
Ġc er
is mos
Ġf or
Ġ1 7
gram a
Ġ3 1
Ġ3 6
Ġcontr ario
Ġcomun ica
Ġ10 1
Ġcomputador as
tien do
Ġdocu mentaciÃ³n
Ġevalu aciÃ³n
Ġorig en
Ġgas tos
b lo
Ġel abor
is tir
Ġt ÃŃ
Ġg erente
Ġempres ari
Ġ3 3
Ġ3 5
Ġ5 8
Ġ9 9
ĠT o
Ġcompu taciÃ³n
Ġllam ado
Ġalmacen a
Ġrequer imiento
Ġconc lus
Ġexpres iÃ³n
ĠmÃ³ v
Ġpan tal
Ġeta pas
Ġsem Ã¡n
Ġmed ida
Ġdomin io
Ġamor tizaciÃ³n
L O
U n
l ico
ci ar
Ġes que
is t
Ġh il
Ġh erencia
la z
im on
Ġmemor ias
Ġinc or
Ġclas ificaciÃ³n
Ġdin Ã¡m
Ġsuper ior
Ġvi mos
Ġpi la
Ġdisc urs
Ġsoberan ÃŃa
Ġc ri
ĠS O
Ġcons e
Ġprogram ador
Ġreg res
Ġ9 3
Ġven tas
Es te
Ġproto colo
Ġespecific aciÃ³n
Ġdeu das
y ec
Ġ $
Ġm u
Ġhac emos
Ġpode res
ÃŃs tico
Ġ4 9
Ġmode lamiento
Ġsin t
Ġ7 3
Ġllam ada
Ġgru pos
ĠprÃ¡c ticamente
ĠÃºn ica
Ã ĵ
Ġa dap
Ġf il
Ã± ad
Ġ5 4
Ġ7 1
Ġprop Ã³
Ġfinanci era
Ġmane j
Ġrecuer den
Ġcamp o
Ġcomien za
c os
g ada
de o
Ġc ero
am e
Ġt ales
iz a
Ġcu mple
Ġten ÃŃa
Ġus ar
iste ma
ĠA r
ĠD is
Ġ5 2
Ġ5 6
Ġ6 5
Ġ8 8
Ġnuev os
Ġtecno logÃŃas
Ġingres o
Ġdur o
ĠprÃ¡c ticas
h er
i bilidad
t adas
y s
er ÃŃa
ac le
Ġ9 2
Ġinv ol
ĠsÃŃmb olos
Ġmiemb ros
Ġcach Ã©
M A
p s
p onde
Ġe jemplos
qu Ã©
Ġcon tador
Ã¡ g
Ġin media
Ġf amil
Ġten iendo
Ġgr ado
Ġgener almente
Ġlengu ajes
Ġapl ica
Ġocur re
Ġconsum id
Ġraz Ã³n
Ġrecep tor
Ġsint Ã¡c
f i
i ales
v or
Ġde tec
Ġde ud
Ġf Ã³r
ec en
ec er
cion amiento
Ġr ies
Ġca tegor
mb r
Ġ4 1
Ġele g
Ġayu dan
Ġcier to
Ġapren dizaje
Ġcen tro
Ġag re
Ġpresen tar
Ġinterf az
Ġa Ã±ad
ec ha
Ġcu Ã¡les
fic os
Ġ4 7
lic ar
ĠT I
Ġresp al
Ġplan o
abil idades
Ġconf orm
Ġintegr aciÃ³n
Ġcompren der
Ġfa vor
ed ores
Ġcuan to
mer g
Ġbibliotec a
Ġe fica
Ġv ol
Ġac re
Ġemp i
ici o
Ġ2 4
Ġ9 5
ĠH ay
Ġdistin tas
Ġprue ba
Ġline al
Ġacce der
u til
y tes
Ġc able
mp uto
Ġpr iv
Ġre un
ma gnÃ©
tur as
ĠA c
ĠA quÃŃ
Ġgen era
Ġgener aciÃ³n
uen o
ĠO p
Ġoper adores
Ġconf igur
olÃ³g ico
Ġelectro magnÃ©
Ġinvol uc
C on
E X
s ÃŃ
t adores
Ġ K
en er
Ġc in
Ġv o
Ġor din
Ġinter con
Ġan o
ĠL O
Ġcons tante
Ġ8 2
Ġ7 2
Ġrealiz an
Ġdetermin ado
Ġade lante
Ġsoci ales
ĠmÃ³ dulo
ex iÃ³n
Ġdescrip ciÃ³n
ĠrÃ¡p ido
ĠpÃºb lico
Ġjus tamente
ĠcrÃ©di to
imon io
i tu
Ġpr Ã³
Ġpar Ã¡
Ġcons u
Ġ6 1
Ġ8 4
Ġadminis trar
gen es
Ġcorres ponde
Ġrecor demos
Ġrad io
dro id
l ib
t Ãº
Ġde v
Ġde mos
er ra
Ġse gu
Ġg ig
si on
Ġu b
Ġ5 9
Ġ4 6
Ġgener alizaciÃ³n
Ġmej ores
Ġdefin ido
Ġbuen a
Ġmane jo
ĠpaÃŃs es
medi o
Ġdenomin a
Ġrespons abilidad
Ġje fe
Ġemis or
p ora
Ġe merg
Ġes co
ue le
Ġinter rup
Ġ2 6
Ġ7 8
Ġcondi ciones
Ġaquel las
ĠinformÃ¡ tica
ĠmÃ¡xi mo
ĠQ ue
l en
Ġv ul
Ġre cu
Ġf igur
Ġpro teg
Ġest an
Ġins tal
Ġ3 4
Ġ3 9
Ġpre cios
Ġ6 2
Ġproduc e
Ġplan e
Ġplan ific
ing Ãºn
Ġer an
ĠbÃ¡s ico
Ġimplemen tar
Ġfundamen tal
Ġeta pa
Ġmir en
Ġvec tor
ĠDa ta
Ġrepe ti
Ġemb argo
ĠpropÃ³ sito
ĠprÃ³ xi
ci ente
Ġcon ven
Ġt es
Ġdes e
Ã± ar
ÃŃs ticos
Ġ4 2
Ġ6 3
Ġ8 5
Ġcre o
ĠH D
Ġconstitu y
Ġencon tr
ĠespecÃŃ fico
Ġaleator io
Ġservid or
Ġhil os
S i
Ġc err
Ġes en
un d
ti ma
Ġen tero
Ġh ora
Ġno taciÃ³n
Ġres to
tu ar
il ar
Ġ3 8
ĠI N
Ġ6 9
Ġ8 9
Ġcap taciÃ³n
Ġmon i
Ġefec tivo
Ġexter nos
Ġredu cir
Ġbalan ce
L A
c olos
k e
t z
x is
Ġp udi
Ġm ill
Ġque da
an dos
Ġen tien
Ġf echa
le v
uc e
ici os
Ġqu iz
Ġneces arios
Ġtrans acciÃ³n
ĠcÃ³ mputo
Ġ6 7
Ġ9 1
lam en
Ġvis u
Ġcomer cial
Ġdiscurs o
L E
b ien
t Ã³
Ġde mÃ¡s
Ġde bido
Ġre util
le g
di fica
Ġdes ti
Ġdes emp
Ġinf er
Ġcons truc
Ġmen Ãº
Ġmi de
Ġcar din
Ġ8 3
Ġ8 7
Ġ9 8
Ġ7 9
Ġprop ia
Ġequi lib
ĠmatemÃ¡ ticas
d ientes
i Ã©n
i rec
Ġe di
Ġes tim
Ġn ingÃºn
ic h
Ġpro v
Ġpar al
den es
Ġreg lamen
Ġpre dic
Ġ6 8
Ġ9 7
Ġdetermin ada
Ġven ded
Ġoper ando
Ġintegr idad
Ġincre mentar
Ġpens ar
Ġcombin aciones
ĠÃ³r denes
Ġdif ÃŃ
d ul
h e
Ġ ]
Ġc el
ad ie
Ġn adie
Ġh iz
Ġcu o
Ġg esti
Ġex tra
ĠL o
Ġtrabaj amos
Ġca us
ĠI P
Ġmi re
Ġpermi tir
Ġcol abor
Ġreci be
Ġestablec e
Ġproto colos
Ġsimul tÃ¡n
Ġenvi ar
ĠÃ©s te
Ġhiz o
D e
R I
Ġp us
Ġp Ã¡g
Ġs uel
ta xis
Ġo jo
ac k
tes is
Ġesta ba
Ġhab ÃŃamos
Ġcontrol es
Ġproduc tivos
Ġ7 4
Ġresp uesta
Ġbus c
Ġdefin i
ĠH ardware
Ġmane ja
Ġactu aliz
Ġliber tad
Ġevi tar
ĠartÃŃ culo
Ġsatisfac er
Ġacumul ador
Ġcin co
Ġrecu per
S O
t h
Ġc pu
Ġv ÃŃ
Ġco dific
Ġtr as
Ġinter re
Ġva ya
ĠS erv
Ġcons tantes
Ġforma to
Ġ8 6
ĠIn tel
Ġespeci fica
Ġmatr ic
Ġestudi antes
Ġvi aj
ĠjurÃŃd ica
ĠeconÃ³m ico
Ġorig in
Ġgus ta
m al
r io
Ġ Ã©sta
or ÃŃa
Ġd b
Ġf o
lo j
Ġi gu
ari amente
Ġpo d
Ġcor re
Ġtec n
Ġingres os
ĠbÃ¡s ica
Ġproporcion a
Ġcla ve
ĠcÃ¡l culo
Ġub ic
P ero
T IC
z on
ti ces
ti cia
Ġin al
Ġsi do
gr Ã¡
Ã± as
Ġhay a
ĠM ode
Ġ7 5
Ġoper ador
Ġqui eren
Ġfi la
Ġfal los
Ġpeque Ã±a
Ġcompe tencias
Ġsupon e
R O
g Ã³
r ir
er tura
Ġa m
Ã³ metros
Ġsu fici
Ġdes i
ce l
ra g
Ġtrans is
Ġ10 2
cri bir
Ġconsi dera
ĠdiseÃ± ar
Ġconduc ta
Ġdeud or
f os
h ÃŃ
t Ã¡
Ġe mi
Ġs uele
Ġn u
Ġcon te
Ġsi gue
Ġper s
Ġten gan
Ġus ando
Ġex ac
Ġimp res
Ġmedi r
Ġgener ales
Ġespeci alizaciÃ³n
ĠmÃ¡qu inas
Ġpeque Ã±o
ed or
Ġprob abilidad
ĠdinÃ¡m ica
ĠfÃ³r mula
A TE
M L
R e
c rib
g res
p ec
Ġ Ãº
Ġ ÃŃn
Ġs uce
un dan
Ġen tra
Ġun as
re mos
Ġdecir le
Ġsal ud
Ġestad ÃŃsticas
ĠÃºlti ma
Ġnecesita mos
Ġcompren siÃ³n
ĠinformÃ¡ tico
Ġgaran tizar
ĠvÃ©r tices
cr on
Ġcaden a
Ġpantal la
Ġequilib rio
Ġp en
Ġs an
Ġa men
Ã³ s
ad amente
Ġten ÃŃamos
Ġex c
Ġvari anza
Ġrec o
Ġesp er
ĠM O
uen tes
Ã©r icos
tien en
Ġemple ado
Ġleg al
Ġdeber ÃŃa
Ġdivers os
Ġconstr uir
Ġinterpre tar
C o
Ġde j
on e
id aciÃ³n
ter iores
den cias
qui era
Ġres oluciÃ³n
Ġcom erci
Ġins tancias
Ġrec ono
Ġ9 6
ĠT i
Ġne ga
isten cia
mÃ¡ genes
Ġexper i
Ġcr ÃŃ
Ġmin is
ĠRe gis
Ġprofes or
Ġaten ciÃ³n
Ġline ales
Ġcarpe ta
mbi to
Ġemerg encia
he ur
Ġdesi gual
R A
Ġ QuÃ©
Ġf uentes
Ġti c
Ġti erra
Ġg eren
Ġan ti
Ġpa p
Ġcre an
Ġlle ga
quitec tura
Ġcaracter ÃŃstica
ĠprÃ¡c tica
ĠeconÃ³m ica
ÃŃo do
Ġautor idad
ĠmÃºltip les
Ġcategor ÃŃas
v ia
tr ol
Ġd ando
Ġco ordin
Ġb o
Ġsi ti
Ġto k
Ġex tre
tor ia
ul aciÃ³n
Ġop in
Ġprogram ar
Ġcontrol a
ier on
Ġ7 6
Ġnues tras
Ġsal e
Ġinver tir
Ġlib re
Ġsuper vis
Ġquer er
Ġincluy endo
Ġpregun tas
Ġconv ier
Ġcolum na
Ġvended ores
Ġdb ms
b or
l Ã©
r bol
Ġa j
tr icas
Ġpue blo
Ġr an
ĠA p
Ġutil idad
Ġcor e
Ġsimple x
ĠmÃ³ dul
Ġtransmi te
Ġingen iero
Ġsir ven
Ġcompil ador
Ġconfi den
Ġdivid ir
Ġesque ma
ĠmÃ³dul os
C I
F S
â Ģ
Ġque dar
Ġv olver
Ġso y
Ġproces ar
Ġutil idades
Ġ7 7
Ġcambi a
ĠB ueno
ch a
Ġestudi ar
Ġconta bles
Ġna cional
Ġgra fo
Ġcombin aciÃ³n
Ġvec tores
Ġperio do
Ġpes ar
Ġvay an
Ġconver tir
Ġplata forma
Ġcuad r
Ġmeta heur
Ġconse guir
ĠparÃ¡ metros
ĠdifÃŃ cil
f ÃŃa
l Ã©s
tr aciÃ³n
ÃŃ g
am b
ec h
ec ta
Ġg lob
Ġi mÃ¡genes
Ġan u
ĠI ntro
Ġutiliz ado
Ġpa que
Ã©r ico
Ġorden amiento
ĠO b
ĠIn s
ĠÃ¡ mbito
ĠCon s
Ġasign aciÃ³n
Ġho gar
Ġmor al
Ġabstrac to
Ġmultip licaciÃ³n
Ã¡r qu
Ġcob ertura
Ġrol es
Ġincor por
ĠaÃ±ad ir
Ġmoni tor
Ġdesemp e
d ica
x im
Ġe ven
es truc
Ġen de
Ġd ÃŃas
Ġv in
Ã¡ tica
Ġre ales
Ġt ar
ab an
Ġg eo
Ġex ig
tar se
ir m
ues tos
Ġdis min
Ġinter fac
ĠS QL
Ġentre gar
ĠI SO
Ġpa gos
Ġcor pora
Ġdetermin ante
Ġfuncion ales
Ġtom an
Ġetc Ã©
Ġefec tos
Ġfuer za
Ġjer Ã¡rqu
Ġrevis ar
Ġinstitu ciones
Ġalcan zar
Ġfigur a
S E
t almente
y te
os iciÃ³n
en tro
er n
Ġin cu
Ġh ar
Ġsu ces
Ġus an
qui l
Ġdis tancia
Ġres ta
aliz ado
dos e
Ġutiliz ados
Ġbus ca
Ġab ajo
Ġfu era
Ġanaliz ador
Ġpeque Ã±os
Ġasign a
Ġrepresen tan
ĠdiseÃ± ado
ĠseÃ±al a
ĠAn droid
AC I
ĠmÃŃn imo
ĠautomÃ¡ ticamente
Ġprior idad
ĠsintÃ¡c tico
Ġefica z
Ġconsu mo
ĠetcÃ© tera
m ia
Ġa tr
qu is
tr ico
in gun
Ġn ingun
Ġin con
Ġf ich
Ġcomp ra
tic e
Ġdes crib
Ġan teriores
co mp
Ġred undan
ĠN OS
Ġequi val
ĠÃ¡ rbol
Ġfinan zas
Ġref er
Ġfac tor
Ġrelacion ado
Ġinvent arios
Ġsac ar
Ġmetodo logÃŃas
Ġdesti no
U na
as e
ti da
Ġv uel
ec on
Ġcomp uesto
Ġdes cu
qui dez
Ġso cio
Ġman u
Ġtrabaj an
Ġentre vis
Ġrep or
Ġing lÃ©s
Ġpres up
ĠY o
ĠeconÃ³m icos
ĠrÃ¡p ida
Ġcamin os
ĠcuÃ¡n to
Ġsubs istemas
Ġampl ia
Ġinvent ario
Ġagr up
i te
o lo
de mia
en cias
us tr
Ġdi gamos
den te
Ġor aciÃ³n
Ġinter val
Ġma in
ĠP er
Ġver siÃ³n
Ġutiliz ada
Ġorganiz ar
Ġpas ivo
Ġrecurs o
ĠG u
Ġind ustr
Ġatribu to
Ġrepresenta ciÃ³n
Ġincluy en
Ġ20 1
Ġrespons able
Ġanterior mente
Ġdeu da
Ġnecesi tan
Ġprove edores
Ġdimen siones
ĠelectrÃ³n ico
Ġsecuen ci
ĠtÃŃ p
Ġgesti onar
Ġp ier
un ca
ti mo
Ġn an
Ġre lev
Ġsi m
Ġsi mb
Ġcu mp
Ġper ÃŃodo
ĠE jemplo
Ġdes ta
iv e
ĠA d
Ġimp lica
Ġmo v
Ġmej ora
Ġorden ador
ĠIn form
Ġconstitu cional
Ġecu ator
Ġincre mento
Ġmar ca
Ġsitu aciones
Ġfr on
Ġrespe tar
Ġdistribu ciÃ³n
ĠmÃŃn ima
Ġtendr Ã¡
Ġdimen siÃ³n
Ġgan ar
Ġecuator i
m on
un ci
Ġen ca
Ġre loj
Ġb r
Ġso mos
Ġac erc
Ġentre ga
Ġrec on
ri do
Ġcas a
Ġj unto
Ġconoci mientos
Ġidentific ador
Ġcompe ti
Ġmin erÃŃa
Ġestra tÃ©
Ġro b
Ġata que
Ġasoci aciÃ³n
br ir
Ġpatr imonio
Ġproteg er
Ġtecn olÃ³g
ĠIntro ducciÃ³n
ĠestratÃ© g
T enemos
c enta
e amente
n er
Ġl an
Ġp ien
Ġs iendo
Ġa bier
Ġm os
Ġen trar
Ġal lÃŃ
Ġper if
cu la
Ġser es
Ġdes cribir
aliz a
ĠC ar
Ġperson alidad
ĠP r
Ġhab ÃŃa
Ġmis mas
it ado
Ġproduc en
ÃŃn ense
Ġdec lar
Ġarch ivo
Ġsimul aciÃ³n
Ġmed idas
ĠsÃŃmb olo
Ġcorrespon diente
Ġfuncional idad
Ġhor as
Ġdig ital
Ġprofesion al
ĠlÃŃ mi
Ġapoy o
Ġoportun idad
Ġintercambi o
ĠHD FS
Ġconstruc ciÃ³n
Ġcel ular
Ġcuo ta
T ambiÃ©n
x ito
de ro
Ġde jar
Ġf lo
Ġdi j
tic al
qui to
ĠÃ© xito
Ġform an
Ġcomple jo
Ġinterna cionales
ĠCo mp
ĠcuÃ¡n do
Ġdivers as
Ġpatr ones
Ġofrec er
Ġcul tura
Ġcircu ito
Ġpose e
Ġpuer tos
Ġali mentos
Ġelimin ar
Ġmes es
ĠsemÃ¡n tico
Ġpap el
Ġgeo grÃ¡
Ġnan Ã³metros
centa je
B M
D I
c ab
g ÃŃa
j unto
v es
Ġ Ã
Ġe duc
Ġc aja
Ġn unca
Ġco lec
Ġf en
Ġte mas
Ġte orÃŃa
ecu er
Ġneces aria
titu d
Ġdefin en
Ġrela cional
ĠY a
Ġcorrec tamente
Ġsec tor
Ġabstrac ta
Ġamb as
ĠvÃ©r tice
lÃŃ ci
Ġimag ÃŃnense
Ġcompr adores
Ġparticip antes
Ġpresup uesto
Ġa qui
Ġv uelve
Ġco la
cion a
il idad
Ġperson ales
Qu iÃ©n
Ġau mentar
Ġllam an
Ġpon en
ĠlÃ³g icas
Ġpun tero
Ġli quidez
Ġauditor ÃŃa
Ġconsul ta
Ġoptim izaciÃ³n
Ġcolo car
Ġarreg lo
Ġcolabor aciÃ³n
Ġconfiden cial
g lo
Ġ quier
Ġpr ima
Ġf rag
Ġpro f
Ġb ack
Ġson ido
fic as
ici dad
Ġinter ior
Ġap un
Ġte lÃ©
Ġcar ga
Ġpo ten
Ġmedi ciÃ³n
Ġcono z
dar izaciÃ³n
ĠbÃ¡s icas
Ġhuman as
Cu ando
Ġnum ero
Ġpan demia
Ġventa jas
Ġsopor te
Ġdesarroll adores
Ġsig no
Ġconvier te
Ġinterfac es
ĠNOS QL
A l
A hora
E x
g ados
p Ã³
Ġen ter
ta des
Ã¡ mbr
Ġsu m
Ġdes cuen
ues tas
Ġtam bien
gan izaciÃ³n
Ġmo d
Ġdiferen cias
Ġsin taxis
Ġseg mento
Ġexp l
Ġplan ificaciÃ³n
du cir
Ġescri tura
Ġestructur ado
ĠpÃºb lic
Ġcamp os
Ġofrec e
ĠOr acle
Ġsuje to
ĠmÃ³v iles
ĠOp era
Ġinal Ã¡mbr
Ġnu be
ĠÃŃn dic
D E
j idad
u t
tr ing
Ġen te
Ġd ÃŃg
Ġv ac
Ġpor centaje
it ales
Ġbas ado
Ġpas ivos
Ġbuen as
Ġve amos
ĠCon trol
ĠbÃ¡s icamente
Ġelec tor
amen to
Ġpeque Ã±as
Ġindividu ales
Ġindepen dientes
Ġcompil aciÃ³n
Ġefici encia
ĠprÃ³xi ma
Ġviaj an
ĠÃº til
Ġrecon oci
T A
Ġde n
Ġl len
en ti
Ġa do
Ġin ci
Ġsi mpl
Ġlo c
Ġlo g
Ġda ta
Ġan ual
Ġcons ecu
ĠI R
Ġcap as
Ġprop a
Ġmay ores
cuen cias
Ġdesp laz
Ġexisten tes
Ġbaj a
Ġter ri
Ġincre menta
Ġfre cuencias
Ġauto ma
Ġrespe to
Ġcorr iente
Ġdirig ido
Ġimag in
Ġcualita tiva
Ġmecan ismo
lac e
Ġestrateg ias
ist Ã³r
Ġfamil ia
Ġigu ales
ĠTi pos
M D
a p
a ya
f a
o cia
s an
v ÃŃa
Ġde ja
ci da
Ġv as
Ġpro medio
ĠE N
ĠC O
Ġman o
Ġins er
Ġorgan i
Ġdiferen ciales
Ġcos te
mÃ¡ tico
Ġpe dir
ĠfÃŃs ico
Ġposi bil
Ġon das
Ġinterac tuar
Ġmiemb ro
Ġbenefici o
Ġbenefici os
Ġcolum nas
Ġenfo que
Ġju z
Ġvul ner
Ġgeren tes
# Â¿
N OM
a de
l ido
Ġde p
Ġc ha
ti les
Ġla bor
Ġh istÃ³r
cion almente
ac es
ur a
Ġten gamos
Ġdi vi
iv amente
Ġinf orma
enta jas
Ġtoda vÃŃa
Ġactu al
BR E
Ġdispon ibilidad
Ġafec ta
Ġargu menta
Ġtempor al
Ġprofesion ales
Ġcuantita tiva
Ġcapaci dades
Ġparal e
Ġsufici ente
Ġaj us
Ġredundan cia
NOM BRE
C P
g as
Ġa is
on er
Ġf ÃŃ
Ġf lex
gu lo
Ġac ces
Ġac op
ĠA DD
Ġmi den
Ġneces arias
Ġpre de
Ġcas i
Ġad quis
tific ado
Ġestudi ante
Ġasign ar
Ġcompar tir
Ġclar amente
ĠcompaÃ± ero
ĠnÃºcle os
Ġapro v
Ġverda dera
Ġacre edor
itu d
LA P
ĠvÃŃ deo
Ġtic s
Ġincu mpl
A quÃŃ
f uer
t ÃŃa
or d
Ġes fuer
Ã³ men
al idades
Ġd ue
Ġcon exiÃ³n
Ġest Ã©n
Ġto po
Ġsu mar
Ġesp era
Ġval idaciÃ³n
Ġpa ga
ĠEs to
Ġdirec cionamiento
Ġserv ir
Ġlle gÃ³
Ġprincip almente
Ġsal en
Ġproy ec
Ġigual dad
ĠÃ© tica
Ġcomple jidad
Ġdocu men
Ġcumpl en
ĠUn idad
Ġmic ros
Ġposi bilidad
ĠespecÃŃ fica
Ġpresen tan
Ġfuer on
Ġfuer te
Ġmecan ismos
Ġfil as
ĠAr quitectura
Ġrespal do
ĠLO AD
Ġinterrup ciÃ³n
Ġpers pec
Ġanu alidad
Ġcorpora tiva
Ġperif Ã©ricos
Ġfen Ã³men
b amos
f ono
ci n
Ġen er
Ġcon tar
iz on
Ġcu ar
Ġto talmente
Ġinter v
Ġinform e
se udo
Ġcontr ibu
Ġpo quito
Ġmo ver
Ã©r amos
tec ciÃ³n
Ġpres ente
Ġpon go
ĠV AN
Ġiden tidad
Ġcomple jos
Ġlib ros
Ġconoci da
Ġidentific adores
Ġescri to
man a
Ġactu almente
Ġmin im
Ġingenier os
Ġcualita tivas
ĠlingÃ¼ ÃŃstica
Ġsur g
Ġconsumid ores
Ġeleg ir
Ġtes is
Ġencontr amos
Ġtransis tores
Ġcomerci ales
Ġmetaheur ÃŃstica
Ġsimb ol
g ador
Ġp seudo
tr ica
Ġn ic
Ġcu yo
Ġg erencia
Ġtr i
ĠE D
Ġres erv
Ġap p
ĠC ON
it y
Ġprogram adores
Ġas ocia
Ġmo tivo
Ġcomun es
Ġclas ific
ĠR ecuer
ĠB ig
Ġresul ta
Ġincl uir
Ġconf lic
Es ta
Ġmerc an
az as
Ġsencil la
Ġamb os
Ġamb iente
Ġnecesi tar
ĠcÃ¡l culos
ĠMe mor
Ġasegur ar
Ġries gos
Ġconfigur aciÃ³n
ĠpÃ¡g ina
Ġam ig
Ġminis terio
ĠGu aya
Ġtopo logÃŃa
Ġener gÃŃa
ĠGuaya quil
v io
er amento
Ġa f
or e
Ġm ando
tr u
tr al
tr ando
Ġcon vers
Ġser Ã¡n
tar ÃŃa
rec e
Ġar rib
Ġtrab aje
Ġpre val
ĠT CP
Ġimpor tar
Ġalmacen an
Ġdepen der
ĠG ener
Ġcomple ta
Ġcontra tar
Ġmon e
Ġmater ias
Ġoc as
Ġhec hos
Ġgra cias
Ġleg is
Ġban c
Ġev oluciÃ³n
Ġempresari ales
Ġconclus iÃ³n
ĠsimultÃ¡n eamente
Ġeven tos
Ġsim ilar
Ġarrib a
S S
T I
T o
W AR
g Ãºn
i leg
o cu
o ft
Ġs Ãº
Ġa Ãºn
ti dos
mp o
Ġin yec
Ġco efici
Ġre qui
Ġda Ã±
Ġex istir
tur ales
ĠS TO
ĠA PI
Ġver ificar
Ġtrabaj adores
ra y
Ġcre ado
Ġprop ios
Ġesc as
Ġcompu tadores
Ġoper andos
Ġdepen dencia
Ġcapa z
Ġfac ul
Ġcorrec ta
Ġregu la
gur idad
Ġpens amiento
ĠmatemÃ¡ tica
Ġsec ciÃ³n
Ġindic an
Ġconfi anza
Ġcorr ientes
Ġrenta bilidad
Ġempi eza
Ġquiz Ã¡s
Ġamen azas
Ġaprov ech
Ġincumpl imiento
j er
l Ã¡
l ada
p ol
Ġo fici
ien en
Ġf ul
Ġpro gres
us iÃ³n
Ġper der
ador a
Ġdes con
Ġinter no
ĠL uego
Ġman da
Ġr ama
ĠEn tre
ĠM ic
Ġsal do
Ġtiemp os
ĠF OR
Ġoblig ator
Ġrelacion ar
Ġsepar aciÃ³n
Ġfacil itar
ĠmÃ¡xi ma
Ġservid ores
Ġmetodo logÃŃa
Ġbin aria
Ġcuantita tivas
Ġapor tar
Ġempresari al
Ġconclus iones
Ġfich eros
Ġenca ps
Ġdep ur
E jemplo
c ho
Ġm ac
Ġd ba
Ġv ig
Ġcon ci
Ġh ici
Ġno mbres
Ãº a
Ġle e
Ġman ip
ĠA L
Ġej erc
feren cias
Ġcar go
ĠM A
cip l
Ġpas an
Ġau mento
tin as
Ã©r ica
Ġconcep tu
Ġform ado
Ġgu i
Ġinteres ante
Ġfr ente
Ġdistribu ido
Ġinstitu ciÃ³n
ĠfÃ¡cil mente
Ġargu mentos
Ġhor izon
Ġmodific ar
Ġdetec tar
Ġpriv ileg
Ġmatric es
Ġrecono cer
Ġextre mo
Ġentrevis ta
ĠAd minis
l la
r u
u o
Ġs ta
tr acciÃ³n
in do
Ġo cu
Ġre tro
id amente
iz an
Ġcu id
ur r
Ġex ista
Ġinf eren
Ġma qu
Ġtrabaj os
ig a
Ġvari abilidad
Ġdic ha
Ġbas ada
Ġtrans por
Ġrep ar
Ġesc en
Ġcono cen
ĠU ML
Ġcompu ta
Ġllam adas
Ġsen si
Es to
Ġdisc os
ĠgrÃ¡ fica
Ġdescrip tiva
Ġrecuer de
Ġmir a
ĠlingÃ¼ ÃŃsticas
Ġtele f
Ġdev uelve
Ġesen cial
Ġexc lus
Ġtar je
Ġningun a
Ġenter os
B DD
i tas
i amente
Ġel Ã©c
ter ios
Ġper f
Ġper iÃ³
Ġdi o
Ġdi ario
Ġac cion
ir se
ĠC ada
Ġinform es
Ġcom e
Ġins tru
Ġhab i
ĠD irec
ĠD RA
Ġorgan ismos
Ġcual quiera
ĠB BDD
alab ilidad
Ġnorm al
Ġve o
xi ones
Ġadministr ador
ros oft
Ġinteres a
Ġho mo
Ġaten der
Ġcurs os
ĠÃ³r gan
Ġhabil idades
Ġmu jer
Ãĵ N
Ġran go
Ġrob Ã³
ĠMic rosoft
l on
n amente
t ario
Ġ zon
Ġc Ã¡m
an cia
in ar
Ġd amos
Ġse x
Ġh al
Ġpro mo
Ġg ana
Ġdi ciendo
Ġcomp uesta
Ġdes comp
Ġr as
Ġr am
Ġah i
Ġneces ariamente
uy en
Ġj uego
Ġdetermin antes
Ġorden adores
Ġarquitec tÃ³n
ĠF un
ĠSe guridad
Ġfi j
Ġpropor cionar
Ġag entes
Ġhi per
Ġaleator ia
Ġgobier nos
Ġsupon er
Ġcontinu aciÃ³n
ĠautomÃ¡ tico
ĠOr ganizaciÃ³n
Ġciudad anos
Ġpropie dades
Ġverda dero
Ġende ud
Ġposibil idades
Ġmicros erv
Ġperspec tiva
mpo co
e dades
i eren
n ing
or den
ti po
ti za
is co
Ġh ex
Ġt or
iz ados
Ġal ter
di Ã³
Ġdi vis
Ġpue des
Ġta mpoco
fic amente
Ġesta ciones
Ġdeci mal
ĠD entro
Ġtrans par
ĠM an
Ġpos terior
ĠO tro
Ġexp lo
ĠIn te
Ġqui era
Ġfuncion ar
Ġdepen dencias
ĠG ra
Ġapren diendo
Ġidentific aciÃ³n
Ġna ve
Ġcal en
Ġnorma tiva
Ġposi tivo
Ġho mbre
Ġof re
Ġfacil idad
Ġjus ticia
Ġhe ur
Ġconsul tas
Ġadministra tiva
Ġobserv ar
Ġintro ducciÃ³n
Ġguar dar
Ġfon do
Ġavan z
Ġk i
Ġmill ones
Ġdescuen to
Ġado p
Ġdesplaz amiento
Ġorgani grama
D EN
a va
c k
c emos
Ġe ur
al or
ta mos
am ientos
Ġpro tecciÃ³n
Ġdi ga
gu lar
Ã± ol
Ġan d
ĠA sÃŃ
Ġ2 00
ĠD ia
Ġpa pe
Ġdesarrol lado
Ġresp on
Ġdetermin a
Ġdetermin an
ĠN orma
ĠO LAP
ĠB as
ĠV amos
Ġqui tar
Ġconta bil
Ġmon op
Ġespa Ã±ol
Ġinvesti ga
Ġconsider ar
Ġalterna tiva
Ġespecific ar
Ġhi pÃ³
Ġima gen
Ġselec cionar
Ġtransform ar
Ġtransform aciÃ³n
Ġhabil idad
Ġev olu
Ġinfer ior
Ġrecuper ar
Ġdesigual dad
Ġpaque tes
ĠtelÃ© fono
Ġterri torio
Ġpape les
I F
c Ã³
j ec
l er
l ados
l ine
Ġ Z
Ġ âĢ
Ġque d
an ÃŃa
in ten
re ded
Ġre mo
iz ado
Ġal reded
Ġper fec
Ġi tera
Ġsu minis
Ġdes tin
aliz ada
ĠS u
Ġimp lan
Ġreg la
Ġtra te
Ġtra yec
TE N
ĠU N
ĠR ec
Ġconcep tual
Ġconf irm
ara to
Ġfac ti
Ġmerc ados
ĠsÃ³ lido
Ġvi ol
Ġrelacion a
Ġconsider an
bo t
Ġdeman d
Ġrespons abilidades
ĠW AN
Ġinterac tÃº
Ġtempor almente
Ġvirtu alizaciÃ³n
Ġpresenta ciÃ³n
Ġbin ario
Ġenv ÃŃa
ĠcientÃŃ fico
Ġestrateg ia
Ġcri terio
Ġreglamen tos
ĠMode lo
Ġincon s
ĠInform aciÃ³n
Ġfron tera
ĠinalÃ¡mbr ico
ĠdÃŃg itos
Ġcoefici entes
Ġrequi eren
Ġhorizon tal
ĠrobÃ³ tica
ĠhipÃ³ tesis
Ġalreded or
E E
L L
e mbre
i ado
o og
u men
w it
Ġde mas
os a
Ġs ÃŃn
or k
Ġm ul
in ci
Ġen ci
re a
Ġd arse
ta ble
Ġre m
us e
Ġb ar
Ġex itos
ĠC las
il lo
ĠA X
Ġbas ados
Ġutiliz aciÃ³n
Ġutiliz amos
Ġfin almente
TE L
Ġcono cemos
ĠR es
Ġalmac Ã©n
Ġven de
Ġmues tras
ĠB I
Ġincl u
Ġestad ÃŃstico
Ġconec tar
ĠaritmÃ© ticas
Ġindepen dencia
Ġcab eza
Ġindic ar
Ġinclus ive
Ġventa ja
Ġahor rar
Ġcarpe tas
Ġcompro b
Ġpreci siÃ³n
her tz
Ġagre gaciÃ³n
Ġintercon ec
Ġvector ial
Ġreutil iz
Ġedi fici
Ġback up
ade ci
Ġcha t
Ġejerc er
Ġhex adeci
D B
I R
P ro
S QL
c ada
d b
r im
Ġ id
Ġc erc
ci aciÃ³n
ci entes
Ġes ti
ti das
Ġre v
ue ve
Ġcu brir
ol ec
Ġdes v
ĠS in
ĠP unto
Ġvari aciÃ³n
Ġgener ando
Ġdirec to
Ã¡n do
me tro
Ġsen tencia
En tre
Ġespeci ales
Ġsegur amente
Ġcomple tamente
Ġllev an
Ġestad ÃŃsticos
ĠlÃ³g ico
ĠÃºlti mos
form as
Ġpodr ÃŃan
Ġconec tado
Ġdispon ible
Ġorien tado
Ġescal a
Ġparticip aciÃ³n
Ġahor ita
Ġpuer to
Ġescrib e
Ġpreci s
Ġconcre to
Ġadi cionales
Ġense Ã±
ĠmÃ³v il
ĠDis e
Ġconsumid or
Ġries go
ĠelectromagnÃ© ticas
Ġestan dar
Ġcardin alidad
Ġcardin alidades
Ġinterre la
Co mo
Ġcump la
Ġflo tante
Ġexpl or
Ġelector al
ĠsÃº per
U E
i cia
z ado
Ġe mo
Ġl is
Ġc iv
ci dos
ti fica
Ġen cab
Ġse is
Ã¡ bamos
Ġh is
Ġco men
Ġco ment
ac e
Ġb or
Ġme ga
Ġg es
Ġi ter
den tes
gu a
Ã± ana
Ġres id
Ġman tiene
Ġma Ã±ana
ĠA MD
Ġhab lo
Ġtrans forma
ĠEs tos
ĠO tra
Ġcan al
Ġcan tidades
Ġcaracter es
Ġfinanci eras
Ġelec ciones
Ġexper tos
Ġespec tro
Ġcompil adores
Ġban cos
Ġrefle x
Ġata ques
Ġcurs or
Ġsolici tar
Ġlim ita
Ġcompro me
Ġense Ã±ar
Ġcri terios
Ġagre gar
EX TEN
Re gis
Ġvin cu
ern el
ĠOpera tivos
Ġautoma tiz
ĠSTO RE
Ġsex o
ĠDia grama
9 9
P S
en ce
ar es
ad re
Ġco inci
Ġal u
ado op
Ġsu bir
Ġdes cen
ente mente
tu lo
Ġinf l
Ġan illo
ĠL AN
ĠS istema
Ġcons isten
Ġcons erv
Ġrec op
Ġrec tÃ¡n
Ġgr ad
Ġproduc tividad
Ġprim i
Ġresp ec
titu ciÃ³n
Ġlengu a
ĠG oog
ĠCon tiene
ĠCon tinu
Ġcier ta
Ġinver siones
Ġfal ta
Ġcompar aciÃ³n
Ġtu vi
Ġgra fos
Ġdistribu ir
Ġindic adores
Ġempez amos
Ġrefle j
Ġsubs istema
Ġobserv aciÃ³n
Ġalcan ce
gra fÃŃa
Ġtrad i
Ġinvoluc r
Ġsuce de
Ġtok ens
Ġrefer imos
Ġeduc aciÃ³n
ĠfÃŃ j
Ġamig os
D O
f or
i re
i tan
i form
Ġde mo
Ġde fecto
Ġl ig
on os
Ġes tre
Ġm iles
ti que
Ġd ada
Ġse mana
ÃŃ r
Ġin no
Ġpar e
Ġest Ã¡s
di gos
Ġdi fic
Ġi ba
Ġto ca
min a
Ġan cho
truc ciones
ĠP enti
Ġar istas
Ġver tical
Ġas untos
ĠcÃ³ digos
Ġcor reg
Ġbus can
Ġcambi an
Ġdo ble
ĠmÃ© tricas
mÃ¡ tica
Ġtom ando
Ġintegr al
Ġnum er
ĠespecÃŃ ficas
Ġcop ias
ĠAn al
Ġorien tada
Ġcurs o
Ġapar te
ĠInter Ã©s
Ġdetal le
ĠDes arrol
Ġher tz
Ġpose en
ke ting
Ġsiti os
Ġopin iÃ³n
ĠÃŃndic e
Ġesfuer zo
ĠRecuer den
Ġocas iones
Ġinno v
Ġdific ul
ĠPenti um
S in
d ida
i men
r Ã¡
s amb
t ÃŃn
u b
u f
v irtu
Ġe tique
Ġde tr
er ti
ci dades
on g
Ġen ri
re z
Ġcon glo
Ġo tor
Ġf le
Ġb la
Ġper man
Ġten ido
Ġten dencia
Ġcomp lic
Ġdes vi
ul s
Ġgr am
Ġutiliz adas
Ġfin ales
lic an
Ġmo difica
Ġgener an
Ġcual idades
Ġsin Ã³n
ĠU s
Ġad j
Ġusu almente
ĠN e
ĠN AC
Ġalmacen ada
Ġexp lÃŃci
Ġform al
Ġemple o
ĠSe gÃºn
Ġmar keting
proces adores
Ġindividu o
ĠW eb
Ġejerci cios
Ġrefle ja
Ġblo ques
Ġcorrespon dencia
Ġselec cion
Ġperio dos
Ġcob rar
Ġexten siÃ³n
Ġplata formas
Ġobten ciÃ³n
ĠanalÃŃ tica
Ġcer eb
Ġpudi era
Ġpredic ciones
Ġinterre laciÃ³n
ĠcrÃŃ tico
estruc tura
econ omÃŃa
Ġbr in
Ġacerc a
Ġreconoci miento
Ġanual idades
Ġacop lamiento
Ġasocia ciones
Ġmonop ol
Ġconfirm aciÃ³n
Ġencab ez
Ġenri que
Ġconglo mer
8 6
g Ã©n
h ol
r imin
u ta
} ]
Ġ >
Ġp s
Ġs wit
tr ib
Ġpro vo
Ġpar cial
ec ho
Ġcu b
Ġcu estiÃ³n
Ġi lus
Ġex cep
iv as
Ġinf ra
ĠC ic
Ġar te
Ġver emos
Ġmen udo
Ġinc erti
Ġcap aces
Ġlle gan
Ġmejor ando
Ġrecurs iva
vis or
Ġexp an
Ġsolu cionar
du mbre
Ġespeci aliz
ĠG estiÃ³n
Ġestudi a
Ġabs olu
mis o
Ġescri torio
Ġparti da
Ġpla tos
Ġrelacion ada
Ġprimer as
Ġasign ado
Ġexpres iones
Ġdisc rimin
Ġmal a
Ġregu laciÃ³n
Ġtrata miento
Ġsolici ta
Ġdetal les
Ġra ÃŃ
Ġperten ecen
Ġdig itales
Ġtele visiÃ³n
Ġdecodific ador
Ġfor tal
Ġregres ar
ĠTI R
Ġordin aria
Ġesen ciales
Ġpen diente
Ġdesempe Ã±o
Ġequival e
Ġparale lo
Ġmone da
Ġcalen darizaciÃ³n
ĠBas es
ĠContinu ando
ĠDesarrol lo
Ġswit ch
Ġincerti dumbre
M I
N o
c as
c ol
d icos
d idas
s er
Ġ {
tr ado
Ġin ecu
Ġh ol
Ġpar ame
ac to
Ġper fecto
Ġson idos
Ġdes ac
gr o
iv encia
Ġdis per
Ġdis cipl
tor ios
tor ias
Ġinter ven
Ġdeci dir
Ġma xim
Ġcons ciente
Ġver ificaciÃ³n
ĠD I
Ġpo p
Ġcontrol ador
ĠEs tados
Ġcomun idad
Ġcre cimiento
Ġprop ias
Ġesc alabilidad
Ġpermi ta
Ġcomunic an
ĠV M
Ġform ar
ĠCon cep
Ġdec ÃŃamos
Ġestructur ada
Ġconten idos
Ġexpres ar
Ġfre cu
Ġinvesti gador
Ġconsider ado
Ġvelo cidades
Ġsec und
ular idad
Ġcir cular
Ġban co
Ġasoci ada
Ġexter no
Ġdeparta mentos
Ġapar ece
Ġguar da
Ġterc era
Ġhu bo
Ġtrad uc
Ġpropie dad
Ġdecodific aciÃ³n
Ġano tar
Ġsegu imiento
Ġentien de
Ġcodific aciÃ³n
Ġatr Ã¡s
Ġecuatori ano
Ġmos trar
Ġdue Ã±o
Ġinterv ienen
Ġmac ro
Ġhomo gÃ©n
Ġresid uo
ĠGoog le
A sÃŃ
h as
u x
z an
Ġe fecto
Ġde pos
ci embre
un ta
ti mos
ti na
in ux
Ġen unci
Ġd u
Ġd y
Ġo l
ab ytes
Ġb i
Ġtr an
Ġdi ciembre
gu en
Ġex cel
Ġap e
si mo
Ġins u
Ġu d
Ġas im
Ġejecu tando
Ġpos tales
Ġsign os
Ġaplic ando
Ġcomunic ar
Ġcomunic arse
Ġequi ta
Ġtec lado
ĠUn idos
Ġconc urr
ĠjurÃŃd icas
ĠeconÃ³m icas
Ġdisc re
Ġsepar ado
Ġcop iar
Ġprob able
Ġpregun ta
ĠcompaÃ± ÃŃa
Ġdirig ir
Ġtransac cionales
Ġproporcion an
Ġoptim izar
ĠÃ³p timo
yo ut
Ġperten ece
Ġespecial ista
Ġfabric aciÃ³n
Ġplante ar
Ġvol un
EX T
Ġsuel en
Ġespecifica ciones
Ġubic aciÃ³n
Ġanti cip
Ġdescrib e
Ġinterval os
Ġconfidencial idad
Ġflex ibles
Ġdesvi aciÃ³n
ĠraÃŃ z
Ġdepos ita
C ada
O P
a pa
e ar
l ador
Ġc eros
es e
on en
Ġd x
Ġcon l
Ã¡ us
ec re
Ġal tamente
Ġal lÃ¡
Ġme mbres
uc le
Ġac o
Ġac on
ici p
Ġap arato
Ġman ual
Ġman if
Ġcons ta
Ġcl Ã¡us
ig n
ĠD SS
Ġval e
Ġas um
Ġcos tu
Ġprim eros
Ġimpor ta
Ġdefin idas
ĠN os
ĠN EXT
Ġne tamente
Ġhabl ante
Ġsub ordin
Ġform aciÃ³n
Ġsegur o
Ġemple a
Ġmun icip
Ġrelacion ados
Ġmic r
Ġpodr Ã¡
bo ard
Ġsepar ados
ĠPro ces
Ġparticular idad
Ġexter nas
Ġgaran tÃŃa
ĠcompaÃ± eros
Ġcla ves
Ġfuncional idades
ĠDa tos
Ġviv ir
ĠcientÃŃ fica
Ġmanej an
Ġesco g
Ġcerr ado
ke hol
Ġreutil izaciÃ³n
Ġprov iene
ĠServ ice
Ġreco men
Ġtarje ta
Ġperf il
Ġrespon der
Ġchat bot
Ġreflex iÃ³n
ong itud
Ġinfra estructura
Ġenunci ado
kehol der
1 00
A B
P D
S T
d remos
e xiones
p res
Ã ģ
Ġde dic
ar lo
Ġv olu
Ġv ice
Ġpara virtu
men tan
ol ÃŃ
Ġme z
je tivos
Ġdi gn
gu ar
Ġac a
Ġle tra
Ġmode r
Ġejecu tan
Ġmo mentos
Ġforma tos
Ġj udi
Ġsin cron
Ã¡n dose
Ġlle gue
Ġele v
Ġpermi tido
ĠN orm
Ġorden ado
Ġven do
Ġayu d
Ġplan ifica
Ġpe le
Ġref ieren
Ġinver sion
Ġaquel lo
Ġrelacion adas
Ġactu ar
Ġpodr ÃŃamos
Ġlec tor
Ġinterna cional
Ġreci bir
Ġanal istas
Ġtermin a
Ġcorr up
Ġasp ecto
Ġpron Ã³s
Ġsopor tar
ĠInter net
Ġje fes
Ġcircu itos
ĠlÃŃ der
Ġvay amos
ĠdÃ© bil
Ġempi ez
Ġreun iÃ³n
Ġreun iones
ĠelectromagnÃ© tico
Ġintercon exiÃ³n
Ġinterrup ciones
Ġconstituy en
Ġvisu alizar
Ġconte xtos
Ġrelev antes
Ġmujer es
Ġras gos
ĠinteractÃº an
Ġhexadeci mal
Ġestre lla
Ġcereb ro
keholder s
Ġvolu men
C U
D PI
b an
f as
w s
w ork
Ġ Qu
Ġl ados
Ġp lac
Ġs os
Ġs iente
ci das
ar los
ti pos
ad Ã©
Ġd oy
Ġno min
Ġb lan
men tal
Ġper j
Ġto mo
Ġus ado
Ġus ada
gu imos
gr u
Ġex tracciÃ³n
Ġor to
ĠS E
Ġar ran
Ġvari edad
Ġqu ÃŃ
it ando
mi go
Ġtrans fer
Ġfin alidad
Ġtra er
uy endo
Ġorganiz a
Ġdirec tor
Ġcre ando
Ã¡n gulo
Ġdesarrol la
Ġab re
Ġconj untos
Ġpon emos
Ġsub con
Ġsub gru
Ġanaliz a
Ġmens ual
Ġhuman a
Ġvi deo
Ġdec re
lu ir
Ġcompren si
Ġefec tiva
Ġmor ales
Ġtransmis or
Ġhi lo
Ġtemp eramento
Ġru tas
Ġestable cido
Ġenfo ca
ĠTo das
Ġfamil iar
Ġinvoluc ra
Ġdemos trar
Ġplane aciÃ³n
ĠIN F
Ġsiti o
ACI ÃĵN
Ġprof un
Ġvac ÃŃa
Ġsta keholders
indo ws
Ġaccion istas
ĠÃ³rgan os
Ġenci ma
Ġexitos a
Ġedifici o
Ġencabez amiento
Ġconglomer ados
adÃ© m
) )
C T
M EN
i la
r er
t us
u aciÃ³n
Ġa mp
es pa
to p
to logÃŃa
Ġen samb
Ġun iform
Ġv esti
Ġcon tienen
Ġh os
Ġre ac
iz ando
ma zon
Ġsi mula
Ġme tas
Ġdi je
Ġcomp osiciÃ³n
la za
Ġac adÃ©m
Ġesta bilidad
Ġsiste mÃ¡tico
ĠC RE
ĠA R
Ġcontr ase
ĠEs o
ĠT IC
Ġinc ur
ific ado
Ġad qui
Ġdetermin ados
Ġtan tas
Ġven ido
Ġnuev amente
Ġtab Ãº
Ġingres a
Ġingres an
Ġpob re
Ġsuper inten
Ġpi eza
Ġnum Ã©rico
Ġsec tores
Ġdeber Ã¡
Ġdispon e
Ġdispon ibles
Ġapro b
Ġacep tar
Ġacep taciÃ³n
ĠÃ³p tima
Ġcaden as
Ġindependiente mente
Ġelabor ar
ĠDis tribu
Ġsegu imos
Ġinstal aciÃ³n
Ġextra er
Ġbusc ando
Ġbusc amos
Ġcorre o
Ġcoordin aciÃ³n
ĠlÃŃmi tes
Ġcolec ciÃ³n
Ġfacul tad
Ġhici eron
Ġcuid ado
Ġmaqu in
ĠfÃŃj ense
Ġgram Ã¡tica
ĠCRE ATE
Ġsuperinten dencia
A c
l ando
t bol
z os
de mÃ¡s
Ġl ongitud
to dos
Ġse p
Ġin tr
cion an
Ġcu ya
Ġto me
Ġsu f
Ġex is
Ġex posi
ĠestÃ¡ tico
Ġres umen
ĠC ore
ĠP ues
duc e
Ġrec olec
Ġpre ven
Ġsus ten
Ġtra tando
uy a
Ġj ue
Ġ10 00
vi as
Ġred ac
Ġorden ada
ĠH adoop
Ġcan ce
Ġanaliz ando
Ġind is
Ġinici ales
ĠseÃ± ores
Ġentr adas
Cu Ã¡n
Ġexisten cia
Ġespa cios
Ġsignific ados
Ġmar co
Ġmar cha
ĠRe la
ĠDe fin
Ġli ter
Ġata c
Ġquien es
Ġsubs ecre
Ġcomer cio
Ġterc er
ĠartÃŃ culos
Ġrenta ble
Ġadecu ada
ĠTo do
Ġcaus as
Ġrecuper aciÃ³n
Ġnega tivo
Ġcuadr ada
ĠjerÃ¡rqu ico
Ġsocio cul
Ġmain board
Ġfrag mento
Ġsum amente
ĠEN C
ĠhistÃ³r ico
Ġdivi de
Ġadquis iciÃ³n
Ġtranspor te
Ġcomputa cional
Ġdemand ada
Ġvolun tad
Ġmez c
A U
R S
U N
a g
c ra
e os
i le
Ġde f
Ġde fec
Ġp ul
Ġp Ã©r
Ġp Ã¡r
Ġcon ce
Ġin t
Ġh ice
ac er
Ġb ytes
Ġb yte
Ġme g
Ġtr ib
Ġten ÃŃan
Ġten dremos
bi mos
Ġha gan
ir us
Ġle x
Ġle van
ĠC h
ĠC Ã³mo
ĠL inux
Ġma es
ĠA mazon
Ġcom andos
Ġimp acto
Ġhacer se
ĠD A
Ġpre vio
el ar
Ġmo da
Ġgener ados
Ġdirec ta
ĠT en
Ġdefin iendo
Ġab rir
Ġsen s
Ġecon om
Ġiden tifica
Ġsegur a
Ġcomple ment
Ġarquitec turas
Ġconoci do
Ġconoci das
Ġade lan
Ġintegr ados
Ġdesp lace
xi bilidad
Ġfi ja
Ġtransmi ten
Ġpi de
Ġpun tu
ĠmatemÃ¡ tico
ĠmatemÃ¡ ticos
ĠinformÃ¡ ticos
Ġafec tar
Ġconsum ir
Ġcomien zo
Ġconsul tar
Ġcontinu a
ĠJ ava
Ġru ta
Ġenv ÃŃo
ĠanalÃŃ tico
ĠSO A
Ãĵ sea
Ġvo z
Ġconven iente
Ġpredic ciÃ³n
Ġpus e
Ġorigin al
ĠMO V
Ġanti gu
ĠCons tituciÃ³n
Ġsuces ivamente
Ġrelev ante
ĠlÃŃmi te
Ġminim izar
ĠcÃ¡m ara
Ġhiper visor
cÃ³ digo
Ġprecis amente
Ġrecop il
Ġadj unta
ĠpÃ¡r ra
Ġtrib un
. -
E T
a der
a ger
f iere
u par
Ġ <
Ġde jo
Ġp ub
ci ence
Ġa ire
es tre
as o
Ġm il
tr ador
in es
al lo
Ġv ÃŃn
Ġcon son
Ġcon tener
Ġcon exiones
Ġco h
Ġf lec
Ġme tada
Ġob tienen
Ġr it
ĠP ar
Ġar mon
Ġvari edades
Ġhay an
Ġca e
it ados
Ġmen cionar
Ġreg iÃ³n
Ġpre ten
Ġgen Ã©
ez as
ĠEs tas
ĠEs tÃ¡
Ġsol id
Ġrep ente
Ġcre Ã³
Ġprop uestas
ĠO R
Ġalmacen ados
ĠÃ¡ g
ĠH ar
Ġrequer ir
Ġcomple to
Ġmerc ader
Ġproce der
Ġvi aja
Ġmon to
Ġactu ales
Ġquer ÃŃa
Ġconec tados
Ġsencil l
Ġestablec en
gur a
Ġpens amos
Ġnatur ales
Ġprob abil
Ġgaran tiza
Ġmec Ã¡n
Ġofrec en
Ġcorrespon den
Ġapro pi
Ġdivid ido
Ġselec ciÃ³n
Ġdetal lado
Ġexten siones
oso fÃŃa
Ġescuch ar
Ġagr upar
ĠelectrÃ³n icos
Ġregular es
Ġrecog e
In ter
Ġsuje tos
Ġfil osofÃŃa
Ġaplica tivo
ĠRegis tros
ĠIns trucciones
Ġrepor tar
Ġinterval o
Ġindustr iales
Ġabier ta
ĠgeogrÃ¡ fica
Ġsimbol izaciÃ³n
ĠMemor ia
Ġobligator io
Ġretro al
Ġzon a
Ġbor r
Ġges tor
Ġcorreg ir
Ġcorrup ciÃ³n
Ġmetada tos
Ġrit mo
/ /
L T
O C
W H
e ma
l ie
l uye
l icidad
p lex
r c
t arios
Ġs rc
ar ga
ti o
Ġin icia
ien da
Ġf Ãº
Ġpar ece
ue la
men tales
Ġg ama
cu las
ador as
Ġdes ea
Ġemp a
Ġor acle
Ġob tiene
Ġinter namente
ĠA U
Ġar ray
Ġver ific
ĠD MA
mb rar
mi te
ĠEs truc
Ġcre e
Ġ10 3
Ġllam ar
Ġdo c
Ġpres taciÃ³n
Ġpres taciones
ĠV on
Ġsub espa
Ġinici ar
Ġaquel la
Ġdur aciÃ³n
Ġimplemen ta
Ġmater ial
Ġni if
Ġestra to
Ġposi ciones
Ġposi tivos
ĠgrÃ¡ ficos
ĠespecÃŃ ficos
tera tura
Ġleg ales
Ġleg alidad
ĠDe termin
Ġli teratura
Ġasoci ados
IN E
Ġgas to
Ġon da
Ġon line
Ġhe ter
Ġsopor ta
Ġraz on
Ġampl io
Ġdeco difica
Ġintro ducir
Ġpes o
blo que
ys te
Ġconform ada
Ġdemos trando
Ġconstituy e
ĠpÃ¡g inas
Ġopin iones
Ġvuel vo
Ġmanu ales
ĠtecnolÃ³g ica
BM S
Ġpoten cial
Ġpropa gaciÃ³n
Ġpseudo cÃ³digo
Ġlegis la
WAR E
Ġgui ados
Ġki lo
Ġlimita ciones
uf fer
ĠCic los
Ġmembres ÃŃa
Ġdign idad
Ġjudi cial
ĠfÃº tbol
% ,
9 8
I T
M T
V AL
c un
c las
d x
d is
g re
i fes
i mentaciÃ³n
v ieron
Ġ )
Ġa v
Ġen f
Ġn ucle
mp or
le va
Ġpor ciÃ³n
den ing
gu los
Ġac to
aliz ados
Ġesta ciÃ³n
tur al
ul as
Ġr ig
Ġimp rim
ĠD ios
ĠD ocu
Ġmen tal
Ġsus titu
Ġtra tados
Ġcap tar
Ġclas ificar
Ġorden an
Ġexp ecta
Ġinte lec
Ġoper ar
Ġpe or
Ġemple ar
Ġsuper visiÃ³n
ens a
Ġcal cula
Ġimplemen tado
orta ciones
pe ci
pe ta
Ġfal so
Ġinvesti gar
Ġmulti procesador
Ġconec ta
ĠrÃ¡p idamente
Ġfr ac
ON ES
Ġlugar es
Ġcir cun
Ġrecor rido
Ġhi jo
ĠcompaÃ± ÃŃas
Ġmultip licar
OR DEN
ĠInter rup
Ġciudad anÃŃa
Ġlim itar
Ġdif us
Ġperten encia
ĠEx isten
Ġhu bi
Ġk ernel
Ġcer tific
Ġplane ar
Ġdefini tiva
Ġglob al
estruc tur
Ġdescrib en
econ Ã³m
ĠtÃŃp icamente
ĠCar acter
ĠCar peta
ĠpÃºblic os
ĠfenÃ³men o
Ġencaps ul
Ġmicroserv icios
P ue
b en
p h
y per
z go
Ġp rece
er po
Ġa lo
ar la
Ġm ol
Ġla tÃŃn
al o
Ġo mis
am enta
Ġco ma
Ġre tir
Ġre visiÃ³n
Ġcu bo
Ġcu erpo
ol s
di a
Ġti tu
era tivo
Ġac or
tar lo
Ġap re
ĠP RO
Ġvari ar
Ġqu is
ĠD WH
Ġrec ta
Ġrec ha
gun os
Ġval ios
ver sa
Ġcar gar
Ġcar net
Ġpo ca
Ġpo tencia
Ġtra e
Ġcontrol ado
Ġdiferen ciar
Ġlle gado
Ġpres ta
ĠO N
ĠO SI
Ġmues tral
lig encia
ĠF in
Ġpob la
Ġejecutar se
eb e
Ġgu ÃŃas
Ġeval Ãºa
Ġconec tor
Ġindivid ual
Ġflu jos
og Ã©n
Ġdescrip tivos
Ġmicro procesadores
Ġsepar ando
ĠPro gram
Ġli qu
ĠfÃ¡ br
ĠpÃºb lica
Ġauditor ia
Ġconstr u
Ġadministra tivos
Ġtendr ÃŃa
Ġvirtu al
Ġrecep ciÃ³n
tÃ³n o
Ġfon olÃ³gico
Ġesco ger
Ġinfer ir
Ġparal el
ĠMO DE
ĠestratÃ©g ica
Ġabier to
ĠpÃºblic as
Ġllen a
Ġconflic to
Ġescen arios
Ġofre cida
Ġciv il
Regis tro
Ġdetr Ã¡s
Ġhol gura
Ġdiscipl ina
Ġredac tar
Ġretroal imentaciÃ³n
Ġheter ogÃ©n
ĠfÃ¡br ica
6 4
H E
L o
M P
R AM
d Ãº
i que
l i
y th
Ġ za
Ġde dica
Ġp ivo
Ġs es
qu idad
Ġd up
am Ã¡
Ġpar Ã©n
ab ora
ur ante
Ġdi jo
Ġus amos
Ġus ados
tro ver
Ãº cle
Ġex trover
Ġinter medio
Ġres um
tu ito
Ġdeb ajo
Ġman dar
Ġman eras
Ġdeci mos
ĠA m
ĠA hÃŃ
Ġcons istencia
Ġver s
Ġcl Ã¡s
Ġhab le
Ġqu in
ĠD BMS
Ġbas an
ĠI I
ico logÃŃa
Ġas ÃŃn
Ġtrans fiere
ĠT r
ific ada
Ã©r pre
esti on
Ġpres encia
par ar
ĠB us
Ġne ur
mÃ¡ for
Ġespeci alizado
Ġmatr imonio
Ġconsi go
Ġvi abilidad
Ġcol or
Ġfal lo
Ġfal las
pa tos
Ġcompren de
Ġmater iales
Ġ11 0
ĠÃºn icamente
ĠfÃŃs icos
Ġestra tificado
Ġrestric ciÃ³n
ex o
Ġdenomin an
Ġdeber ÃŃan
ĠW indows
Ġcompil ar
ĠAn Ã¡lisis
Ġhi po
Ġabstrac tos
Ġrefle jar
Ġch ip
ĠNo mbre
Ġinterpre taciÃ³n
Ġescal able
Ġcul turales
Ġmencion ado
Ġdecodific ar
Ġprov echo
Ġmatric ulaciÃ³n
RO LL
ATE L
Ġreco gen
Ġcuadr ado
amb re
Ġincorpor ar
Ġsecuenci ador
ĠtecnolÃ³g icos
Ġdij imos
Ġprof und
Ġvulner abilidades
Ġajus tar
Ġcuar ta
Ġmercan c
ĠAL U
Ġtelef Ã³n
Ġ200 8
Ġtrayec toria
Ġreutiliz ables
Ġdesv entajas
ĠsinÃ³n imo
ĠexplÃŃci tamente
Ġexpan siÃ³n
Ġarran que
Ġtransfer ir
Ġsubgru pos
Ġdefec tu
Ġint Ã©rpre
dÃº plex
yth on
Ġza patos
Ġpivo te
ĠparÃ©n tesis
Ãºcle o
" "
. )
C ROLL
R IN
U P
c to
c ado
p p
z Ã³
Ġl istas
Ġa tra
Ġa gua
on a
an gular
Ġen tor
Ġn Ã³
Ġcon ferencia
ÃŃ x
di o
Ġper ci
la ve
Ġdes car
Ġac ab
rec to
Ġinf erencia
ĠC D
ĠC apa
ĠP RIN
Ġcl ara
Ġpre vias
co mo
Ġcor te
Ġmo dos
ĠT iene
Ġ10 4
Ġopera tiva
Ġsen ti
Ġayu de
Ġcaracter iza
Ġconstitu ido
Ġform almente
Es tos
Ġapren de
Ġidentific an
Ġemple an
Ġintegr an
Ġentr an
Ġcal cul
Ġdistin to
Ġasign an
Ġexpres a
Ġpropor ciÃ³n
Ġconec tan
Ġencar gada
Ġalterna tivos
Ġprob ar
Ġmor oso
Ġlogr a
Ġweb inar
Ġconv ir
Ġconv ivencia
Ġapar ecer
Ġapro xim
Ġvirtu ales
Ġher e
lac es
Ġsig las
Ġtrad u
Ġavan ces
Ġadi cional
Ġfabric antes
ĠanalÃŃ ticas
Ġregres o
Ġfavor able
Ġgig a
Ġquiz as
Ġsan ciÃ³n
Ġpaque te
Ġpier de
Ġmov imiento
ĠfenÃ³men os
Ġcontribu ir
Ġtri angular
Ġescas os
Ġinferen cial
Ġsensi bles
Ġinstru mento
Ġpromo ver
Ġevolu cion
Ġdemo cra
Ġcomplic ado
Ġmodifica ciones
Ġps icologÃŃa
Ġconl leva
Ġentor nos
ĠPRIN CI
E R
H ay
R U
S on
Y a
c ando
e go
f olÃ³gico
g on
t aria
v as
x tual
Ġ ulti
de res
Ġes tima
tr es
Ġen g
Ġun ir
Ġun ificado
Ġv es
Ġcon m
Ġpr ac
Ġre Ãºn
Ġre posi
Ġf ir
Ġf irm
cion ados
ab yte
men tando
di ble
tic ar
Ġle emos
Ġdis p
si ma
ĠL e
Ġman ifes
ĠS er
Ġimp erativo
Ġas es
ĠM ientras
ĠM IS
Ġmo tor
ĠT asa
Ġrep ite
Ġresp onde
Ġau menta
Ġau tÃ³no
ĠR E
Ġsal idas
Ġab ar
Ġsen tencias
ĠV alor
Ġform alizaciÃ³n
ĠF u
Ġdesp laza
erramien tas
Ġsuper iores
Ġmon et
Ġrelacion ales
Ġutilizar la
et ch
Ġbaj os
Ġfal sa
Ġconc en
Ġpues tos
Ġren ego
Ġmin uto
Ġpi den
Ġsa tÃ©
Ġdescrip ciones
Ġmor folÃ³gico
Ġconfi abilidad
Ġtermin al
Ġasoci ado
ĠSi mple
Ġch icos
ĠmÃŃn imos
Ġdirig e
Ġapar ecen
Ġredu cido
Ġterc eros
ĠEx cel
Ġhu mo
Ġmencion aba
Ġfor tuito
Ġpantal las
Ġinmedia ta
Ġeleg ido
Ġsuel do
Ġcodific ar
Ġtransis tor
Ġagrup ados
Ġdesta car
mon os
Ġconoz ca
Ġlabor al
Ġprede cir
Ġconflic tos
Ġful l
ĠClas ificaciÃ³n
Ġcoment arios
Ġparame tr
Ġtraduc ciÃ³n
Ġinsu mos
Ġparavirtu alizaciÃ³n
ĠpronÃ³s ticos
fas is
Ġsubcon junto
ĠmecÃ¡n ica
Ġborr ador
VAL UE
Ġexpecta tivas
Ġreposi torio
2 0
A demÃ¡s
M e
b u
d le
g ando
g adas
Ġde je
en gu
Ġc ables
ar ch
Ġm it
in c
Ġen orm
Ġen du
Ġen tera
Ġn ar
Ġv Ã¡l
ic on
mp aÃ±
Ġre mi
Ġre tras
Ġre ducciÃ³n
Ã© rez
le o
Ġb io
res s
Ġdi bu
Ġi do
Ġcomp or
Ġcomp uestos
Ġser ia
ir al
Ġle a
fic aciÃ³n
Ġinter nas
ĠC as
ib ra
ĠS tan
Ġte Ã³r
ĠA th
ĠP Ã©rez
Ġtrabaj ador
it aria
Ġmi xtos
Ġcontr as
Ġesp eran
Ġmode la
Ġas ter
Ġejecu tivo
ri Ã³
Ġcas cada
Ġorganiz ado
Ġdiferen ci
Ġprim aria
Ġrep ito
Ġcre di
Ġdesarrol lan
Ġ10 5
Ġregis tran
Ġmejor as
Ġaplic an
Ġvalor ar
ĠIn gen
Ġpon iendo
Ġplan ificar
Ġanaliz adores
Ġtom Ã©
Ġcaracter izan
Ġform ul
Es tas
Ġpol im
Ġconoci dos
ens o
Ġactu aciÃ³n
Ġfi able
Ġestructur ados
Ġanalizar lo
Ġpodr Ã¡n
Ġcr u
Ġreci bo
Ġ[ {
Ġgra tu
Ġsec re
Ġdeber es
ĠbÃºsque das
Ġefici entes
Ġintelig ente
Ġpregun tar
dera zgo
Ġprove e
Ġintro du
SI ON
Ġavan ce
Ġbalan ces
Ġefica cia
Ġvul gar
Ġcaus a
Ġtok en
Ġasigna tura
Ġindustr ia
Ġquier an
Ex isten
Ġmod ularidad
Ġconsecu encia
Ġdivi den
Ġpreval ecer
Ġinyec ciÃ³n
Ġescas ez
Ġmanip ular
Ġinvestiga ciones
Ġqued Ã³
ĠRec or
Ġrem un
Ġesti lo
Ġiter aciones
Ġdescen tr
Ġconsisten te
Ġfle xibilidad
Ġinecu aciones
Ġdisper siÃ³n
Ġconcurr encia
Ġaco mpaÃ±
Ġplac a
Ġrecopil aciÃ³n
Ġtribun al
ĠÃ¡g il
ĠEstruc tura
clas e
Ġcircun s
Ġtradu cir
Ġdemocra cia
Ġmit ad
ĠAth lon
1 0
4 0
G E
L AR
P C
c ur
i dez
j ecu
m adamente
o logÃŃa
z ca
Ġ ur
Ġ Ã©n
Ġ Ãĵsea
Ġ ""
Ġp udo
ci almente
es a
te d
Ġm ÃŃo
al ea
Ġen laces
Ġv ital
Ġcon ces
Ġse mÃ¡for
Ġin co
Ġt as
lo go
us to
Ġb a
Ġsi l
Ġtr Ã¡
Ġten dencias
Ġto ler
gr an
Ġex ces
Ġle tras
Ġinter bloque
rec er
Ġman os
ĠS cience
il la
Ġma pa
Ġimp lican
Ġbas adas
Ġutil ice
ĠI BM
Ġpo cas
Ġpre viamente
Ġpa z
ĠM Ã©
Ġpas Ã³
Ġclas ifica
Ġseg mentos
Ġrela tivamente
Ġpres iÃ³n
ĠO P
Ġexp licar
ven ientes
ĠÃ© ticos
Ġref iero
Ġanaliz ado
Ġtom Ã³
ĠCon junto
Es a
Ġingres e
Ġintegr a
Ġcontra tos
Ġcontra iga
Ġacuer dos
Ġencuen tre
Ġfi jar
Ãºs cula
Ġfal la
pro ceso
Ġ11 5
Ġfund amenta
ĠfÃŃs icas
Ġencar gados
medi os
Ġho mbres
Ġproto tipo
Ġpens ando
Ġtu ve
Ġdeber Ã¡n
Ġrecor dar
Ġsem estre
Ġdivers idad
Ġorien tadas
Ġtempor ales
Ġoportun idades
Ġcrea tividad
Ġmodific aciÃ³n
Ġadi cionalmente
Ġprepar ar
ĠtÃŃ tulo
Ġmu tu
Ġinmedia tamente
fi jo
Ġplane ta
Ġpod ÃŃa
Ġexac tamente
Ġamen a
Ġdej ando
ĠRegis tro
Ġextre madamente
Ġmonitor eo
Ġhar Ã¡
Ġdescu b
Ġsecuenci almente
Ġcump lan
Ġpien so
Ġquier es
Ġconoz can
Ġloc ales
Ġadquis i
Ġpseudo alea
Ġregula ciones
Ġdescon oci
ĠAdminis traciÃ³n
ĠAdminis trador
ĠGra fo
Ġeur os
Ġdemas iado
Ġmonopol io
Ġmanif ies
ĠclÃ¡us ula
ĠquÃŃ m
Ġmaquin arias
ĠpÃ©r dida
Ġintelec tual
Ġomis iÃ³n
Ġapre ciar
ĠTr ans
ĠPRINCI PI
ĠÃ©n fasis
Ġinco mple
A n
S P
d ores
d idos
d ress
t p
t y
u tador
v ar
Ġp adre
er imientos
ci to
Ġa ver
Ġa migo
on Ãºcleo
ar ÃŃa
qu erimientos
te des
to m
Ġm amÃ¡
an ito
Ġel im
Ġv ÃŃa
ic aciÃ³n
mp les
Ġf ras
ab its
Ġal tos
men tado
Ġcu y
bi les
Ġda Ã±os
ten ible
Ġac tiva
Ġdis cu
ici oso
Ġres uel
Ġap ortaciones
Ġinf in
Ġan im
ĠL A
ce der
Ġr op
gram as
Ġimp uls
Ġpo cos
el er
Ġejecu te
Ġtra en
Ġtra tan
ĠEs peci
Ġgener ador
TO RI
per aciÃ³n
Ġrep licaciÃ³n
Ġ10 7
Ġsob res
Ġllam amos
Ġtan ta
Ġtan tos
Ġvis ibilidad
Ġalgun o
Ġsen tar
Ġcompon e
Ġcompon en
Ġsigu en
Ġfinanci amiento
Ġcomple jas
Ġfi jo
Ġexper to
Ġdistin gue
Ġnorma tivo
Ġcompar ten
Ġcorrec ciÃ³n
Ġllegar on
Ġprofes iÃ³n
Ġmal icioso
fac tura
Ġro taciÃ³n
Ġconfi able
Ġban da
Ġfacil ita
Ġch e
Ġmultip lic
Ġconstr uye
Ġcomien zan
Ġsupon gamos
Ġselec ciona
Ġcarr eras
Ġviv e
Ġcompro miso
pi dez
Ġinten s
Ġcer tificado
Ġcomunica cional
Ġelabor ado
Ġordin arias
Ġconstituy ente
Ġmill Ã³n
ĠsimultÃ¡n ea
Ġactualiz aciones
Ġigu almente
Ġsufici entes
cron a
Ġdesigual dades
Ġsupervis ado
ĠOb viamente
Ġdismin uir
ĠÃ Ĺ
Ġpropa gan
Ġvulner abilidad
Ġconvers aciÃ³n
Ġful anito
Ġconci encia
Ġinferen cias
Ġendeud amiento
Ġtranspar ente
Ġcontabil izar
jec t
Ġperfec ta
Ġimplan taciÃ³n
ĠrectÃ¡n gulos
Ġtradi cionales
Ġdiscrimin ar
ĠNorm as
Ġamp ar
Ġensamb lador
ĠDistribu idos
Ġestima ciones
Ġtas as
Ġaver i
Ġelim ina
Ġrop aje
) "
6 8
D OS
I IF
T S
a us
c ode
d ico
e de
h z
h en
i dente
m l
m Ã³
m us
o k
p ace
v iendo
v ard
x il
Ã į
Ġp rec
Ġp el
ci na
ti a
ti ciÃ³n
Ã³ lar
Ã³ ven
tr Ã³
Ġd Ã³lar
ic es
Ġcon gr
Ġcon tin
Ġse mi
Ġpro hÃŃ
ec tor
id ar
Ġt us
iz ada
Ġb it
Ġest u
ol a
la zar
Ġac tores
ĠestÃ¡ tica
iv er
Ġdis trib
Ġinf laciÃ³n
ĠC E
Ġan droid
Ġca tal
Ġrec tor
ĠI V
Ġmi gr
Ġdecir lo
el Ã©c
Ġfin es
TE R
ĠM in
ĠM ulti
Ġj Ã³ven
TO EXTEN
ĠT emp
Ġcomun idades
Ġimpor tan
Ġau xil
Ġopera cional
Ġsab es
Ġdetermin amos
ĠIn terna
ĠmÃ© dica
val or
Ġfuncion ando
Ġve an
Ġide al
uman n
Ġtab les
Ġna ci
Ġdin am
Ġoblig a
Ġmon olÃŃ
Ġexisten te
Ġutilizar Ã¡
Ġnorma tivas
Ġcomporta mientos
Ġefec tuar
omun icaciÃ³n
Ġreci bido
Ġencar gado
ĠmatemÃ¡ ticamente
ivers idad
Ġunivers o
Ġpatr Ã³n
AL ES
Ġadministra tivo
ĠprÃ©sta mos
Ġciudad ano
ĠÃ©s tos
ĠÃ©s tas
gra fo
Ġpreci sa
Ġali mentaciÃ³n
Ġsecuen cial
Ġrecog ida
In tel
Ġsur gen
Ġsur ge
ĠcientÃŃ ficos
Ġesque mas
Ġinmedia to
Ġradio elÃ©c
Ġplanific Ã³
Ġentien den
Ġreglamen to
Ġexac titud
ĠRegis ter
Ġsupervis ar
Ġmonitor ear
Ġdescu brir
Ġcompeti tiva
QuiÃ©n es
Ġais lada
Ġdocumen tado
Ġtri Ã¡ngulo
WAR D
Ġofici na
ru mp
Ġtelef on
Ġdescomp osiciÃ³n
Ġposterior mente
ĠInte gr
ĠâĢ ĵ
Ġitera tivo
Ġincons isten
EE E
ĠDise Ã±o
Ġprimi tivos
ĠVM WARE
Ġsecund aria
Ġbi olÃ³g
Ġexcel encia
ĠNos otros
Ġmicr onÃºcleo
Ãģ TIC
Ġvice versa
Ġsincron izaciÃ³n
Ġsolid ario
ĠHar vard
Ġsubespa cio
Ġordenan zas
ĠCaracter ÃŃsticas
Ġparalel ismo
ÃŃx eles
mus ic
Ġcongr uen
ĠprohÃŃ be
ĠjÃ³ven es
TOEXTEN D
ĠradioelÃ©c trico
1 4
3 3
B ueno
F F
L Y
O FF
Z E
d y
l icaciones
o pe
p uesta
Ġ os
Ġe je
de os
en as
Ġc ib
Ġc if
Ġa ter
on iendo
Ġes tr
Ġes tric
ti to
ad u
Ġv io
Ġcon ti
ÃŃ na
am ble
Ġco gn
Ġre emp
Ġpro m
Ġpro me
Ġpar ecer
ec o
Ġb on
Ġb uffer
Ġal tura
di men
Ġdi v
Ġdi ariamente
Ġsu pre
gu iendo
Ġac ord
Ġex terna
Ġinter s
ĠC OM
ib uye
Ġr ue
Ġr acional
ĠA B
ĠA s
Ġempres ario
ĠD B
ĠD urante
Ġbas ta
Ġbas tantes
Ġgr ie
Ġgr ama
ble mente
Ġas amble
Ġpo dido
Ġfin aliza
Ġobje tiva
Ġejecu tiva
Ġcor ta
Ġj untos
Ġimpor te
Ġprop one
Ġlle go
Ġregis tra
ĠR u
Ġllam ados
ĠN et
Ġbuen os
Ġorden a
Ġvis ual
ĠO MT
Ġalmacen es
ĠmÃ© trica
Ġactiv ar
Ġne gra
Ġhabl aba
tific ar
Ġfuncion an
ch e
Ġref erente
Ġestudi ando
Ġir se
Ġinv itado
Ġapren dido
Ġhuman idad
Ġcliente la
Ġdec ÃŃan
olu ciones
Ġgu iar
Ġdistin guir
crip taciÃ³n
Ġpues ta
Ġjur is
Ġren un
Ġsencil los
Ġsencil las
Ġnum Ã©rica
Ġponer le
Ġcomb ina
Ġdenomin ado
Ġdeber ÃŃamos
Ãºb lica
Ġtermin ar
Ġpregun to
br imiento
Ġconv iene
bas e
Ġamor tizar
ĠlÃ©x icos
Ġtendr ÃŃamos
Ġru tinas
Ġescuch a
Ġju icio
Ġasegur arse
Ġsecuen cias
pu t
IS TA
Ġfabric ar
Ġenv ÃŃan
Ġcomunica tivas
Ġacre edores
Ġvo cab
Ġrepeti ciÃ³n
ĠprÃ³xi mo
Ġesper ando
Ġdividir se
Ġvuel ta
Ġsocio econÃ³m
Ġmov imientos
ĠestratÃ©g icos
Ġlan zar
Ġdij eron
Ġsurg ido
ĠCON ATEL
ĠdaÃ± ado
ĠFOR WARD
Ġescen ario
Ġinstru mentos
Ġram as
ĠarquitectÃ³n icos
ĠFun ciÃ³n
ĠInte ligencia
Ġincons istencia
Ġcoinci de
Ġespecializ adas
Ġmacro economÃŃa
Ġmoder n
Ġinversion istas
Ġempiez an
Ġcomprensi ble
Ġvesti dos
Ġsep an
Ġrecolec ciÃ³n
CuÃ¡n tos
Ġdef ensa
Ġlex ema
ĠpÃ¡rra fo
Ġmercader ÃŃa
Ġdifus a
ĠMODE LO
Ġsenti mientos
Ġconvir tiendo
engu aje
Ġaster isco
ĠsemÃ¡for o
Ġsil icio
Ġsentar me
Ġimportan tÃŃ
Ġater r
Ġcogn i
) ^
C RE
I L
M AR
S B
a unque
d ra
f ismo
h acer
i ja
j an
l im
u g
Ġp istas
ci Ã³
te mos
Ġm ente
in os
Ġn ac
Ġcon exo
ÃŃ do
Ġpr u
Ġco br
Ġco ciente
Ġre in
id dle
ab e
ac tiva
men es
Ġsi quiera
tiv idades
cu Ã¡les
Ġi lim
Ġus os
tro cin
Ġtien da
Ġhac k
Ġesta tus
ĠC or
Ġdeb a
Ġma gnÃ©
Ġr ode
ĠA h
Ġver bo
Ġcl ÃŃn
Ġcl Ãºs
til la
Ġhab rÃ¡
Ġej er
ĠI D
Ġgr up
no do
Ġval idez
Ġcar gos
Ġpre fer
Ġejecu ten
Ġpa trocin
Ġmedi ana
Ġmo tiv
Ġmo use
Ġdirec cionar
Ġrep ro
Ġrealiz ado
ĠR o
Ġdefin idos
Ġpres erv
Ġvis ible
Ġaplic ado
Ġaplic ables
Ġven cimiento
Ġexp lica
ĠB Y
Ġconcep ciÃ³n
ĠmÃ© dicos
Ġactiv as
ĠV F
tific aciÃ³n
Ġestar Ã¡
Ġve a
Ġve hÃŃ
Ġcan cha
Ġsub ray
Ġref orma
Ġtom ado
Es o
Ġinver tido
Ġsegun dos
Ġsignifica tiva
ĠtÃ©cn icos
cios o
ĠpolÃŃ tico
Ġmon o
Ġdur os
Ġcal ifica
Ġfi allo
Ġestructur aciÃ³n
Ġtama Ã±os
Ġconten cioso
ĠprÃ¡c tico
Ġ11 2
Ġconec tores
Ġreci Ã©n
ĠRe pres
ĠfÃŃs icamente
Ġestra tos
Ġrespons ables
Ġfr an
Ġtermin o
Ġsem icon
Ġnecesi tas
Ġfutur os
Ġsac an
Ġdesarroll ando
ĠÃ³p ticos
ĠDes de
Ġterc ero
Ġacce de
Ġescrib iendo
Ġapor ten
Ġinten tar
Ġcapaci taciÃ³n
Ġadecu ados
Ġconse jo
fi eren
Ġesco ge
Ġedi tar
Ġfo co
Ġpod amos
Ġpod ÃŃamos
Ġdismin uye
Ġningun o
Ġcompeti dores
Ġpien san
ĠPr incip
Ġdeclar aciÃ³n
ĠÃŃndic es
Ġconsecu encias
Ġargumenta tivos
Ġclasific an
Ġinyec tar
Ġmanip ulaciÃ³n
Ġconceptu alizaciÃ³n
Ġprivileg i
Ġprivileg ios
ĠDirec ciÃ³n
Ġexplo taciÃ³n
ck et
Ġfacti bilidad
Ġinterconec tan
EXTEN TS
Ġinnov aciÃ³n
Ġetique tas
Ġexcep ciÃ³n
Ġmaxim izar
Ġtran si
Ġacon te
Ġorto grafÃŃa
Ġsimula ciones
ĠAR P
ĠTIC S
Ġpobre za
Ġsubsecre tarÃŃa
yste m
Ġav iÃ³n
Ġquis i
Ġrecha zar
Ġulti mo
ĠRecor demos
Ġcircuns tancias
Ġpseudoalea torios
ĠPRINCIPI O
Ġche que
ĠclÃºs ter
Ġsemicon duc
A unque
D es
E C
I LE
N A
V I
b re
f igur
g Ã¡n
g imen
l ue
q l
s ta
Ġ :
Ġl enta
Ġa fin
Ġque dan
Ã³ gn
tr uir
Ġen sa
Ġen lace
ta bilidad
Ġv irus
Ġco orden
Ġre di
Ã© monos
Ã© gimen
Ġf ibra
Ġpar es
iz adas
Ġal er
Ġal um
Ġsi mples
Ġdel ante
Ġme tro
di cidad
Ġtr Ã¡n
ĠE T
ĠE CU
ĠE jecu
Ġpue das
tes tad
Ġex am
Ġex tin
Ġex ager
im as
im ero
Ġinter per
Ġproces ada
Ġres istir
tur ar
si ficaciÃ³n
ĠS ecu
ĠS CROLL
Ġr Ã©gimen
ĠA P
ĠA udi
Ġcom ida
ĠP lan
Ġar ista
Ġver siones
Ġimp os
Ġimp lÃŃci
Ġhab itu
Ġmen ores
ĠI mple
Ġpo testad
ier ÃŃa
Ġinc Ã³gn
Ġcap tura
Ġ10 6
Ġrealiz ando
Ġresp ecta
Ġau tores
Ġsal iÃ³
Ġpres tado
ĠN acional
Ġvis tas
Ġaplic arse
ĠB lue
ĠIn c
Ġactiv ity
trar se
Ġinici almente
Ġabs tra
Ġingres Ã³
ĠSe guimos
Ġentr ante
Ġmon tÃ³n
Ġdar le
Ġadministr adores
Ġfi jos
Ġgu ÃŃa
Ġrepresenta ciones
crip ciÃ³n
Ġcompar an
Ġexpres an
Ġflu ir
Ġaudi o
Ġag reg
ion arios
Ġro bo
ĠdiseÃ± ados
Ġespecific ado
if i
Ġli derazgo
ĠcuÃ¡n tos
AS E
Ġon tologÃŃa
Ġinterac ciones
Ġsatis fa
Ġprove edor
Ġescal ar
ĠX P
Ġizquier do
Ġgan ancia
Ġher ed
Ġahor ros
Ġescrib o
ĠdÃ© biles
ĠMe todo
Ġarreg lar
Ġprepar aciÃ³n
Ġadap tarse
iza cion
Ġordin ales
ĠparÃ¡ metro
tÃº a
Ġgig as
Ġplanific ado
Ġentien dan
Ġestim aciÃ³n
Ġcuo tas
Ġviaj ar
Ġorigin ales
Ġcorre os
Ġemi tir
Ġnega tivos
via ciones
Ġhogar es
Ġvin cul
Ġequival ente
Ġmanu factura
ĠPr imero
Ġeduc a
Ġimagin o
Ġjuz gada
Ġsurg iÃ³
To da
Ġdepur aciÃ³n
Ġvig encia
Ġtranspar encia
Ġfacti ble
Ġbar b
Ġtransforma ciones
ĠConcep tos
ĠhomogÃ©n ea
Ġape la
Ġcostu mbre
Ġsubordin ado
Ġblan co
Ġsociocul turales
Ġsens ores
ines s
Ġacor de
Ġevolucion ando
Ġeng lob
Ġpolim or
Ġremun er
Ġpropagan da
Ġcoorden adas
ĠtrÃ¡n sito
Ġinterper son
. ,
1 2
D irec
H DPI
M ÃģTIC
P ues
b ern
g ing
i an
l amos
m biÃ©n
r ame
s u
u tas
u ario
y ac
Ġ '
Ġe man
Ġe quidad
de l
os ticar
Ġp ac
Ġp las
Ġc rece
ci les
on ente
ar ning
as ar
Ġm uer
Ġm adre
an cias
Ġen criptaciÃ³n
re mo
Ġd r
Ġd dr
ta mbiÃ©n
Ġv ivo
is iÃ³n
Ġh Ã¡
Ġco fac
Ġre fin
Ġf is
id irec
Ġno mbr
ue ven
Ġal f
Ġal ine
ur ÃŃa
Ġme mÃ©
di mos
di eron
Ġg am
ĠE val
la yout
da ciones
tar nos
Ġta x
tor ial
Ġob ede
Ġres tring
tu ales
Ġdeci dieron
Ġver ifica
Ġimp licar
Ġtrabaj en
Ġtrabaj ado
Ġhacer le
Ġhab lan
ĠD PI
po ca
Ġrec om
Ġdic hos
mb o
mi tir
Ġpre ocu
el ec
Ġpa utas
ĠM a
ĠEs os
Ġpas ando
Ġcap ta
Ġrep Ãºblica
Ġpos tu
Ġcre ada
Ġ10 8
Ġrealiz adas
ĠR ES
Ġsal ga
Ġpermi tan
Ġorden ados
Ġlen titud
Ġaplic adas
Ġexp licaciÃ³n
Ã³g ico
ĠV al
ĠH oy
ĠÃ© poca
Ġsub proceso
dr ÃŃan
Ġcaracter is
Ġespeci almente
Ġform ando
Ġform ales
Ġform ular
Ġestudi os
Ġcier re
Ġlib res
Ġlib rer
Ġcen tra
Ġdia gn
Ġacuer dan
Ġcal ce
Ġactu alizar
Ġimplemen taciones
Ġfi le
Ġgu ard
Ġbaj ar
Ġter remo
crip t
Ġexpres ada
Ġpropor cional
Ġinde x
Ġinde fin
Ġmar gen
Ġcuen tan
Ġconsider aciÃ³n
dic e
Ġmal ware
Ġenten d
Ġfr ame
ĠAn ual
Ġinclus iÃ³n
Ġparticular es
Ġch ina
Ġorien taciÃ³n
Ġcurs iva
Ġgus te
Ġestable cidos
Ġpresenta mos
ĠelectrÃ³n ica
Ġescrib a
SI ZE
Ġsig ma
Ġintercambi ar
ĠcrÃ©di tos
Ġcomunica cionales
ĠTo dos
Ġregres a
Ġmanej ando
Ġinmedia tos
Ġdetec ciÃ³n
Ġcategor ÃŃa
Ġdev oluciÃ³n
sion ales
LE CT
Ġestim adores
ĠMode lado
Ġimpres o
ĠÃº tiles
Co mp
Ġnega tiva
ĠcrÃŃ ticas
Ġmetaheur ÃŃsticas
Ġglob ales
ACI ONES
Ġincon venientes
Ġagrup aciÃ³n
Ġdeclar aciones
glo ba
Ġfrag mentos
Ġinser ciÃ³n
ĠMemor y
Ġbanc arias
Ġfacul tades
ĠarquitectÃ³n ico
Ġmicroserv icio
ĠUN I
Ġestandar izar
Ġhis toria
Ġautomatiz ado
ĠrectÃ¡n gulo
Ġrespec tivamente
Ġinvolucr adas
ĠAnal y
Ġenrique cer
Ġfortal e
Ġdiscre tas
ĠQu ito
Ġfamiliar es
ĠINF OR
ĠDefin iciÃ³n
Ġflec ha
Ġprobabil ÃŃsticos
ĠAU DI
ĠclÃ¡s ica
Ġprofund idad
ĠintÃ©rpre te
UP TEL
Ġdisp uestos
Ġrenego ciar
Ġnar ra
ĠteÃ³r ica
Ġamena za
Ġrue das
ĠRu tinas
Ġquisi era
Ġlibrer ÃŃas
) .-
C ons
D ebe
E Y
G O
G SI
M BR
P er
Q ue
a xi
e mas
g in
n an
s as
w w
Ġde mor
Ġl ic
Ġs ql
es es
or ama
que mos
un a
Ġque hacer
tr ac
in o
Ġn ul
Ġv ÃŃas
is e
is tro
ÃŃ tulo
Ġin j
Ġh ÃŃ
Ġco g
Ġco axi
Ġre duc
Ã© tica
Ġpro vis
Ġt era
us o
Ġno tas
Ġb log
Ġal ar
Ġal tas
Ġlo co
Ġcomp ac
tic ales
Ġser ies
Ġda Ã±o
Ãº an
Ġdes emb
des e
Ġex terior
iv idad
Ã©n do
fic ar
Ġob vio
Ġres tar
Ġap Ã³s
Ġinf lu
ĠC omunicaciones
ul ario
ĠL an
ĠS ea
ĠP ue
Ġcons istir
Ġar bi
ĠD onde
mor ia
gun as
ĠI EEE
Ġcar ros
Ġpre via
Ġcontrol adores
ĠM on
Ġproduc tores
Ġj un
ĠT AB
Ġcap ÃŃtulo
Ġcam is
Ġcre adas
Ġlle ven
Ġ10 9
Ġsob rec
Ġau ten
ren unci
ĠU til
Ġad yac
Ġcambi antes
Ġdefin ida
Ġrela tiva
me ga
Ġrecurs ivas
Ġpres idente
par aciÃ³n
Ġalmacen adas
Ġven ir
Ġequi vo
ĠH ab
Ġsigu iendo
Ġconstitu idos
ĠG aus
Ġir renunci
Ġdesp lie
Ġentr en
mul as
Ġcal cu
Ġactu alidad
Ġestructur ar
Ġinteres adas
Ġcompren den
Ġcompren dido
Ġcr is
ĠjurÃŃd icos
ĠRe querimientos
Ġpi ezas
Ġnum Ã©ricos
Ġconsider ada
Ġconsider amos
Ġmal icios
uer to
Ġho ja
Ġ19 9
ĠrÃ¡p idos
Ġfr ÃŃo
Ġdistribu idas
EN AD
reg istro
Ġanal ista
Ġindic ando
tÃ¡n dose
Ġexter namente
ĠcomÃºn mente
AS T
AD ENAD
Ġsopor tan
Ġinstitu to
Ġprove er
ach e
Ġtendr Ã¡n
Ġoptim izando
ĠX ML
Ġru tina
Ġra pidez
Ġgan ancias
ĠlÃŃ deres
Ġeficiente mente
Ġbin arios
Ġbloque ar
Ġobten ida
Ġobten idos
Ġrecog ido
ĠfÃ³r mulas
Ġpriv ado
Ġestan darizaciÃ³n
Ġinstal ar
Ġmill on
ĠServ icios
Ġam d
Ġexperi mentaciÃ³n
ĠAp ache
âĢ Ļ
ĠOb jetivos
ĠtÃŃp ico
Ġproteger se
Ġsum ando
Ġvac ÃŃo
ĠIR Q
san dra
ĠhistÃ³r icos
Ġdue Ã±os
Ġconvers ar
Ġaprovech ar
Ġexclus ivo
Ġdivis ar
Ġadop tar
Ġtrayec torias
Ġemo ciones
Ġvincu lado
Ġvincu lante
ĠNe umann
Ġilus tra
Ġfrecu ente
Ġdu da
Ġaca parar
Ġnomin al
Ġcontrase Ã±as
ĠENC ADENAD
Ġmeg abits
ĠInterrup ciones
Ġtitu lar
Ġmodela je
Ġconces ionarios
Ġmanifies tan
Ġaveri guar
Ġsemi estructur
ĠIV A
Ġvocab ulario
Ġhack ers
ĠRo cket
Ġimpos ible
Ġmuer e
Ġterremo to
ĠapÃ³s tro
ĠGaus s
) ;
A s
C D
C PU
L uego
L IC
O b
S u
U SE
X X
a ta
h ip
i amos
o w
r ado
s or
u ter
u ts
w n
Ġ is
Ġde le
Ġde ducir
Ġl in
Ġp ad
Ġp len
Ġs p
Ġa tien
Ġa val
Ġa mbi
Ġa rea
es t
on ada
ar as
qu en
or n
Ġes encia
te x
ti di
tr en
tr ans
in ter
in form
Ġen um
Ġd ra
mp utador
Ġco ger
Ġco difica
Ġco tidi
Ġre ce
Ġf l
Ġpro te
Ġpar ser
Ġb arr
Ġcu estion
di mientos
tiv e
Ġten gas
bi to
Ġsu g
ĠE ST
Ãº menes
Ġdes en
Ġha gamos
Ã± Ã³n
Ġle jos
Ġinter medios
Ġres al
Ġap are
tu ando
ĠC R
ĠS TA
ĠS elec
il le
il las
Ġte xtual
Ġdeci de
Ġinform ar
ĠP OS
Ġins tan
Ġar ro
Ġ2 000
ra ys
ĠD o
ver tencia
Ġreg iones
Ġcar ro
Ġtrans fieren
ez can
Ġejecu tivos
Ġorgan ismo
lic ando
um na
ĠM al
Ġdirec tivos
TO S
ĠT ener
Ġcre ciente
Ġrealiz ados
Ġresp uestas
Ġad vertencia
pen s
ĠN O
Ġvis ibles
Ġven diendo
Ġexp or
Ġexp ro
ĠB Ãºsque
isten tes
val ores
ĠH yper
Ġestar ÃŃa
Ġdepen diente
Ġref or
Ġabs ur
Ġcen so
Ġescri tos
ĠF lex
Ġintegr ante
Ġconsi de
Ġconsi gue
ĠUn iversidad
Ġdia posi
Ġencuen tro
Ġrelacion an
Ġactu alizaciÃ³n
Ġfi abilidad
Ġcol Ã©rico
Ġrepresenta tiva
Ġprimer amente
Ġcompar tido
Ġcompar tida
Ġcompe tir
Por que
Ġ11 4
Ġprodu zca
ed ora
Ġmulti dimen
Ġreci entemente
Ġtelec omunicaciÃ³n
Ġnum eros
Ġconsider ando
dic ciÃ³n
Ġbienes tar
Ġdeman dar
ĠespecÃŃ ficamente
ĠDE L
Ġenten dible
Ġsepar ables
Ġtu vo
ĠinformÃ¡ ticas
Ġro uter
Ġrecuer do
Ġasoci adas
IN G
Ġgas tar
RE USE
Ġmultip licidad
Ġraz ones
Ġinterpre ta
Ġelectr icidad
Ġescal onada
Ġperio dicidad
Ġcompr Ã©
Ġguar dan
Ġescuch ado
Ġescrib en
ĠEx iste
cr ono
Ġconcre ta
Ġconcre tos
Ġsatisfac e
Ġrepe tir
Ġk il
Ġrecog er
Ġplante a
Ġense Ã±a
ĠsemÃ¡n tica
LO B
ys is
Ġrepeti dos
Ġdesti na
Ġpus h
Ġpus o
Ġfo to
Ġsuce diendo
Ġsan itaria
Ġesper ar
Ġdej aba
Ġ201 9
ĠÃ ī
Ġpoten te
Ġelector ales
ap ital
Ġargumenta tivo
Ġflex ible
Ġcontribu ido
Ġtrabaje mos
Ġpreval ece
pol itan
Ġocu p
Ġcomputa cionales
Ġexclus ivamente
ĠelÃ©c trico
Ġhal lar
Ġtor re
Ġki lob
Ġremo ta
Ġdestin adas
ĠSu pon
Ġmul tiv
Ġreutiliz able
Ġrev oluciÃ³n
Ġlis tado
Ġcomprome ter
Ġgrad u
Ġdificul tades
Ġseleccion ado
Ġpop ular
Ġol vid
Ġprobable mente
Ġcostu mbres
ĠProces s
Ġayud ando
Ġnomin ales
Ġuniform e
ĠacadÃ©m ica
Ġindis pens
ĠDA TA
Ġantigu os
ĠvÃŃn culo
ĠPar ti
Ġsencill ito
Ġenf ren
Ġalo jar
Ġperci ben
Ġprac tica
ĠtrÃ¡ fico
Ġfundamenta ciÃ³n
Ġcuy as
Ġos ea
ÃŃna te
Ġrenun cia
ĠsocioeconÃ³m ica
Ġpolimor fismo
ĠhÃ¡ bito
ĠINFOR MÃģTIC
Ġinflu encia
Ġenum er
ĠSTA TIC
ĠBÃºsque da
- >
5 00
? :
A V
C M
D entro
M O
Y N
] [
f ras
g orit
h t
l ad
m Ã¡n
n ers
r ue
r iendo
t ners
z co
Ġ &
os os
os as
Ġl lave
Ġp iz
Ġc uel
Ġs tring
Ġque de
an da
ti Ã³
tr icos
Ġen e
Ġen co
Ġen fer
Ġen cam
Ġun iÃ³n
Ġv ieron
Ã¡ ticas
ÃŃ gen
am er
Ġh ambre
Ġre torno
Ã© trico
Ġf etch
Ġpar tners
cion ario
id urÃŃa
Ġpor tal
Ġpor quÃ©
Ġpor tÃ¡
us uario
Ġno ta
Ġdel im
Ġme ter
Ġme tida
Ġg al
Ġdi Ã¡
ĠE L
ĠE X
Ġdes tre
Ġso cios
Ġac og
Ġac eler
Ġres uelve
Ġres oluciones
aliz ando
tu m
ĠC am
ĠC ol
ĠC isco
Ġan id
ĠL ine
Ġman d
ĠS ÃŃ
ĠS ata
Ġte or
ĠA S
ĠP as
Ġcl ic
ĠD er
ĠD ual
Ġrec ur
it adas
ĠI T
ĠI BR
no w
Ġpa gado
Ġpa cientes
lic ados
ĠM uch
ĠM IN
Ġmuch ÃŃ
Ġcual ific
Ġdirec tiva
Ġcap tur
Ġprim ada
Ġcre er
log y
Ġsab idurÃŃa
tico mputador
Ġred acciÃ³n
om ici
lec tura
Ġab ono
ĠN IC
ĠO k
ĠO n
Ġven imos
Ġrepres ente
Ġay er
Ġhabl ado
ĠH asta
Ġplan es
Ġpe didos
Ġtom ada
Ġley endo
Ġdocu mentar
Ġtab ular
Ġllev ado
Ġconta cto
Ġemple ando
Ġescri ta
Ġna cionales
Ġtal en
ĠÃºlti mas
Ġimplemen tados
Ġgu erra
Ġcol abora
Ġdistin ta
Ġeval Ãºan
bier on
Ġefec tivamente
Ġ11 3
op era
Ġprodu cidos
Ġdeno ta
Ġestab an
Ġclar os
Ġpun ta
Ġaudi tado
Ġdenomin ar
Ġdenomin ada
Ġpens amientos
Ġrespe ten
ĠseÃ±al an
Ġprob abilidades
ĠPro ce
Ġmor ir
olÃ³g ica
Ġaleator ios
Ġrequis ito
IN CRE
Ġch i
ĠcompaÃ± era
Ġcambiar lo
Ġrevis iones
Ġocur r
RE AD
ĠEcu aciÃ³n
Ġmultip lica
Ġafec tan
Ġinterac tuando
Ġconstr uyen
Ġorien tados
Ġargu mento
Ġcla Ãºs
Ġvirtu des
Ġdesarroll adas
tel la
Ġliber al
Ġra tÃ³n
Ġescuch ando
gra ph
Ġoportun a
Ġarreg los
Ġavan zar
ĠmÃºltip le
Ġprior it
Ġadecu ado
LO OP
Ġincor pora
Ġmanej amos
her net
Ġinvoluc ran
Ġdemos traciÃ³n
Ġvector iales
Ġdese an
Ġmoni tores
Ġpudi eran
Ġprov in
Ġsuel dos
Ġtras lad
ĠServ icio
Ġimpres iÃ³n
cron as
ĠMO OC
Ġexperi mento
Ġcoordin an
Ġbo tella
Ġhar dening
Ġfactor izaciÃ³n
Ġdescu brimiento
Ġentrevis tas
ĠPer mite
Ġpier den
ĠgeogrÃ¡ ficamente
Ġden s
Ġinci dentes
ĠED OS
Ġreserv adas
ĠGener almente
To do
Ġocu pa
ĠcÃ¡m aras
Ġendeud Ã©
Ġheur ÃŃsticos
Ġavanz ando
Ġavanz ada
Ġeur ope
Ġand ina
Ġitera tiva
Ġcerc anÃŃa
ĠSin taxis
Ġmega her
ĠenseÃ±ar on
Ġprimi tivo
Ġreflej an
Ġtradi cional
Ġinterven ciÃ³n
Ġinterven ir
Ġequita tiva
Ġacon se
Ġrecomen daciones
Ġelev ado
Ġpele a
Ġprofun da
Ġhos p
Ġcontrase Ã±a
Ġexposi ciÃ³n
Ġliter ario
Ġatac antes
Ġmezc lar
Ġmaes tro
Ġeconom istas
Ġadelan tado
Ġconson ante
ĠDetermin ar
Ġrazon amiento
Ġlegisla tivo
Ġkilo va
Ġvers us
Ġmercanc ÃŃas
ĠSer ver
Ġinterbloque o
Ġjuris dicciÃ³n
ĠimportantÃŃ simo
ĠvehÃŃ culo
Ġensa yo
Ġalum nos
Ġcofac tores
Ġcaracteris ticas
Ġsobrec arga
Ġpiz za
Ġenfer m
+ +
1 1
1 98
5 0
A P
B ase
C OM
F AU
G ener
L ES
L INE
M an
T P
T R
Y o
d pi
i de
l adas
l ite
m un
o le
u tos
u era
v emos
v el
z ada
Ġe res
Ġe gres
os tu
Ġl Ã¡
Ġl uch
Ġp al
Ġp ie
Ġc e
Ġc aj
Ġc ientos
Ġc ita
es to
Ġm Ãºs
Ġm adu
ti ons
ta miento
ÃŃ genes
Ġin tan
Ġco las
Ġco procesador
Ġpar tÃŃ
cion ada
Ġt Ã¡c
le z
us iones
Ġno ciones
Ġb ur
ter ales
Ġsi mÃ©
ur as
Ġme todos
Ġper tin
Ġg ol
Ġtr oy
Ġdi rÃ¡
Ġi f
Ġcomp ras
ĠE R
Ġser ÃŃan
Ġdes a
Ġdes orden
Ã¡s tica
Ã± ador
Ġac tos
Ġac ostu
Ġle ÃŃ
Ġor aciones
Ġinter rump
Ġproces a
Ġres ol
Ġres truc
aliz aciones
ĠC L
ĠL INE
Ġop cional
Ġma gn
ĠA t
Ġinform al
Ġins tante
Ġver b
Ġcl ima
Ġvari antes
ĠD on
Ġca y
enta ja
Ġdic has
Ġbas Ã¡ndose
ver tidas
Ġpa gÃ³
ĠEs tu
Ġproduc tivo
Ġorganiz an
ĠT ra
Ġprop iamente
ĠU SB
Ġregis trado
lan tes
ĠN U
ĠO mega
Ġven drÃŃan
Ġexp onen
Ġexp onente
Ġlengu as
ĠV en
Ġve ci
Ġpe trÃ³
abil ity
Ġsub je
ĠG P
Ġmens aj
Ġsignifica tivo
Ġidentific ado
Ġintegr ado
ja te
Ġejecutar lo
Ġencuen tren
xi onar
Ġimplemen tan
Ġgu bern
can z
Ġderiv aciÃ³n
Ġindi rec
Ġpodr ia
Ġcompar able
Ġmin utos
Ġincre mente
Ġlec turas
ĠÃºn icas
Ġauto valores
Ġsencil lez
Ġprofes ores
ĠaritmÃ© tico
Ġdescrip tivo
Ġmicro economÃŃa
Ġsepar ar
Ġdistribu idos
Ġro mbo
Ġpresen tando
EN E
EN TO
ĠsÃ© p
ĠPro to
Ġrecor rer
Ġposible mente
Ġrefle xionar
Ġaleator iamente
Ġrevis tas
Ġencu es
Ġocur rido
Ġafec ten
Ġreal ice
Ġorien ta
Ġproporcion ados
Ġgus tan
ip s
Ġdesarroll ador
Ġsolici tÃ³
ĠAl gunos
Ġacep ta
Ġestable cidas
Ġtransform ado
Ġviv en
Ġcolo c
Ġ27 000
Ġconver siÃ³n
Ġapor taciÃ³n
Ġcuad ro
Ġespecial istas
IS C
Ġregular mente
Ġadecu adamente
Ġelabor ados
Ġaplica tivos
Ġrespal d
Ġrespal dos
Ġpriv ada
Ġreun ir
ĠK EY
Ġtes te
Ġdese os
Ġpudi Ã©ramos
Ġvisu ales
Ġcolabor ar
Ġcorre la
Ġinal canz
Ġconsidera ciones
Ġemi ta
Ġnu lo
Ġimpres ora
Ġsan gre
Ġesper ado
Ġexig e
Ġmanu almente
Ġenca den
ĠÃ ģ
Ġimagin Ã©monos
Ġargumenta tiva
ĠfÃŃ jate
Ġacces os
Ġesfuer zos
Ġcuar to
Ġmercan tiles
Ġofici nas
Ġsensi ble
ĠperiÃ³ dicos
Ġhabi amos
Ġfij arse
Ġviol aciÃ³n
Ġdemas i
Ġrem ueve
Ġid io
Ġdesv entaja
ĠenseÃ± an
ĠDise Ã±ador
Ġcomprome te
Ġtuvi mos
ĠUs tedes
Ġcub re
Ġasum e
Ġdedic an
MEN SION
Ġjue gan
ĠDA TOS
ĠTen go
Ġcomplement arios
Ġconson ancia
ols os
ĠAm Ã©rica
Ġhipo tec
ĠCD MA
gon al
Ġconm u
Ġabar ca
ĠsatÃ© lite
arch ivo
Ġendu re
Ġbio inform
Ġsecre tarÃŃa
Ġdescentr alizaciÃ³n
Ġmutu a
ĠdÃ³lar es
iver si
ĠTemp eramento
Ġinconsisten cias
ĠbiolÃ³g icos
ĠNet work
iddle ware
Ġrepro ducciÃ³n
ĠMetodo logÃŃa
Ġtax on
Ġframe work
Ġcoaxi al
Ġdesplie gue
ĠENCADENAD A
Ġsemiestructur ados
Ġsug iere
ĠProcess ing
Ġrecur rir
FAU LT
Ġmadu rez
Ġintan g
Ġbur gu
ĠpetrÃ³ leo
Ġgubern amen
Ġbioinform Ã¡tica
' '
B X
W S
a ti
a pi
d ÃŃa
e men
g los
g Ã¼
j untos
l imin
n b
o th
p ma
s en
u z
u ales
Ġde terior
Ġde leg
Ġp id
Ġp ÃŃxeles
Ġs ys
er amente
er vi
ci encia
es tral
ar nos
to oth
Ġla menta
Ġd adas
Ġn ervi
ta ba
ic ar
is tic
Ġse pa
Ġh as
Ġh um
Ġco leg
Ġre tribu
Ġre duce
ec hos
Ġno ticia
iz amos
men tador
Ġme tal
Ġper dido
Ġtr ip
Ġto p
Ġcomp ila
Ġus b
Ġdes eo
Ġdes viaciones
ode mos
den s
Ġtien de
gu almente
era ciones
Ġac aba
Ġac tÃº
Ġta ble
Ġemp u
Ġdis tor
tor e
Ġor gÃ¡n
Ġinter ferencia
Ġres istencia
ĠC os
ĠC uen
ĠC om
ĠC apital
Ġan dar
ĠL ISTA
ĠS tring
ĠS GSI
Ġeste mos
ĠP AR
Ġu tp
Ġhab r
Ġhab ido
Ġqu ad
ĠD eb
Ġdic cionario
ĠI gualmente
Ġmi ti
Ġmi pma
Ġesp iral
Ġreg ion
Ġcar a
Ġas is
Ġpre limin
ga ciones
Ġpa uta
Ġpa ciencia
ri ja
Ġproduc tor
Ġj ugar
Ġorganiz ados
Ġdiferen ciaciÃ³n
ĠT ec
Ġcre emos
Ġprop uesta
Ġau tos
las h
Ġtipo logÃŃa
Ġmejor e
me moria
Ġdo wn
Ġorden ar
Ġorden aciÃ³n
Ġexp oner
Ġconj u
ĠB o
ĠB ien
ĠB lo
ĠV ector
Ġnorm alizaciÃ³n
ĠH emos
ĠH erramientas
ĠH ow
00 1
Ġsegur os
ĠCon si
Ġir Ã¡
Ġinv ier
Ġllev arse
Ġcen tros
ĠseÃ± as
Ġtrabajar lo
ĠSe gun
Ġintegr arse
Ġdesp ren
Ġmon ta
pe d
Ġrepresenta tividad
Ġconten ida
Ġconten ga
Ġindi que
Ġcompar ar
Ġcompar aciones
Ġmin Ãºscula
Ġpropor cionales
Ġrepresen tada
Ġni Ã±o
Ġreci b
ĠRe al
Ġpi Ã±Ã³n
Ġcentr an
Ġposi tiva
ĠgrÃ¡ ficamente
Ġproto tipos
Ġfundamen tos
Ġag iles
ex t
ĠrÃ¡p idas
Ġleg almente
Ġrespe tan
Ġrespe temos
ĠW H
Ġale mÃ¡n
Ġmanten iendo
Ġcombin ados
ĠDe v
Ġdispon emos
ĠPro ject
AC HE
Ġlogr an
Ġsimul tan
Ġempez Ã³
Ġaten diendo
Ġaten uaciÃ³n
Ġata Ã±
Ġgobier nan
IN T
Ġgaran tiz
Ġrevis ando
Ġconstr uya
Ġsatis fec
Ġdomin ios
Ġtempor izaciÃ³n
Ġescal ares
Ġcompr ado
Ġviv ienda
Ġher cios
Ġapoy an
Ġ27 001
Ġconduc tas
ĠMe di
Ġmencion a
Ġelimin aciÃ³n
Ġconform e
Ġconform an
Ġconfigur ar
ĠLO PD
Ġconstante mente
itu des
Ġconsu mi
Ġinstal aciones
Ġdese amos
Ġcel das
RI OR
Ġdefini ciones
Ġtecn olÃ³gico
Ġubic ado
Ġpers istentes
ĠcrÃŃ tica
Ġbo ca
ĠIns titu
ĠÃ¡rbol es
ĠtÃŃp ica
Ġpier da
Ġsim il
Ġpien sen
ĠComp uesto
ĠgeogrÃ¡ fico
Ġapun tes
enti miento
Ġinci den
Ġinser tar
Ġjuz gar
Ġproyec ciÃ³n
Ġclasific adores
Ġaf uera
Ġmone das
Ġbanc ario
Ġprogres o
Ġhabi tual
ĠÃ³rgan o
Ġtor no
Ġnave gaciÃ³n
Ġheur ÃŃstico
Ġsuminis tra
Ġtrate mos
Ġid Ã©n
Ġrev elar
Ġciv iles
Ġinfl uyen
Ġinvolucr amos
Ġlig eramente
Ġdificul tad
Ġbrin dan
Ġprovo can
Ġmaxim izaciÃ³n
Ġfrecu entemente
Ġexcel ente
Ġmunicip al
Ġmicr Ã³
Ġrecomen d
Ġempiez o
Ġreac ciona
Ġaprob ada
Ġintr usiÃ³n
AU TOEXTEND
ĠvÃŃn culos
Ġarmon izar
Ġpreten de
ĠgenÃ© ticos
Ġsencill amente
Ġapropi ado
Ġverific an
Ġrazon able
Ġimprim ir
ĠDocu mentador
Ġencapsul amiento
Ġmol esta
Ġconstru ido
Ġresum ir
ĠtelefÃ³n icas
Ġdefectu osa
Ġases orÃŃa
Ġcontras tar
Ġgratu itos
Ġtoler ante
Ġclasifica ciones
Ġadquisi tivo
Ġfras es
Ġinfin ito
Ġmigr aciÃ³n
ĠInterna cional
Ġnaci eron
Ġcongruen cial
eco dific
Ġilim itados
Ġmetro politan
ĠBlue tooth
Ġvincul ada
idirec cional
Ġalf abe
ĠmemÃ© ticos
ĠEval uaciÃ³n
Ġrecom ienda
ĠAnual idades
Ġpad res
Ġcuestion ario
ĠDo min
Ġmultiv alor
Ġenco men
Ġcualific ados
ĠclaÃºs ulas
api tu
Ġlamenta blemente
Ġhum il
Ġtrip le
Ġmipma p
2 3
4 5
A r
A u
C O
C LE
G L
L U
N IC
O r
X VALUE
Y CLE
b s
c tima
g adores
h ib
l in
l ici
n e
o c
t sa
v entajas
y en
de lo
Ġl id
Ġl uz
en a
en d
Ġp ci
Ġp il
Ġc ÃŃr
Ġs ien
er se
Ġa go
Ġa mis
Ġa gen
Ġa loj
ar gu
ar Ã¡n
or dar
te z
Ġque den
an d
in t
Ġen tro
Ġen ga
Ġen laz
Ġun en
Ġd ol
Ġcon ting
Ã¡ tico
Ġin ta
Ġh id
Ġco o
Ã© trica
Ġf amos
Ġpar que
Ġpar tiendo
ec tores
Ġno mbrar
Ġb ps
res a
Ġcu esta
Ġdel ic
ur ce
Ġper miso
tiv ity
Ġdi me
Ġdi arios
Ġdi arias
Ġdi rija
Ġsu ceso
ari able
Ġcomp ara
Ġcomp ati
ĠE mp
ĠE jemplos
ten te
ten imiento
Ġdes cri
Ġdes ign
Ġhac ÃŃa
Ġemp ÃŃr
Ġdis par
Ġap res
Ġap rue
tu bre
si onar
Ġinf r
Ġinf il
Ġdeb idamente
ĠL enguaje
Ġop code
ĠS M
il ador
Ġdeci diÃ³
ce dente
Ġr ique
ĠA N
ĠA ta
ĠA unque
eren tes
ĠP olÃŃ
ĠP hen
Ġimp ul
ĠI ma
no logy
Ġesp on
Ġval ora
Ġas iento
Ġpre vis
Ġtrans ferencias
Ġfin ito
Ġobje tividad
lar aciÃ³n
Ġejecu tado
Ġsus tan
Ġmedi cina
Ġcontrol an
Ġmo tiva
Ġgener ada
Ġcos tes
Ġcos tar
Ġprop oniendo
Ġau d
Ġau mentando
fin e
log os
Ġad mi
Ġele mentales
ho use
Ġcambi e
Ġcambi ado
Ġsal iente
Ġsal ido
Ġsal iendo
Ġdetermin ÃŃstico
fici encia
Ġpermi tiendo
Ġllam Ã³
ĠN OM
ĠN TIC
ĠN OC
par te
minis terio
Ġven da
Ġven tan
Ġven dan
ĠV A
ĠV irtu
ĠH T
Ġayu den
Ġplan os
Ġve ÃŃamos
Ġanaliz o
00 00
Ġconstitu ir
Ġestudi ado
Ġcomple mento
Ġir re
Ġingres amos
Ġllev emos
Ġescri bimos
Ġcumpl ido
ĠseÃ± or
Ġintegr ada
ha tsa
Ġconsi gu
Ġcontra tado
Ġcontra argu
Ġoblig ar
Ġoblig ado
Ġoblig adamente
Ġencuen tras
Ġnego ciaciÃ³n
ens ar
Ġrelacion ando
Ġrelacion arse
Ġcal iente
Ġdar me
Ġgu Ã¡r
Ġcur vas
Ġinteres antes
Ġderiv ar
Ġderiv aciones
Ġmater i
Ġ/ :
Ġefec tu
Ġcorrec tos
ud ica
Ġrepresen tados
Ġoc tubre
Ġsignific an
Ġmal o
Ġencar gan
Ġ19 6
ex ecu
Ġmicro ch
Ġtu b
ĠPro ble
Ġabstrac tas
Ġsup uestos
Ġfacil idades
Ġfacil itando
Ġrevis an
Ġocur ra
Ġdirig ida
Ġdirig idos
Ġayudar Ã¡
ĠautomÃ¡ tica
ĠÃ³p tica
Ġagr ad
Ġapoy ar
ĠdÃ© je
Ġintercambi an
Ġevi ta
Ġcuad rar
Ġmencion ados
Ġinten ciÃ³n
ĠsemÃ¡n ticos
Ġmu taciÃ³n
Ġadap taciones
ĠAr ch
ĠAc tivos
ĠK B
Ġano tan
Ġano taciones
Ġgig abytes
Ġproteg e
Ġrepeti tivo
Ġdese e
ĠHD PI
Ġcaus ar
Ġpus ieron
Ġdefini tivo
ĠvÃŃ ctima
Ġemi te
Ġpen a
Ġexc luir
Ġran ura
Ġdesempe Ã±ar
Ġexig ir
Ġresta ur
Ġfich ero
Ġdejar lo
Ġquier as
Ġlog re
Ġterri torial
ade cu
Ġais ladas
Ġsumar le
Ġinterv iene
Ġmover se
Ġlegis laciÃ³n
Ġbanc arios
Ġsimilar es
TI V
Ġprogres ando
Ġobligator ia
Ġvig il
Ġhici mos
ĠMA X
Ġdescomp oner
Ġalter ar
Ġcontabil izan
Ġinvestiga cion
jec tion
ĠsÃŃn crona
Ġbar ra
Ġexplor er
Ġcomen zar
Ġcoment Ã¡bamos
Regis tros
Ġconserv aciÃ³n
Ġtuvi Ã©ramos
Ġotor gar
trib uye
Ġcub ren
Ġabsolu ta
Ġfortal ezas
Ġanticip ada
Ġvice ministerio
Ġblan ca
Ġperj udi
Ġcomprensi bles
ĠINF O
MEN T
Ġpreven ir
Ġatac ante
Ġsociocul tural
Ġrig e
Ġfrac aso
Pue de
ĠtelefÃ³n ica
zÃ³ cal
ĠnÃ³ min
ĠnÃ³ mina
ĠreÃºn en
ĠFu ente
ĠSimple mente
Ġenorm es
ĠvÃ¡l ida
usto mer
Ġdescub ren
Ġsobres al
Ġampar ado
ĠmonolÃŃ tico
Ġreemp laz
Ġprivilegi adas
Ġsemiconduc tor
ĠInc lus
Ġeduca tiva
Ġremuner aciÃ³n
Ġfortale cimiento
Ġinj erencia
ĠPue de
Ġarbi tr
Ġirrenunci able
LOB AL
ĠportÃ¡ tiles
Ġtalen to
Ġenferm era
Ġinalcanz able
Ġnervi oso
ĠCos to
Ar quitectura
Ġlid iar
Ġpil as
ĠcÃŃr culo
Ġrique za
ĠPhen om
hatsa pp
ĠguÃ¡r delo
8 0
C AL
D AD
E jemplos
G ran
I AS
I ENTO
L F
L I
P E
T en
T iene
W AS
f onos
i tantes
i esta
l l
l iente
l Ã³g
n iz
s t
t arias
u an
u ciÃ³n
v os
w able
z can
Ġ ic
Ġ Ã¡ngulo
Ġe timo
Ġde ven
os que
os trar
os tenible
Ġl Ã¡p
Ġl ist
en o
Ġc recer
Ġa vi
Ġa mar
to f
ti os
ti ra
Ġla ica
Ġen ero
Ġn ace
ta b
Ġv ia
Ġv elar
ic en
ic ana
Ġse man
ÃŃ ble
Ġin ac
Ġin tu
am Ã¡s
Ġh uÃ©s
Ġh Ã¡g
Ġco menta
Ġco opera
Ġre tos
Ġre tor
Ġre pos
ien cias
Ġpro cur
id Ã©
us ticia
Ġno ti
Ġno tar
Ġpara fras
Ġb osque
Ġest ÃŃ
ol i
Ġg a
Ġg ir
Ġg Ã©n
Ġtr iga
Ġdi aria
Ġi tof
Ġto car
Ġto tales
ten d
Ġex amen
ton om
Ġdis tr
Ġdis con
Ġor ÃŃgenes
Ġinter ferencias
aliz o
Ġesta tura
tur o
Ġsiste mÃ¡tica
Ġinf ec
ĠC S
ĠC U
ĠC aja
Ġan da
ĠL U
Ġop tar
dad as
ĠS P
ĠS al
Ġr ÃŃg
ĠP an
ĠP re
ĠP ython
Ġins ostenible
Ġcons enso
Ġtrabaj aba
ĠD YN
Ġca uch
mor fos
Ġej es
Ġmen tira
ĠI mpor
Ġgr ab
Ġcar tas
Ġas isten
Ġas cen
Ġutiliz Ã³
Ġgen Ã©rico
Ġesto c
Ġejecu tadas
Ġpoder la
ĠM ac
ĠM ir
ĠM iddleware
ĠM ostrar
ĠEs tan
con omÃŃa
Ġgener alizada
Ġj ava
Ġj amÃ¡s
Ġcos tÃ³
gar se
Ġcap it
Ġesc uela
urs o
vi Ã³
Ġregis ter
Ġsab iendo
Ġsal u
Ġllam o
Ġrecurs ividad
ĠN AS
ĠO pen
ĠO WAS
vis a
Ġvalor aciÃ³n
Ġven den
Ġdise min
Ġdise Ã±os
posi ciÃ³n
Ġespe jo
ĠB X
ĠB an
ĠV entajas
Ġresul tar
car pe
Ġpe gado
Ġpe dido
Ġpe ticiÃ³n
Ġsub e
Ġsub carpe
Ġtom emos
Es tÃ¡
Ġpol ares
Ġinv ir
Ġtab l
Ġescri tas
ĠF rag
Ġcumpl iendo
Ġcontra ta
Ġparti ciÃ³n
Ġvi deos
Ġcondi cionales
Ġsoci edades
Ġexper iencias
Ġbaj as
Ġinteres ados
oci do
Ġcompar abilidad
Ġren tas
Ġcr on
Ġincre mentan
Ġ11 1
Ġmulti pro
Ġdisc usiÃ³n
Ġpun tual
Ġencar gue
proces amiento
Ġ19 8
Ġag il
Ġdenomin ados
Ġgra ve
ĠW ord
Ġpresen tado
Ġcombin an
ĠAn te
ĠDe pen
Ġanal Ã³gico
Ġindic ador
AM IENTO
Ġrecor re
Ġsimul ar
Ġrecuer dan
Ġllevar lo
Ġtermin os
tÃ¡n eamente
IN VALUE
ĠcuÃ¡n tas
ĠcuÃ¡n tica
Ġocur ren
Ġauditor ÃŃas
ĠEcu aciones
Ġseguir se
Ġnecesi te
Ġprove en
Ġampl itud
Ġargu mentaciÃ³n
Ġsac ando
Ġenvi ado
Ġenvi aba
Ġobserv aciones
Ġcontinu as
Ġparticip an
ĠJ uan
ĠJ usticia
ĠAl gorit
Ġlim itados
Ġestable ciendo
yo uts
Ġenfo ques
Ġgan Ã³
Ġ13 3
Ġescuch amos
Ġvay as
Ġbloque o
cr Ã¡tica
Ġfon emas
Ġsatisfac en
Ġmodific ados
Ġ| ]
Ġvender le
Ġcapaci tar
Ġconform ado
Ġcable ado
ĠAc Ã¡
Ġordin al
Ġplanific an
Ġconven ciones
Ġconven ga
Ġcerr ada
Ġconstruc ciones
ĠdifÃŃ ciles
Ġextra ÃŃ
Ġactualiz ado
Ġtras puesta
Ġdej Ã©
Ġexperi mentado
Ġcoordin ar
Ġran uras
ĠAp p
Ġglob almente
ĠCons iste
Ġincorpor an
Ġrefer irse
Ġrepor te
Ġsecuenci aciÃ³n
Ġacerc arse
Ġmos trando
aliza cion
ĠPr ue
DI MENSION
Ġapun tadores
Al gunos
Ġinci dencia
Ġparale los
Ġacces ible
Ġprede fin
Ġprede termin
ĠBig table
Ġaprovech ando
pol ÃŃ
Ġdescon o
Ġmanda to
Ġencaps ular
ĠelÃ©c trica
ĠelÃ©c tricos
Ġcome ter
ĠDirec cionamiento
Ġhal f
orden adores
ĠMan tener
Ġheur ÃŃstica
Ġsuminis tro
Ġmul ticomputador
Ġmega hertz
Ġdemo crÃ¡tica
Ġpare cido
Ġetique ta
Ġfle mÃ¡tico
Ġperman ente
ĠsinÃ³n imos
ĠUs u
Ġbrin da
Ġps ic
Ġdiscrimin o
ĠConcep to
ear ning
Ġmanif iesta
ĠclÃ¡us ulas
ĠProces os
Ġabre via
Ġadqui rido
Ġpreven ciÃ³n
Ġsubsecre taria
Ġcoh erente
Ġprobabil ÃŃstico
Ġempa que
Ġdoc entes
Ġkilo hertz
Ġvalios o
Ġves tir
ĠRE AD
ĠFu turo
Ġparametr iz
ĠCas sandra
ĠIngen ierÃŃa
Ġincomple ta
ĠEspeci fica
Ġintens ivo
Ġcontin Ãºa
Ġtables pace
Ġinters ec
Ġgrama ticales
Ġasamble a
Ġgrup al
Ġfran c
Ġhabitu almente
Ġapela tiva
ĠRES T
ĠHab ÃŃamos
ĠapÃ³stro fe
Ġdra wable
ĠCR M
Ġexpro pi
Ġrefor zar
Ġconside remos
Ġdestina tario
Ġindispens able
Ġcuel los
Ġencam in
amer icana
ĠMIN EXTENTS
Ġpal par
ĠsimÃ© trico
Ġidio ma
Ġendure cimiento
Ġgubernamen tal
Ġamis tades
ĠNTIC S
Ġvia je
Ġparafras eo
ĠgÃ©n ero
Ġtriga te
ĠDYN AM
Ġcauch ito
ĠNAS A
ĠOWAS P
Ġsubcarpe tas
. ),
A E
A d
B IT
C K
C LAR
D R
D Ã³nde
H erramientas
M IS
N os
N ET
P AC
Q UE
a vo
c urso
d icas
e ta
e Ã±a
f ÃŃas
g ente
i ando
m icos
o ta
v ivencia
y ware
Â µ
Ġ %
Ġde di
Ġp ython
ci ado
or ar
or ado
Ġm ueve
Ġque br
an as
Ġen fa
Ġen gran
Ġen globa
Ġun it
Ġun idos
Ġel ig
Ġel abora
Ġd omici
is ticos
Ġcon tes
Ġcon cil
Ġcon tadores
Ã¡ til
Ġo j
Ġh emb
Ġh yper
Ġre tener
Ġre estructur
cion alizar
id imen
Ġt ur
lo ud
le mos
Ġno ciÃ³n
Ġno mas
Ġb ig
Ġb ille
res e
ter ÃŃa
ur o
bi o
bi Ã³
idad os
tic aciÃ³n
ĠE conomÃŃa
Ġser io
Ġus adas
Ġdes tr
Ġdes glos
Ġac ar
Ġac titud
Ġex ist
Ġle o
Ġle al
Ġle arning
Ġesta tal
tu osa
Ġinf o
ĠC r
ĠC en
ĠC Ã³
ĠC ual
ib er
Ġman ager
ĠS ystem
il los
ce avo
ĠP res
ĠP odemos
Ġcons ol
Ġu ml
Ġver la
Ġhacer la
ĠD DR
Ġrec tan
it ada
Ġdic tan
Ġbas arse
Ġbas aba
ĠI O
ĠI den
Ġcontr asta
Ġcontr ibuye
Ġmode m
emp o
Ġas umen
Ġutiliz o
Ġpre f
Ġpre mis
Ġpre ferencia
Ġpre ferencias
Ġtrans curso
ora z
Ġpoder lo
Ġcor ro
Ġgener e
ĠT AE
Ġimpor taciÃ³n
Ġcre es
Ġprop oner
Ġlle guen
Ġcono ces
urs t
ĠU LT
Ġad dress
tin tamente
Ġsal tos
Ã©r icas
Ġdetermin aciÃ³n
Ġpres tar
Ġpres cri
ĠN IIF
ĠO F
ĠO ut
vis ar
Ġexp lican
posi ciones
ĠIn de
Ġgran ularidad
Ġpon ga
ĠH acer
Ġpe da
Ġdepen den
Ġsub ru
Ġsub tipos
Ġsub clase
Ġtom amos
Ġconstitu ciones
ios a
ĠG en
ĠG LOBAL
Ġind ÃŃgen
Ġcomple menta
mis os
Ġarquitec to
Ġingres ados
ĠF rame
Ġcontra taciÃ³n
Ġsuper pon
Ġsuper tipo
Ġsuper clase
uel ita
mul os
Ġdec enas
Ġcol ores
Ġestructur al
Ġter abytes
Ġexpres arse
Ġren o
Ġtomar Ã¡
Ġinvesti gadores
Ġincluy an
Ġconec tarse
Ġtransmi tiendo
Ġmar que
Ġhec ha
ĠRe des
ĠRe quiere
Ġconsider ados
Ġconsider able
ĠCo mb
ĠaritmÃ© ticos
Ġaudi tores
Ġfundamen to
ĠDE CLAR
Ġdenomin aciÃ³n
Ġdenomin aciones
Ġrespe tuosa
Ġro mp
ON LY
ĠseÃ±al ado
Ã³r mula
ĠDe ep
ĠPro ceso
Ġmor osa
Ġorig ina
Ġrecor d
Ġsimul ado
Ġrecuer da
Ġllevar nos
Ġtermin amos
Ġcorr er
Ġocur rir
Ġafec tando
Ġtratar Ã¡
Ġayudar se
Ġinstitu cional
Ġapar tado
Ġcorrespon dientes
Ã¡r bol
Ġautor izados
Ġpasar on
Ġgus tos
Ġgus anos
Ġdivid ida
Ġcontinu o
segur idad
Ġcul to
Ġcompr an
Ġofer tas
Ġliber tades
Ġintro duc
Ġintro vertidas
Ġdif ieren
Ġexten s
Ġexten sa
Ġenfo can
Ġpresenta ciones
Ġescuch an
Ġahor ro
Ġapoy a
Ġoportun o
Ġconcre tamente
IS T
Ġprepar ador
Ġsuje ta
Ġelabor aciÃ³n
ĠdinÃ¡m ico
Ãĵ DI
Ġvol viendo
Con trol
ĠLO CAL
Ġemerg ente
Ġrepeti tivas
Ġdese ado
ĠIN ORDEN
Ġvisu alizaciÃ³n
Ġvisu aliza
Ġestim ar
De bido
Ġdefini tivamente
ĠServ ices
ĠMode los
RO L
Ġimpres cin
Ġsuce der
Ġesper amos
Ġrecono ce
Ġgeren cial
Ġconvier ten
bor d
Ġconfiden ciales
Ġdesempe Ã±a
Ġdismin uyendo
Ġsuces iÃ³n
Ġsocio logÃŃa
Ġ201 8
ĠAd dress
Ġcolec tivo
Ex iste
Ġmod alidad
Ġllen ar
Ġsimpl icidad
Ġloc alizar
Ġlog s
Ġconsecu tivos
Ġorgani gramas
Ġajus te
Ġajus ta
Ġacces ar
Ġacop lados
Ġsimbol iza
Ġreserv ada
Ġmercan til
ĠdaÃ± Ã³
Ġregula torias
Ġconceptu ales
Ġocu par
Ġretro ceder
Ġexclus iÃ³n
Ġtarje tas
ĠperiÃ³ dica
Ġhabi tantes
ĠGra fos
Ġofre ciendo
ck top
Ġremo to
Ġperfec tamente
ĠsÃŃn tesis
Ġcomprob ar
Ġhis to
Ġbrin dar
uta tiva
Ġprovo cando
Ġpop music
ĠhomogÃ©n eas
Ġasim ismo
Ġequita tivo
Ġdiscre ta
Ġasum ir
Ġmunicip ios
Ġescog iÃ³
Ġlector a
ĠSE LECT
CT U
Ac tividades
Ġexis tan
Ġindis tintamente
CuÃ¡n tas
RS OR
Ġcomplement arias
Ġmil ÃŃ
Ġarmon iosa
Ġlegisla tiva
ĠInterrup ciÃ³n
ĠPRO F
Ġpobla cional
Ġliqu idar
ĠheterogÃ©n eos
Ġneur on
Ġmercanc ÃŃa
RU CTU
ĠreÃºn e
Ġenorm e
Ġdibu jar
ĠacompaÃ± ada
ĠquÃŃm icas
Ġpel i
Ġauxil iar
Ġestric to
Ġacord ada
Ġmodern izaciÃ³n
Ġpru dente
ĠclÃŃn ica
ĠRepres enta
Ġafin es
ĠET L
ĠEjecu ciÃ³n
ĠAP LIC
ĠAudi tor
ĠImple mentar
Ġarreglar lo
Ġrestring ir
Ġpostu lados
Ġcalce tÃŃn
ĠAnaly tical
Ġlic encias
Ġreduc en
Ġdesemb olsos
Ġlin ea
Ġsp yware
Ġbarr as
ĠEST RUCTU
Ġkil Ã³metros
Ġdelim itar
Ġteor ÃŃas
Ġprovin cia
ĠlÃ¡ mina
Ġtroy anos
ĠLINE AL
Ġtaxon omÃŃa
Ġcoleg io
ĠBlo om
ĠataÃ± e
Ġsimil itudes
Ġmetropolitan a
Ġencomen d
Ġfamos o
Ġimpul san
ĠIma g
Ġaud iencia
Ġintu i
Ġcoopera tiva
idÃ© rese
ĠestÃŃ mulos
ĠCU RSOR
ĠPan orama
ĠBan co
Ġfranc Ã©s
Ad minis
Ġhemb ra
Ġexist ÃŃa
Ġprescri ta
ĠindÃŃgen a
ĠDECLAR E
" Â¿
1 8
3 0
5 000
7 0
A p
G U
H F
M X
N O
N T
N IIF
S ON
T RI
V al
] "
] ,
b ps
c alabilidad
d k
d ge
e amos
f el
f acciÃ³n
f istic
g us
h re
i j
i aciÃ³n
i jo
j ado
j era
k ernel
l lam
n g
p iral
r on
r Ã³n
t Ã©cn
u icios
v amos
Ã ī
Ġde tener
Ġde pre
Ġp ir
Ġp ura
Ġs h
Ġs dk
er nos
Ġa t
Ġa z
Ġa us
te za
te ms
ti p
ti bles
Ã³ metro
tr ÃŃa
Ġla p
Ġla tencias
al l
al ectos
re mento
Ġn ie
is tica
Ġse min
Ã¡ mos
Ġpr iva
Ġin du
Ġco vid
Ġre vers
Ġf um
Ġf luye
id ita
Ġpor ciones
us ter
ter eo
Ġlo tes
Ġlo op
Ġcu ente
di ciÃ³n
di ciones
Ġti rar
Ġtr en
Ġtr im
Ġdi ver
Ġdi alectos
Ġi gn
ĠE if
Ġser iales
la y
ten si
Ġtien den
gu o
Ġhac ÃŃamos
Ġle vel
Ġle idita
Ġor acional
ici al
Ġproces adas
Ġ( +
Ġap el
si tos
Ġinf iere
ĠC I
ĠC al
Ġan ten
Ġan ima
Ġan gus
ĠL earning
Ġdeci didas
Ġr igur
ĠA u
ĠA WS
eren cias
ĠP op
ĠP SE
ĠP IL
Ġar cil
Ġcl uster
Ġtrabaj Ã©
se mb
Ġvari aciones
ÃŃs imas
ĠD ec
ĠD el
ĠD ebe
Ġca er
Ġca tÃ¡
Ġentre g
ĠI S
Ġmi x
Ġmi xto
quÃŃ as
Ġval idar
ware house
el lo
Ġpa gue
Ġtra tado
Ġpoder le
ĠM S
ĠM o
ĠM ar
ĠM ON
ĠM MX
ĠEs calabilidad
Ġproduc cion
Ġmuch ÃŃsimas
Ġ9 000
Ġpas ado
Ġpas aba
Ġsin te
Ġcre en
Ġprop uesto
Ġrealiz ada
Ġrealiz aban
fin ir
ĠLa tina
ĠLa Gran
tal e
Ġad orn
Ġproble mÃ¡tica
ĠR an
Ġsal var
par tito
Ġven dido
Ġsen tidos
Ġmues tran
ĠB NA
ven iente
lig ence
ĠmÃ© dico
tribu ciÃ³n
ĠV emos
ĠV eamos
tific ados
Ġnorm ales
Ġqui ta
Ġsub iendo
Ġsub jetivos
dr Ã¡
Ġtrav es
Ġinici alizar
vid or
Ġapl ique
Ġpol vo
Ġrealizar Ã¡
ĠF AST
ĠlÃ³g icos
Ġpla to
Ġdur an
Ġcal l
Ġcal ificaciÃ³n
Ġdar Ã¡
Ġ- ->
et c
Ġhaber le
Ġdiagram ar
lu jo
Ġdistin ciÃ³n
Ġdistin guen
Ġconten iendo
Ġren unci
Ġpropor ciones
Ġ11 7
Ġquer amos
Ġquer iendo
Ġrepresen to
Ġtransmi tidas
Ġmar car
Ġmar cos
Ġponer se
dic amente
Ġag ilidad
ĠCu Ã¡les
ĠDE SP
Ġsepar ada
Ġtu vieron
Ġrespe ta
AN D
ĠDe bido
Ġindic ado
AC A
Ġconfi ables
Ġli mp
Ġaten ten
Ġrefle xiones
Ġcorr iendo
Ġch ica
Ġjus to
Ġjus tificaciÃ³n
br an
br idas
Ġcambiar on
Ġseguir Ã¡n
Ġx ml
Ġconsum ÃŃ
Ġasp ir
Ġsatis facciÃ³n
Ġdomin antes
Ġadministra tivas
Ġampl iamente
Ġinterpre taciones
Ġpasar ÃŃa
Ġsac a
Ġescal as
Ġcul tural
Ġcompr Ã³
Ġlim i
Ġacep tados
Ġexten der
Ġexten dido
Ġra tio
Ġviv iendo
Ġguar de
Ġguar dia
Ġcalcular lo
Ġcolo co
Ġcolo can
Ġbloque a
Ġconduc tores
Ġemis iÃ³n
Ġasegur a
Ġasegur an
Ġintercambi a
Ġconver tido
Ġconcre tas
Ġcuad ros
Ġmodific an
Ġacumul ada
Ġelimin ado
Ġelimin ando
Ġpropie tarios
Ġev itando
Ġrecog iendo
In c
Ġvender lo
Ġcer teza
Ġfor o
Ġcomunica tiva
Ġhil era
Ġdiscurs os
Ġadap tiva
ĠpropÃ³ sitos
Ġcomprender lo
Ġpriv adas
ĠAc ceso
Ġvo cal
ĠLO OP
Ġdev olver
Ġgig abyte
Ġfigur ar
Ġplanific o
Ġcerr adas
Ġpudi eron
Ġpredic ado
Ġvended or
Ġpermitir Ã¡
Ġubic ar
Ġemi ten
Ġdej Ã³
ĠAp licar
Ġtar de
Ġexig encias
ĠjerÃ¡rqu icos
ĠjerÃ¡rqu icamente
SE T
Ġincu estion
Ġhar ÃŃa
Ġhar Ã¡n
Ġatr activa
Ġrefer ido
Ġrepor tes
ĠPer son
Ġecuatori ana
ĠestratÃ©g icas
Ġlan zo
Ġcelular es
ves e
Al gunas
Ġmod ular
Ġexpl ici
Ġsimpl ificar
ĠCO COM
ĠCO BIT
Ġjuz gado
ĠED O
Ġamig ables
Ġaf il
ĠGener ar
Ġofici o
cipl in
Ġmaqu ina
Ġperf iles
ĠperiÃ³ dicamente
Ġaccion ista
Ġhomo gen
Ġnave gar
Ġnave gador
ĠClas ificada
Ġinclu ida
Ġinclu idos
Ġestandar izados
Ġlis to
Ġiter aciÃ³n
Ġrespec tiva
Ġperman ece
Ġilus traciÃ³n
Ġabsolu tamente
Ġinecu aciÃ³n
gro und
Ġtraduc tor
Ġescog ida
ĠNorm almente
Ġsos tenible
Ġorto gon
ĠquÃŃ tale
Ġorganiza cionales
Ġreac cionar
Ġincur sion
Ġexis tiendo
Ġsusten to
Ġmaes trÃŃa
ĠpÃ¡rra fos
dis ciplin
Ġnucle o
Ġnucle os
Ġsustitu yen
Ġcaptar Ã¡
Ġhubi era
Pue den
Ġretir ada
Ġvalios os
li tes
Ġextrover tido
Ġquin to
ĠII I
Ġneur ona
Ġaproxim aciÃ³n
Ġgiga her
Ġconm utativa
Ġfirm es
ĠautÃ³no mo
ĠsatÃ© lites
Ġcompor tarse
Ġcredi to
Ġgratu ita
ĠquÃŃm ica
An Ã¡lisis
Ġimpuls Ã³
mÃ³ dulo
Ãį A
Ġdistrib uyendo
ĠCE O
Ġsupre ma
Ġgrie go
Ġnac en
ĠmagnÃ© tico
Ġejer ciendo
Ġpatrocin io
Ġsubray ado
Ġcalifica tivo
ĠPrincip ios
Ġtransi ciÃ³n
Ġredi rig
Ġextin ciÃ³n
Ġrobo ts
Ġsatisfa ga
Ġhered ado
Ġbarb ero
Ġinterperson al
Ġeman ada
ĠAUDI TO
ĠhÃŃ bridas
ĠTAB LES
Ġcamis a
Ġauten ticaciÃ³n
Ġcalcu lan
Ġcris tal
Ġmalicios os
Ġresal tar
Ġexpor tar
Ġmultidimen sionales
Ġkilob ytes
ĠSupon gamos
ĠDer echos
ĠMuch os
ĠProce dimiento
Ġkilova tio
Ġacostu mbr
Ġresol viendo
ĠAt lon
Ġcay Ã³
ĠGP RS
ĠsÃ©p tima
Ġencues tar
Ġrespald Ã³
Ġburgu eses
gÃ¼ edad
Ġdeleg ados
Ġprelimin ar
ĠWH ILE
ĠDev uelve
ĠInstitu to
Ġinfil trarse
ĠPolÃŃ ticas
ĠArch ivos
Ġperjudi ciales
Ġseman as
PAC E
Ġreestructur aciÃ³n
Ġbille tes
Ġsubru tinas
ĠComb ina
Ġencomend ado
Adminis traciÃ³n
TRI Z
Ġaus encia
Ġpriva cidad
Ġrevers o
Ġfum adores
Ġdiver sificaciÃ³n
ĠEif fel
Ġapel lido
ĠPop music
ĠPSE INT
ĠPIL AS
Ġarcil la
semb ler
ĠcatÃ¡ logo
ĠLaGran ge
Ġrenunci ando
Ġincuestion able
ĠCOCOM O
ĠTABLES PACE
1 6
1 9
2 5
; ]"
A hÃŃ
B E
B anda
C H
C X
D P
D AP
E Z
E SION
G estiÃ³n
I BM
I EC
L AN
N ING
O TO
P O
P lan
P AL
P uerto
R OM
R ecuer
U M
V D
W AN
Y PE
b y
b er
b ico
b ack
c urr
d icaciones
d onos
e te
g amiento
h dpi
i jas
j ido
l adamente
o t
p l
p r
p ero
p ectos
s istema
s trucciones
v ÃŃ
y ecto
z ando
z ados
Ã Ĺ
Ġ ÃŃ
Ġ Ã¡n
Ġ QuiÃ©n
Ġ Âµ
Ġl iv
Ġl indo
en cial
Ġp ilar
Ġc Ã¡r
Ġs cript
ci mientos
Ġa un
on das
ar p
ar me
Ġes con
ti ciones
ad ig
Ġla b
Ġla yout
in ada
al Ã¡
Ġun ido
Ġun iversi
Ġel se
Ġd ados
Ġv ar
Ġv era
Ġv ib
Ġv idas
is h
is tes
Ġcon dens
Ġpr os
Ġin h
Ġin adecu
do le
am bien
Ġh on
Ġh ones
Ġre to
Ġre ve
Ġre lig
Ġpar ada
Ġpar alizaciÃ³n
Ġpar ciales
Ġt ari
us abilidad
iz arse
Ġb ol
Ġb ill
ter ado
ma ter
Ġsi lÃ¡
Ġsi ete
ces s
Ġten der
Ġto que
Ġto ols
go pol
tic s
ica tion
orm almente
Ġdes as
Ġdes ig
den tal
des arrol
Ġso me
Ġac aso
Ġex tr
ir mar
iv ir
Ġemp ap
ton omÃŃa
Ġob vi
aliz adas
Ġap a
ĠC urs
ĠL og
ĠS an
ĠS RAM
ĠS UPTEL
il os
Ġte jido
Ġdeci sion
Ġma tar
Ġma tiz
Ġma pas
ĠA mor
ĠA bs
Ġcom it
ĠP lante
ĠP RE
ĠP OP
Ġar co
Ġar mar
Ġar rays
Ġver se
Ġimp re
Ġimp ro
ĠD S
ĠD os
Ġrec ab
it arias
ĠI gual
no logÃŃa
Ġval ga
Ġcar ta
Ġcar gada
Ġpre visiÃ³n
Ġpre fijo
Ġpre posiciones
Ġejecu tÃ³
Ġsus cep
Ġpa gan
Ġcontrol ando
ĠM uy
ĠM DPI
ĠM hz
ĠM CM
ĠEs tÃ¡n
Ġpas ada
ĠT able
ĠT om
ĠT YPE
Ġlle ve
Ġlle gamos
Ġlle gada
Ġrealiz Ã³
Ġau ge
ĠU PD
Ġopera tivas
Ġad ul
Ġad quiere
Ġad her
Ġsab remos
ĠR az
Ġcambi Ã³
Ġsal tar
Ġrela tivos
Ġdo tados
Ġmay Ãºscula
Ġab uso
Ġab ordar
Ġaplic ados
Ġalmacen ado
Ġven ÃŃan
Ġven dÃŃa
Ġsen tir
Ġsen timos
Ġexp lic
ĠIn icio
Ġadminis tre
Ġne x
mÃ¡ ticas
ĠH ilos
Ġayu demos
Ġrequer ida
Ġfuncion e
Ġve ÃŃa
ĠÃ© tico
Ġpe ticiones
Ġsub Ã¡rbol
Ġref ir
Ġform ulaciÃ³n
ĠG PS
ĠG OTO
ĠCon ten
Ġcomple tos
Ġapren dimos
Ġfac tura
Ġtoda via
Ġrealizar ÃŃa
Ġcontra tis
por te
Ġsuper e
Ġsuper ordenadores
Ġcondi cional
Ġelec ciÃ³n
Ġcal le
Ġfal lar
Ġestructur arse
Ġarch iv
AR NING
Ġcompren diÃ³
Ġw a
Ġconten drÃ¡
Ġnorma tivos
Ġcompar te
Ġcompar ables
Ġcr isis
Ġefec tivas
ed idas
ud or
Ġconec tando
Ġtransmi tido
Ġni f
Ġreci biÃ³
Ġponer lo
Ġ[ ;]"
Ġmal inten
Ġsir va
Ġencar gadas
Ġcuan tificar
Ġsa ta
Ġdescrip tivas
Ġmicro ondas
Ġsec ciones
esta ble
ĠW ARNING
Ġro jo
ĠdiseÃ± ador
Ġmanten ido
Ġcombin ar
IC I
Ġanal og
Ġdispon er
ĠPro b
Ġlogr ando
Ġlogr amos
Ġejecuta ble
Ġtermin Ã³
tÃ¡n ea
Ġaleator ias
Ġgas tando
AS O
Ġresolver lo
AD O
Ġtransac cional
Ġpatr imon
Ġaplicar lo
ĠlÃ©x ica
Ġampl iar
Ġargu mentar
Ġenvi Ã©
Ġcontinu ar
Ġsolici ten
Ġsolici tu
Ġsolici tante
ill er
Ġdetal lada
Ġdetal ladamente
ĠAl mac
ingÃ¼ ÃŃstica
Ġru tin
Ġacep table
Ġra p
ĠÃ³p tico
forma tion
Ġapor tando
Ġobten ga
Ġobten ido
Ġpropie tario
Ġprepar an
Ġprepar adas
Ġrecog emos
Ġplante ados
ĠTo da
LO CK
Ġmu tex
Ġadap tar
Ġadap taciÃ³n
ĠsintÃ¡c ticas
fi que
Ġdetec ta
Ġdetec tado
Ġdeud ora
Ġacceder Ã¡
ĠAc tiva
ĠAc cess
Ġconfigur ados
ĠelectromagnÃ© tica
ĠK PI
ĠK now
Ġintercon ecta
Ġdev uel
sion al
Ġplanific ador
Ġconven ios
ĠIN TER
LE C
Ġdesemp leo
iÃ©n dose
Ġestim ador
SO LU
Ġconte o
Ġconte x
Ġimpres ion
RA GE
Ġpap Ã¡
ĠAp ren
ĠAp licaciones
CI ONES
Ġanu alizado
Ġtar da
Ġinterfac e
ĠjerÃ¡rqu ica
ern Ã©tica
Ġatr ibuye
Ġrepor ting
Ġagrup a
Ġindustr ial
Ġcompeti tivo
Ġlan zado
Ġperif Ã©rico
Ġflo ja
ĠComp e
ĠComp ar
ĠComp ren
Ġcolocar le
Ġapun ta
pÃ³ sito
Ġdescuen tos
ĠOpera ciones
Ġllen o
Ġsimpl ific
Ġloc alizaciÃ³n
Ġautoma tizar
Ġjuz gados
Ġinforma cion
Ġinforma ciones
Ġservir Ã¡
Ġminim izacion
Ġsimbol izar
Ġdepender Ã¡
TI MIS
ĠdaÃ± ada
ĠSTO RAGE
Ġvig ente
Ġconci en
Ġgui ada
Ġsta cktop
Ġcuid ar
Ġcome ten
Ġzon as
Ġras tre
ĠFun cionales
Ġqued ando
Ġenci er
Ġedifici os
Ġesti mul
Ã¡ndo le
Ġinterrela cionan
Ġinterrela cionados
Ġexplor ador
Ġlis tos
Ġcoinci den
Ġdescen dente
Ġinfl uen
Ġinfl uye
Ġreflej ado
Ġlig ado
ĠAnal ista
Ġperman ecer
Ġ> [
Ġprovo ca
Ġdiscipl inas
Ġtran quil
Ġequita tivamente
Ġsubordin aciÃ³n
AB EZ
Ġinversion ista
ĠpronÃ³s tico
Ġperj uicios
Ġdecre ciente
Ġvesti do
ĠacadÃ©m icos
Ġmaquin aria
Ġsuf ren
Ġcance lar
ĠDefin e
ĠENC ABEZ
ĠCh ile
Ġpuntu aciÃ³n
ĠOR DEN
Ġmercader ÃŃas
yste ms
Ġfrac asar
Ġprece den
ĠON LY
Ġliqu idaciÃ³n
ĠheterogÃ©n eas
Ġses iÃ³n
ĠasÃŃn crona
Ġgiga hertz
Ġmonet aria
Ġendu recer
ĠIngen iero
Ġformul ado
cur re
ĠOP TIMIS
Ġestu vi
Ġdinam izando
Ġcib ernÃ©tica
ĠAB SOLU
Ġejer ce
Ġpatrocin adores
Ġmotiv aciÃ³n
Ġtransi ciones
EC TORI
ĠECU ACIÃĵN
ĠECU ACIONES
Ġexam in
ĠSecu encial
ĠincÃ³gn ita
ĠincÃ³gn itas
Direc cionamiento
Ġobede cer
Ġdiagn osticar
Ġguard ados
Ġindefin ido
Ġentend amos
Ġcompac ta
Ġis o
Ġaval an
Ġcotidi ano
ĠSelec t
ĠPOS ORDEN
ĠÃī TIC
Ġdestre za
ĠCol umna
Ġanid ado
ĠPas os
ĠmuchÃŃ simo
INCRE ASE
Ġchi quito
Ġocurr encia
Ġdens idades
++ ,
mun ication
Ġcaj ero
ĠmÃºs ica
ĠpartÃŃ culas
Ġpertin entes
Ġdesa f
Ġinterrump ir
Ġrestruc turar
ĠEstu dio
Ġmensaj erÃŃa
ĠKEY SET
Ġdistor sionar
ĠidÃ©n tico
ecodific aciÃ³n
Ġalfabe to
Ġhumil des
Ġagen da
Ġinta cto
Ġcoo peraciÃ³n
Ġcontraargu mentos
Ġagrad able
ĠnÃ³min as
Ġdeven gado
ĠhuÃ©s ped
Ġgir o
Ġdistr itales
Ġdiscon tinu
ĠApp le
ĠDYNAM IC
Ġleal tad
Ġpref iero
ĠPROF ESION
Ġpeli gr
Val ores
Ġsh arp
ĠDec laraciÃ³n
Ġacostumbr ados
Ġliv i
ĠcÃ¡r cel
adig ma
Ġbill ones
ĠsilÃ¡ bico
gopol io
Ġdesig na
ĠCurs or
ĠUPD ATE
ĠRaz ones
Ġcontratis tas
Ġmalinten cionados
LOCK S
ĠENCABEZ AMIENTO
ĠOPTIMIS TIC
ĠPROFESION AL
1 7
1 000
3 4
7 2
7 68
9 6
: //
= ),
C EN
D EX
E TEL
E DO
F in
F ILE
G N
I X
I TI
I PS
N ormalmente
O IN
O LAP
P r
S o
S TE
S AR
S UPTEL
T INCREASE
X HDPI
] )
a tion
a vas
e ed
f r
f un
i eza
j or
l eran
m ales
m mer
r id
s d
t tp
t hernet
u ar
u das
w ay
w all
x ado
y ll
Ġ .
Ġ ;
Ġ ida
Ġ ons
de code
os tura
os terior
Ġl arga
Ġl una
en tos
en tan
Ġp h
Ġp ur
Ġp ga
Ġp alo
Ġc n
Ġc un
Ġc ores
Ġc ustomer
Ġs ga
Ġs yll
er te
on cito
ar t
Ġes til
un ning
ti ble
ti gar
Ġun an
Ġun iendo
re d
re ve
Ã³n ica
Ġel ija
Ġd ÃŃ
Ġd ual
Ġd aba
ta bles
Ġv ie
ic ha
is to
is terio
Ġcon migo
Ġse xto
mp Ãº
Ġo cul
ÃŃ os
ÃŃ col
Ġpr ag
Ġh ues
Ġh erencias
Ġh ttp
Ġco mentar
Ġco cin
Ġco jan
Ġre do
Ġre feren
Ġre tribuye
Ġf us
Ġpar ado
ec tro
Ġt Ã³
Ġt hen
lo to
ab us
ac ciones
Ġb arato
Ġb idireccional
Ġb reve
res as
ter os
di tados
tiv ar
Ġg e
Ġg ar
Ġto leran
go b
Ġsu erte
ari be
Ġcomp uestas
Ġcomp ostura
Ġcomo d
tic en
ĠE co
ĠE thernet
Ġda Ã±a
Ġus abilidad
Ġson deo
ten ciÃ³n
ode r
gu l
Ġac rÃ³n
tar t
tar ea
ir aciÃ³n
iv el
Ġinter fer
Ġinter ceder
Ġproces an
Ġ( -
Ġ( <
aliz an
Ġesta tu
tu almente
si mos
ĠC a
ĠC aribe
ul ica
ul io
ib niz
ĠL AS
Ġman dan
truc ciÃ³n
ĠS us
ĠS im
ĠS ig
ĠS ign
ĠS tore
Ġr inc
ĠP L
ĠP a
Ġar bol
Ġver Ã¡
Ġver Ã¡n
Ġhacer me
se lo
ÃŃs tas
ĠD DOS
ĠD ecodificaciÃ³n
Ġ3 00
Ġdic es
Ġbas en
ĠI A
Ã©s ter
Ġprogram ados
Ġpre pa
ez ca
Ġfin o
Ġfin se
Ġejecu cion
Ġpa gados
Ġinstruc cion
Ġinstruc cional
Ġtra yecto
Ġmedi ano
Ġcor tos
Ġcontrol ada
ĠM AN
ĠEs as
ĠEs piral
ier an
Ġj udica
Ġdirec cionada
ĠT PS
gar Ã¡
quier an
Ġcap tando
Ġprim or
Ġcam bien
Ġcre encia
Ġcre encias
Ġcre ÃŃble
Ġau mentos
ĠU MA
ĠEl ectro
cep ciÃ³n
titu des
ĠR ISC
Ġcambi arse
Ġsal arios
Ġdetermin o
Ġdetermin adas
Ġdefin imos
ve er
esti mar
Ġdo ta
Ġdo taciÃ³n
Ġab ra
Ġorden anza
Ġlen to
Ġexp uesto
Ġmayor mente
Ġmues tro
Ġconj un
Ġconj ugar
ĠB uffer
ĠIn jection
Ġoper an
Ġne to
Ġne gro
Ġpon entes
ĠV P
ĠH ola
ĠH base
Ġrequer idos
Ġfuncion en
Ġve as
Ġdisposi ciÃ³n
Ġref uer
Ġanaliz ada
Ġtom adas
Ġtom adores
dr ÃŃa
Ġespeci e
ĠG aran
ara k
Ġinici ado
Ġinver sor
Ġcomple ja
Ġconta c
Ġidentific ando
Ġidentific adas
ĠF orm
ĠF Ã³rmula
Ġintegr adas
Ġestad io
Ġcien tific
Ġparti do
Ġparti ciones
Ġencuen tres
ĠpolÃŃ ticos
Ġentr Ã³
Ġmon tar
Ġfi re
Ġexper tas
Ãºs pi
Ġconc luye
Ġter abyte
Ġw ok
Ġanalizar Ã©
Ġasign ados
Ġ/ ,
Ġcompar tidos
Ġexpres adas
Ġcr udo
Ġincre mental
Ġefec tividad
Ġ11 9
Ġprodu cido
ud ic
Ġmulti media
Ġoc ho
Ġmar gin
Ġreci entes
Ġpi loto
Ġconsider en
Ġpun teros
Ġflu ido
uer do
ĠgrÃ¡ ficas
Ġho c
Ġmate ma
Ġ19 2
Ġag res
Ġag ente
Ġdenomin ador
Ġenten demos
Ġsepar arla
ion a
ion an
ĠW ifi
Ġro bot
Ġ12 0
Ġtrata mos
EN TE
EN CI
IC AS
Ġ16 7
Ġfuer an
ĠPro por
Ġejecuta bles
Ġamb ien
Ġfacil itan
Ġunivers ales
Ġch ar
Ġgaran ticen
cen a
mer ic
Ġdifer ir
Ġarti cu
Ġpron osticar
alizar la
Ġcurs ores
Ġdomin an
Ġamor tiz
Se gÃºn
Ġsac o
Ġdivid iendo
ĠÃ³r bi
Ġcontinu aba
ama Ã±o
ĠJ OIN
Ġmantener lo
Ġlim itado
Ġestable cimiento
ĠDes ventajas
Ġempezar on
Ġcircu lantes
Ġterc eras
ĠlingÃ¼ ÃŃstico
Ġ80 2
Ġhu bier
Ġemis ora
Ġfon ema
Ġtrad uce
Ġfabric ante
Ġinten sificaciÃ³n
In te
Ġplante Ã³
ĠmÃºltip lo
ĠPC I
ĠPC TINCREASE
ES S
Ġtransmitir la
Ġincor recto
Ġregres e
Ġadap tabilidad
ĠsintÃ¡c ticos
Ġrespal dar
Ġvol Ãºmenes
Ġvol vemos
Ġacre edora
Ġacre ditados
Ġreun irse
Ġvo to
Ġadministrar la
Ġgig antes
ĠprÃ³xi mos
ĠIN DEX
Ġquiz Ã¡
Ġestim ado
Ġincrementar lo
Ġactualiz a
Ġactualiz ados
ĠvÃŃ deos
Ġfo cal
Ġconte xtual
Ġexac ta
Ġexac tos
Ã³s tico
Ġreco mp
Ġrecono ciendo
Ġexperi mental
Ġminis tro
Ġsupervis ores
cha in
Ġnacional idad
Ġconvertir la
ĠOb ject
Ġincorpor ados
Ġmonitor izaciÃ³n
Ġsuces ivas
comp ilador
Ġredundan tes
Ġvuel va
ĠPer ÃŃodo
Ġ201 3
Ġdesta can
Ġecuatori anos
Ġrob us
ves ar
Ġcolec tivamente
Ġconoz co
Ġmod alidades
ĠdÃŃg ito
ĠControl a
Ġreconoci do
Ġcha mpÃº
To dos
Ġregula torio
Ġprogres ar
Ġdepur ar
Ġprivileg io
Ġrepar te
Ġrepar to
Ġdivis o
ĠGra cias
Ġevolu tivo
IF O
Ġdestin ados
ĠUN E
ĠsÃŃn crono
Ġindicar le
Ġinterconec tar
Ġhexadeci males
Pro ces
Ġid Ã³n
Ġinterrela cionar
Ġemo cional
Ġautomatiz ada
99 99
Ġcoinci dir
Ġrecop ilar
Ġgrad Ãºa
Ġnumer aciÃ³n
Ġnumer ador
ĠUs ted
Ġseleccion ados
Ġexcep to
ĠCic lo
Ġdesac tu
Ġdesac uerdo
ĠVM M
Ġdu das
Ġanticip aciÃ³n
Ġconl lev
Ġdedic ar
Ġelev ada
Ġelev adas
ĠQu iero
Ġsos tener
Ġsubcon juntos
Ġamp ara
Ġcoh erencia
Ġempa tizar
Ġempa tÃŃa
Ġdoc tor
gre gaciÃ³n
Ġav anza
Ġenf r
Ġimprim e
Ġcertific ados
Ġprece dencia
ĠON U
ĠFin almente
Ġpobla cion
ĠProgram ador
Ġextrover tidas
Ġprofund izar
Ġdefectu osos
ĠintÃ©rpre tes
Ġatra vesar
Ġwebinar s
Ġhere do
ĠLe y
ĠLe ibniz
ĠvÃ¡l ido
ĠStan dar
Ġtoler antes
Ġdescub riÃ³
Ġdesconoci miento
Ġfras e
Ġprec ep
Ġestu vieron
ĠMin isterio
Ġcif rado
Ġbon itas
Ġinters ecta
Ġgrama tical
Ġasamble ÃŃstas
Ġcogni tivos
Ġpru dencia
Ġrode an
Ġmotiv ados
ĠRepres entan
Ġredi rec
Ġaler tas
Ġexam inar
Ġsatisfa gan
Ġinterperson ales
Ġgam as
Ġdiagn Ã³stico
Ġindefin ida
GO DB
ww w
Ġnul l
Ġblog ging
Ġplen amente
Ġrece ta
Ġdiaposi tivas
Ġolvid amos
ĠDATA FILE
Ġpriorit ario
Ġcorrela cionar
Ġintang ibles
Ġretribu ir
Ġempu j
ĠPAR A
Ġinvier te
Ġsimultan eos
Ġgarantiz an
Ġconsumi do
ĠmicrÃ³ fono
lici ng
Ġconting entes
Ġhid ra
execu te
zÃ³cal o
ĠInclus o
Ġetimo logÃŃa
Ġnoti cias
Ġbosque jo
Ġgrab ando
ĠAlgorit mos
ĠPrue bas
Ġparametriz able
Ġexpropi adores
Ġdomici lio
Ġacar re
Ġrectan gular
ĠIden tificar
ĠInde xado
ÃĵDI GO
Ġimprescin dible
ĠAuditor ÃŃa
ĠImag ÃŃnate
tereo tipos
Ġangus tia
Ġmix tas
ĠMON GODB
Ġlab ores
Ġuniversi tario
Ġarchiv ado
ĠApren dizaje
Ġlivi ana
ITI AL
avas cript
mmer ce
Ġcun ado
Ġsyll abus
ĠdÃŃ grafo
Ġhues os
Ġcocin ar
Ġfus ionan
Ġtoleran cia
ĠEco mmerce
ĠacrÃ³n imo
Ġrinc Ã³n
Ġprepa go
Ġjudica tura
ĠGaran tizar
Ãºspi de
Ġwok i
1 99
2 00
B I
C ic
C ON
I P
L EN
M U
N U
P A
Q U
R ec
R AS
T i
V er
V amos
] ]
b aciÃ³n
c y
c ables
d amos
e cientes
f iles
h i
h nology
i tiendo
j ambre
l ueve
m ado
n eces
o b
o quÃŃ
o ga
o per
o ch
o ok
p m
p ie
p ÃŃxeles
r am
r adas
r ill
s in
s istemas
v inos
w man
x icos
x ys
y e
Â ²
Ġ ?
Ġ Ã©ramos
Ġe cos
Ġl anza
Ġl lueve
en der
Ġp in
Ġp ic
Ġp ista
Ġp Ã³s
Ġp pp
Ġp pm
er ÃŃas
ci s
ci en
ci ta
ci ma
ci mos
ci Ã©ndo
ci vos
Ġa tras
Ġa tado
es os
es cri
on ia
on figur
or te
or re
or gan
or ganizaciÃ³n
as p
as ting
un ter
tr in
tr ada
ad uc
in ce
al ari
Ġen jambre
Ġun ida
Ġn orte
Ġv ic
Ġv arÃŃa
is cos
Ġcon g
Ġcon cuer
Ġcon ducir
Ã¡ tiles
ÃŃ tica
ÃŃ bles
Ġin tra
Ġin mater
Ġin neces
Ġh orm
Ġh adoop
Ġco gÃŃa
Ġre lie
Ã© ver
Ã© tricas
Ã© sima
Ġf el
Ġpro log
Ġpro hib
Ġpro xys
Ġpar ce
Ġpar ecen
Ġpar cialmente
Ġpar adigma
ec asting
cion ado
cion arse
id an
Ġt up
le mentos
ac eb
Ġno ve
Ġno civos
Ġb u
Ġb lin
Ġsi go
Ġsi gamos
Ġcu es
Ġcu bier
ces a
ur ren
Ġme tros
Ġme lan
Ġme tido
di ales
di recto
Ġper diendo
Ġper didas
Ġg los
Ġtr am
Ġtr emen
Ġtr idimen
Ġten encia
Ġten iamos
Ġdi eron
cu Ã¡l
cu Ã©r
go db
Ġcomp ri
ĠE se
ĠE timo
ĠE SP
Ġser ial
Ġda Ã±ar
orm s
Ġdes per
Ġdes organizaciÃ³n
den cial
Ã¡s tico
Ã¡s icas
gu Ã©
era cion
Ġso mbre
Ġac aban
Ġex tran
Ġex cedente
im ismo
Ġta pa
min antes
Ġinter disciplin
Ġproces e
Ġproces ando
Ġproces amientos
Ġap ertura
tur aciÃ³n
Ġinf le
ĠC H
ĠC entro
ĠC ENE
Ġan Ã¡
Ġan tologÃŃa
ul er
ul tÃ¡neamente
Ġdeb ida
ĠL DAP
Ġman de
ĠS tra
ĠS ier
ĠS LA
ĠS RI
il izaciÃ³n
Ġte mÃ¡tico
ĠA po
ĠA segur
ĠA demÃ¡s
Ġcom munication
ĠP D
ĠP on
ĠP untos
Ġcons tancia
Ġcons entimiento
Ġar mas
Ġu p
Ġver lo
Ġimp one
Ġimp uestos
Ġimp onen
ig as
Ġhacer nos
ĠD i
ĠD IN
Ġentre gada
Ġrec al
Ġrec ocido
it Ã³
enta mos
Ġdic ta
Ġdic tada
Ġmen di
ĠI TI
ĠI ESS
Ġgr ados
Ġgr asp
Ġprogram an
Ġprogram ando
Ġval ida
emp resa
Ġas istir
Ġas alari
Ġpo Ã©tica
Ġgen Ã©rica
ez uela
Ġtra to
Ġtra tÃ³
Ġcor por
ĠM B
ĠM arÃŃa
ĠEs a
ĠEs pa
Ġsol ven
Ġtener lo
Ġ8 00
Ġpas iva
ĠT IN
ĠT RI
ĠT ext
ĠT Ã©ster
Ġinc as
Ġrep orta
Ġrep ensar
Ġprop on
Ġprop onen
Ġprop enso
Ġrealiz arse
Ġau mentan
ren o
vi ta
Ġbus iness
tin es
ĠR ed
dar izados
ĠN eces
par k
Ġalmacen ando
Ġinte ger
ĠB ase
ĠB rid
ĠIn gres
ĠIn dice
ĠIn directo
Ġactiv aciÃ³n
Ġtec hnology
Ġay Ãº
ĠV o
ĠV ectores
ĠV ECTORI
Ġnorm alizando
ĠH al
Ġrequer ido
Ġestar lo
Ġestar emos
Ġplan ta
Ġplan tas
Ġplan tilla
Ġve cin
Ġpe tab
Ġsub o
Ġsub reg
Ġconstitu ya
Ġform ada
ĠG R
ĠG hz
ĠG NU
Ġestudi an
Ġcomple tar
Ġir Ã¡n
Ġpol ar
ĠtÃ©cn ico
Ġconta minantes
Ġidentific arse
Ġemple os
Ġemple arse
Ġcen trar
Ġcen trarse
Ġescri turas
Ġrealizar lo
ĠF ile
Ġcumpl iÃ³
ĠSe paraciÃ³n
Ġconsi guiendo
Ġhuman ÃŃsticas
Ġproce de
Ġna cionalizar
Ġacuer da
por que
Ġcondi cionan
Ġutilizar Ã¡n
hos os
eb ra
Ġfi ables
Ġgu ÃŃan
Ġcol onia
Ã³m icas
Ġcur vita
Ġconc urren
Ġter reno
AR T
Ġw orms
Ġren dimientos
Ġincre ÃŃbles
Ġlec tores
Ġmulti cul
Ġrepresen tando
Ġrepresen tantes
Ġmas a
Ġmas ivos
Ġmas terado
Ġevalu ado
Ġinterna cionalmente
va guar
Ġsitu ando
Ġcentr ados
Ġcentr alizada
Ġdisc usiones
Ġllegar Ã¡
BR ON
Ġvelo z
bo ts
Ġdeman dan
Ġregu le
Ġregu lan
ĠCu ad
ĠDE ON
ĠDE FAULT
Ġpens ado
Ġenten dido
ion al
Ġmuestre os
ĠW HE
Ġro to
Ġro taciones
Ġdesarrollar se
Ġmanten imientos
Ġmanten ibilidad
ĠAn tes
ĠAn alizar
Ġdispon en
Ġfuer tes
ĠPro log
Ġespecific ados
Ġespecific adas
Ġ+ ,
Ġpagar le
Ġtermin ada
tÃ¡n do
Ġrefle jo
Ġasoci ar
Ġline almente
ĠSi guiendo
Ġcorr imientos
Ġintelig entes
Ġfacil itado
Ġch Ã©ver
Ġon res
Ġanterior idad
Ġafec tados
Ġconsum e
Ġproporcion almente
Ġconsul tor
Ġprove edora
ach ine
Ġtendr ÃŃan
Ġautor izado
Ġinterpre tado
Ġpasar lo
Ġenvi ando
Ġobserv able
Ġimag ÃŃnate
Ġredu cida
Ġparticip ar
ĠJ SON
Ġacu mula
Ġcob re
Ġcob ro
Ġru b
Ġra iz
Ġra za
Ġviv a
Ġrad ica
Ġrad iaciÃ³n
Ġmecan izadas
gis la
Ġher ts
Ġperten ecientes
Ġjerar quÃŃas
Ġagr oquÃŃ
Ġfab ul
Ġsoberan a
gra fÃŃas
ĠdÃ© cima
Ġali ment
Ġarreg lando
Ġapor tan
Ġmencion Ã©
ge ment
Ġ94 1
Ġespecial idad
Ġinten ta
ĠmÃºltip los
ĠanalÃŃ ticos
Ġadecu adas
Ġconse guimos
Ġusar la
Ġ88 1
ĠsintÃ¡c tica
fi dencial
ĠaÃ±ad ido
Ġempi ecen
ĠAc tividades
Con tador
Ġsegu ido
Ġgig ante
ĠData base
Ġrepeti das
Ġencontr Ã¡bamos
Ġcerr ar
Ġreducir se
Ġentien da
Ġedi tores
ĠLo tus
Ġcaus ales
Ġconte mp
Ġconte mpor
Ġexac to
Ġexac tas
pec hosos
Ġcomerci alizaciÃ³n
ĠTi po
Ġexperi mentales
Ġbo vinos
Ġsupervis a
Ġprocesar lo
ĠCons titu
Ġincorpor ado
ĠjerÃ¡rqu icas
ACI O
ĠPer fecto
Ġ201 0
Ġ201 4
Ġsimb ologÃŃa
Ġdesta cado
Ġmov ilizaciÃ³n
Ġbr uto
Ġcompeti tividad
ĠPr ince
Ġdeclar a
Ġofrecer Ã¡
ĠtelÃ© grafo
Ġsimpl ificada
ĠEN BRON
Ġinforma tion
Ġais lados
Ġdocumen tal
Ġperspec tivas
Ġcuar zo
Ġsurg imiento
ĠRecuer de
Ġnecesitar Ã¡
To das
Ġmac ho
Ġconceptu alizarla
Ġrepar tir
Ġsensi bilidad
Ġhabi taciÃ³n
Ġhal la
Ġpromo ciÃ³n
ĠarquitectÃ³n icas
ĠFun ciones
Ġtor n
Ġalter an
Ġdivis iones
Ġexplo tar
Ġavanz ados
Ġadop tan
Ġremo tos
Ġsuminis tros
Ġdestin an
Ġimplan ta
Ġdemand ado
ĠsÃŃn cronas
ork sta
Ġcomprob aciÃ³n
Ġcomprob ado
Ġchat bots
Ġcerc a
Ġcerc ano
Ã¡ndo me
Ġinterrela ciones
Ġexplor ar
Ġcomen zado
Ġbor rar
Ġmega pÃŃxeles
Ġautomatiz ados
Ġreflej adas
ĠfÃŃj ese
ĠAnal ÃŃtica
Ġinnov adoras
Ġotor gue
Ġcomplic ados
ĠNe wman
Ġilus iÃ³n
Ġarte fac
Ġexpan dir
Ġsecund arias
Ġbi partito
Ġasim Ã©tricas
Ġconcurr ente
Ġconsta tar
100 0000
Ġayud ado
Ġsos pechosos
Ġdecre tos
Ġensamb la
Ġadqui rir
Ac ceso
Ġsuf re
Ġexis tido
Ġjue gos
ĠRela tions
Ġdef ender
Ġpul gada
ĠpÃ©r didas
Ġconce bido
Ġmeg abytes
ĠTen iendo
Ġeconom ÃŃas
Ġpuntu alidad
Ġpub licando
Ġflec has
ĠgenÃ© ticamente
ĠHar dening
ĠAU TOEXTEND
Ġsubespa cios
Ġnucle ares
Ġrig en
Ġinvestigar on
Ġhubi Ã©ramos
arla yout
Ġquis e
Ġpobla ciones
ĠAm d
Ġhable mos
Ġquin ta
ĠasÃŃn crono
ĠasÃŃn cronas
Ġdescar gar
Ġfir man
ĠautÃ³no mos
Ġmonet ario
Ġcredi ticia
Ġtraducir se
Ġinterbloque os
ĠMÃ© todo
ĠMÃ© tricas
ĠMÃ© todos
Ġresuel to
Ġampar ados
Ġprec onfigur
Ġdistrib uyen
ĠCE PAL
Ġcatal ysis
Ġcatal oga
Ġnaci mos
Ġtelefon ÃŃa
Ġcongruen ciales
33 3
Ġcib er
Ġconti gua
Ġprom ueven
Ġprome tida
Ġparecer se
Ġbon ito
Ġnac emos
Ġprefer ible
Ġpreserv ar
Ġfran cesa
Ġaconte cimiento
Ġafin ar
Ġaler ta
ĠET SI
ĠPlan ificaciÃ³n
ĠimplÃŃci ta
ĠimplÃŃci tos
Ġagreg ado
Ġrefin a
Ġaline ar
Ġpreocu pe
ĠVal ores
Ġnarra tivos
Ġtera hertz
ĠMon godb
Ġadyac ente
Ġmillon Ã©sima
XX HDPI
Ġapare ci
ĠMal ware
Ġdiaposi tiva
Ġfoto grafÃŃas
ĠdiÃ¡ logos
ĠEL SE
ĠLine arlayout
Ġcaptur adora
Ġmultiplica tivo
Ġtraslad ar
Ġeurope os
Ġeurope as
Ġmegaher cios
Ġhosp ital
Ġhosp itales
TR AR
Ġluch ar
ĠtÃ¡c tica
Ġdesorden ados
ĠNU LL
ĠVen ezuela
Ġveci nos
Ġsubje tiva
Ġteste o
Ġmetal ingÃ¼ÃŃstica
ĠorgÃ¡n icos
ĠCuen tan
Ġmiti gaciÃ³n
Ġregion ales
ĠTec nologÃŃa
Ġsatisfec has
apitu lemos
Or acle
Ġsien ta
Ġdelic adas
ĠAN D
ĠVirtu al
ĠHT TP
Ġconsigu iente
Ġmateri alidad
Ġ196 5
Ġmicroch ips
ĠdÃ©je lo
Ġsobresal ÃŃa
Ġreemplaz ado
ĠlÃ¡p iz
Ġga ap
ĠImpor tancia
Ġascen dentes
Ġestoc Ã¡stica
Ġsalu dar
Ġmultipro gram
Ġpredefin idas
Ġpredetermin ados
ĠUsu arios
Ġdedi que
Ġenfa tiza
Ġcontes ta
ĠPres ente
Ġcorro mp
ĠGen eracion
Ġhisto grama
ĠmilÃŃ metro
ĠESTRUCTU RAS
Ġat Ã³micas
Ġrigur oso
ĠIS ACA
ĠMS DOS
ĠRan go
Ġexplici ta
ĠÃ¡n imo
Ġpilar es
ish ing
Ġinh erentes
Ġreve la
Ġextr emos
Ġcomit Ã©s
ĠPRE ORDEN
Ġsuscep tibles
Ġnex t
ĠCompe tencia
ĠtÃ³ xicos
Ġcomod idad
ĠSim ultÃ¡neamente
ĠSign ifica
Ġcontac tos
Ġfire wall
Ġagres iva
Ġambien tales
Cic lo
pie dades
Ġecos istemas
ĠpÃ³s ter
escri tura
Ġhorm igas
Ġrelie ve
Ġprohib idos
Ġparce la
Ġtup las
aceb ook
Ġblin da
Ġtridimen sionales
Ġcompri men
ĠESP ACIO
Ġdesper di
ĠCENE LEC
ĠSier ra
ĠAsegur ador
ĠITI L
Ġasalari ado
Ġcorpor aciÃ³n
Ġsolven tar
ĠBrid ge
ĠVECTORI AL
Ġpetab ytes
Ġsubreg ional
Ġconcurren tes
ĠDEON TO
ĠWHE RE
ĠchÃ©ver e
ĠagroquÃŃ micos
Ġaliment aria
fidencial idad
Ġcontempor Ã¡n
ĠPrince ton
orksta tion
ĠRelations hip
, (
- //
1 5
2 8
2 000
3 8
6 0
: (
A XVALUE
C E
C ACHE
C YCLE
D a
D RAM
E EN
F IR
G RAM
I LA
I ETEL
M y
M ientras
P OS
S ecu
S istema
S CROLL
T ener
U CH
V T
W EEN
X NET
b l
b rido
c ales
c alizaciÃ³n
c rea
d or
d able
d ba
d bo
e amiento
f usiÃ³n
f rame
f Ã¡sicas
g le
g ebra
i x
i ano
j ando
j adas
j able
j eros
l len
l ive
m ec
n to
o f
o h
o o
p ico
s ec
s ystem
u alidad
v in
v itado
z amos
Ġ Ã¡l
de ar
Ġde ten
Ġl uc
Ġp uls
Ġc ho
Ġc loud
Ġc oraz
Ġs po
Ġs cience
Ġs lash
er tificados
Ġa ÃŃs
Ġa Ã±a
on da
on entes
on imo
ar quitectura
qu ina
qu ines
or to
or dan
Ġes quina
Ġm ue
Ġm iento
Ġm bps
ti era
ti mas
ti um
Ã³ lo
Ã³ logo
tr iz
tr ados
ad min
Ġla zos
al e
al mo
Ġen c
Ġen tiendo
Ġen laza
Ġel ici
Ġd iente
Ġd Ã©c
Ġn b
ta tiva
ic emos
is tores
is tribuciÃ³n
Ġcon tro
Ġcon fin
Ġo jos
Ġo ye
ÃŃ fico
ÃŃ culas
Ġin inter
am Ã©trica
Ġco digo
Ġco ord
Ġre b
Ġre t
Ġre mon
Ġre llen
Ã© simo
Ġf an
Ġf pu
Ġf lash
Ġpar che
Ġpar amÃ©trica
Ġt hre
le tas
le gisla
Ġpor tar
Ġpor cen
us os
mo lÃ©
ue ba
iz ador
Ġb ios
Ġb ucle
ma xi
Ġsi te
Ġsi lla
Ġcu esti
Ġme trica
di fusiÃ³n
Ġper cen
Ġper cepciÃ³n
tiv irus
Ġg ues
Ġg asta
Ġdi mos
Ġdi remos
Ġi tems
Ġsu man
Ġsu fijo
Ġus arse
la ves
Ġson ora
Ãº en
Ġdes ap
Ġso mbr
Ġso fistic
Ġha ciÃ©ndo
Ġac us
Ġac lar
Ġac titudes
Ġex ca
Ġex ha
ĠestÃ¡ bamos
im Ã¡tico
ir st
Ġle es
Ġle tr
Ġle ve
Ġle xi
Ġor ador
Ġinter oper
Ġres tantes
Ġres Ãºmenes
Ġres eÃ±a
Ġres istores
Ġap as
Ġesta bil
tu los
ĠC IR
ĠC MI
ĠC ASE
ĠC ertificados
Ġan tivirus
ul gada
ĠmÃ¡s ter
ĠL ista
ĠL AST
Ġop cionalmente
il d
Ġte x
Ġte di
Ġma ta
Ġma pe
ce tera
Ġr icos
Ġr up
ĠA y
Ġcom ill
ĠP h
ĠP ag
ĠP uerto
ĠP RIOR
ĠP ILA
ĠP almo
Ġins istir
Ġcons tar
Ġu top
Ġimp ar
ra cional
se los
gan te
ĠD NA
ĠD VI
ĠD VD
Ġentre gado
Ġentre laz
Ġrec a
Ġmen tales
Ġbas amos
ĠI F
ĠI U
Ġgr is
Ġ5 00
Ġcar ne
mi tes
Ġas unto
Ġas ientos
Ġpre fi
Ġpre lectura
lar o
co p
Ġejecu ciones
Ġejecu tÃ¡ndose
Ġtra zado
Ġpoder los
Ġmedi ciones
Ġcor ra
um e
ĠM i
ĠM as
ĠM ana
Ġmo tores
Ġmo dul
Ġsol as
con s
con oci
Ġgener ado
Ġgener adas
Ġorganiz o
Ġorganiz arse
Ġpas tilla
Ġsin onimo
ĠT D
ĠT san
ĠT ambien
gar le
Ġprim as
Ġrep asar
Ġpos t
Ġpos tal
Ġpos teriores
Ġpos lectura
Ã¡n ico
ÃŃn as
Ġresp et
Ġopera cionales
vi de
vi tar
Ġregis trando
ĠEl abor
Ġbus quemos
pen dencia
ĠR J
ĠR OM
ĠR AND
Ġcambi ando
Ġsal a
Ġsal as
Ġsal udo
Ġsal vaguar
Ġdetermin ando
ve lo
Ġing les
fici e
Ġdo ceavo
Ġab onar
Ġab onos
Ġab and
Ġpres entes
Ġpres crip
Ġpres cripciÃ³n
vis ibles
Ġexp licando
Ġcomunic Ã¡ndose
Ġequi parar
ĠB L
ĠB Ã¡s
ĠB AS
ĠB enefici
ĠB rea
ĠIn put
ĠIn vitado
ca den
Ġne u
Ġhabl Ã¡bamos
ĠV oy
Ġnorm alizados
car se
Ġcan ales
Ġdepen dientes
Ġsub en
Ġsub desarrol
Ġanaliz amos
Ġanaliz arse
Ġtom ados
Ġconf undan
Ġconf luir
Ġide ologÃŃa
Ġsignifica tivas
Ġet hernet
Ġet cetera
vid os
Ġir racional
ie dad
mis tad
Ġinv enta
Ġapren da
Ġapren diÃ³
Ġllev amos
Ġllev ados
Ġescri torios
ĠF ran
ĠF lujo
ĠF acebook
man ual
Ġecu ador
ĠSe g
ĠSe arch
Ġpob res
ĠUn it
ĠUn iform
Ġdesp lazar
Ġdia gonal
Ġdia fÃ¡sicas
Ġcontra parte
Ġejecutar Ã¡
Ġsuper ar
Ġsuper ficie
Ġcondi cionamiento
Ġpla ya
Ġdur as
Ġcal or
Ġcal culo
Ġdar nos
Ġadministr an
ros s
Ġatribu ciones
Ġfal tan
Ġfal tas
AR TEL
Ġw arning
Ġpodr Ã¡s
Ġincre mentos
Ġincre mentando
Ġefec tÃºa
Ġ11 8
Ġprodu ciendo
Ġprodu cimos
ĠÃºn icos
Ġtransmi tidos
Ġoc ta
terna tivas
Ġreci nto
ĠRe do
ĠRe visar
Ġestab amos
Ġcrear Ã¡
Ġsitu ada
Ġcentr ales
Ġauto inc
Ġ20 20
Ġconsider adas
dic es
Ġprofes iones
Ġ[ âĢ
Ġmal as
Ġflu ida
ĠgrÃ¡ ficar
Ġ19 98
Ġsa quemos
ĠCu Ã¡l
Ġenten diendo
Ġenten dimiento
Ġmicro arquitectura
Ġdistribu id
ĠW hatsapp
Ġcop ian
Ġro pa
Ġro ot
Ġ12 8
ON LINE
Ġcombin ado
Ġpan a
Ġpan es
ĠPro tecciÃ³n
Ġespecific an
Ġindic ada
Ġ30 1
Ġejecuta mos
ĠfÃ¡ tica
Ġtermin ales
Ġ18 000
Ġaleator iedad
Ġdepende mos
IN AR
IN ITIAL
Ġch u
AS OS
Ġresolver se
Ġsem illa
Ġrevis a
Ġrevis en
Ġdivers o
Ġmir arÃ¡n
Ġconv ivir
Ġdirig en
AL L
Ġsubs ista
Ġsubs tring
Ġadministra tivamente
Ġraz onar
Ġautor izaciÃ³n
Se guimos
Ġsac Ã³
Ġdivid idas
Ġobserv an
Ġobserv amos
ĠInter eses
Ġcontinu amente
Ġvirtu d
Ġdesarroll Ã³
Ġsolici tamos
Ġimag ine
Ġcompr ueba
Ġredu ciendo
ĠJ usto
ĠJ ordan
Ġacu Ã©r
ĠAl t
Ġgenerar ÃŃa
ĠX ROM
ĠX XHDPI
ĠX XXHDPI
Ġje fa
Ġintro duce
Ġ14 000
Ġ25 6
ĠquiÃ©n es
Ġalcan zado
Ġacep tado
Ġacep tadas
Ġexten si
ĠÃ³p timas
ĠDes cen
Ġviv imos
Ġrad icar
Ġher cio
Ġescuch o
Ġpes os
Ġsoberan o
Ġpuer tas
Ġju eces
Ġcrea tiva
ĠEx tensi
Ġhu eco
Ġfon olÃ³gica
Ġali anza
Ġsig lo
Ġcuantita tivo
tion al
Ġacumul adas
Ġinterf ieran
Ġhabil itantes
Ġelectro mec
IS O
Ġadi vin
Ġprepar ado
Ġprepar ada
Ġprepar ados
Ġinten to
ĠEsta mos
Ġprior idades
Ġprior iza
ger ir
Ġadecu aciÃ³n
ĠtÃŃ tulos
LO AD
Ġmanej en
Ġmanej ados
fi quen
Ġdeud ores
Ġpresentar se
ĠaÃ±ad iendo
ĠTI PO
Ġconform aciÃ³n
Ġvol tios
Ġvol Ã¡tiles
ĠAc tualmente
ĠOp t
ĠOp cional
ĠOp tim
Con cep
Ġcin tas
Ġano tÃ©
Ġradio difusiÃ³n
Ġub ica
Ġconven iencia
Ġcerr ando
LA TIV
Ġinfer iores
iÃ©n donos
Ġestim ando
Ġgesti one
ĠLo op
ĠLo cal
De termin
Ġbusc ado
Ġactualiz ada
Ġcodific ado
Ġtras tes
ĠIntel ligence
Ġorigin ando
Ġubic ados
grÃ¡ fico
Ġemi tidas
Re alizar
pec tro
ĠÃŃn te
Ġpen tium
Ġsan eamiento
Ġexc lam
Co mple
Ġanti gÃ¼edad
Ġbo tÃ³n
Ġbo ole
Ġquedar on
Ġprocesar los
Ġincorpor aciÃ³n
xim as
Ġeven to
Ġexig encia
Ġdismin uciÃ³n
Ġcorpora tivos
Ġcorpora tivas
SE LECT
Ġatr acciÃ³n
Ġequival er
Ġsacar le
Ġvuel to
Ġorganizar los
ĠGu ar
Ġdesta ca
Ġmov iendo
ĠInform Ã¡tica
Ġpien sa
Ġmos trÃ³
Ġback ground
Ġapun tador
Ġsum adoras
ĠinalÃ¡mbr icos
DE FAULT
Ġado quines
Ġsimpl ificaciÃ³n
Ġsimpl ificado
Ġautoma tizaciÃ³n
MD R
ĠCO DE
Ġinser tados
Ġinforma tica
Ġais lado
Ġproyec tada
Ġproyec tarnos
ĠCON T
ĠCON ARTEL
Ġaf ron
ĠGener al
Ġbanc aria
Ġcoefici ente
ĠAPI S
Ġaprovech an
Ġaprovech amiento
Ġdescon cen
Ġobligator ias
Ġconci ben
Ġconceptu alizado
ĠDirec to
lon g
Ġzon ales
Ġhal lada
Ġdescomp one
Ġfij aciÃ³n
ĠMan uales
Ġadop ciÃ³n
ĠâĢ ĺ
ĠâĢ Ļ
Ġremo vidos
ĠRec apitulemos
Ġbar co
Ġcomprob aciones
Ġprecis os
Ġcomen zamos
Ġiter ar
ĠenseÃ±ar les
Ġagregar le
Ġvincu laciÃ³n
Ġdescen dentes
Ġinfl uya
Ġconserv a
Ġgrad Ãºen
Ġtuvi ese
Ġnumer adas
Sin taxis
Ġotor ga
ĠWeb inar
}] ,
Ġswitch es
col umna
Ġhol ÃŃstica
Ġparame tricas
Ġdesac op
Ġdesac tivar
Ġdisper sas
ĠVM XNET
Ġmacro molÃ©
Ġdu re
Ġol vÃŃ
Ġtran qui
Ġape gados
Ġinsu mo
Ġasim Ã©trico
Ġsubordin ados
Ġmunicip io
Ġparavirtu alizado
Ġplanifica ciones
Ġpele as
CU LAR
Ġplac as
Ġsubgru po
Ġuniform es
Ġhos t
Ġincur rir
Ġintr usiones
Ġexposi tivos
Ġrecolec tar
Ġcance lo
Ġcance laciÃ³n
ĠRela y
Ġtribun ales
ET WEEN
Ġpub licidad
Inter Ã©s
Inter rup
Inter Base
Ġreportar le
Ġdoc ente
ĠDetermin a
Ġ) ]
Ġhubi ese
Ġcertific an
Ġcertific arse
Ġencapsul an
ph one
ĠMODE L
Ġses gando
Ġhipo tÃ©
Ġatra er
Ġacab amos
Ġcalcul ada
Ġhere dar
Ġevolucion ado
Ġfir mas
Ġdisp lay
Ġmanifes taba
Ġases ores
ĠRE LATIV
Ġremi timos
Ġcru zados
40 12
40 28
Ġur gente
Ġba th
ĠtrÃ¡ mites
Ġexces ivo
ĠOP EN
An tes
Ġdiscu tir
Ġanim ales
TORI A
Ġrector ado
ĠTemp or
Ġauxil iado
Ġdinam izar
ĠmonolÃŃ tica
rump ida
Ġtelefon ÃŃas
OFF LINE
Ġdiv ida
Ġgrie ga
Ġaterr izar
ug ging
Ġcobr anza
ĠCor res
ĠmagnÃ© ticas
Ġrode a
Ġgrup ales
Ġmono procesador
Ġtermino logÃŃas
Ġaconte cimientos
Ġsemiconduc tores
Des de
ĠPlan ning
Ġhabitu ales
Ġabstra ÃŃdo
Ġenglob an
Ġpac tado
Ġdr ill
Ġfis cal
ĠVal idaciÃ³n
Ġcalce tines
ĠUNI QUE
ĠAnaly tics
Ġnarra tiva
trac tion
ĠhÃŃ brido
Ġalar gue
Ġconsistir Ã¡
Ġcamis as
ĠUtil izaciÃ³n
Ġcalcu lado
Ġmillon arios
CD H
Ob jetivos
Ġdele gaciones
Ġatien da
Ġaval ado
Ġfl uya
Ġprote ÃŃnas
Ġdesen caden
ĠNO DO
ĠParti cip
Ġenfren tan
ĠINFORMÃģTIC O
Ġenumer ados
AV E
Ġene mistad
Ġmeter le
Ġacog e
ĠOn line
Ġpriorit arios
Ġaconse jable
198 8
Gener almente
Ġluch a
Ġdemasi ados
Ġhipotec ado
Ġconmu taciÃ³n
Ġframework s
Ġdeterior o
Ġpid iendo
Ġsys dba
ĠactÃº an
ĠCom isiÃ³n
Ġhabr Ã¡n
ĠDeb emos
ĠHow ard
Ġaloj an
ĠempÃŃr ico
Ġapres ur
ĠSM ALL
Ġmotiva cion
ĠNOM AXVALUE
ĠNOC ACHE
ĠProble mas
Ġvigil ancia
ĠMAX EXTENTS
Ġdescomponer se
Ġamar garle
ĠhÃ¡g alo
Ġcomenta ba
Ġretor na
Ġrepos a
ĠrÃŃg ida
polÃŃ tico
Ġdescono zco
Ġmulticomputador as
Ġintersec ciÃ³n
Nos otros
Ġquebr ado
Ġtur no
ĠCÃ³ mputo
ĠCual ita
ĠOut put
Ġpeda zo
Ġromp er
Ġrecord ando
tÃ©cn ica
Ġlap top
Ġsemin ario
Ġindu dable
Ġtrim estral
Ġanten a
Ġanima ciones
Ġaspir ar
Ġlimi taciÃ³n
ĠAUDITO R
Ġencuestar la
Recuer den
Ġcondens adores
Ġpros ista
Ġrelig iÃ³n
Ġbol sa
Ġobvi an
ĠLog s
ĠPlante ando
ĠTable layout
Ġadher ir
ĠConten gan
Ġwa it
Ġpatrimon ial
Ġinfluen ciar
ĠABSOLU TE
ĠÃīTIC A
Pr incip
Ġcn t
tables pace
ÃŃcol as
Ġreferen cial
Ġge om
ĠElectro tÃ©cnica
Ġconjun tamente
ĠPropor ciona
meric ano
ĠStandar diz
Ġtram as
cuÃ©r dese
Ġinterdisciplin aria
ĠStra tegor
ĠConstitu ir
Ġmultiprogram aciÃ³n
Da tos
FIR ST
My SQL
Secu encia
UCH DB
crea te
ĠÃ¡l gebra
Ġluc ro
Ġcoraz Ã³n
ĠaÃŃs lan
Ġmue bles
Ġelici taciÃ³n
Ġcontro le
Ġininter rumpida
Ġcoord ina
Ġthre ad
legisla tivo
Ġporcen tual
Ġcuesti ones
Ġgues t
Ġsombr ero
Ġexha us
Ġlexi grÃ¡
Ġinteroper abilidad
ĠCIR CULAR
Ġrup tura
ĠPalmo live
Ġutop ÃŃa
Ġprefi jadas
ĠTsan g
Ġaband ona
ĠBenefici os
ĠBrea k
Ġsubdesarrol lado
ĠFran cia
Ġ[âĢ ĺ
Ġjefa tura
ĠExtensi ble
Ġelectromec Ã¡nico
ĠmacromolÃ© culas
ĠolvÃŃ dese
ĠRELATIV E
4012 98
4028 23
5 3
6 3
= )
A J
A mor
A tom
B us
B LE
C liente
D eb
E mp
E IS
F I
F IN
G AD
G IPS
H T
H os
H ab
H asta
H EN
I mpor
K PI
L ACIÃĵN
L ISTA
M b
M WARE
M INVALUE
N eces
N GIPS
O p
O tro
R en
R ol
S M
S MP
S NT
U S
U T
U til
U ML
V alor
V MWARE
Y SQL
a tom
a visa
b lec
b idos
c aciÃ³n
c uela
d ri
e tas
e jemplo
e Ã±o
e Ã±ar
f ri
g ono
h an
h ab
h up
h ile
i ten
i tor
i mento
j ada
j ados
l lo
m ero
m ig
m iraciÃ³n
n ite
n ext
n dices
o fici
p ta
p ano
p aces
r or
r ÃŃ
t aliz
t ÃŃas
t ÃŃstico
u qu
v iles
Ġ q
į ndices
Ġe ma
Ġe pi
de los
de udas
Ġde cia
Ġde duc
Ġl lu
en das
Ġp sÃŃ
Ġc es
Ġc rec
Ġc ine
Ġs or
Ġs lo
Ġs ue
Ġs tan
Ġs mar
Ġs sd
er ales
er ir
er almente
er ita
er amen
er turar
Ġa gos
es per
es cuela
ar o
ar to
qu icas
or era
Ġes cu
te a
te gran
un tador
Ġm er
Ġm olec
Ġm ueven
an al
an ode
Ã³ log
tr adas
ad icar
in itaria
in tegran
Ġy esos
al ta
al go
al ÃŃas
Ġen am
Ġen Ã©simo
Ġd as
Ġd ul
Ġd aban
ta pas
Ġv ue
Ġv ivos
is ando
Ġcon fec
Ġse me
Ġse ts
Ġo ut
Ġin tran
Ġin esper
do p
am id
am ante
Ġh uel
Ġre usabilidad
Ã© mos
Ã© ano
Ġf ren
Ġf ort
Ġf emen
Ġf eed
Ġpar pa
Ġpar lantes
Ġt he
ab Ã³n
le t
le gar
Ġpor tarnos
us tedes
mo delos
ac tores
Ġb ode
Ġb ro
Ġb el
Ġb aje
Ġb urst
res iones
ter as
Ġal za
Ġal isando
men tito
Ġsi ga
Ġsi tÃºa
Ġcu idados
ces or
di to
di fique
Ġper tur
Ġper ÃŃo
Ġper misos
uc tÃº
Ġtr ama
Ġtr istes
Ġtr initaria
bi a
Ġdi gan
Ġdi ez
Ġdi amante
Ġi p
Ġi tin
Ġto mas
Ġsu tura
Ġsu ya
Ġsu gerir
ari ando
tic ado
ĠE S
ĠE uler
ĠE tapas
Ġus e
Ġus aria
la zo
Ãº mero
Ġdes le
Ġdes bloque
Ġdes truir
ode rar
Ġtien das
gu ÃŃn
Ġso Ã±
gr as
Ġex im
Ġex tras
Ġex ag
ĠestÃ¡ ticos
im Ã©trico
Ġemp eÃ±ar
aj eros
Ġdis cer
tor a
Ġor al
Ġor ales
Ġor alidad
Ġor gul
Ġob tu
Ġob ra
Ġob vias
tan gulos
Ġproces ados
Ġ( =)
Ġres fri
aliz amos
Ġap i
Ġap ara
Ġap enas
Ġap erturar
Ġap oderar
rec tos
tu res
tu gas
si gn
Ġinf luir
Ġinf arto
ĠC M
ĠC X
ĠC TE
ĠC ach
ĠC aso
ĠC liente
ĠC anal
Ġan om
Ġan atom
ib os
ĠL E
ĠL S
ĠL AR
ĠL DD
ĠL DPI
ĠL iber
ĠS D
ĠS ol
ĠS ir
ĠS crip
ĠS AVE
tre zas
Ġr ico
Ġr ija
Ġr aro
ĠA no
Ġperson ajes
Ġins tin
Ġins isto
Ġar tÃŃstico
Ġimp oner
Ġcl ari
Ġcl imÃ¡tico
Ġtrabaj Ã³
are as
ig h
ig ht
los o
ra zo
Ġhay as
Ġqu err
ÃŃs ticamente
ĠD in
ĠD AR
Ġca tÃ³
Ġca taliz
duc cion
Ġrec ar
Ġrec apitu
Ġmen u
Ġmen us
Ġmen tar
Ġbas ura
ecu aciÃ³n
ĠI de
no logÃŃas
Ġneces itado
Ġneces itÃ³
ver n
Ġcar gado
Ġcar gando
Ġcar gadas
Ġcar razo
mi ten
der as
der amente
der izaciÃ³n
emp eÃ±o
Ġutiliz able
Ġpre estable
el an
Ġtrans bord
Ġtrans curre
Ġgen eren
Ġfin alizaciÃ³n
Ġobje tivamente
Ġsus tituciÃ³n
Ġtra tada
ĠEn torno
ĠEn samb
ĠM ando
ĠM LF
ĠM edidas
ĠM YSQL
Ġmo to
Ġmo tivos
Ġmo dulo
Ġmo mentito
ĠEs cribir
Ġsol ÃŃa
Ġcas ita
Ġcas tigar
Ġcual idad
Ġdirec torio
Ġpas ante
Ġpas ajeros
Ġcos ita
ĠT amaÃ±o
ĠT HEN
Ġcomun itarias
Ġrep eler
Ġpos fi
Ġcre ÃŃa
Ġcre cientes
Ġau mentado
Ġau tonom
ren d
ĠLa youts
ĠU DP
Ġcompu to
Ġad miraciÃ³n
lan taciÃ³n
Ġmejor adas
Ġusu al
tin to
ĠR enta
ĠR ecu
Ġcambi ante
Ġvan idad
Ġdetermin Ã³
ve a
Ġred onda
Ġred istribuciÃ³n
om eo
Ġpermi tia
Ġsign al
Ġllam ando
Ġdo tar
Ġdo tado
Ġab ren
Ġab oc
Ġab uelita
Ġpres iones
par a
Ġorden e
ĠO peraciÃ³n
vis to
Ġaplic ada
Ġaplic abilidad
Ġven go
Ġven gan
Ġsen tados
Ġexp ortaciones
erc ado
Ġprograma cion
Ġcomunic ados
Ġequi pol
ĠIn fo
ĠIn icia
ca pta
Ġpon ÃŃa
Ġpon ia
ĠV ol
Ġnorm ar
Ġnorm alidad
ĠH e
Ġresul tando
Ġfuncion ario
fec ciÃ³n
Ġcan tÃ³n
uev o
ĠcÃ³mo da
Ġpe lo
Ġiden ti
Ġconf orma
dr Ã¡n
dr ive
ios as
ĠG A
ĠG ran
ĠG SM
Ġmatr icial
ĠCon di
ĠCon tador
ĠCon vers
ĠCon fidencialidad
Es os
Es peci
Ġcier ran
Ġfinanci aciÃ³n
Ġfinanci sta
ing ido
Ġinver so
Ġley endas
Ġcomple mentar
Ġir nos
Ġapren demos
Ġemple ada
ĠF LO
ĠF ich
ĠF UN
ĠF ijas
ĠF IFO
Ġecu avisa
Ġintegr ar
Ġintegr antes
Ġdesp ach
Ġdesp legar
Ġproce dencia
Ġna uf
Ġestad ÃŃsticamente
Ġcontra taciones
por cionar
Ġsuper comp
Ġsuper vivencia
ĠpolÃŃ gono
Ġentr es
Ġentr emos
Ġerr adicar
Cu ota
Ġdur Ã³
Ġdur abilidad
Ġsaber se
Ġutilizar on
pe da
Ġcol is
Ġder ram
Ġfal tarÃŃa
Ġcur rÃŃ
Ġderiv ando
pro ble
AR AC
gen cias
gen eralmente
Ġw ifi
Ġw ide
Ġw hatsapp
Ġw hile
Ġconten to
Ġconten gan
Ġanalizar los
Ġpodr ÃŃas
Ġcompar amos
Ġcompar ticiÃ³n
Ġexpres s
Ġcompe tente
Ġren tangulos
Ġren derizaciÃ³n
Ġcr ist
Ġmin erales
Ġincre ment
Ġtomar on
Ġefec tÃº
ĠmÃ³ de
Ġcorrec tas
op ea
Ġmulti hi
Ġquer ÃŃan
tric es
Ġmas hup
Ġmas ticado
Ġinde m
Ġevalu ando
Ġoc Ã©ano
Ġsignific ante
Ġsignific ancia
Ġreci bimos
Ġauto de
Ġcuan tos
proces os
Ġ19 86
Ġag encia
Ġtoma te
ĠCu Ã¡n
Ġdenomin amos
Ġenten dimos
Ġmicro empresa
Ġindividu almente
ion ar
pre duce
ĠW IT
ĠW CD
Ġpresen ten
ĠdiseÃ± an
ĠdiseÃ± ando
ĠdiseÃ± ada
Ġdesarrollar me
Ġcab en
Ġcab allo
EN CE
Ġhablar emos
ĠseÃ±al ar
AN ET
ĠAn alizo
Ġaprender se
Ġpan orama
Ġespecific ada
Ġmor osas
Ġrecor riendo
Ġejerci dos
Ġsimul an
Ġtemp eramen
Ġconfi eren
Ġllevar la
Ġli deres
Ġpagar emos
ĠfÃ¡ ciles
Ġtermin e
Ġban das
Ġsup era
ula ciones
Ġata carse
Ġamb ientes
Ġunivers idades
Ġch as
lica tion
Ġpregun tan
Ġgaran tÃŃas
Ġsem estral
Ġalmacenar la
RE S
RE GL
Ġmir ando
Ġmir ror
Ġafec tiva
Ġnecesi ten
Ġtratar se
Ġinterac cion
Ġinterac tivo
Ġconsum ÃŃa
Ġarti cul
Ã¡m ica
Ġpron ta
Ġcumplir se
Ġdeparta mental
Ġdeparta mentales
Ġdomin ado
Ġdomin gos
Ġapar iencia
Ġadministra cion
Ġautor idades
Ġautor izadas
Ġinvent ariando
Ġci tar
Ġcontinu idad
Ġescal erita
Ġvirtu aliza
Ġdesarroll en
Ġdesarroll ados
Ġbenefici oso
Ġcob ros
Ġliber ado
Ġlim itada
Ġ14 7
Ġ21 0
ĠÃ³p ticas
ĠDes p
ĠDes ign
ĠDes empeÃ±o
Ġtransform an
Ġtransform Ã³
ĠSI MD
ĠSI MP
ĠSI STE
Ġcualita tivo
Ġcualita tivos
Ġrad ios
Ġher mana
Ġcircu la
Ġperten ezcan
Ġdig it
Ġdig itado
ĠelectrÃ³n icas
Ġcua tros
Ġapoy ado
Ġtele ofici
Ġtele escuela
Ġpuer ta
Ġbin arias
Ġju gue
Ġju icios
cul um
ĠEx pres
ĠMe jor
Ġfon Ã³log
Ġali ados
Ġarreg le
Ġapor tes
Ġconcre ten
ment adas
Ġobten iendo
Ġmencion amos
Ġmencion adas
Ġmodific ado
Ġ94 0
Ġverda deramente
Ġfabric an
Ġinten sa
Ġinten tarlo
ĠEsta blec
In strucciones
Ġvender la
Ġbibliotec ario
Ġemb ar
Ġfor tran
Ġelabor ada
ĠsemÃ¡n ticas
laz ando
Ġincor rectos
Ġmu era
iza tion
ĠAr itmÃ©
ĠDis pon
MA XVALUE
Ġfavor ezcan
Ġvol vieron
ĠelectromagnÃ© ticos
Con oci
Ġvo caciÃ³n
Ġano to
Ġano taciÃ³n
Ġano tando
Ġsegu ida
Ġrecu p
Ġinstal a
Ġprecios o
Ġimplementar Ã¡
Ġimplementar lo
Ġrepeti tiva
Ġtes orera
Ġpudi mos
LE DB
Ġreutil izar
Ġestim ada
Ġprov ienen
Ġincrementar on
ĠIP S
ĠsimultÃ¡n eos
RI TE
Ġdefini cion
Ġorigin Ã³
Ġorigin almente
Ġfo mento
Ġpod ÃŃan
TIC AS
rag io
Ġemi tida
Ġimpres os
Ġsalud able
Ġsan guÃŃn
Ġesper aba
Ġdej an
Ġgeren ciales
Ġtok i
Ġaj ena
Ġcuadr ados
Ġanu almente
ĠIntro duccion
ĠIns u
ĠIns tancia
Ġmonitor e
Ġexig ible
Ġrevisar Ã¡
Ġhar Ã©
Ġdescu bier
Ġagrup an
ĠPer mitir
Ġ201 1
Ġecuatori anode
Ġbr u
Ġrecon figur
Ġabier tos
Ġdeclar ado
Ġdejar on
ĠÃ įndices
Ġcolec tiva
Ġaumentar on
Ex pres
Ġinci dente
Ġdesplaz aba
Ġdesplaz amientos
ap licaciÃ³n
Ġinser tando
Ġdep resiones
ĠhistÃ³r ica
Ġparale la
Ġais lamiento
Ġacces ibles
Ġprede cesor
Ġdocumen tada
Ġsurg ir
ĠED GE
Ġreserv ar
Ġreserv ado
Ġreserv ados
Ġaf Ã¡n
Ġtrabaje lo
Ġpreval ecen
ĠGener aciÃ³n
Ġocas iÃ³n
Ġlegis lador
Ġrequi ero
Ġprogres iÃ³n
Ġencaps ulaciÃ³n
Ġdepur ada
Ġdepur ados
Ġconci sa
Ġcuid arlo
Ġtranspor tan
ĠperiÃ³ dico
Ġcome tan
Ġfij an
Ġtor tugas
Ġalter nos
Ġdivis ado
Ġexplo tan
Ġeur opea
Ġand amos
cÃ³ lico
Ġperfec ciÃ³n
Ġdestin ada
Ġviol ar
ĠinteractÃº a
Ġmul tic
db y
Ġcerc ana
Ġrev Ã©s
Ã¡ndo los
ĠenseÃ± anza
ĠDise Ã±ar
Ġemo cionalmente
Ġhis pano
Ġreflex ivo
Ġalu mbrar
Ġconsisten tes
Ġconserv an
Ġrespec tivas
Ġtuvi era
Ġpare ja
Ġpare ciÃ³
Ġcorreg ido
Ġinnov ador
Ġdetr imento
Ġperman entes
Ġgram Ã¡ticas
ĠNe tez
ĠexplÃŃci ta
Ġenrique cimiento
Ġexcep ciones
MI T
Ġdisper sor
ĠConcep ciÃ³n
Ġfrecu entes
Ġmacro econÃ³m
Ġape tencia
Ġasim ilar
Ġanticip arme
Ġmembres ia
Ġasum iendo
ST ART
Ãģ S
Ġmoder ador
Ġayud Ã¡ndole
ĠdÃ©bil mente
Ġperj udic
ĠSE QU
Ġdecre cientes
Ġdemostrar lo
Ġprofun dos
ila terales
Ġuniform idad
ĠAR REGL
Ġincur re
Ġincur riÃ³
Ġaprob aciÃ³n
Ġaceptar la
Ġexposi tiva
Ġpreven tivo
Ġsusten ta
Ġsusten table
ĠRela tive
Ġliter al
Ġmeg abyte
Ġlevan to
Ġlevan tamiento
ĠCh ar
Ġsens or
Ġsens aciÃ³n
Ġpuntu ales
Ġantigu amente
Ġpub licar
Ġmil ise
Ġpreten der
ĠÃ¡g iles
Ġapropi adas
Inter ac
Ġinicia tiva
Ġverific ando
dis posi
dis tinto
Ġsustitu ido
Ġfrac tura
Ġdifus as
Ġcertific aciÃ³n
Ġencapsul ado
Ġprece de
Ġalo car
Ġmol esto
Ġtitu laciÃ³n
Ġconstru idas
Ġdup licidad
Ġextrover tidos
ĠBus es
ĠBus iness
Ġchip s
Ġperci bir
ĠCapa cidad
Ġcalcul adora
Ġhere da
Ġeng ine
Ġfirm ada
Ġmonet arios
Ġconcen tra
Ġparametr izaciÃ³n
Me j
Me di
Ġnar cis
Ġremi tir
Ġremi tente
Ġretras a
ĠStan dby
Ġesperan zas
Ġformul arios
Ġpreguntar Ã¡n
Ġdescentr alizado
ĠacompaÃ± ar
Ġtraducir los
Ġconces iÃ³n
Ġba tea
Ġexces ivamente
Ġmutu o
Ġadquisi tiva
Ġmanifies to
Ġapreciar lo
utador a
Ġcuy os
Ġdiscu tiendo
Ġresuel ven
Ġanim aciÃ³n
Ġintens ivos
Ãį S
Ġpel uqu
ĠMulti procesadores
ĠMulti procesamiento
ĠIntegr al
Ġestr echo
Ġconti guo
Ġprom esa
Ġcogni tivo
Ġrein fecciÃ³n
Ġsubray ar
ĠPrincip ales
ĠARP ANET
Ġrechazar la
Ġextin gu
Ġexager ado
ĠSecu encias
ĠAP N
Ġeman adas
Ġrefin amiento
Ġnombr ando
Ġaline ados
Ġgam ing
ĠMa preduce
Ġpostu lando
Comp ar
ĠAUDI TORIA
Cons iste
Ġdemor as
Ġcog ÃŃ
Ġreduc ciones
Ġblog s
Ġalar gamiento
Ġdesemb ol
Ġjun tas
ĠTAB LE
Ġequivo ca
Ġequivo cada
Ġmalicios as
As pectos
CPU S
Ġis la
Ġdele gar
Ġatien dan
Ġfl uctÃº
Ġdesen v
Ġresal tando
Ġarro gante
Ġabsur do
Ġabsur da
Ġmultidimen sional
Ġkilob yte
Ġuniforme mente
ĠParti ciones
MO V
Ġene mig
Ġgal los
Ġgal letas
ĠdiÃ¡ logo
Ġdestre zas
Ġacog ernos
Ġaceler ar
ĠCam bio
Ġanid amiento
ĠPas cal
ĠmuchÃŃ simos
ĠOk ay
Ġmorir ÃŃamos
INCRE MENT
Ġdens idad
Ġmegaher ts
Gener alizaciÃ³n
Ġce le
Ġce ibos
ĠleÃŃ da
ĠTra tamos
Ġveci no
Ġindirec tas
ĠÃģ rea
Ġhipotec a
Ġintang ible
ĠactÃº en
Ġtable ts
ĠCuen tas
Ġasis tido
Ġasis tida
ĠConsi dero
Ġdespren dan
Ġsatisfec ho
Au tonomÃŃa
Ġenlaz ada
Ġdescri tas
Ġdesign adas
ĠempÃŃr icamente
Ġdispar adores
Ġapres amiento
Ġaprue be
Ġinfr ingido
ĠSM S
Ġvalora tivo
Ġadmi ten
ĠNOM INVALUE
ĠNOC YCLE
Ġventan as
Ġirre gular
Ġefectu ados
Ġtub erÃŃa
Ġrestaur ar
TIV O
Ġinac tivo
Ġprocur ar
tonom y
Ġinfec tados
Ġtabl ero
Ġcron olÃ³gico
ĠDepen diendo
DIMENSION ALES
Ġabrevia tura
ĠEspecifica ciones
Ġencamin amiento
Ġoj alÃ¡
Ġpremis as
Ġreno mbrar
Ġextens iva
Ġauxiliar es
Ap untador
llam adas
Ġdepre ciar
Ġpir amid
Ġaz ul
ĠAu tonomy
ĠMo dos
Ġadorn ando
Ġmarcar ÃŃa
Ġafil iado
Ġortogon ales
Ġincursion e
Ġgigaher ts
Ġescon diÃ³
Ġvar ÃŃan
Ġtari fas
Ġdesas tres
Ġimpre visto
Ġadul tos
Ġexplic Ã³
ICI ÃĵN
ĠProb abilidades
Ġsolicitu d
Ġdevuel ven
ĠINTER NO
ĠCompar aciÃ³n
Ġestimul ar
Ġtranquil amente
Ġiso morfos
Ġpeligr osas
Ġpur os
Ġprag mÃ¡tica
Ġinterfer irse
Ġmediano che
Ġprimor dial
Ġrefuer zan
Ġcientific o
Ġamortiz aciones
Ġhubier an
Inte gr
ĠidÃ³n eas
Ġconllev Ã³
Ġprecep to
CON ATEL
Ġpic tures
Ġconducir se
Ġbu ild
Ġcues tan
Ġmelan cÃ³lico
Ġrecal ca
ĠTIN Y
Ġvecin dad
ĠCuad ro
Ġonres ume
Ġtorn illos
Ġciber seguridad
Ġdesperdi cio
Ġremon tan
Ġdesap are
Ġestabil izado
ĠElabor aciÃ³n
Ġimagine monos
Concep to
ĠÃŃnte gro
ĠCONT ROL
Ġafron tar
Ġgeom Ã©trica
Hos peda
Hab lamos
Ren dimiento
Rol es
dri Ã±ar
hab lante
Ġema il
Ġepi demia
Ġllu via
ĠpsÃŃ quicas
Ġcrec en
Ġsue Ã±o
Ġagos to
Ġescu driÃ±ar
Ġmolec ular
Ġenam orado
Ġdul ces
Ġconfec cionar
Ġseme j
Ġfort nite
Ġfeed back
Ġbro tes
Ġcuidados amente
Ġpertur baciÃ³n
ĠperÃŃo dos
Ġitin er
ĠsoÃ± adoras
Ġexim e
ĠempeÃ±ar on
Ġdiscer n
Ġorgul loso
Ġresfri ados
Ġapara tos
Ġapoderar me
ĠCach Ã©
Ġanom alÃŃas
Ġanatom ÃŃa
ĠLAR GE
ĠScrip ting
Ġinstin tivo
ĠDAR PA
ĠcatÃ³ lica
Ġcataliz ador
Ġrecapitu lando
Ġtransbord ador
Ġposfi ja
Ġautonom ÃŃas
omeo morfos
Ġaboc amos
Ġequipol entes
ĠInicia tiva
ĠConvers ar
ĠFich ero
ĠFUN CIONES
Ġnauf ragio
Ġsupercomp utadora
ĠcurrÃŃ culum
ARAC TER
Ġcrist alizar
Ġincrement almente
ĠefectÃº e
Ġmultihi lo
ĠWIT H
ĠWCD MA
Ġtemperamen tum
Ġarticul ados
ĠSIMP LEDB
ĠSISTE MA
Ġteleofici na
ĠfonÃ³log ica
ĠsanguÃŃn eo
Ġecuatorianode fine
Ġreconfigur ar
Ġhispano hablante
ĠNetez za
Ġdispersor as
ĠSEQU ENCE
ĠARREGL OS
ĠRelative layout
Ġmilise gun
Ġnarcis ista
Ġenemig os
Ġpiramid al
- ->
3 500
3 0000
4 7
5 9
9 40
A TORI
B A
B ajo
B LIC
B urst
C as
C Ã³
C ES
C RU
D is
D onde
D RA
E RIOR
F T
G IC
G UN
H Z
H ar
H oy
L e
L Ã³g
L AS
L Ãĵ
L enguaje
M uch
N AC
O D
O n
P rim
P osterior
R L
R ese
S uele
S park
T able
T PS
U s
U so
V ectores
W RITE
Y M
a cion
a tiva
a ve
a pon
a tel
a ps
a tarios
a pidez
a uciÃ³n
b Ãºs
c res
c aba
c remento
d Ã©mos
e idad
e la
e drive
f era
f Ã³r
f ord
g ia
g lÃŃ
g inas
g amento
g Ã¡mos
h inos
h arak
i ada
i tica
i ticas
i tico
i alizaciÃ³n
i quidad
i derazgo
i gopolio
j on
j us
k s
k ra
l or
l ur
l ing
l idos
l uyendo
m y
m Ã³n
m amente
m esa
n ar
n am
n olÃ³gico
n dice
o men
o gar
o can
p es
p ul
p ia
p ru
r aciÃ³n
r amos
r ados
s te
s al
s Ã©r
s ual
s ach
s ola
u mi
v irus
w ag
x hdpi
y nam
Ġ ul
Ġ warehouse
Ġe mana
Ġe dge
de t
de mo
de la
de mor
de finir
Ġde ter
Ġde bil
Ġde dico
os e
Ġl un
Ġl lÃ©
en torno
en ierÃŃa
Ġp ec
Ġp lus
Ġp lÃ¡
Ġc il
Ġc esta
Ġc ima
Ġc Ãºspide
Ġs licing
er min
er rec
er io
Ġa se
Ġa man
Ġa xi
es te
es iÃ³n
es iva
on as
on icos
ar ca
ar izados
as tore
Ġm ad
Ġm ora
ti om
ti cidad
ti eron
ad ia
Ġla zo
in ts
in dro
in ke
al itos
Ġen tras
Ġen can
Ġen cen
Ġen gras
Ġun e
Ġun iv
Ġun ificaciÃ³n
Ġun idireccional
re ma
Ġd jon
Ġv ibra
ic ho
is ation
Ġcon no
Ġcon ativa
Ġse amos
Ġse pas
Ġo k
ÃŃ ri
ÃŃ ficos
ÃŃ adia
Ġpr ensa
Ġin iquidad
am ing
am arca
Ġre el
Ġre per
Ġre ing
Ġre ens
Ġre ferencias
Ġre definir
Ã© lic
Ã© culas
Ġf ra
Ġf eo
Ġf ech
Ġpro mul
Ġpro lon
Ġpro venientes
Ġpro medios
Ġpro veniente
ec tados
cion istas
lo mbi
lo ok
lo calizaciÃ³n
ab ÃŃ
le gro
us et
mo v
iz aciones
Ġb Ã©lic
res tre
ter on
ter al
ter iales
Ġal usiÃ³n
Ġal arga
ma ciones
Ġdel a
ol l
ol ador
ol vemos
ur ÃŃn
ur ability
Ġme gas
Ġper me
uc tu
Ġtr aj
Ġdi Ã³
Ġdi dero
Ġdi grafo
cu al
cu brimiento
Ġi va
Ġto caba
Ġsu mas
Ġsu yo
Ġsu merg
Ġsu bieron
Ġsu ave
Ġcomp uls
Ġcomp itiendo
tic amos
ĠE ur
ĠE di
ĠE dx
Ġser iamente
tes qui
tro y
Ġdes men
Ġdes bas
Ġdes lave
Ġdes bord
Ġdes olador
den se
gu ÃŃamos
qui alizada
da te
da ta
Ġso pes
gr id
Ġex trac
Ġex hib
Ġex ij
im idad
ues tan
Ġle en
tra to
Ġdis tancias
Ġor ques
ici ar
ici ty
Ġinter media
tan ic
tan der
tan eidad
Ġ( |
Ġap uestan
tu alizar
ĠC f
ĠC l
ĠC ode
ĠC ri
ĠC QL
ĠC OS
ĠC lave
ĠC abe
ĠC ISC
ĠC ÃĵDIGO
Ġan ch
Ġan ivers
ul iar
ib rar
ia k
Ġdeb ugging
ĠL u
ĠL ÃŃ
ĠL ara
ĠL ex
ĠL lev
ĠL RU
ĠL IST
ĠL inke
Ġman tienen
Ġop ina
Ġop uesto
ero glÃŃ
ĠS il
ĠS ones
ĠS up
ĠS cr
ĠS MT
ĠS ENE
ĠS ystems
ĠS wag
il itico
tre aming
Ġte je
Ġte mÃ¡tica
ce dentes
son io
son ante
ĠA C
ĠA H
ĠA V
ĠA qui
ĠA par
ĠA cuer
ĠA quel
ĠA dap
ĠA CI
ĠA cop
ĠA cuÃ©rdese
ĠA jus
Ġcom is
Ġcom illa
Ġcom illas
les c
ĠP Q
ĠP AN
Ġins pec
Ġcons idÃ©rese
Ġar rend
Ġver ticales
Ġimp oniendo
Ġimp licados
Ġimp erio
Ġhacer las
Ġsistema tizaciÃ³n
se e
se x
se jo
Ġhay amos
ĠD O
ĠD OR
ĠD IF
ĠD imen
ĠD rill
ĠD ynam
ĠD urability
ro me
Ġca ÃŃdo
Ġca vern
Ġmis iones
Ġentre go
Ġentre guen
Ġentre lazar
Ġrec ons
Ġdic tadas
Ġmen tir
ecu tive
ĠI sola
Ġgr aba
mb os
mb ros
ble ciÃ³
Ġesp ero
Ġ5 000
Ġval en
Ġval ÃŃan
Ġval uaciÃ³n
ver tir
Ġcar gue
der amos
der no
emp tive
Ġas iste
Ġas umi
Ġpo zo
Ġpo inter
Ġmemor izaciÃ³n
Ġmemor ice
Ġmemor ial
Ġmemor iza
Ġpre vi
Ġpre escritura
Ġpre disposi
Ġtrans cribir
Ġtrans for
Ġgen Ã©ricas
co po
Ġejecu to
Ġejecu tados
Ġsus pen
Ġsus cita
Ġpa guen
Ġpa gin
Ġpa ginas
ri os
Ġtra es
Ġtra ge
Ġpoder nos
Ġpoder oso
Ġmedi mos
Ġmedi adora
Ġcor ona
Ġcor che
ĠEn cuen
ĠEn globa
um ero
TE G
ĠEs tado
ĠEs tad
ĠEs sex
Ġforma tiva
Ġsol ca
con atel
con sonante
Ġgener emos
Ġcas e
Ġcas tilla
Ġcas sin
Ġj apon
Ġj eroglÃŃ
Ġorganiz Ã³
Ġorganiz adora
Ġdirec tos
Ġdirec tivo
Ġdirec cionan
Ġpas ados
Ġsin aps
ĠT R
ĠT ic
ĠT err
ĠT Ã©cn
ĠT ech
ĠT orre
ĠT areas
ĠT urÃŃn
Ġinc apa
na ting
Ġprim arios
per ar
Ġrep licados
Ġniv ela
ÃŃn dice
ÃŃn sec
Ġesc an
Ġesc uelita
tir las
fin ite
urs os
urs era
ĠU HF
ĠU RL
Ġad quieran
ĠEl los
Ġbus quen
Ġmejor ÃŃa
ĠR n
ĠR AV
ĠR apidez
ĠR hinos
ĠR iak
Ġsal dos
Ġsal tarse
tec nologÃŃas
Ġdetermin e
Ġsobre v
Ġsobre mesa
Ġllam arse
Ġdo bl
Ġab ras
Ġab ogar
Ġpres tan
ĠN aciones
ĠN umero
Ġvis iones
Ġvis itar
ĠO S
vis iones
Ġvalor izaciÃ³n
Ġalmacen arse
Ġlengu istica
Ġciclo mÃ¡tica
tien de
Ġconj unta
Ġinte gre
ĠB P
ĠB AR
ĠB ETWEEN
ĠIn formation
ĠIn finite
Ġpon gÃ¡mos
isten cy
mÃ¡ ticamente
ĠV er
ĠV is
ĠH ace
ĠH iber
Ġresul tantes
Ġayu das
Ġrequer imos
Ġestar Ã¡n
Ġsolu cion
ch ed
Ġcan Ã³nica
Ġcan dela
ĠÃ© sima
Ġfinan za
Ġpe d
Ġpe er
Ġpe gamento
Ġsub mar
Ġanaliz adas
Ġconf usiÃ³n
Ġconf irmar
Ġcaracter izada
Ġsigu iÃ³
Ġconstitu idas
Ġconstitu cionales
Ġform ula
ĠG PU
ĠG QL
ĠG RO
ĠG rado
Ġmatr ÃŃculas
Ġestudi amos
ĠCon form
ĠCon figur
ĠCon trac
ĠCon vivencia
ĠCon curr
ĠCon sejo
ĠY i
ĠY an
Ġfinanci amientos
Ġcomple mentan
Ġdocu mente
Ġpol iticas
Ġapren dan
up ling
Ġidentific amos
cios as
Ġescri bieron
ĠF PU
Ġcumpl amos
Ġade mas
Ġtrabajar on
ĠSe guÃŃamos
Ġintegr ando
Ġintegr adora
Ġintegr arnos
ĠUn ido
ĠUn idas
ĠUn iversi
Ġdesp ac
erv a
Ġcontra tan
Ġcontra tamos
por t
Ġmun diales
Ġsuper maxi
Ġvi able
Ġvi ables
Ġentr ando
uel en
Ġerr Ã³n
ens os
Ġmon oli
Ġmon tesqui
Ġmon ilitico
Cu Ã¡ndo
Ġdur a
Ġprocedi Ã³
Ġsaber los
Ġ- >
Ġ- -//
Ġsoci alizaciÃ³n
Ġadministr ada
et s
Ġdiagram aciÃ³n
dific ar
ĠCPU S
Ġdec ano
Ġbaj ito
Ġdistin guiendo
form e
Ġfal si
Ġfal encia
Ġfal lan
Ġfal encias
Ġter restre
pro porcionar
gen tina
oci encia
Ġindi recto
mÃ© todo
Ġasign adas
Ġpodr Ã©
Ġespa cial
Ġexpres ado
Ġmin ing
Ġespec ulaciÃ³n
Ġcorrec tivas
Ġprodu jera
Ġmulti procesadores
Ġquer iamos
Ġincluy eran
Ġconec te
Ġrepresen tado
Ġmas ivas
Ġtransmi timos
Ġsignific ar
Ġreci ban
ĠRe p
ĠRe ducciÃ³n
ĠRe indo
Ġdeno tarlo
Ġpi es
Ġpi el
Ġcentr alizaciÃ³n
Ġcentr alizados
Ġauto bÃºs
Ġposi cionamiento
Ġconsider arse
Ġclar as
Ġmal la
ĠCo unter
ĠCo lombi
ĠCo ursera
ĠCo upling
uer za
Ġho jas
Ġaudi tar
Ġdeman das
Ġ19 68
Ġrestric tivamente
Ġregu lador
Ġsa quÃ©
ĠCu ota
ĠDE X
ĠDE LL
ĠDE SAR
ĠDE FIN
Ġdescrip tores
Ġpens Ã¡bamos
Ġsepar adas
Ġindividu alizada
ion ados
Ġleg ible
Ġfr uto
Ġfr uta
Ġrespe tas
Ġrespe table
Ġcop iado
Ġpresen tador
Ġpresen tada
Ġpresen ciales
Ġale jado
Ġ12 00
ON TRAR
Ġcombin ando
Ġproducir Ã¡n
EN DB
ĠseÃ±al ados
AN GU
Ã³r fico
Ġanal itica
Ġprob ados
abor ada
Ġpan americana
ĠPro duc
Ġmor imos
Ġtransmis ion
Ġgo zan
AC LEN
Ġ30 2
Ġ30 3
Ġhi jos
Ġtemp r
Ġempez ando
Ġtermin ado
Ġtermin aba
OS QL
Ġaten dido
Ġban ca
Ġban dera
Ġsup lantaciÃ³n
Ġ15 00
Ġgas tÃ³
Ġch ec
AS CI
Ġpregun te
Ġjus ta
Ġjus tifica
tis mo
Ġcambiar le
Ġrevis Ã³
Ġcomprar le
cen dental
Ġmultip lex
Ġafec tivas
Ġafec tarÃŃa
Ġdifer ida
Ġnecesi tes
Ġtratar Ã©
bas es
AD AS
Ġinterac tivos
Ġobs esiva
Ġproporcion ara
vo cal
Ġtotal idad
Ġsopor tes
Ġsopor tadas
Ġamor tice
ĠestÃ© tica
ĠSo porte
Ã¡r selo
Ġampl iada
Ġentender la
Ġelectr onicos
Ġsac ado
ĠInter medio
Ġdesarroll ada
Ġperio dicaciones
Ġcostos o
Ġbenefici ando
Ġcul mina
Ġcompr ando
Ġparticip amos
pas ada
ĠJ avascript
Ġmantener la
Ġoptim izados
ĠAl ternativas
ĠAl legro
ĠOr den
ĠOr gÃ¡n
Ġliber ados
Ġlim ite
Ġlim itan
Ġlim itando
ĠRAM L
Ġru ido
Ġlograr Ã¡
Ġexten d
Ġenfo cado
ĠDes viaciones
ĠDes trezas
Ġhor Ã³s
Ġcircu laciÃ³n
Ġahor ra
Ġcua derno
Ġapoy ados
Ġtele olÃ³gico
Ġtele grafÃŃa
Ġpose er
Ġcompro misos
Ġju gador
Ġcolo ca
Ġcolo cado
Ġcolo quializada
cul adora
Ġcontrolar lo
Ġregistrar lo
lex ible
Ġasegur amiento
Ġfon dos
Ġevi dencia
Ġconver sa
Ġapor te
Ġconcre tado
Ġfabr ica
Ġobten emos
Ġmencion ada
Ġmeta fÃ³r
Ġ| ),
Ġinterf iere
Ġingresar on
Ġadi tivo
Ġprepar ando
Ġk harak
Ġplante ado
Ġplante aba
Ġante cedente
Ġante cedentes
Ġbibliotec as
Ġcapaci tada
Ġadecu ando
Ġfor zada
Ġ36 0
Ġelabor an
Un idad
Un iversidad
Ġdiscurs ivos
Ġcri ticamos
Ġregres emos
ĠAr ti
ĠAr gentina
ys tal
MA TRIZ
Ġinmedia tas
Ġreceptor a
Ġeleg idas
Ġagre gan
Ġpresentar Ã¡
Ġpresentar la
Ġconform ar
Ġfavor ita
ĠAc tual
ĠOp tiom
ĠOp teron
Ġconfigur antes
Con trato
Ġvo ta
Ġconsu ma
Ġradio grafÃŃa
Ġsegu idos
Ġgig abits
Ġfigur as
Ġproteg en
Ġinstal ado
Ġinstal amos
Ġplanific ando
Ġplanific amos
Ġplanific adores
Ġimplementar se
Ġrepeti da
Ġdese ados
ĠHD MI
Ġencontr emos
Ġencontr adas
Ġbalance ado
lev ante
Ġinfer imos
Ġedi tor
Ġedi tada
Ġcel da
Ġextra en
Ġextra ordin
ĠLo ose
Ġenviar Ã¡
De finir
Ġpus imos
Ġsuel dito
Ġbusc adas
Ġactualiz Ã³
Ġactualiz arse
Ġtras cendental
Ġtras pasada
Ġmatric ular
Ġfo c
Ġfo mentar
Ġfo menta
Ġubic uo
ĠÃŃn dole
Ġsuce den
Ġpen al
Ġpen alizaciones
Ġreco bran
Ġesper ada
one ta
ĠTi tanic
Ġnega tividad
Ġminis teriales
Ġbo ton
Ġsupervis or
Ġaj eno
ĠAp licaciÃ³n
Ġconvertir Ã¡
Ġcuadr adas
amb lado
Ġglob alizaciÃ³n
ĠOb sÃ©r
ĠCons istency
Ġdesempe Ã±
Ġeven tuales
Ġgeo localizaciÃ³n
Ġexig iendo
Ġexig entes
SE R
Ġsuces iones
Ġresta bleciÃ³
ACI ON
Ġincon veniente
Ġfich as
Ġrepor tan
Ġmain frame
ĠPer l
ĠGu iller
ĠtÃŃp icos
Ġdesta cables
Ġfron t
Ġfron tend
Ġrespetar lo
Ġacerc ar
ĠtecnolÃ³g icamente
ĠestratÃ©g ico
Ġlan da
Ġlan zÃ³
Ġlan zada
Ġdij iste
Ġfrag mentaciÃ³n
Ġback end
Ġinterior izado
Ġapun tar
ĠtelÃ© fonos
Ġpoten tes
Ġexpl ora
ĠOpera tivo
ĠinalÃ¡mbr icas
DE LO
Ġvac ÃŃos
Ġllen ada
Ġado lesc
Ġinci dir
Ġsimpl ifica
Ġloc alidad
Ġdata warehouse
Ġincrementa mos
ĠCO LAS
Ġbeneficios os
Ġlabor ales
Ġacces ibilidad
Ġproyec tarse
Ġdocumen tales
Ġcontribu imos
Ġminim izaciÃ³n
Ġtri un
Ġclasific ados
Ġclasific arse
ĠRecuer da
ĠBig Table
ore ma
Ġconvers Ã©
ĠGener alizaciÃ³n
ĠdaÃ± adas
Ġrelacionar la
Ġfacilitar nos
ĠAL TER
ĠMA TRIZ
Ġgui ando
Ġhorizon talmente
Ġocu pÃ³
Ġretro activa
Ġmaqu inas
Ġtranspor tes
ĠelÃ©c tricas
ĠperiÃ³ dicas
Ġcome temos
Ġdescomp onen
ĠFun cionamiento
Ġfij adas
Ġhiper texto
Ġendeud ado
Ġalter nar
ĠMan cha
ĠMan abÃŃ
Ġofre zcan
Ġguardar los
Ġadop to
ck ing
Ġcontabil iza
Ġmonop sonio
Ġtransformar on
Ġtransformar lo
Ġevolu tivos
ĠâĢ Ŀ
Ġconfirm ando
Ġfacti bles
Ġviol encia
wit ter
Ġexitos as
ĠRes ul
ĠRes uelve
ĠRes erva
Ġinclu idas
Ġinterconec tadas
Pro gramas
Pro piedades
Ġcubrir lo
Ã¡ndo la
ĠenseÃ± e
ĠenseÃ± ado
Ġestandar izadas
Ġestandar izamos
Ġexplor aciÃ³n
Ġemo tiva
Ġlis tar
Ġges tores
Ġsolicitar on
ĠenseÃ±ar le
Ġalu des
Ġconserv adora
Ġgrad iente
Ġreflej ados
Ġlig ada
Ġpare cida
Ġdoble mente
Ġdificul tan
Ġetique tado
Ġdetr actores
Ġotor gan
Ġcomplic adas
ĠNe to
Ġcobrar on
Ġmonopol ÃŃstica
Ġmonopol istica
Ġencabez ados
Ġenrique ce
Ġenrique cida
Ġcub ra
Ġespecializ ando
Ġabsolu to
Ġabsolu tos
MI L
ser vidor
Ġparame tros
Ġdesac tiva
Ġinterven ciones
ĠDI E
Ġformar Ã¡n
Ġol vide
Ġol igopolio
Ġdign atarios
Ġaca paraciÃ³n
Ġjudi cialmente
Ġpele onas
ban as
Ġtomo grafÃŃa
ĠSE D
ĠSE GUN
Ġprofun diz
Ġreac ciones
Ġsimula cion
ĠacadÃ©m ico
Ġadqui riÃ³
Ġadqui riendo
Ġaprob ados
Ġsep are
Ġintr ÃŃnsec
Ġsuf rir
Ġjue ga
ĠENC ONTRAR
Ġmezc lan
cra tia
Ġpul ir
Ġpul mÃ³n
Ġconce bidos
Ġlex emas
Ġlevan tar
ĠCh rome
ĠTen ia
Ġadelan tar
Ġadelan tando
Ġpuntu aciones
Ġcoh esiÃ³n
Ġarmon ÃŃa
Ġpreten den
Ġsolid ariamente
ĠOR ACLEN
ĠEstruc turas
Ġintroducir se
Ġrig ida
ĠDocu mento
ĠDocu mentar
Ġmental idad
Ġsustitu tos
Ġintelec tuales
Ġmol Ã©culas
Ġretir ados
Ġacor dar
ĠPRO GRAM
ĠPRO BLE
Ġvalios a
ĠProgram ar
ĠheterogÃ©n ea
Ġdup licados
Ġvers Ã¡til
ĠclÃ¡s ico
Ġneur ociencia
Ġhipo cres
Ġdescar ga
Ġacab Ã³
Ġacab ado
ER P
ER ENCI
Ġulti ma
Ġprac ticar
Ġfir st
Ġmanifes tamos
Ġabar cando
Ġconcen traciÃ³n
inc luyendo
Ġremi tido
Ġcompor to
Ġcompor tarnos
ĠCas os
ĠStan ford
Ġdiferenci ados
Ġpolim Ã³rfico
Ġcru cial
Ġintrodu cidas
Ġremun eraciones
Ġur banas
Ġba terÃŃa
Ġanim alitos
Ġmultiplic ando
Ġmultiplic ador
Ġaveri gua
Ãį ndice
Ġprec auciÃ³n
Ġtables paces
Ġdinam ismo
Ġobliga cion
Ġtelefon ia
ĠIntegr idad
Ġinconsisten te
Ġcif ra
adu cidad
Ġreemp lazar
Ġprome tÃŃa
Ġsupre mamente
ĠAB S
Ġbasta ba
ĠNet Burst
Ġactivar Ã¡
Ġjuris pru
Ġmodern izar
ĠimportantÃŃ sima
Ġaterr izamos
Ġcobr an
Ġdeba tirlas
ĠclÃŃn icas
Ġpreserv aciÃ³n
ĠBY OD
Ġaconte cido
Ġcheque ar
Ġexager ada
ĠBlue pr
ĠInc luye
Ġvincul ados
Ġeduca cion
Ġenglob ar
Direc ciÃ³n
su per
Ġplas ma
Ġimplicar ÃŃa
Ġpreocu pen
Ġindex ar
Ġindex ada
Comp osiciÃ³n
Ġfortale ciendo
Ġnul os
Ġprovis iones
ĠMon oli
Ġadyac entes
ĠHab lamos
Ġentren amiento
Ġ199 7
Ġacaparar on
ĠapÃ³stro fes
Ġplen a
Ġsp r
Ġambi ciosas
trans acciones
trans port
Ġcoger lo
Ġrece tando
Ġinstan ciar
Ġinstan tÃ¡nea
ĠMal a
ĠNO T
ĠHyper graph
ĠHyper transport
Ġkil Ã³metro
Ġocup an
Ġcomprometer nos
Ġpopular es
ĠINFORMÃģTIC A
Ġenumer arlos
MO DELO
ĠEX IST
ĠAS UM
ĠDer echo
Ġcreer te
Ġcolabora tiva
Ġcolabora tivas
ĠProce dimientos
Ġtraslad an
Ġaconse ja
Ġkilova tios
198 0
Man tenimiento
ĠpartÃŃ cula
Ġpertin ente
Ġdesorden ado
Ġrestruc turaciÃ³n
Ġmagn a
Ġmagn itud
Ġverb os
Ġverb ales
ĠNU LO
Ġexponen cial
Ġexponen cialmente
Ġmensaj era
Ġindirec ta
ĠProto col
Ġcoloc aba
Ġencaden adas
Ġconmu tadores
'' '
ĠorgÃ¡n icas
ĠTec nolÃ³gico
Ġinvier ten
Ġdespren de
Ġrecib es
Ġsimultan eo
Ġconsumi Ã³
ĠmicrÃ³ fonos
Ġrecomend ables
ĠDomin o
ĠDomin io
Or ganizaciÃ³n
Ġago tamiento
Ġdol arizados
Ġcompati ble
ĠEmp resa
Ġdescri bimos
Ġdesign ado
Ġespon taneidad
Ġprevis iones
Ġsustan tivo
Ġsustan tivos
Ġadmi tidos
ĠVirtu alizaciÃ³n
ĠHT ML
Ġirre levante
Ġconsigu iÃ³
Ġefectu a
Ġ196 2
Ġmicroch ip
Ġtub os
ĠProble ms
ĠdÃ©je me
Ġsobresal en
Ġsemiconductor a
Ġarbitr aria
Ġarbitr ariamente
lÃ³g icamente
Ġavi oneta
Ġamar gÃ³
ĠhÃ¡g ame
Ġrepos ar
ĠMac os
ĠMir ÃŃadia
ĠEstan darizaciÃ³n
ĠEstan darizados
Ġdisemin ando
Ġtabl eros
Ġ198 4
ĠDepen de
ĠextraÃŃ da
polÃŃ ticas
Ġpsic olÃ³gica
Ġintersec ciones
Ġengran aje
Ġelig e
Ġoj itos
Ġdestr uyen
ĠCr ystal
Ġcontrasta mos
Ġpremis a
Ġreno v
Ġintroduc toria
Ġextens os
ROL LO
ĠAPLIC ACIONES
18 00
GU AJ
Ġnie ve
Ã¡mos los
Ġtren zado
Ġign orado
ĠCal cular
ĠCal culadora
Ġentreg ables
Ġentreg aba
Ġsinte tizar
Inc luye
Ġdevolver me
Ġhomogen e
Ġredirig ir
ĠCombina torial
19 72
BE RO
Ġvera cidad
Ġvib ran
Ġhon radas
Ġempap ados
ĠSan tander
ĠAmor tizar
ĠTom my
udor is
Ġanalog icas
ĠAlmac en
Ġrap id
Ġcontex tualizar
ĠCompren der
Ġsimplific an
Ġconcien ciaciÃ³n
Ġencier ren
Ġestuvi mos
Ġdiscontinu a
Ġons tart
Ġpalo ma
Ġocul ta
Ġfinse gun
ĠForm ados
Ġmargin ales
Ġchar acter
ĠÃ³rbi ta
ĠUNE D
Proces amiento
9999 9
Ġsostener lo
Ġdoctor ado
Ġacarre amos
Ġrectangular es
199 5
Ġvic errec
Ġcong estiÃ³n
Ġinmater ial
Ġnove dad
ĠEtimo lÃ³gicamente
Ġextran jera
Ġinfle xibilidad
ĠApo yo
ĠTRI ANGU
Ġpropon gan
ĠRed is
ĠVo udoris
ĠHal lar
Ġnacionalizar on
Ġcontemp lar
Ġartefac tos
Ġsaludar los
ĠDEONTO LÃĵ
ĠaÃ±a de
Ġpercen til
Ġacus es
Ġapas ionados
Ġcomill itas
Ġentrelaz an
Ġreca e
ĠMas sach
ĠMana gement
velo p
ĠBAS EX
Ġneu tral
Ġautoinc remento
Ġdesconcen trar
Ġdesacop lada
Interrup ciones
ĠCorres ponde
ĠCualita tivas
ĠStandardiz ed
Atom icity
Bus iness
Neces ita
Ġstan by
Ġexag eran
ĠAno te
Ġclari to
Ġquerr Ã©
ĠDin amarca
ĠInfo grid
ĠVol demor
Ġidenti fiquen
Ġautode cremento
ĠMejor as
Ġperjudic ado
Mej ora
Medi ante
ÃįS TICAS
ĠfluctÃº en
ARACTER ÃįSTICAS
ATORI O
Cas sandra
CÃ³ digo
Har dening
Rese Ã±a
Spark see
kra tos
Ġul tra
demo cratia
Ġlun ar
ĠllÃ© vese
Ġpec uliar
ĠplÃ¡ cido
Ġcil indro
Ġaman ecer
Ġaxi olÃ³gico
Ġmad uro
Ġengras ada
Ġuniv ariable
Ġdjon db
Ġvibra ciones
Ġconno tativa
ÃŃri tu
Ġreel aborada
Ġreing enierÃŃa
Ġreens amblado
Ġfech as
Ġprolon gado
uset ts
ĠbÃ©lic os
Ġperme ables
Ġtraj eron
Ġdidero t
Ġcompuls iva
Ġdesbas tado
Ġdesbord amiento
Ġsopes ar
Ġextrac tos
Ġexij Ã¡moslos
Ġorques taciÃ³n
Ġanch ura
Ġanivers ario
ĠLlev ar
ĠLinke din
ĠSup rema
ĠSENE TEL
ĠSwag ger
ĠAcuer do
ĠACI D
ĠAcop lamiento
ĠAjus tes
Ġinspec ciones
Ġarrend amiento
ĠDOR MIL
ĠDIF ERENCI
ĠDynam o
Ġcavern ÃŃcolas
Ġrecons truir
ĠIsola tion
Ġprevi os
Ġpredisposi cion
Ġtransfor am
Ġpagin aciÃ³n
Ġtrage dia
Ġcorona virus
ĠEncuen tra
ĠEstad ÃŃstica
Ġcassin i
Ġjapon Ã©s
ĠjeroglÃŃ ficos
Ġsinaps is
ĠTerr astore
ĠTech nology
Ġincapa cidad
ĠRAV ENDB
Ġdobl eces
ĠBAR BERO
ĠInfinite graph
ĠpongÃ¡mos le
ĠHiber nating
Ġsubmar ino
ĠGRO UP
ĠConform ado
ĠConfigur aciÃ³n
ĠContrac t
ĠConcurr ente
ĠUniversi a
Ġmonoli tico
Ġmontesqui us
ĠColombi a
ĠDESAR ROLLO
ASCI I
Ġmultiplex aciÃ³n
ĠAllegro graph
ĠhorÃ³s copo
ĠmetafÃ³r icamente
Ġkharak ter
ĠOptiom isation
ĠObsÃ©r vese
ĠGuiller mo
ĠSEGUN DO
ĠintrÃŃnsec amente
ĠORACLEN OSQL
ĠPROBLE MA
Ġhipocres ÃŃa
Ġjurispru dencia
ĠBluepr int
ĠMonoli ticos
ĠHypergraph db
ĠASUM E
GUAJ E
Ġcontextualizar lo
Ġvicerrec tor
ĠTRIANGU LAR
ĠDEONTOLÃĵ GIC
ĠMassach usetts
ĠVoldemor t
ĠDIFERENCI ALES
( {
* (
* )
- {
0 2
1 68
2 4
6 6
7 1
8 4
9 7
> =),
A m
A udi
B ien
C R
C ustomer
C LI
C laro
C ross
D S
D os
D ec
D ATE
D FS
D urante
D ecodific
D INAR
E se
E mple
E val
E jecu
F ial
G S
G re
G OR
H P
H DFS
I mp
I TE
I EEE
I DAD
L S
L inux
L amenta
M ir
P AR
P EN
Q M
R es
R unning
R ENTE
S te
S us
T F
T ra
T RE
T ello
V emos
V entajas
a pro
a fi
b ida
b ri
b rig
c or
c ados
c adas
c Ã³mo
c lus
c arias
c usiÃ³n
c enso
d t
d ario
d ch
d ÃŃamos
d ÃŃsticos
e h
e gar
e ms
e ight
f lo
f ra
f etch
g g
g io
g able
g icamente
g ht
g ets
h es
h un
h ita
h brig
i cion
i ador
i tim
i remos
j idades
j erci
j ula
j illas
k pa
k chain
l ga
l aba
l ist
l adora
m ientras
m itando
n on
n era
n um
o tras
o pen
o urce
o jada
p an
p in
p lo
p ue
p lica
p rim
r ÃŃa
r idos
r ible
s tas
s ystems
s imÃ©trico
t d
t ch
t unning
u re
u ma
u taciÃ³n
u zar
v iene
v Base
y os
y ectos
y mbi
z ana
} )
} )^
} -{
Â °
Ġ ^
Ġ zÃ³cal
Ġe mul
de le
de pendencia
Ġde fici
Ġde bilidad
Ġde forme
en os
en tismo
Ġp ines
Ġp lie
Ġp ÃŃx
Ġc ÃŃ
Ġc ie
Ġc itado
Ġc aduc
Ġs uc
Ġs crip
Ġs tora
er Ã¡
er ia
ci nas
ci sas
ci dental
ci dch
Ġa visa
es an
es tÃ¡
on ando
on ales
on amiento
ar on
ar Ã¡
ar emos
ar ones
or s
or arios
as co
as ocia
Ġes lo
Ġes tereotipos
te p
te way
que t
que dan
un iÃ³n
un tario
to logÃŃas
Ġm ara
Ġm vBase
an y
an to
an ismo
Ã³ logos
tr im
tr ones
ad ur
ad ir
ad ura
Ġla var
Ġla terales
in si
in dicaciones
in fr
al ter
al orÃŃa
Ġen ojada
Ġun ica
Ġun ificar
Ġun col
re emp
Ã³n icos
Ġd orm
Ġd mi
Ġn x
Ġn ort
Ġn ueve
ta gram
ta me
Ġv s
Ġv oraz
ic kpa
is tos
Ġse de
mp ilador
Ã¡ mi
Ã¡ ticos
Ã¡ fa
Ġo ÃŃs
Ġo ver
Ġo las
Ġo ficial
Ġo dio
ÃŃ en
ÃŃ das
ÃŃ pro
ÃŃ simo
ÃŃ tame
Ġpr esti
Ġin ne
Ġin jection
Ġin of
Ġin apro
Ġh ib
Ġh omici
Ġco cina
Ġre ÃŃr
Ġre taba
Ġre organ
Ġre jillas
Ġpro ven
Ġpro activa
Ġpar ten
Ġpar se
ec os
ec era
ec anismo
id gets
Ġt uy
lo ver
lo ga
ab la
ab emos
le ta
le Ã±o
le dge
le bri
ac o
ac en
ac ceso
Ġno vi
Ġno taciones
ue mos
Ġb ul
ter gar
ter pr
Ġal ista
Ġal turas
men sual
Ġsi gan
Ġsi ug
Ġcu re
Ġcu lebri
ces ores
Ġest en
Ġest ando
ol ano
ur n
ur pos
Ġme tan
di amos
Ġti bia
Ġper icia
Ġper dida
Ġtr iv
je tivo
Ġdi fici
Ġdi ligencia
Ġi os
Ġi lÃŃci
Ġi phone
Ġi mitando
go t
idad a
ari tas
Ġcomp re
ĠE fec
ĠE SS
ĠE RS
ĠE lementos
ĠE jerci
Ġser ian
la ta
la ware
orm ales
Ãº car
Ãº jula
Ġdes fi
Ġdes ech
Ġdes trucciÃ³n
Ġdes censo
gu ita
gu est
qui leÃ±o
des ac
des troy
Ġso urce
Ã± or
Ã± eria
Ġac tor
Ġac cionar
Ġac entos
Ġac cidental
Ġex ce
Ġex tiende
tar Ã¡
ir rec
Ġemp inada
ton e
ton iano
ton ormales
tra tos
Ã©n dose
min uir
tor cena
Ġor tonormales
Ġnos otras
Ġinter ban
Ġinter americana
Ġ( {
Ġ( >=),
Ġres trin
aliz ables
si bilidad
ĠC re
ĠC op
ĠC HE
ĠC NT
Ġan exo
ul l
ul ico
ul adores
ul gaciÃ³n
ul entos
ib or
Ġdeb an
Ġdeb ÃŃa
ĠL iderazgo
Ġman dos
Ġman zana
Ġop en
Ġop cion
ida ta
Ġva ug
ĠS uele
ĠS SE
ĠS pl
ĠS treaming
ĠS uelen
ĠS pin
ĠS ymbi
ĠS abemos
Ġdeci des
Ġma tizaciÃ³n
Ġr ans
Ġr Ã¡fa
ĠA Ã±o
ĠA ve
ĠA Ã±os
ĠA Ã±ad
ĠA diciÃ³n
ĠA diciones
ĠA IX
Ġinform adas
Ġempres arios
ĠP s
ĠP ri
ĠP ila
ĠP ulgada
ĠP ASOS
ĠP US
ĠP urpos
ĠP lata
Ġins e
Ġins cons
Ġar ras
Ġar mado
Ġar got
Ġu k
Ġver las
Ġimp uesta
Ġvari ada
ĠD uo
ĠD DB
ĠD MI
ĠD eno
Ġca iga
Ġca Ã±eria
Ġca torcena
mor y
po int
Ġentre gan
Ġentre gÃ³
Ġentre fijo
Ġrec ÃŃpro
ĠÂ¿ ({
Ġbas as
Ġutil icemos
ĠI AS
ĠI mÃ¡genes
ĠI DE
Ġgr asa
Ġcontr alorÃŃa
Ġesp ÃŃritu
Ġdecir te
Ġdecir me
Ġval ernos
ver es
ver siÃ³n
ver siones
Ġreg ido
Ġreg idos
Ġcar as
Ġmode ladora
der bir
Ġas istencia
Ġas entimiento
Ġas sembler
Ġpo diamos
Ġutiliz aba
Ġpre ver
Ġpre emptive
el asco
Ġtrans puesta
Ġtrans cien
ez olano
Ġfin alizar
co in
co ger
co mun
co dop
co dificar
Ġsus tancias
Ġpa gas
ri an
Ġtra uma
lic ado
Ġmedi te
Ġmedi cinas
Ġcor tes
Ġcor tar
Ġcontrol ados
TE RA
ĠM F
ĠM Ã¡s
ĠM DB
ĠM ire
ĠM iller
ĠM achine
ĠM ercado
ĠM ecanismo
ĠEs tereotipos
ĠEs pectro
ĠEs coger
uy entes
Ġgener arse
Ġgener alizaciones
ier amos
Ġcas ado
Ġcas ual
Ġj orn
Ġj ulio
Ġj abÃ³n
Ġorganiz ando
Ġorganiz ador
Ġorganiz adas
Ġdirec tas
Ġdirec tivas
Ġpas e
Ġpas tel
Ġsin Ã©r
Ġsin dica
Ġsin tieron
ĠT e
ĠT ras
ĠT ermin
ĠT hun
ĠT anto
Ġcap tan
Ġrep aran
Ġrep utaciÃ³n
Ġrep licado
Ġpos ea
Ġpos tergar
Ġcam arones
Ġcam aritas
Ġimpor to
Ġcre ados
Ġcre arse
Ġdesarrol le
Ġesc la
Ġrealiz amos
Ġrealiz aba
Ġau la
ĠU G
Ġcompu ting
tal o
vi esan
Ġad onde
Ġad junto
Ġad mite
Ġad mitir
Ġad hes
Ġmejor en
Ġmejor amiento
tin Ãºcleo
tin uemos
Ġsab ÃŃa
Ġsab ÃŃan
ĠR I
ĠR m
ĠR LO
ho gg
Ġcambi Ã©
Ġsal vo
Ġvan guar
dar es
Ã©r f
Ġsobre todo
Ġsobre estimar
om ware
fici t
fici dad
Ġsign ado
me le
Ġab ro
Ġab og
Ġab onando
Ġpres i
Ġpres o
Ġpres tÃ³
ĠN a
ĠN ex
ĠN eo
ĠN ingÃºn
ĠN est
par ador
par adas
Ġvis itadas
ĠO f
ĠO li
vis aciÃ³n
vis ores
Ġven ÃŃamos
Ġven ezolano
Ġsen tado
Ġcomunic amos
Ġequi paradas
ĠB A
ĠB ello
Ã³g ica
ĠIn g
ĠIn ten
ĠIn dic
ĠIn icial
Ġtec las
Ġfu ga
Ġne umann
Ġpon gamos
Ã¡c ticas
ĠV eces
ĠV ie
ĠV elasco
Ġnorm e
ĠH amil
pon e
En terpr
Ġresul te
Ġestar ÃŃan
Ġsolu cionan
Ġplan illa
Ġplan ifi
ch oncito
Ġve ÃŃas
Ġcan je
Ġcan asta
Ġcan dida
ĠÃ© ticamente
ĠsÃŃ laba
Ġsub di
Ġsub clas
Ġsub estimar
Ġsub procesos
Ġsub ÃŃndice
Ġsub alter
Ġref rig
dr Ã©s
Ġcaracter izado
Ġconstitu cionalmente
Ġespeci ficidad
Ġform aban
Ġform aliza
err rados
ĠG an
ĠG uer
ĠG LS
ĠG ems
ĠG lover
Ġide aremos
ĠmÃ¡ ximas
ĠCon te
ĠCon tabilidad
ĠCon ocido
ĠCon diciones
ĠCon vertir
ĠCon tinuemos
Ġfinanci stas
Ġinici amos
Ġinici aliza
Ġinver tida
ĠPor centaje
nos otros
Ġcomple titud
Ġcomple tarlo
Ġcomple mentando
Ġcomple jidades
Ġabs entismo
Ġabs cisas
vid ores
Ġir ÃŃa
Ġapren den
Ġconoci endo
Ġtab uladores
Ġalg ol
Ġllev ando
Ġllev aba
Ġidentific ados
Ġidentific ables
ĠbÃ¡s quet
Ġrealizar las
ĠF SB
ĠF red
ĠF irst
ĠF ull
Ġcumpl imos
Ġade udor
Ġade lga
ĠSe Ã±or
Ġintegr o
ha ciendo
ĠUn iÃ³n
ĠUn ile
ĠUn iver
ĠUn idata
Ġhuman isticos
Ġdesp re
Ġna ciendo
Ġcontra tados
Ġcontra tÃ³
Ġcontra indicaciones
ĠlÃ³g icamente
Ġoblig arse
Ġvi Ã©ramos
Ġencuen tas
ens idad
ens ivos
mul tip
Ġmon tador
ĠÃ©l ite
Ġcal ibrar
Ġsoci ables
eb idos
Ġimplemen tando
Ġfi jas
olu to
Ġgu aya
Ġcol choncito
ĠsoluciÃ³n es
din aria
ator ia
Ġconc luir
Ġinteres en
Ġinteres an
Ġderiv a
La youts
Ġcompren didas
Ġcompren dÃŃamos
Ġw indows
Ġw orkstation
Ġw idgets
Ġjur ista
Ġindi visibles
Ġexpres ivo
Ġcompe ten
Ġren cor
tando les
Ġmin i
Ġmin orar
Ġmercado logÃŃa
Ġ11 6
ed y
ud ulentos
Ġmulti usuario
Ġmulti tarea
Ġquer ia
Ġquer ÃŃas
Ġconec tividad
Ġconec tadas
ĠeconÃ³m icamente
Ġinde bida
Ġtransmi tiÃ³
Ġevalu amos
Ġni Ã±os
Ġmar isco
Ġmar iscos
Ġhec has
ĠRe f
Ġcuen to
Ġauto mÃ³
Ġauto compilador
Ġ0 1
dic en
Ġmal etas
tim amente
Ġsir viÃ³
Ġho w
bo x
Ġaudi tiva
Ġfundamen tan
Ġag p
Ġsepar an
Ġsepar amos
Ġleg ÃŃ
Ġleg itim
Ġrespe tado
Ġdistribu ciones
Ġpresen to
Ġpresen cial
ĠdiseÃ± a
Ġ12 3
Ġcab ecera
Ġmanten ida
Ġmanten idos
Ġhablar Ã¡
ĠseÃ±al arlos
IC ACIÃĵN
menta ciones
ĠAn ualidad
ĠAn drÃ©s
ĠDe ci
ĠDe laware
Ġanal isis
ĠPro veer
ĠPro visiones
Ġjer gas
Ġindic es
Ġindic aciÃ³n
AC M
Ġconfi ar
Ġrecuer des
Ġvista zo
Ġescribir Ã¡
Ġabstrac t
Ġabstrac cion
Ġabstrac ciones
Ġaten dÃŃa
Ġaten damos
Ġban red
Ġsup rim
Ġ18 71
Ġ15 0
Ġplazo leta
Ġcorr ia
Ġunivers al
Ġgas tan
Ġch istos
Ġcuales quiera
Ġon ceavo
Ġon edrive
Ġon tologÃŃas
br ado
Ġcambiar las
Ġsem irrec
Ġrevis as
Ġrevis emos
cen al
Ġ40 96
Ġmir ar
Ġconv oc
Ġblo ck
Ġblo kchain
Ġafec tado
Ġafec tadas
ĠmÃŃn imas
Ġdirig irse
Ġdifer idos
ep est
Ġinterac cionar
Ġconsum ar
AL U
Ġobs ole
Ġproporcion e
vo ces
Ġfutur as
Ġcomien cen
Ġcumplir la
OR T
Ġentender los
Se guridad
Ġdivid ieramos
Ġenvi Ã³
Ġenvi ados
Ġenvi adas
Ġobserv ando
Ġobserv ables
Ġdeco mpilador
Ġalta voces
ĠInter acciÃ³n
ĠInter systems
Ġvirtu alizables
Ġperio dÃŃsticos
ĠautomÃ¡ ticos
Ġcostos a
Ġbenefici ar
Ġbenefici ario
Ġcul turas
Ġredu zco
ĠJ base
ĠJ ulio
ĠJ oh
Ġacu dir
Ġoptim izado
ĠAl fa
ĠAl gunas
ĠAl ber
ĠOr dinaria
Ġliber e
ĠX i
ĠX en
Para virtu
Ġlim itadas
rup ciÃ³n
Ġalcan za
Ġalcan zÃ³
Ġra w
Ġra tificado
Ġ21 7
Ġgan amos
Ġviv idos
Ġhor rible
Ġ13 66
Ġperten ezca
ortun ados
Ġacce dan
Ġescuch en
Ġpes e
Ġcalcular Ã¡
Ġcua trim
Ġoportun as
Ġju gado
Ġcrea cionistas
ts tep
ĠdÃ© ficit
Ġbloque an
Ġconduc tividad
ĠEx clus
Ġhu Ã©rf
Ġpreci siones
Ġpreci so
cr imin
Ġali arse
Ġintercambi ando
Ġarreg lado
Ġevi tan
Ġevi dencias
Ġconver tible
Ġmodific ando
Ġacumul Ã¡ndose
so urce
Ġmeta compilador
Ġelimin arse
Ġrenta bles
Ġfabric arlo
Ġk now
Ġinten tan
Ġplante o
Ġplante ada
Ġplante amos
Ġplante amiento
Ġplante adas
Ġenv olver
Ġprior izaciÃ³n
Ġsuje tas
Ġante cesores
ĠcientÃŃ ficas
Ġemb ebidos
Ġcapaci tan
Ġfor ecasting
Ġ35 0
ĠdinÃ¡m icas
ĠdinÃ¡m icos
Ġcri men
Ġadap tando
Ġadap tadores
Ġadap tarlo
Ġadap tÃ¡ndose
ĠDis co
Ġinvol untario
Ġfamil ias
Ġeleg idos
Ġeleg imos
Ġpresentar on
Ġpresentar les
ĠaÃ±ad idas
Ġconform es
Ġconform idad
Ġfavor itos
Ġvol viÃ³
Ġvol Ã¡til
util izaciÃ³n
ĠAc tivo
Ġconfigur an
Ġconfigur aciones
Con junto
sÃŃ mb
ĠK hz
Ġvo taciones
Ġintercon exiones
Ġ84 02
Ġradio comun
Ġdemos trado
Ġvul nera
Ġinstal Ã³
Ġrepeti ble
Ġtes la
Ġdese en
Ġdese able
Ġencontr ada
Ġencontr ados
Si empre
ĠIN CRE
ĠIN TEG
ĠIN SER
Ġdesemp olvemos
Ġconstruc tores
Ġequilib rar
iÃ©n dole
Ġestim ados
Ġreglamen tadas
Ġreglamen tarios
Ġincrementar los
Ġgesti onamiento
Ġextra pol
ĠIP C
Ġmire lo
Ġcolabor en
RI DAD
Ġactualiz an
Ġactualiz ando
Ġactualiz adas
ĠvÃŃ veres
Ġcodific adas
Ġcodific arse
Ġfo mentan
Ġfo mentadas
Ġpod ÃŃas
Ġcorre dor
ĠMode lar
Ġpers u
Ġmedir lo
crib e
ĠÃŃn timos
Ġpen ales
Ġsan cionada
Ġexc lu
Ġinterpretar los
Ġdej es
Ġcomerci ar
Ġcomerci ante
ĠTi empo
Ġexperi mentar
ĠcrÃŃ ticos
Ġminis tros
Ġminis terios
Ġbo och
Ġopin ar
Ġprogramar lo
CI ÃĵN
Ġquedar se
Ġconvertir se
ech amente
Ġglob alizados
ĠOb jec
ĠIns tagram
Ġincorpor ando
Ġdismin uya
Ġrevisar lo
Ġsuces os
Ġasigna cion
Ġatr ac
quis iciÃ³n
Ġfactor izar
Ġmanu tenciÃ³n
Ġpresup uestos
Ġ201 6
Ġsecuenci amiento
Ġsimb olos
ĠInform Ã¡tico
ĠInform Ã¡ticos
Ġfron talmente
Ġbr uta
Ġbr Ãºjula
Ġcompeti ciones
Ġrob an
Ġmos trado
ĠPr Ã¡cticas
Ġdeclar ar
Ġprofesional ismo
Ġdij Ã©ramos
ĠComp onentes
Ġofrecer Ã¡n
DI ENTE
Ġfen omen
Ġcola terales
Ġpoten ciales
Al guien
Ex cel
Ġdescuen tan
DE R
Ġreconoci dos
Ġreconoci das
Ġden egar
Ġinci so
Ġlog in
Ġimagin amos
Ġimagin ense
Ġinser tan
Ġposibil itan
Ġbeneficios a
Ġjuz gan
Ġcha o
Ġlabor ar
Ġlabor ables
Ġlabor iosas
Ġinforma tivo
Ġactual icen
Ġacces a
Ġasignar les
Ġaprov echa
ĠEsto y
Ġproyec tar
Ġproyec tado
Ġdocumen tando
Ġdocumen tÃ¡ndo
cin g
Ġreserv as
ĠMemor ias
Ġasegurar le
Ġaf irmar
Ġaf ortunados
ĠsÃº plica
ĠsÃº mele
Ġinyec ta
Ġaportar a
Ġdepur adores
Ġvig ilar
ĠAL GOR
Ġejerc en
Ġmodificar lo
iga os
Ġtranspor tados
Ġcome te
Ġcome tiÃ³
Ġpromo cionarse
Ġfij ado
Ġfij ados
Ġhiper llamadas
Ġalter aciÃ³n
Ġtranspar entes
ĠMan tenimiento
Ġexplo ta
Ġexplo tandoles
Ġheur ÃŃsticas
Ġavanz adas
Ġ200 3
Ġ200 4
Ġrespon dan
Ġinvestiga tiva
Ġevolu cionar
Ġrecuperar los
cÃ³ pico
ĠZ ope
ĠZ oo
Ġqued aban
Ġitera tivas
Ġsuminis trador
ĠRec olec
Ġviol ando
Ġviol amos
Ġmul tinÃºcleo
table mente
Ġrem ueven
TEL NET
ĠRes t
ĠRes puesta
ĠRes ource
Ġinclu ido
Ġinclu imos
Ġinclu iremos
Ġinterconec tados
Ġinterconec tarse
Ã¡ndo lo
ĠenseÃ± Ã³
ĠenseÃ± aban
Ġinterrela ciona
Ġcomen tado
Ġges taciÃ³n
Ġagregar emos
Ġconserv adur
Ġlig era
Ġpare cidas
Ġnumer ica
rÃ¡ ulica
Ġseleccion an
Ġseleccion adas
Ġcereb ros
Ġenrique cido
Ġmejorando las
Ġespecializ aciones
Ġabsolu tas
Ġfortal ecer
Ġsecund ario
Ġape garse
Ġinsu ficiencia
Ġconcurr entemente
Ġdiscre to
Ġvolun tario
Ġaco tado
ign aciÃ³n
Ġescog iendo
Ġrecomen dadas
Ġayud amos
Ġcorrup tos
Ġsoportar Ã¡
ĠQu ickpa
Ġsos tienen
Ġperj udica
Ġarran ca
Ġabre vi
Ġdecre mento
Ġprofun dicen
Ġhos ts
Ġsimula tion
Ġpobre cito
ĠDistribu ciÃ³n
ĠDistribu ted
Ġintr usos
Ġsuf riÃ³
Ġjue z
Ġcance lan
Ġliter arios
Ġmezc lados
Ġdefec tos
Ġpul l
Ġpul guita
Ġconce bimos
Ġlevan tan
Ġlevan tada
ĠCh ip
Ġcomplement ario
Ġafectar a
Ġantigu o
Ġantigu as
Ġpub lici
Ġcoh erentes
Ġflec hita
ĠOR DINAR
Ġverific ados
Ġimplementa cion
ĠDetermin aciÃ³n
IT MO
ĠDocu mentos
Ġsustitu ir
Ġclasificar las
Ġcircun ferencia
Ġlimitar nos
ĠCaracter izaciÃ³n
Ġalo ja
Ġomis iones
Ġretir ar
Ġtitu la
Ġrecha zada
ĠFin mientras
Ġliqu ida
Ġparalel izar
Ġcivil izada
Ġdup lex
Ġdup lican
amÃ¡ ticamente
Ġmandar on
ĠAm igaos
Ġvers en
Ġquin cena
Ġquin cenal
ĠBus ca
Ġdefectu oso
Ġatra p
Ġatra viesan
Ġdescar gas
Ġaproxim ados
Ġaproxim adamente
Ġunir los
Ġfir ma
Ġfirm ado
Ġfirm ados
ĠLe vel
ĠSer vidores
Ġases or
Ġabar can
Ġconcen trar
Ġparametr izada
Me mory
Ġretras ado
Ġbio logÃŃa
Ġdibu jado
Ġdibu jando
ĠCas cada
ĠStan by
Ġcontras taciÃ³n
Ġdiferenci ador
Ġdiferenci adas
Ġcredi bilidad
Ġformul ario
Ġcru ciales
Ġcru zado
Ġintrodu jo
Ġintrodu cido
Ġintrodu cida
Ġdividen do
Ġcircuns tancia
Ġexces os
Ġ115 6
Ġdesconoci do
Ġdesconoci dos
Ġincomple tos
Ġinfin ita
Ġimpuls ar
Ġmultiplic ado
Ġmultiplic amos
Ġdisminuir la
Ġdisminuir Ã¡n
Ġbit coin
Ġmigr ado
ĠMin ix
ĠRegister s
14 16
Ġcif ras
Ġestr echa
Ġestr echamente
Ġestric ta
Ġconti gu
Ġprom ueve
Ġprome tiÃ³
Ġdiv ulgaciÃ³n
Ġacord amos
ĠAs sembler
ĠDB F
Ġrenun ciar
Ġcombina toria
ĠsocioeconÃ³m ico
Ġmodern izado
IL ING
Ġcobr ados
ĠCor recto
Ġdeba te
Ġrode ada
Ġprefer ida
ĠvehÃŃ culos
Ġmono proceso
Ġmono usuario
Ġmono tarea
Ġcalifica ciones
Ġprivilegi ados
Ġcheque os
Des cubrimiento
Ġexager ados
ĠImple mentaciones
Ġhered Ã³
Ġbarb er
Ġbarb eros
Ġapela tivo
Ġenglob amos
Ġremuner ados
Ġpac ÃŃficos
Ġplas mÃ³
Ġdr amÃ¡ticamente
Ġfis cales
idirec cionales
Ġnombr Ã©
Ġaline en
ĠmemÃ© tico
Ġobede ce
Ġobede cen
Ġrecom iendo
Ġpreocu p
ĠMa trices
Ġguard ando
Ġindex ado
Ġentend iste
Ġentend ÃŃamos
ĠUNI X
Per io
Ġlic encia
Ġcog iendo
Ġprovis to
Ġprovis tos
Ġcompac tos
Ã©ndo lo
ĠMon itor
Ġjun te
Ġjun io
Ġirrenunci ables
Ġentren ar
Ġ199 5
Ġinstalar le
As imismo
Ob ser
XX S
Ġambi guo
Ġdra gado
Ġcotidi ana
Ġprote ÃŃna
Ġbarr era
ĠSelec ciÃ³n
ĠPOS IX
Ġinstan tÃ¡neamente
Ġarro jar
Ġexpro pia
ĠHyper table
Ġrefor zando
Ġabsur das
Ġconside re
Ġnumeros os
Ġdestina tarios
Ġfoto grÃ¡fico
Ġocup aban
ĠSupon ga
Ġcomprometer se
Ġgradu ar
Ġgradu Ã©
Ġgradu ados
Ġindispens ables
ĠINFORMÃģTIC OS
CM S
Ġaceler Ã³metros
ĠCam bi
Ġmand ando
Ġmand aban
Ġteor ia
ĠIT DB
Ġcaptur amos
Ġtabular es
Ġprovin ciales
Ġegres a
Ġegres o
Ġcaj eros
ĠmÃºs icas
ĠER P
Ġacostu mbrar
ĠleÃŃ dos
Ġmagn ÃŃfico
Ġverb al
Ġcay endo
Ġexponen ciaciÃ³n
ĠVen cida
ĠGP R
ĠsÃ©p timo
ĠProto colo
Ġencues tas
Ġcoloc aciÃ³n
Ġrespald ados
Ġreunir nos
Ġteste ar
Ġencaden amiento
ĠÃģ mbito
Ġdemasi adas
ĠProcessing s
Ġburgu esa
Ġdeterior ando
Ġpid iÃ©ndole
dens idad
Ġtable t
Ġempu je
Ġmiti ga
Ġconju gaciÃ³n
Ġconju gaciones
ĠSegun do
ĠSegun da
ĠReal m
ĠReal ity
Ġgarantiz ando
ĠMedi ana
ĠMedi cina
Ġjuzgar on
Ġjuzgar an
ĠidÃ©n tica
Ġrecomend able
CO UCHDB
GL S
Ġago tarÃ¡
Ġenga Ã±
Ġenga Ã±os
Ġenga Ã±ar
Ġhid rÃ¡ulica
Ġdelic tiva
Ġcompati bilidad
Ġaprue ba
Ġespon tÃ¡nea
Ġcostar Ã¡
Ġventan illas
Ġmateri alizaciÃ³n
execu tion
ĠInclus ive
Ten go
Ġic ono
Ġic Ã³nicos
ĠlÃ¡p ices
Ġavi oncito
Ġinac tivos
Ġprocur en
Ġga teway
Ġinfec tar
ĠCS V
ĠSal e
ĠrÃŃg ido
ĠImpor tante
Ġasisten cias
Ġestoc Ã¡stico
Ġcapit alizaciÃ³n
Ġcapit alizar
ĠOpen insi
ĠOpen source
Ġinvir tiendo
Ġ198 9
ĠUsu almente
Ġempaque tar
Ġempaque tarlo
Ġquebr ando
Ġengran ajes
Ġconcil iando
Ġconcil iador
Ġdesglos a
Ġdesglos ar
ĠCÃ³ digo
ĠCual quier
Ġconsol idada
Ġprestar an
Ġpeda cito
ĠFrame layout
Ġsuperpon gan
Ġsuperpon erse
Ġromp e
Ġocurrir ÃŃa
Ġocupar se
Ġneuron as
Ġneuron ales
ĠRepresenta ciÃ³n
Ġintui tiva
llam ado
Ġdepre cia
Ġpir Ã¡mi
Ġaz Ãºcar
Ġnie ga
Ġadorn ar
Ġlimp ieza
ĠAplicar emos
ĠPerson alizar
Ġafil ando
Ġhomogen izar
Ġortogon alidad
Ġincursion ando
Ġgigaher cios
Ġredirig e
Plan ificaciÃ³n
curr encia
Ġaun ar
Ġvera z
Ġvib raciÃ³n
Ġinadecu aciÃ³n
Ġhon orarios
Ġempap ado
Ġapa garse
ĠSan dy
ĠAmor tizaciÃ³n
Ġimpro visaciÃ³n
Ġrecab ados
ĠEstÃ¡n dares
Ġrefir iÃ©ndonos
Ġanalog ÃŃa
ĠAlmac ena
Ġconcien ci
Ġrastre o
Ġencier ro
Ġexamin arse
Fin almente
fun cion
fun ciones
Ġph p
Ġph one
Ġestil os
Ġbreve mente
Ġgar ante
Ġgar antes
Ġ(< )
Ġ(< =),
Ġestatu tarias
ĠSig lo
ĠSig amos
ĠPa trones
Ġabra zar
Ġconjugar lo
Ġmontar los
ĠObject db
Ġrobus tos
Ġdesactu alizados
Ġenfr entamos
Ġredirec ciona
Ġempuj Ã³n
Ġempuj aba
Ġhidra ulica
Ġhidra ulico
Rec ursos
Ti empo
Ġatras ado
Ġinneces ario
Ġfel ices
Ġcubier ta
Ġglos arios
Ġsombre ado
ĠanÃ¡ loga
ĠDi ferencias
Ġmendi ga
ĠEspa cio
ĠayÃº dele
Ġcentrar nos
Ġmulticul turales
Ġrub ros
Ġfabul osos
Ġpreconfigur adas
Ġapareci eron
Ġcorromp e
ĠcontemporÃ¡n eas
Ġcho car
orto gonal
Ġenc errrados
ĠdÃ©c ada
Ġrellen o
Ġsofistic adas
ĠhaciÃ©ndo los
Ġaclar atoria
Ġtedi oso
conoci da
Ġrespet Ã³
Ġsalvaguar dar
ĠBÃ¡s icamente
ĠSeg mentos
Ġocta vo
Ġchu ecos
ĠDescen t
Comple jidad
Ġboole anos
ĠOPEN QM
ĠParticip aciÃ³n
Ġthread ing
Ġexhaus tivos
Amor tizaciÃ³n
Deb en
Emp resas
Impor tante
UT L
Ġsor dos
Ġmer ecen
Ġvue lo
Ġfemen ina
Ġbode ga
Ġdesle ales
sign aciÃ³n
ĠLiber tad
Especi alizaciÃ³n
ĠFLO PS
ĠmÃ³de ms
ĠCuÃ¡n tos
Ġchas quis
ĠDesp uÃ©s
Ġjugue te
ĠExpres s
Ġrecup eraciones
ĠInsu ficiencia
Ġdescubier to
Expres iÃ³n
Ġmultic hip
ĠmacroeconÃ³m icos
Ġcele brado
Ġmilisegun do
Le any
On line
Ġreper cusiÃ³n
Ġfra udulentos
ĠEur ibor
Ġdesmen uzar
Ġexhib en
ĠLu cidch
ĠApar ecen
ĠAdap taciÃ³n
Ġsuspen so
Ġvisitar nos
ĠProduc tos
Ġchec a
Ġconversa cion
Ġextraordin arios
Ġexplora ciones
ĠResul tados
Ġlevantar emos
ĠPROGRAM ACION
Am d
Dec ode
Decodific ar
Eval uar
Fial lo
Gre edy
Lamenta blemente
PEN DIENTE
Ste epest
eh m
flo w
fra utilizaciÃ³n
hbrig e
ĠzÃ³cal os
Ġplie go
ĠpÃŃx el
Ġcie gos
Ġcaduc o
Ġsuc urs
Ġscrip ts
Ġstora ge
asocia tiva
Ġeslo gan
Ġmara v
infr acciÃ³n
reemp lazando
Ġdorm ir
Ġnort hbrige
ĠoÃŃs te
Ġpresti gio
Ġinne gable
Ġinof ensivos
Ġinapro pi
Ġhomici dio
Ġreorgan izar
Ġtuy o
Ġnovi embre
Ġalista mientos
Ġculebri ta
ĠilÃŃci tos
ĠEjerci cios
Ġdesfi le
Ġdesech ado
Ġinterban carias
Ġrestrin jan
ĠCop ias
Ġvaug han
ĠSpl it
ĠSpin ner
ĠSymbi an
Ġrans omware
ĠrÃ¡fa gas
ĠPri or
ĠPUS H
ĠPurpos e
Ġinscons ciente
ĠDDB B
ĠDeno mina
derbir d
Ġtranscien de
Ġtrauma tologÃŃa
Ġjorn ada
ĠsinÃ©r gicamente
Ġsindica tos
ĠTermin ologÃŃa
ĠThun derbird
Ġadhes ivas
ĠRLO PD
Ġvanguar dia
Ġabog ado
ĠNex tstep
ĠNest le
ĠOli gopolio
ĠVie w
ĠHamil toniano
Enterpr ise
Ġplanifi ques
Ġsubclas es
Ġsubalter nos
Ġrefrig er
ĠGuer ra
ĠGems tone
Ġadelga zar
ĠUnile ver
ĠUniver se
multip licar
Ġguaya quileÃ±o
Ġlegitim idad
Ġchistos as
Ġsemirrec tas
Ġconvoc ados
Ġblock chain
ĠJoh n
Ġacudir Ã¡
ĠAlber to
ĠExclus iÃ³n
Ġradiocomun icaciones
ĠINCRE MENT
ĠINTEG RIDAD
Ġextrapol ar
ĠObjec tivity
ĠdocumentÃ¡ndo me
ĠALGOR ITMO
ĠZoo db
ĠRecolec ciÃ³n
Ġconservadur ismo
ĠQuickpa th
Ġpublici tarios
ĠORDINAR IAS
ĠLevel db
Ġexpropia tivo
ĠOpeninsi ght
ĠpirÃ¡mi de
ĠLucidch art
PENDIENTE S
' )^
+ ,
, +,
/ |
0 8
0 11
3 00
3 60
4 1
5 80
6 9
? ;
A A
A I
A cu
A segur
A bs
B yte
B GN
C A
C a
C ir
C alidad
C ATE
C FS
C isco
C omunicaciÃ³n
C ÃĵDIGO
D C
D NO
D ensidad
E M
E DP
E MU
E lementos
F i
F un
F LA
G A
G OS
G HT
K E
L ex
L SI
L ongitud
M Ã³
M CO
N unca
N ivel
N CES
O tras
P h
P re
P res
P unto
P orta
P ython
P ASO
P lazo
S U
S istemas
S GSI
T M
T ec
T emp
T asa
T ACIÃĵN
V irtu
V elar
X P
X SS
Y Z
Z ACIÃĵN
] :
a u
a ver
a tivas
a hora
a tivamente
b ar
b Ã³n
b los
b lar
b rar
b ano
b ytes
b yte
c ta
c ÃŃ
c amos
c ente
c amente
c amiento
c ÃŃo
c aja
c ura
c tivity
d on
d Ã©r
d ÃŃas
d Ã³nde
d ura
e j
e tra
e vi
e ting
e fi
f f
f us
f ru
f arlo
f lujo
g encia
g Ã¡bamos
h ic
h me
h abil
h orta
h ual
h ardware
h board
h echos
i ti
i ora
i terÃŃa
j ame
k a
l f
l ia
l las
l if
l Ã³gico
l ligence
l Ã¡stico
l uyentes
m it
m erv
n m
n Ã³
n ivel
o ver
o ven
o cer
o trado
o dle
p un
p al
p amiento
p ones
p ecto
p icas
p icos
p leg
r Ã©
r ada
r ente
r ales
r udi
r ys
r erÃŃa
r ich
s ive
s tring
s ty
s ched
t work
t Ã¡stica
t micos
t Ã¡rselo
u da
u tir
u factura
v y
v aciÃ³n
v ier
v ector
w ren
y rig
z amiento
Ġ Ãĵ
Ġ TELNET
Ġe c
Ġe go
Ġe vo
Ġe ure
Ġe fus
Ġde biÃ©n
Ġde biles
Ġde bieron
Ġde pÃ³sito
Ġde velop
os Ã©
Ġl c
Ġl ar
Ġl laves
en tar
en tu
en ario
en tido
en efi
Ġp Ã¡s
Ġp ich
Ġp lÃ¡stico
Ġc m
Ġc Ã©
Ġc dro
Ġc ese
Ġc ede
Ġc aducidad
Ġc td
Ġs arr
Ġs entamos
er al
er me
er gia
Ġa er
Ġa te
Ġa gu
Ġa quÃ©
Ġa mericano
on to
ar ta
ar idad
ar rays
ar erÃŃas
ar dear
qu era
or ÃŃ
or pora
as es
as te
as ticidad
Ġes timo
Ġes tres
te m
te tos
te ce
un dial
Ġm id
Ġm ina
Ġm iddle
Ġm dpi
Ġm achine
Ġque do
Ġque brar
an tos
an ce
an zas
ti d
ti lo
ti go
ti no
ti anos
ti ty
ti Ã©ndo
Ã³ p
Ã³ tico
tr Ã¡ticas
ad ic
Ġla tencia
Ġla tino
in s
in fin
in cha
in strucciones
in rich
Ġy p
al ar
al la
al cul
Ġen ton
Ġen ante
Ġen ch
Ġen cas
Ġen lazar
Ġun ific
Ġun idas
Ġun ificada
Ġun ilaterales
re laciÃ³n
re edores
Ġel ips
Ġel ijas
Ġel asticidad
Ġd on
Ġd iste
Ġd ones
Ġd ore
Ġn udo
Ġn anos
ta ques
ta heur
ta ban
Ġv id
Ġv ita
Ġv Ã¡m
is k
is er
is toria
Ġcon tien
Ġcon ca
Ġcon tados
Ġcon ex
Ġcon ducciÃ³n
Ġcon gres
Ġse ten
mp a
mp la
mp ara
Ã¡ xis
Ã¡ menes
Ã¡ iser
Ġo cio
ÃŃ e
ÃŃ lico
Ġpr isiÃ³n
Ġin da
Ġin na
Ġin ducciÃ³n
Ġin put
Ġin dese
Ġin estable
do blar
am Ã©rica
Ġh ur
Ġh ea
Ġh omeomorfos
Ġco de
Ġco ur
Ġco jo
Ġco gen
Ġco ge
Ġco cientes
Ġre y
Ġre ar
Ġre cip
Ġre emb
Ġre quiera
Ġre estructura
Ġre tom
Ġre uso
Ġre vertidas
Ġre quieran
Ã© tico
ien able
Ġf uego
Ġf uman
Ġpro tec
Ġpro li
Ġpar entes
cion alizado
cion amientos
id ado
le y
le tos
Ġpor ta
Ġpor tales
Ġpor tada
us Ã³
us ia
us cula
us ura
us ability
us camente
mo dul
ac a
ac c
Ġno via
Ġno vio
ue los
ue gos
Ġb ici
Ġb ra
Ġb allo
Ġb ug
Ġb idimen
Ġb lur
res iÃ³n
Ġal fa
men tÃ¡ndose
Ġsi len
Ġlo qui
Ġlo gos
Ġlo gue
Ġcu bran
Ġcu rios
Ġest aria
Ġest alla
Ġdel gada
Ġme eting
di era
Ġper nos
Ġper pe
Ġper demos
Ġper diÃ³
Ġper tece
tiv able
uc ap
Ġg ari
Ġtr iste
Ġtr ig
Ġtr ajo
Ġten ia
Ġten demos
bi ter
bi ga
Ġdi era
Ġdi luir
Ġdi versa
cu ando
cu Ã¡n
cu laciÃ³n
cu itos
Ġi Ph
Ġto men
Ġto par
Ġsu mo
ari an
ari cion
Ġcomp ens
Ġcomp resiÃ³n
ĠE M
ĠE IS
ada ta
Ġpue blos
Ġser ver
Ġser ias
Ġus ucap
tro zo
orm ulaciÃ³n
ten tes
ten iendo
ten imientos
Ġdes alo
Ġdes cien
Ġdes doblar
den tro
gu ales
gu ida
gu eras
qui tos
era toria
era taques
Ġso lemos
gr ad
gr ita
Ġac tÃºa
Ġac laraciÃ³n
Ġac entu
Ġex ceso
Ġex oner
Ġex ijo
Ġex ecutive
Ġex horta
Ġex Ã¡menes
ĠestÃ¡ ticas
ĠestÃ¡ funcion
im izar
im Ã¡tica
ir Ã¡
ir me
ir maciones
Ġhac es
ues tra
Ġemp oder
Ġemp otrado
Ġle ÃŃdo
tra er
tra taciÃ³n
Ġdis tante
Ġdis ip
Ġdis rupciÃ³n
Ġdis fru
Ġdis traer
min g
min ario
tor icos
tor sionar
Ġor der
Ġor iente
fic an
Ġinter medi
Ġinter jec
Ġinter opera
Ġinter nÃ³
Ġproces s
Ġproces al
Ġproces ado
Ġ( ++
Ġres t
aliz able
Ġap alan
rec ep
Ġesta farlo
tu alidad
tu bio
tu lia
tur en
tur almente
si ciones
Ġinf ija
ĠC P
ĠC alidad
ĠC aÃ±
ĠC rea
ĠC loud
ĠC Ãºspide
ĠC ARACTERÃįSTICAS
Ġan si
Ġan dan
Ġan Ã³m
Ġan gulo
ul ando
ul ing
ul ticomputador
ul gencias
Ġdeb iendo
ĠL OS
ĠL ist
ĠL CI
ĠL engu
ĠL CD
ĠL Ã³gica
Ġop cionales
Ġop osiciÃ³n
ĠS om
ĠS pe
ĠS tric
ĠS MP
ĠS YN
ĠS UM
ĠS licing
ĠS Ã³lo
il er
il aciÃ³n
il lar
il trar
tre lla
tas e
tas mas
Ġte mor
Ġma go
Ġma tch
ce lado
ce dimientos
Ġr ÃŃo
Ġr udo
Ġr ip
ĠA un
ĠA LE
ĠA gregaciÃ³n
ĠA mericano
ĠA TM
eren tidad
Ġinform ales
Ġinform ados
Ġperson alizar
Ġperson alizada
Ġperson alizable
ĠP A
ĠP O
ĠP ed
ĠP one
ĠP ensar
ĠP lay
ĠP osterior
Ġcons cientes
Ġar it
Ġver aces
Ġimp ri
Ġimp ide
Ġimp idan
Ġimp lor
Ġtrabaj ados
Ġtrabaj Ã¡r
ig e
ig amos
til idad
til ine
Ġhab ida
Ġhab iendo
se minario
Ġvari ado
ÃŃs ta
ĠD X
ĠD ecre
ĠD igamos
Ġca Ã³tico
Ġfun dadas
mor fismo
duc to
Ġentre gamos
Ġrec tificaciÃ³n
Ġmen tores
Ġbas Ã¡ndome
gun a
ĠI tera
ĠI OS
ĠI MP
ĠI vy
Ġgr p
Ġgr amos
feren tes
mb ardear
Ã©s emos
Ã©s tico
Ġcontr ac
Ġcontr adic
Ġprogram amos
Ġprogram able
Ġprogram ables
Ġprogram itas
quÃŃ me
ores cente
Ġesp ÃŃa
Ġesp iando
Ġval ues
Ġval idos
Ġval erme
ver ability
ico gra
Ġreg alar
Ġcar re
Ġcar bÃ³n
mi tida
Ġmode lam
Ġmode lan
Ġmode lando
der aciÃ³n
der lo
Ġas in
Ġas uman
Ġpo tencias
Ġutiliz arse
Ġpre cip
Ġpre fieren
Ġtrans vers
Ġgen ero
ez al
Ġfin ita
Ġfin itos
Ġobje ivo
gn os
Ġpa is
Ġpa tita
Ġpa gando
Ġpa tentes
ri eron
Ġtra ten
Ġtra tase
Ġpoder se
Ġmedi as
Ġmedi tamos
ĠEn d
ĠEn tra
ĠEn tradas
Ġcontrol ler
TE D
ĠM et
ĠM Ãºltip
ĠM undial
ĠM ulticomputador
Ġmo difique
Ġmo odle
ĠEs tilo
ĠEs trella
uy an
uy Ã³
Ġsol itas
con o
con tar
con trol
con diciÃ³n
con trataciÃ³n
Ġgener adoras
Ġgener alizadas
Ġj avascript
Ġj oven
Ġorganiz ada
Ġdirec cionales
Ġdirec torios
Ġdirec tum
Ġsin ergia
Ġcos ta
ĠT al
ĠT AC
ĠT ran
ĠT hre
ĠT este
ĠT witter
ĠT abla
Ġinc a
Ġinc ap
fica tion
Ġcap turar
per mite
Ġ7 000
Ġrep lante
Ġrep licar
Ġrep lace
Ġrep itan
Ġprop icio
Ġprop ensos
Ġlle guÃ©
Ġlle gÃ¡bamos
Ġdesarrol les
Ġesc rudi
Ġrealiz o
Ġau tonomÃŃa
ĠLa wren
ĠU DD
ĠU so
Ġtipo logÃŃas
tal aciÃ³n
tal ysis
vi ja
vi abilidad
Ġregis trados
lan da
Ġproble mÃ¡ticas
Ġmejor an
Ġusu fr
tin tiva
Ġsab rÃ©
ĠR isk
ĠR usia
ĠR ige
Ġsal to
Ġsal ario
Ġvan al
Ġseg mentaciÃ³n
Ġsobre flujo
Ġred Ã³
Ġred und
om etra
lec tivos
Ġsign if
Ġllam e
Ġmay uscula
Ġab uela
Ġab riendo
Ġab usÃ³
ĠN i
ĠN Ãºmero
par es
Ġvis itas
Ġvis itantes
ĠO h
ĠO rig
ĠO biga
Ġaplic amos
Ġaplic aba
Ġalmacen ista
Ġven ÃŃa
Ġven diÃ³
Ġven dio
Ġsen dero
Ġexp one
Ġcomunic adas
Ġequi pamiento
posi tivos
Ġinte lligence
ĠB D
ĠB H
ĠB ru
ĠB anda
ĠB arak
ĠB ÃģS
ĠIn teg
ĠIn tensi
ĠIn evi
ĠmÃ© dicas
Ġactiv iti
Ġtec ho
Ġfu men
Ġfu tura
ca tivo
Ġne twork
Ġne grita
Ġpon gan
Ġpon dr
isten te
Ġhabl adas
ĠV a
ĠV LF
ĠV HF
ĠH W
ĠH a
ĠH uman
ĠH abilidad
ĠH istoria
pon en
En tity
Ġrequer idas
Ġqui tÃ©
Ġqui tÃ¡rselo
Ġestar Ã©
car ga
car nos
Ġfuncion arios
Ġsolu ciona
Ġcan cel
Ġpe dro
Ġdisposi tiva
Ġsub ran
Ġsub proble
Ġref ormulaciÃ³n
Ġref lectivos
Ġanaliz an
Ġiden tidades
Ġconf irme
quitec turas
Ġsigu ieron
ĠG alÃ¡
Ġide almente
Ġind icaciones
Ġind ulgencias
Ġestudi e
Ġestudi ada
Ġestudi ara
ĠCon tienen
ĠCon ector
ĠCon tribuciÃ³n
ĠCon ectados
ĠCon tratos
ĠCon ocer
Es tado
Es cri
ĠY AC
Ġfinanci ar
Ġinici alizo
Ġinver sas
Ġcomple mentado
Ġsignifica tivos
Ġlib era
Ġlib rerÃŃa
Ġir te
Ġir Ã¡s
Ġir ÃŃas
ie f
mis ta
mis tas
Ġpol aca
Ġinv o
Ġinv itados
Ġinv ariable
Ġapren dÃ©r
Ġarquitec tos
Ġtab ulaciones
Ġingres en
Ġfac turas
Ġalg orÃŃ
ĠtÃ©cn icamente
Ġllev aban
Ġconta mos
Ġemple adas
Ġemple adores
Ġcen tÃŃ
Ġcen tÃ©
Ġrealizar on
ĠF al
ĠF ase
ĠF etch
ĠF ron
ĠF uerza
ĠF CFS
ĠF rente
ĠF iltrar
Ġcumpl ÃŃa
Ġcumpl ieron
Ġtrabajar ÃŃa
ĠSe q
ĠSe an
fer aciÃ³n
Ġintegr Ã©
Ġintegr aciones
ĠUn der
ĠUn hos
Ġhuman idades
Ġdesp e
Ġdesp ues
Ġproce dentes
erv icio
Ġna cionalizado
Ġestad isticos
ĠsÃ³ lidos
Ġdia tÃ³
Ġcontra er
Ġcontra por
Ġcontra tadas
Ġcontra ÃŃdas
Ġcontra ponen
Ġejecutar la
Ġparti mos
Ġdin eral
ĠaplicaciÃ³n es
Ġoblig ados
por tar
Ġtal ler
Ġcondi cion
ĠpolÃŃ glo
xi mo
Ġnego ciado
Ġentr amos
Te orema
ens ados
ens ajes
mul ador
Ġmon tan
Ġmon tubio
Cu antos
PU BLIC
Ġcal ificar
Ġcal ambre
tiz ando
tiz ada
Ġsaber lo
Ġsoci Ã³logo
Ġadministr ado
Ġadministr ados
Ġhaber la
Ġfi del
ital ic
Ġnecesita ban
sa tilidad
Ġcol d
Ġrepresenta tivos
din Ã¡mica
Ġbaj en
form aciÃ³n
Ã³m ica
Ġconc ordar
pa gos
pa use
Ġderiv ado
Ġderiv ados
Ġter na
Ġter tulia
pro ducto
oci aciÃ³n
Ġcompren dida
Ġcompren diera
Ġw an
Ġw ord
Ġconten edor
Ġconten dÃŃas
Ġindi cios
Ġasign ando
Ġasign ada
Ġcompar to
Ġcompar ti
Ġren dir
Ġcr ack
Ġcr Ã³nica
Ġmin era
Ġincre ÃŃble
Ġincre mentÃ¡ndose
Ġcorrec tiva
Ġinvesti dura
edad as
Ġmulti procesamiento
Ġconec tada
olver se
Ġmas sive
Ġevalu Ã¡ndome
Ġni Ã±as
Ġoc tetos
Ġsignific arÃŃa
Ġmar ts
Ġreci ben
Ġhec hic
ĠRe tro
ĠRe almente
ĠRe alizar
ĠRe ducir
ĠRe usability
Ġdeno tan
Ġdeno tando
Ġestab les
Ġconsider Ã³
Ġ[ ,
Ġ[ //
tim izaciÃ³n
BR Q
ĠCo efici
ĠCo gnos
Ġflu encia
Ġflu orescente
Ġencar celado
medi ante
Ġho mbros
Ġho gueras
Ġcuan tas
Ġ19 7
Ġ19 50
Ġ19 34
Ġ19 011
og ada
Ġregu lados
Ġsa tel
Ġsa eta
Ġsa turen
ĠCu arta
ex tracciÃ³n
ex tintiva
Ġpens Ã³
Ġenten diÃ³
Ġtu tores
Ġtu bo
Ġgra fe
Ġgra fÃŃas
ion ando
Ġdeber iamos
Ġfr acciÃ³n
Ġrespe tados
Ġrespe tarse
Ġdistribu ida
Ġdistribu irse
Ġdistribu icion
ĠW M
ĠW orkstation
Ġof imÃ¡tica
Ġcop yrig
Ġro jos
Ġro cÃŃo
ĠdiseÃ± e
ĠdiseÃ± adas
Ġ12 4
Ġdesarrollar on
Ġcab ezal
Ġcompil an
ON YM
Ġmanten ga
Ġproducir se
EN T
Ġredes pleg
Ġhablar lo
ĠseÃ±al ada
cal l
ĠAn alizan
Ġprob ado
Ġdispon ga
Ġfuer zas
Ġpan eles
ĠPro pÃ³sito
Ġespecific ando
cle ta
Ġgo bern
AC AB
AM D
Ġ+ (
Ġ+ +
Ġ+ :
Ġcir culo
Ġhi ja
Ġli deramos
Ġpagar Ã¡
Ġpagar Ã©
Ġtermin ando
Ġtermin ados
Ġtermin adores
tÃ¡n eas
Ġban deras
Ġsup uesta
Ġsup erentidad
Ġata can
Ġingenier ia
Ġingenier ÃŃas
ĠSi empre
ĠSi mples
Ġintelig entemente
Ġfacil iten
Ġcamin ando
Ġgas te
Ġch ico
Ġch uta
Ġch istes
Ġch ief
AS IF
Ġon tos
Ġon destroy
Ġpregun tando
Ġrevis e
Ġrevis amos
Ġalmacenar Ã¡
Ġocur rieron
Ġmir Ã©
Ġconv inc
Ġconv ocan
ima te
Ġdirig idas
ĠNo us
ep res
Ġhe inrich
Ġinven cion
Ġinven tar
Ġinven tado
Ġinven tados
Ġreal ista
Ġreal icen
Ġtransac cion
Ġx n
Ġconsum idos
AL IDAD
Ġobs tÃ¡
Ġproporcion en
Ġproporcion ada
Ġfutur ista
Ġsupon ÃŃamos
Ġprove ÃŃan
Ġapar tarse
Ġencontrar lo
ĠSo fistic
Ġcorrespon der
Ġampl iando
Ġinvent Ã³
Ġinterpre tamos
ĠvisiÃ³n o
Se gun
Ġgus tar
Ġdivid idos
Ġselec ciones
Ġobserv ado
ies s
Ġcla usura
Ġcla vija
Ġcontinu amos
Ġvirtu alizar
Ġlocal idades
Ġsolici tando
ĠautomÃ¡ ticas
ill ips
lÃŃ sima
Ġcostos os
Ġciu dades
Ġcul ta
Ġcompr aba
Ġparticip ante
ĠJ er
ĠJ ack
ĠJ osÃ©
Ġoptim izan
ĠAl go
ĠAl cÃŃ
ĠOr gan
ĠOr biter
bol d
Ġliber ada
Ġrepresentar se
ĠX SS
ĠX YZ
Ġrecep tamos
ĠRAM S
Ġru mbo
Ġacep tan
Ġacep tarÃŃa
Ġexten diendo
Ġestable ciÃ³
Ġestable zco
Ġra cionales
Ġra cionalmente
Ġra cionalizar
ĠÃ³p timos
Ġenfo car
ĠDes comp
ĠDes ap
ĠDes cripciÃ³n
Ġtransform arse
ĠSI MU
ĠSI EM
Ġviv ÃŃan
Ġviv aces
Ġher edadas
Ġcircu lan
Ġcircu iterÃŃa
Ġdig ite
Ġdig erir
Ġevaluar la
Ġprofesion alidad
Ġescuch aba
ĠlingÃ¼ ista
ĠlingÃ¼ istas
ĠlingÃ¼ ÃŃsticos
Ġpes quera
Ġcalcular la
Ġtele visores
Ġsoberan os
gra cion
ts ty
ĠdÃ© jame
Ġregistrar te
Ġconduc tual
ĠEx posiciÃ³n
ĠEx pl
ĠEx traction
ĠEx adata
ĠEx torsionar
ĠSon da
ĠMe taheur
ĠQ R
ĠQ EMU
Ġemis ores
Ġasegur ado
Ġasegur ando
Ġasegur amos
Ġsig los
Ġintercambi os
Ġconcre te
Ġleer lo
ĠcrÃ© ame
Ġsecuen ciales
Ġmencion ando
Ġmodific ador
Ġelimin an
Ġelimin ados
Ġespecial ice
Ġhabil ita
Ġhabil ÃŃtame
Ġpropie taria
Ġelectro estÃ¡
Ġelectro dinÃ¡mica
tegor ÃŃa
tegor ÃŃas
Ġ* :
Ġ* ),
Ġprepar Ã©
Ġrepe tido
Ġk Byte
Ġinten tos
Ġinten siÃ³n
In t
Ġsur te
Ġsur tir
Ġcach uelos
Ġvender se
Ġemb utir
Ġtransmitir se
Ġense guida
Ġ17 7
Ġ17 8
Ġcomunica cion
Ġelabor e
Ġelabor amos
ĠTo tal
ĠTo ols
ĠsemÃ¡n ticamente
Ġesque mÃ¡ticamente
ĠdinÃ¡m icamente
yec toria
Ġsint Ã¡xis
Ġadap ta
Ġfil ial
Ġfil trado
Ġmanej arse
Ġusar los
ĠAr rays
ĠAr quÃŃme
ĠAr quitecturas
ĠDis positivos
Ġ92 2
Ġaplica cion
ĠaÃ±ad imos
Ġconform ando
ĠAc tivity
Con tiene
ĠK DD
ĠK Ã¡iser
Ġvo cativo
lib eratoria
Ġesco jo
Ġconven ciÃ³n
Ġconven cionales
Ġconven cionalmente
Ġtes ts
Ġencontr ando
Ġcerr ados
Ġcerr arla
Ġbalance o
ĠtransacciÃ³n es
Ġ83 0
Ġreglamen tario
Ġreglamen taria
Ġgesti ona
Ġextra e
Ġextra Ã±o
De pen
Ġdefini cional
Ġdefini torio
th pones
Ġcodific ados
Ġtras era
Ġtras lada
Ġorigin ar
Ġorigin an
Ġgusta ba
Ġpod rian
Ġcorre a
Ġinal ienable
Ġam ari
Ġdesi guales
Ġemi tidos
Ġpers istencia
Ġmedir se
Re querimientos
Re est
Re usabilidad
crib a
cron os
Ġexc luyentes
Ġconstruir lo
Ġinterpretar Ã¡
Ġrecono zca
Ġexperi mentos
RA Y
Ġcoordin ada
Ġcoordin adas
Ġbo und
Ġsupervis adas
Ġsupervis arlo
Ġaj enas
Ġdividir Ã¡
âĢ ĵ
Ġquedar me
ĠdifÃŃcil mente
ĠOb tener
ĠOb ama
ĠCons istencia
ĠCons trucciÃ³n
ĠaÃ±adir se
Ġdesempe Ã±os
Ġeven tualidad
Ġvin cular
Ġvin cula
Ġexig ÃŃr
Ġalcanzar ÃŃa
Ġincu mple
Ġhar emos
Ġsuces ivos
quil idad
Ġasigna turas
Ġdescrib a
Ġredundan cias
Ġequival encia
Ġrefer irÃ¡
Ġagrup ada
Ġ201 5
Ġpier do
Ġpier des
Ġpier das
Ġdesta que
Ġdesta cas
Ġmov ilidad
ĠInform es
Ġrespetar los
Ġecuatori anas
Ġreloj es
Ġbr uscamente
Ġacerc an
Ġacerc amiento
ĠtecnolÃ³g icas
Ġlan zamiento
Ġentrar Ã¡n
Ġdescribir Ã¡n
Ġdeclar o
Ġflo ta
Ġflo tantes
Ġdij eran
ĠComp onente
Ġpapel ito
ĠgeogrÃ¡ ficas
Ġcolec ciones
Ġfen icios
Ġcolocar lo
Ġfrag il
Ġinterior mente
Ġapun tan
Ġapun tado
Ġconoz camos
Al gorit
Ġenter rar
ĠOpera ting
ĠinalÃ¡mbr ica
ĠdÃŃg ame
Ġllen amos
Ġloc ura
Ġlog ic
Ġpropa garÃ¡
Ġimagin ar
Ġimagin emos
Ġimagin arÃ¡n
ĠCO E
ĠCO LA
ĠCO UN
Ġinser t
Ġinser ta
Ġposibil itar
Ġvulner ables
Ġajus ten
Ġincumpl ido
ord amos
Ġservir ÃŃa
Ġservir les
Ġproyec ciones
Ġproyec tores
Ġproyec tados
Ġmicros oft
Ġinterv in
Ġcontribu ciones
Ġminim iza
Ġclasific ado
Ġclasific Ã¡ndolos
Ġincluir lo
Ġaf irmaciones
Ġconvers ado
Ġconvers amos
Ġpreval ezca
Ġimportar los
ĠGener adas
Ġcontratar la
Ġocas iona
ĠAPI s
Ġaprovech arse
Ġofici ales
Ġperder se
Ġdescon tar
ĠEntre tenimientos
Ġencaps ula
Ġdepur arlos
Ġmac hos
Ġvig ila
ĠAL IAS
Ġgui arse
Ġrepar ar
Ġrepar aciÃ³n
Ġrepar tiendo
Ġcome tio
ĠDirec cionamientos
ĠrobÃ³ ticos
inar nos
Ġsex uales
Ġpromo cionan
Ġram ifica
ĠFun cional
Ġendeud amos
Ġalter ado
ĠMan ufactura
Ġexplo tado
ĠInte gracion
Ġnave gue
Ġcalen dario
Ġobservar on
Ġguardar lo
Ġadop te
ĠDia gram
Ġrespon dientes
ĠBas ada
Ġquitar les
ĠespaÃ±ol es
Ġinvestiga tivo
ĠâĢ Ķ
Ġqued arian
Ġperfec tas
Ġsuminis trada
Ġimplan tar
Ġimplan tados
Ġviol aciones
Ġdemand Ã³
ĠinteractÃº e
Ġexitos os
ĠRes trin
ĠRes pecto
ĠBI DIMENSION
Ġinclu ÃŃan
Ġconectar le
Ġcomprob ables
Pro cura
Pro cedimientos
Ġid ÃŃlico
Ġesti man
Ġestandar izado
Ġhis toricos
Ġcomen zÃ³
Ġcoment ario
Ġcomprome tido
Ġcomprome tidos
Ġautomatiz an
Ġautomatiz adas
Ġgrad ual
Ġprimi tivas
Ġrespec tivo
ĠGoog gle
Ġinvolucr Ã³
Ġinvolucr amiento
for ecasting
Ġlig ados
Ġlig eros
Ġestre ll
ÃŃr selo
Ġcorreg irse
Ġnumer itos
Ġnumer icamente
Ġinnov ar
Ġdificul ta
uf arlo
Ġotor gamiento
ĠexplÃŃci tas
Ġmonopol ios
Ġconglomer arlos
Ġexcep t
Ġespecializ ados
Ġdiscrimin aciÃ³n
MI TED
col ors
ser Ã¡
gro up
Ġexpresar ÃŃamos
Ġsecund arios
ĠhomogÃ©n eo
ĠhomogÃ©n eos
Ġasim ilaciÃ³n
Ġcomunicar nos
Ġaco tados
Ġasum idos
ĠProces ador
ĠProces amiento
AB CDH
PD U
Ġdedic arse
Ġmoder nos
Ġsincron izada
Ġsincron izarse
Ġpele ar
Ġpele ando
CU ENCI
Ġorto gonal
ĠSE CUENCI
Ġtransfer idos
Ġtransfer irse
Ġdecre tum
MEN TE
Ġuniform ados
Ġhos ting
ĠAR RAY
Ġincur ren
Ġelaborar Ã¡
Ac reedores
Ġsep amos
Ġexposi ciones
Ġrecolec tan
Ġsusten ten
Ġsusten tarlo
Ġredac tando
Ġcance la
ĠRela cion
Ġatac ado
Ġmezc la
Ġmezc lamos
UN LI
UN CATE
Ġpul gadas
Ġconce diendo
Ġconce derlo
Ġlex icogra
Ġlevan tando
ĠCh rys
Ġmaes tra
ĠTen drÃŃan
Ġeconom ista
Ġadelan taban
Ġrecopil ada
Ġrecopil ados
ET L
Ġmil las
Ġmil enario
Ġpreten dida
ĠgenÃ© tica
ĠgenÃ© ticas
Ġsolid aridad
ĠOR DER
Ġapropi aciÃ³n
Ġapropi ados
Ġapropi adamente
ĠselecciÃ³n amos
Ġescuchar on
// /|
ĠAU TO
Ġllamar emos
Ġenf Ã¡ticas
Ġimprim ian
Ġexpecta tiva
Ġconecta ban
Ġhubi Ã©semos
Pue des
ph i
Ġretir amos
Ġcargar lo
Ġpresta tario
Ġpresta mista
ĠFin si
ĠFin Mientras
ĠProgram aciÃ³n
Ġconstru ida
Ġconstru idos
Lo tus
li quidez
Ġses enta
Ġses iones
Ġses gos
Ġdup licaciÃ³n
Ġresum ida
Ġresum idamente
ĠclÃ¡s icas
ĠBus gran
ĠBus Reest
mÃ¡for os
Ġ110 1
Ġdescar tar
Ġacab o
Ġcalcul ando
Ġcalcul amos
Ġcalcul adoras
Ġaparecer Ã¡
Ġaproxim adas
ER ACIONES
Ġprac tic
Ġmanifes taciÃ³n
Ġmanifes tada
Ġmanifes taciones
Ġaumenta mos
ĠautÃ³no ma
ĠautÃ³no mas
ĠRE AL
Ġrenego cia
Ġrenego ciaciÃ³n
20 3
Me moria
Ġretras arse
Ġdibu je
ĠteÃ³r icas
Ġcontras te
Ġaster iscos
Ġdiferenci an
Ġdiferenci ado
Ġdiferenci amos
Ġformul adas
Ġcru za
Ġpreguntar le
Ġtoken izaciÃ³n
ĠRecor dar
Ġconsistente mente
ĠacompaÃ± ado
Ġur l
Ġba Ã±o
Ġexces iva
ĠOP ERACIONES
Ġrecordar las
Ġadquisi ciones
Ġpseudoalea torio
Ġdesconoci das
ĠTrans fiere
ĠTrans mitir
ĠTrans porte
ĠTrans mitida
ĠPRINCIPI OS
Ġincomple to
Ġincomple tas
Ġdiscu tido
Ġresuel van
ĠEspeci alizaciÃ³n
ĠEspeci ficaciÃ³n
Ġintens iva
68 5
Ġestu vo
Ġdistrib uye
ĠCE ILING
Ġcatal ogada
Ġmigr aciones
ĠMin imizar
ĠMulti media
ĠInterna tional
ĠRegister ed
ĠIntegr aciones
ĠbiolÃ³g ica
ĠbiolÃ³g icas
ÃģTIC AS
14 00
33 7
Ġcib erataques
Ġestr Ã©s
Ġestric tamente
Ġprome tÃŃ
Ġbon ita
dimen s
Ġsupre mo
Ġacord ado
ĠAB CDH
ĠAs pectos
ĠAs imismo
Ġgrie gos
Ġvocab lo
Ġaterr izan
Ġcogni tivas
Ġcobr ado
Ġrein vier
Ġilim itadas
ĠclÃŃn icos
Ġprefer idas
Ġpreserv a
Ġpreserv ando
Ġsubray ados
ĠPrincip io
Ġcheque a
Ġcheque o
Ġensa yos
Ġalum no
Ġexager aciÃ³n
ĠSecu encia
ĠAudi toria
ĠImple mentaciÃ³n
Ġabstra en
Ġabstra erse
Ġagreg ada
Ġagreg adas
Direc torios
su ma
Ġpac tada
Ġpac tadas
Ġplas mado
Ġdr ivers
Ġdr Ã¡stica
Ġfis ica
Ġfis ico
Ġnombr ados
Ġnombr adas
Ġalf arerÃŃas
ĠEval uar
Ġtax ativamente
Ġrestring e
Ġimplicar Ã¡n
Ġindex aciÃ³n
Ġmanejando le
ĠUNI DIMENSIONALES
Cons idÃ©rese
Per mite
Per miten
Ġnul idad
Ġinj usto
Ġcog emos
Ġcog ido
Ġprovis ionar
Ġcompac tado
ĠUtil izando
Ġequivo carnos
Ġcris to
Ġcris tianos
Ġ199 0
Ġilustra ciones
Ġdele ga
Ġdeducir lo
Ġlin ks
Ġambi gÃ¼
Ġambi gÃ¼edad
Ġcodifica ciones
Ġfl uyan
ĠEST ÃģTICAS
Ġdesen lace
Ġapare ciendo
Ġarro pa
ĠMal don
ĠNO DOS
Ġexpor tados
Ġdemandar lo
Ġgradu arse
Ġolvid ar
Ġolvid ado
ĠParti al
Ġenfren tar
Ġenfren tando
Ġenumer adas
fras es
Ġcuel lo
Ġencam inarnos
Ġdelim ita
ĠEX IT
ĠEX TRE
alizando lo
ĠCam ino
Ġmand ada
ĠMuch o
Ġchi quitos
Ġocurr idas
ĠMOOC s
Man tener
ole an
Ġegres os
ĠlÃ¡ mpara
ĠtÃ¡c til
Ġtroy a
ĠER D
Ġresol viÃ³
ĠCL K
ĠCL ASIF
ĠLINE ALES
ĠTra tamiento
ĠTra yectoria
Ġsubje tivo
Ġsubje tividad
ĠProto tip
Ġdemasi ada
Ġtaxon Ã³mica
Ġdeleg ando
Ġretribu ida
Ġhabr ÃŃa
Ġhabr Ã¡s
Ġprelimin ares
Ġautos ervicio
Ġexponer las
ĠBo och
ĠBo mbardear
ĠBo olean
Ġmonta Ã±a
Ġrecib iendo
ĠWH EN
ĠMedi ante
ĠInstitu te
Ġalfabe tos
ĠDomin ios
Ġhumil de
23 2
Au mento
lin k
Ġenlaz ando
Ġdol er
Ġconting ente
Ġinta cta
Ġparque o
Ġpermiso logÃŃa
Ġcompara tivo
ĠEmp ieza
Ġinfr uctu
ĠAta hual
Ġespon tÃ¡neas
Ġprevis ible
Ġcostar a
Ġcontraargu mento
Ġagrad ables
Ġcausar le
Ġrestaur ando
adecu adamente
Ġvigil ante
ĠnÃ³min ales
Ġreemplaz ada
lÃ³g ica
lÃ³g icos
niz aciones
Ġic onos
Ġetimo lÃ³gico
tab la
Ġretor nan
ĠSal vo
ĠPre paraciÃ³n
Ġasisten te
ĠMir a
ĠMir en
Ġcapit alizacion
Ġinvir tiera
ĠFrag mentos
Ġcron ometra
ĠAlgorit mo
Ġ|] -->
ĠextraÃŃ dos
ĠextraÃŃ das
Ġpsic Ã³logo
Ġparametriz ables
Ġencamin ado
Ġdedi quemos
Ġenfa tizando
Ġunit arios
Ġelig en
Ġcontes tar
Ġhyper visor
Ġhyper call
Ġtur ÃŃstica
ĠCr amer
ĠCen ter
ĠCen tral
ĠCen trado
Ġconsol idado
Ġconsiderable mente
Ġintroduc cion
Ġllenar las
Ġlocalizar los
Ġhisto gramas
Ġbrindar le
ĠmilÃŃ metros
Ġliquidar las
ĠAPLIC ACAB
ĠESTRUCTU RA
kernel s
tÃ©cn icos
Ãī l
Ġsemin ar
Ġindu cidas
Ġtrim estre
Ġ(+ )
ĠCI I
Ġanten as
Ġanima tor
ĠMar s
Ġsinte tizada
Ġlimp io
Ġaspir a
Ġextender se
Inc orpora
ĠAUDITO RES
16 3
LAN TACIÃĵN
Plan ific
ĠÃŃ tems
ĠÃŃ cono
ĠÂµ s
Ġhones tos
Ġtari fa
Ġsome ten
Ġapa gado
Ġmatiz aciones
ĠAbs tracciÃ³n
ĠAbs traction
Ġrecab ado
ĠTom ar
Ġadul to
Ġsentir se
Ġrefir iÃ©ndose
ĠProb abilidad
Ġsolicitu des
Ġrutin arios
Ġrutin aria
Ġcontex tuales
ĠCompar tir
Ġrastre ados
Ġestimul ando
Ġtranquil idad
Ġexamin ando
Ġdesaf ÃŃen
17 000
EDO L
Fin alidad
So ftware
So bre
Ġons top
Ġpalo mas
Ġestil ÃŃsticas
Ġunan imidad
Ġvie ja
Ġocul tar
Ġestatu taria
ĠCa talysis
ĠCa tegorÃŃa
ĠSus tituciÃ³n
ĠPL N
Ġarbol es
Ġfinse gÃºn
ĠVP N
ĠForm ulando
Ġmargin al
Ġmatema ticos
Ġarticu laciÃ³n
ĠÃ³rbi tas
Ġrecomp ensados
Proces os
Ġredirec cionarse
Ġacarre ar
Ti pos
Ver ificar
Ġnorte amÃ©rica
Ġfel ici
Ġcubier to
Ġglos ario
Ġsombre ada
ĠPD U
ĠPD CA
Ġdicta mina
Ġmendi gar
ĠEspa Ã±a
Ġreporta je
ĠNeces idad
ĠNeces ito
ĠIngres o
ĠayÃº dan
ĠGR ADO
Ġmulticul tural
Ġdemandan tes
tÃ¡ndo lo
Ġrub ro
Ġfabul oso
ĠNewman n
Ġdescargar la
Ġpreconfigur ados
Ġapareci era
ĠVirtual box
Ġcorromp er
Ġdeten ida
Ġdeten idamente
Ġspo t
Ġspo iler
Ġconfin amiento
Ġfan tÃ¡stica
Ġfan tasmas
Ġexca var
Ġexca vaciÃ³n
Ġletr ero
Ġletr eros
Ġtex tuales
Ġtex tsty
Ġmape ados
ĠPh ishing
ĠPh illips
Ġimpar tidos
Ġmodul adas
Ġprescrip tiva
Ġsuben tidades
Ġdistribuid ores
Ġdistribuid ora
Ġsubstring s
ĠacuÃ©r dense
ĠacuÃ©r date
Ġextensi ble
Ġextensi bles
Ġadivin amos
Ġadivin anza
ĠOptim ization
Determin ar
Ġexclam aciÃ³n
Ġexclam ativas
ĠGuar da
ĠGuar dan
ĠWebinar s
Ġtranqui la
Ġtranqui las
ĠhipotÃ© tica
ĠhipotÃ© ticas
ĠTempor izador
Ġdesencaden e
Ġapresur ada
Ġapresur arnos
Ġindudable mente
ĠAUDITOR ÃįA
Princip ios
ĠlexigrÃ¡ fica
ĠlexigrÃ¡ ficas
Op timizaciÃ³n
Util izar
Ġdeduc ÃŃa
Ġces ped
Ġslo ts
Ġsmar thpones
Ġintran quilidad
Ġhuel ga
Ġfren ar
Ġparpa dear
Ġdesbloque ar
Ġobtu vieron
ĠCTE ENT
ĠLE FT
ĠSD K
ĠSol amente
ĠSir ve
Ġrecar gan
Ġpreestable cidas
ĠEnsamb lando
ĠRecu perar
ĠCondi tions
Ġcolis ionando
Ġderram ando
Ġindem nizaciones
ĠDesign ar
Ġdigit alizandolo
ĠEstablec e
Ġembar ques
ĠAritmÃ© tico
ĠDispon ibilidad
Conoci mientos
Ġbru jo
Interac tuar
Ġremitir lo
Ġpeluqu erÃŃa
Ġextingu idas
Ġdesembol so
Ġdesenv olverse
Integr idad
Ġsemej antes
Ġitiner ario
Ġdiscern ir
47 7
CRU D
LÃ³g icamente
Much as
Prim ero
Ġdeter iora
Ġdebil idades
Ġencan ta
Ġencen demos
Ġpromul gando
Ġsumerg ida
ĠCl imate
ĠCri tical
ĠCOS O
ĠLÃŃ bano
ĠSil via
ĠScr oll
ĠAV G
ĠDimen siÃ³n
Ġvalen tÃŃa
Ġasumi mos
Ġcorche tes
ĠTR UNCATE
Ġped ÃŃrselo
ĠerrÃ³n ea
Ġfalsi fica
Ġtempr ana
ĠOrgÃ¡n ica
ĠArti culaciÃ³n
Ġboton es
ĠdesempeÃ± arse
Ġadolesc entes
Ġprofundiz ando
ĠAlmacen ar
Ġrapid ÃŃsimo
ĠDEONTOLÃĵGIC OS
Audi tar
CR M
Ejecu tar
Res pal
plo its
pue den
prim er
Ġemul aciÃ³n
adir nos
Ġnx n
Ġproven gan
Ġbul let
Ġdifici lÃŃsima
desac tivable
ĠAÃ±ad ido
ĠPs Int
Ġcortar a
ĠTras criba
Ġescla vos
ĠRI GHT
ĠIng lÃ©s
ĠIndic adores
ĠGan ga
ĠConte mpla
ĠautomÃ³ viles
ĠlegÃŃ timamente
Ġobsole ta
Paravirtu alizacion
Ġcuatrim estre
ĠDisco verability
Ġpersu adirnos
Ġevolucionar Ã¡
Ġasesor amiento
Ġcontigu os
Obser ve
Ġconcienci ados
ĠPrior izaciÃ³n
,+, *)
Acu mulador
Asegur arse
Abs tracciÃ³n
Ca tegorÃŃas
Cir cuitos
DNO W
Fi abilidad
FLA GS
MÃ³ dulo
Porta bilidad
Temp eramento
aver al
hme tic
hboard s
lif e
merv ille
pun tero
string s
sty les
sched uling
ĠÃĵ rales
Ġego ÃŃsta
Ġevo ca
Ġeure ka
Ġefus ividad
ĠdebiÃ©n dose
Ġdevelop per
Ġlar gas
enefi cia
ĠpÃ¡s ame
Ġpich incha
Ġcdro m
Ġsarr us
Ġagu jeros
ĠaquÃ© lla
Ġestres ada
Ġmid iendo
infin ito
Ġenton aciÃ³n
Ġench ufarlo
Ġencas illar
Ġelips es
Ġvita e
ĠvÃ¡m onos
Ġcontien das
Ġconex os
Ġcongres o
Ġseten ta
Ġinda gar
Ġinna to
Ġindese adas
Ġhur to
Ġhea p
Ġcour se
Ġrecip iente
Ġreemb olsos
Ġprotec tores
Ġproli feraciÃ³n
Ġparentes is
modul aciÃ³n
Ġnovia zgo
Ġbici cleta
Ġbra zos
Ġballo on
Ġbug s
Ġbidimen sional
Ġblur ay
Ġloqui ta
Ġlogue o
Ġcurios idad
Ġmeeting s
Ġperpe tu
Ġgari ta
cuÃ¡n to
ĠiPh one
Ġusucap iÃ³n
Ġdescien da
Ġacentu ado
Ġexoner aciÃ³n
Ġexhorta tivas
ĠestÃ¡funcion ando
Ġempoder amiento
Ġdisip aciÃ³n
Ġdisfru ten
Ġinterjec ciones
Ġinteropera tividad
Ġ(++ )
Ġapalan camiento
recep tor
ĠCaÃ± averal
ĠCrea cion
ĠanÃ³m alo
ĠLengu ajes
ĠSom merville
ĠSpe cial
ĠStric t
ĠSYN ONYM
Ġrudo lf
Ġrip l
ĠALE ATORIO
ĠPed ro
ĠPlay er
ĠPosterior mente
Ġarit hmetic
Ġimpri mo
Ġimplor an
ĠtrabajÃ¡r amos
ĠDecre to
ĠItera tivo
ĠIMP LANTACIÃĵN
Ġcontradic torias
Ġmodelam ientos
Ġprecip itada
Ġtransvers ales
ĠMet life
ĠMÃºltip les
ĠMulticomputador as
ĠTran siciones
ĠThre e
ĠTeste o
Ġincap aces
Ġreplante arme
ĠLawren ce
ĠUDD I
Ġredund ante
Ġsignif ca
ĠOrig inada
ĠObiga torio
ĠBru ta
ĠBÃģS ICAS
ĠInteg er
ĠIntensi fication
ĠInevi tablemente
Ġactiviti es
Ġnetwork ing
Ġpondr ÃŃamos
ĠHuman os
Ġsubran go
Ġsubproble mas
ĠGalÃ¡ pagos
Escri torio
ĠYAC C
ĠaprendÃ©r selos
ĠalgorÃŃ tmicos
ĠcentÃŃ metros
ĠcentÃ© sima
ĠUnhos ted
ĠdiatÃ³ picas
Ġcontrapor tada
ĠpolÃŃglo tas
Ġfidel izaciÃ³n
Ġcrack ers
Ġhechic ero
Ġ[// ///|
ĠCoefici ente
Ġsatel ital
Ġgrafe mas
Ġcopyrig ht
Ġredespleg ados
Ġchistes ito
Ġconvinc ente
ĠobstÃ¡ culos
ĠSofistic ada
ĠAlcÃŃ var
ĠDescomp osiciÃ³n
ĠDesap aricion
ĠSIMU LACIÃĵN
ĠMetaheur istic
ĠelectroestÃ¡ tica
ĠArquÃŃme des
ĠexigÃŃr selos
ĠCOUN T
Ġmicrosoft net
ĠRestrin ja
ĠBIDIMENSION AL
Ġestrell itas
ĠSECUENCI AL
UNLI MITED
Ġlexicogra fico
ĠChrys ler
ĠBusgran t
Ġreinvier ten
ĠambigÃ¼ edades
ĠMaldon ado
ĠEXTRE MA
ĠCLASIF ICACIÃĵN
ĠPrototip icos
Ġinfructu osas
ĠAtahual pa
Ġcronometra je
ĠAPLICACAB LES
Ġtextsty le
Respal do
Ġ[/////| ]
, ,
, Â¿
. ""
2 500
4 8
9 2
= (
A ta
A dap
A pp
A ij
A gregaciÃ³n
A mbos
B ig
C h
C ar
C or
C re
C am
C ri
C ier
C omun
C MI
C apa
C apital
C orre
D L
D X
D ado
D ada
D MA
D ocu
D BMS
D ise
D VD
D rill
E j
E PD
E vitar
F U
F OR
F Ã³rmula
F icha
F ishing
G esti
G oog
G rado
G ÃįA
G ALIDAD
H W
H ace
I A
I O
I de
I mple
I PU
I GN
I KE
K I
M C
M M
M in
M ulti
M ICAS
M uestra
N L
N Ã³
O RE
O DB
O UN
O peraciÃ³n
P ar
P alab
P oner
P ALES
P odemos
P ASOS
P HP
P ORT
R enta
R ob
R RENTE
S er
S ig
S BR
S LE
S enti
S MT
T Y
T y
T ienen
T amaÃ±o
U C
U I
V O
V ar
V an
V istas
V ADAS
W N
W indows
Y STE
Z A
a t
a fin
a gement
b el
b urs
b abilidad
b anos
c lo
c la
c ÃŃa
c ero
c los
c tion
c laves
d s
d ÃŃ
d ing
d americana
d ale
e al
e ando
e qui
e gun
e par
e ja
e fe
e diciÃ³n
f ado
f ito
f az
f ons
f ill
f fe
f amil
f line
f Ã©ricas
f lexible
g mas
g no
g entes
g idas
g alo
h are
i je
i den
i um
i ting
i quen
i partito
j ita
j ana
j itas
k up
l ir
m x
m el
m idos
m Ã¡ndose
m Ã©stico
n ec
n izar
n Ãºmero
o ur
o tencia
o logÃŃas
p ado
p Ã©r
p ing
p uesto
p antes
p ula
p ip
p tom
r is
r il
r ÃŃamos
r idaciÃ³n
s ecu
s ri
s iendo
s erv
s ivas
t te
t le
t ter
t tex
t phone
u os
u idad
u ido
u tex
v d
v oluciÃ³n
v ase
v inci
v idados
v adura
w let
x io
x ÃŃgen
y z
y un
y anos
y tics
} }
Ġ TE
Ġ xi
de ando
de fin
de remos
de codificar
Ġde ro
Ġde tiene
Ġde ep
os ted
os ability
Ġl ong
en Ã³
en tal
en tados
en tidades
en ciaciÃ³n
en laces
en vÃŃ
Ġc Ãº
Ġc una
Ġs na
Ġs ha
er to
er ÃŃamos
er ializaciÃ³n
ci i
ci an
ci la
ci amos
ci siÃ³n
ci eron
ci clos
Ġa tÃŃ
Ġa zar
Ġa tom
Ġa xio
es as
es tÃ©
es ense
es pectro
on is
on ÃŃa
on omÃŃa
on eran
on ima
on cando
on create
ar qu
ar in
ar is
ar las
ar ista
ar quÃŃas
ar cÃŃa
qu esta
or as
or ro
or ÃŃgenes
or eno
as trÃ¡ticas
te ar
te te
te les
te ga
que ta
que ma
un tar
un ting
un ciar
un tadores
to cables
to cking
Ġm us
Ġm ÃŃa
Ġm era
Ġm Ã¡n
Ġm eras
Ġque mar
Ġque mÃ³
Ġque mÃ¡ndose
an cho
an tum
an illos
ti an
ti embre
ti blemente
ti empo
ti dor
ti Ã©ndose
ti mistas
Ã³ dicas
Ã³ talo
tr aba
tr alizacion
tr onomÃŃa
ad ando
Ġla gunas
in aciÃ³n
in go
in amos
in gu
Ġy Ã¡
Ġy DVD
al ysis
Ġen ra
Ġen ru
Ġun irse
Ġun idireccionales
re cu
re los
re eb
re dientes
Ã³n o
Ã³n icas
Ġel ijo
Ġel ije
Ġd Ã¡n
Ġd om
Ġd ale
Ġn m
Ġn ula
ta bil
ta gmas
Ġv mx
Ġv Ã³talo
ic tivo
ic tica
ic Ã©monos
is imo
Ġcon ecto
Ġcon tando
Ġcon tad
Ġcon torno
Ġcon tÃ³
Ġse arch
mp ra
mp uesto
Ã¡ tu
Ã¡ cil
Ã¡ dicos
Ã¡ ximo
Ġo cios
Ġo iga
Ġo miso
Ġo dia
Ġo mitir
Ġo mega
Ġo uts
Ġo xÃŃgen
ÃŃ metro
Ġin men
Ġin Ãº
Ġin mi
Ġin vi
Ġin tim
Ġin ex
Ġin efici
Ġin visibles
Ġin tocables
do be
do mina
do wn
do mÃ©stico
Ġh T
Ġh igh
Ġco mente
Ġco op
Ġco tiza
Ġco unter
Ġco difique
Ġre mp
Ġre us
Ġre tina
Ġre mite
Ġre versa
Ġre envÃŃ
ien das
Ġf ib
Ġf icha
Ġpro tes
Ġpar ezcan
ec k
ec emos
ec ea
cion ante
cion alizando
Ġt esti
Ġt onales
ab amos
ab ri
ab bel
le za
le van
Ġpor tabilidad
us a
us car
us tez
mo tores
mo tÃ©cnicos
ac tar
ac tas
ac cionales
ac tividad
ac ÃŃfico
Ġno mb
Ġno ven
Ġno tific
Ġno mÃ¡s
Ġno tificaciÃ³n
ue que
ue tu
ue les
Ġb y
Ġb ola
Ġb eta
Ġb abbel
res h
res olu
Ġal as
Ġal qui
Ġal co
Ġal lan
Ġal zar
Ġal ber
men tada
ma triz
mos fÃ©ricas
Ġlo terÃŃa
Ġcu idad
Ġcu br
ces iÃ³n
Ġdel itos
ol it
ol lec
ol ecta
ol anda
ol ingo
Ġme ten
Ġme tricas
di an
di alidad
di bles
di tada
Ġti ramos
Ġti mel
Ġper d
Ġper pen
Ġper mis
tiv en
tiv ismo
Ġg im
Ġg ire
Ġg aus
Ġtr ibu
Ġtr op
Ġtr ecea
Ġtr ueque
Ġten siones
Ġten iÃ©ndonos
bi tal
Ġdi min
Ġdi rÃŃamos
Ġdi astrÃ¡ticas
cu tiblemente
Ġi mi
Ġi mÃ¡
Ġi bas
Ġi leg
Ġi onos
Ġto pe
Ġsu cios
Ġsu pe
Ġsu ena
Ġsu damericana
Ġcomp ile
ĠE A
ĠE ba
ĠE MP
ĠE vitar
Ġser a
Ġser ializaciÃ³n
cia ciones
tes e
tro politan
Ãº e
Ġdes n
Ġdes po
Ġdes ob
den ciar
den cy
gu es
gu dos
da tos
des ventajas
Ġha galo
gr adas
gr antes
Ġac use
Ġac uso
Ġex abytes
Ġex oneran
tar am
tar eas
iv ing
iv ÃŃan
iv isiÃ³n
ues o
ues tro
ues tros
ues tamente
Ġemp laz
aj Ã³n
ton izaciÃ³n
Ġle jana
Ġle vadura
Ġdis k
Ġdis tan
Ġdis juntos
Ġdis orto
Ġdis funciones
Ġdis yun
min entes
Ġor questa
Ġor bital
fic Ã³
Ġob rar
Ġinter me
Ġinter cal
tan d
tan ero
tan dar
Ġ( (
Ġres tas
Ġres tando
Ġres ign
Ġres guar
Ġres ide
Ġap ilar
Ġap uro
Ġesta cion
Ġesta cionar
tu d
tu dio
tur n
mente mos
si gu
si ana
si llo
Ġinf lexible
ĠC arr
ĠC ard
ĠC AM
ĠC IS
ĠC ola
ĠC ÃĵDI
ĠC ASO
ĠC laro
Ġan Ã³n
Ġan gar
Ġan gular
Ġan glos
Ġan onima
ib uyendo
ia ciones
ia ge
ia gudos
Ġdeb ÃŃ
ĠL lam
ĠL EN
ĠL MD
ĠL leva
ĠL IFO
ĠL IKE
Ġman ag
Ġman agement
Ġop tando
Ġop tima
Ġop arin
Ġop timistas
ida ciones
truc tion
Ġva ina
Ġva tio
ĠS ta
ĠS tad
ĠS UP
ĠS pace
ĠS oluciones
ĠS hip
ĠS park
ĠS AI
ĠS GA
ĠS YSTE
ĠS hare
ĠS tocking
ĠS tudio
il ing
tre me
Ġte mo
Ġdeci dido
Ġdeci sivas
Ġma queta
Ġma iling
ce jos
Ġr se
Ġr itu
ĠA I
ĠA M
ĠA Ãºn
ĠA PU
ĠA pi
ĠA TA
ĠA ij
ĠA tenciÃ³n
ĠA mbos
ĠA signaciÃ³n
ĠA EPD
ĠA dobe
Ġperson alizado
dos os
dos Ã©
Ġcom ido
Ġcom ba
Ġcom idas
ĠP o
ĠP os
ĠP are
ĠP uesta
ĠP RI
ĠP ack
ĠP UE
ĠP uls
ĠP eÃ±a
ĠP oder
ĠP oh
ĠP NL
ĠP acÃŃfico
Ġins truir
Ġins cripciÃ³n
Ġcons te
Ġcons uetu
Ġar ance
Ġu tÃ³
Ġver Ã¡s
Ġver los
Ġimp e
Ġimp ut
Ġimp licaciones
Ġimp otencia
Ġcl ub
Ġtrabaj Ã¡bamos
are house
ig entes
til las
Ġhab ÃŃan
Ġsistema tiz
se le
se tte
Ġvari a
Ġvari ando
Ġqu ese
Ġqu antum
ĠD H
ĠD L
ĠD ar
ĠD ada
ĠD ich
ĠD TF
ĠD vd
ĠD ivisiÃ³n
ro yanos
Ġca os
Ġca Ã±Ã³n
Ġca erse
mor fas
po ints
Ġentre guÃ©
Ġrec lam
Ġrec olecta
Ġmen talmente
Ġbas ica
Ġbas icas
Ġbas tado
Ġbas aban
Ġutil itarias
ĠI f
ĠI so
ĠI MA
ĠI mpuesto
Ġgr ueso
mb arse
Ã©s imas
Ġcontr ibuyendo
no mbre
Ġesp esa
Ġdecir se
Ġval erse
ver y
ver isimo
Ġcar os
Ġcar ece
Ġcar gados
Ġcar gas
Ġcar guen
Ġcar dÃŃ
Ġcar Ã¡tu
mi do
Ġmode las
Ġmode lada
Ġmode lamos
der ando
emp resas
Ġas ada
Ġas istentes
Ġas cii
Ġpo ist
Ġpo quil
Ġpre veer
Ġpre domina
el aciÃ³n
Ġgen Ã©ricos
Ġgen eal
Ġtodo d
co gidas
Ġejecu tada
ga toria
Ġpa tas
Ġpa gada
Ġpa use
Ġpa tear
ri ficÃ³
ĠcÃ³ mpra
Ġtra ido
Ġtra fico
Ġtra ÃŃan
Ġtra zar
Ġtra zas
Ġtra zando
Ġpoder las
lic ada
Ġmedi ble
Ġcor pul
Ġcor dialidad
ĠEn trar
ĠEn criptaciÃ³n
Ġcontrol adas
ĠM z
ĠM one
ĠM HZ
ĠM enos
ĠM utex
ĠM oreno
ĠM Ã¡ximo
Ġmo ta
ĠEs cri
ĠEs pe
ĠEs quema
Ġtener la
con exiÃ³n
con cejos
Ġgener amos
Ġgener aba
ier ia
Ġcas as
Ġcas ualidad
Ġcas tigo
Ġcas sette
Ġpas aje
Ġpas iones
TO NCES
Ġsin gle
Ġsin tagmas
Ġsin tonizaciÃ³n
arr y
Ġcos itas
Ġcos tanero
able mente
ĠT rig
ĠT ub
ĠT RES
ĠT MC
Ġinc alcul
Ġcap eta
Ġprim arias
per andos
per ordenadores
Ġrep lica
Ġrep itiendo
Ġrep iten
Ġcre ciendo
Ġprop ici
Ġprop ones
Ġprop icios
Ġdesarrol los
Ġau mente
Ġau ment
ren siÃ³n
ren dimiento
ĠLa ke
urs iva
ĠU C
ĠU SE
ĠU TI
ĠU DMA
log as
Ġopera tividad
tal las
Ġad vers
Ġad jetivo
Ġad rada
Ġad ictivo
Ġbus su
tador a
Ġmejor Ã³
Ġmejor ada
titu tio
Ġele mental
Ġsab ÃŃamos
ĠR D
ĠR ece
ĠR OUN
ĠR UC
ĠR yz
ho ts
Ġsal go
Ġsal ientes
tec ris
Ġsobre valor
Ġsobre escritura
ve dades
Ġing erir
Ġing redientes
Ġrela tivas
Ġpermi tiÃ©ndo
Ġllam Ã¡bamos
me jan
Ġab aste
Ġab ril
Ġab orÃŃgenes
Ġpres te
Ġpres ion
ĠN on
ĠN uev
ĠN uevo
ĠN uestros
par tes
par encia
par ser
par tid
Ġorden arlos
Ġven cidos
Ġven cidas
Ġsen ten
Ġsen tarse
Ġexp oniendo
Ġexp edidas
Ġexp iraciÃ³n
Ġexp ediciÃ³n
Ġequi pro
ĠB ASE
ĠB SON
ĠB INAR
ĠB urn
ĠB ipartito
ĠB arry
ĠIn dica
ĠIn duce
ĠIn iciar
ĠIn versiÃ³n
ĠIn flexible
ven o
ven ciones
ven tud
Ġconcep ciones
ĠmÃ© trico
ĠmÃ© tete
Ġactiv ando
Ġactiv amente
Ġfu gas
Ġfu tbol
ca pa
Ġne g
Ġne ta
Ġne tos
Ġne gados
Ġne motÃ©cnicos
Ġpon cho
Ġpon drÃŃa
Ġpon deraciÃ³n
ĠV I
ĠV ar
ĠV an
ĠV AC
ĠV ienen
ĠV illa
ĠV isiÃ³n
ĠV igentes
Ġcompon er
ĠH oo
ĠH omeomorfos
ĠH osted
ĠH olanda
pon s
En tradas
Ġresul tarÃŃa
Ġqui to
Ġincl ina
Ġincl inamos
Ġfuncion almente
Ġplan tando
Ġplan if
Ġplan tÃ³n
Ġplan tillas
acter ÃŃsticas
du ci
du plex
Ġve le
Ġcan Ã³nicas
ĠÃ© ticas
Ġpe ores
Ġpe gada
Ġpe dimos
Ġsub ida
Ġsub jer
Ġsub ciclos
Ġsub matriz
Ġsub tareas
Ġsub sigu
Ġsub venciones
Ġanaliz ados
Ġanaliz Ã¡ndolo
dr Ã©
Ġcaracter izaciÃ³n
Ġcaracter ictica
Ġespeci alizar
Ġespeci alizada
Ġespeci fique
Ġform arse
Ġform alizar
ĠG B
ĠG HZ
ĠG UI
ĠG arcÃŃa
ĠG abri
Ġide ologÃŃas
Ġsegur as
Ġind ico
Ġsimple db
ĠCon juntos
ĠCon nec
ĠCon tabil
ĠCon cesiÃ³n
Es cogidas
Ġcier ra
tener se
Ġinici Ã³
Ġinici ando
Ġinver tibles
Ġcomple tas
Ġcomple tado
Ġdocu menta
Ġabs tenerse
Ġir los
Ġir resolu
Ġinv oc
Ġapren didas
Ġconoci Ã©ndolo
Ġingres ado
Ġingres ada
Ġfac turaciÃ³n
Ġidentific aban
cios a
Ġescri tor
Ġrealizar los
ĠF X
ĠF et
ĠF amil
ĠF CI
ĠF TP
ĠF ROM
ĠF eed
ĠF link
ĠF ORE
ĠF reeb
Ġcumpl idos
ĠseÃ± ora
ĠseÃ± alizaciÃ³n
man o
man ifes
man tenimiento
ĠSe ga
Ġna tivo
Ġna cimiento
Ġestad ÃŃa
Ġejecutar las
por tal
Ġmedio ambien
Ġsuper aciÃ³n
Ġsuper ando
Ġsuper arnos
Ġsuper puesto
Ġvi era
Ġvi udas
Ġentr antes
Ġentr oncando
ens as
Ġmon tÃ³
Ġmon tecris
Ġpla z
Ġpla zas
Ġpla zos
Ġrelacion as
Ġrelacion aba
Ġcal ificada
[...]
