{
  "version": "1.0",
  "truncation": null,
  "padding": null,
  "added_tokens": [
    {
      "id": 0,
      "content": "<s>",
      "single_word": false,
      "lstrip": false,
      "rstrip": false,
      "normalized": false,
      "special": true
    },
    {
      "id": 1,
      "content": "<pad>",
      "single_word": false,
      "lstrip": false,
      "rstrip": false,
      "normalized": false,
      "special": true
    },
    {
      "id": 2,
      "content": "</s>",
      "single_word": false,
      "lstrip": false,
      "rstrip": false,
      "normalized": false,
      "special": true
    },
    {
      "id": 3,
      "content": "<unk>",
      "single_word": false,
      "lstrip": false,
      "rstrip": false,
      "normalized": false,
      "special": true
    },
    {
      "id": 4,
      "content": "<mask>",
      "single_word": false,
      "lstrip": false,
      "rstrip": false,
      "normalized": false,
      "special": true
    }
  ],
  "normalizer": null,
  "pre_tokenizer": {
    "type": "ByteLevel",
    "add_prefix_space": false,
    "trim_offsets": true,
    "use_regex": true
  },
  "post_processor": {
    "type": "ByteLevel",
    "add_prefix_space": true,
    "trim_offsets": false,
    "use_regex": true
  },
  "decoder": {
    "type": "ByteLevel",
    "add_prefix_space": true,
    "trim_offsets": true,
    "use_regex": true
  },
  "model": {
    "type": "BPE",
    "dropout": null,
    "unk_token": null,
    "continuing_subword_prefix": null,
    "end_of_word_suffix": null,
    "fuse_unk": false,
    "vocab": {
      "<s>": 0,
      "<pad>": 1,
      "</s>": 2,
      "<unk>": 3,
      "<mask>": 4,
      "!": 5,
      "\"": 6,
      "#": 7,
      "$": 8,
      "%": 9,
      "&": 10,
      "'": 11,
      "(": 12,
      ")": 13,
      "*": 14,
      "+": 15,
      ",": 16,
      "-": 17,
      ".": 18,
      "/": 19,
      "0": 20,
      "1": 21,
      "2": 22,
      "3": 23,
      "4": 24,
      "5": 25,
      "6": 26,
      "7": 27,
      "8": 28,
      "9": 29,
      ":": 30,
      ";": 31,
      "<": 32,
      "=": 33,
      ">": 34,
      "?": 35,
      "@": 36,
      "A": 37,
      "B": 38,
      "C": 39,
      "D": 40,
      "E": 41,
      "F": 42,
      "G": 43,
      "H": 44,
      "I": 45,
      "J": 46,
      "K": 47,
      "L": 48,
      "M": 49,
      "N": 50,
      "O": 51,
      "P": 52,
      "Q": 53,
      "R": 54,
      "S": 55,
      "T": 56,
      "U": 57,
      "V": 58,
      "W": 59,
      "X": 60,
      "Y": 61,
      "Z": 62,
      "[": 63,
      "\\": 64,
      "]": 65,
      "^": 66,
      "_": 67,
      "`": 68,
      "a": 69,
      "b": 70,
      "c": 71,
      "d": 72,
      "e": 73,
      "f": 74,
      "g": 75,
      "h": 76,
      "i": 77,
      "j": 78,
      "k": 79,
      "l": 80,
      "m": 81,
      "n": 82,
      "o": 83,
      "p": 84,
      "q": 85,
      "r": 86,
      "s": 87,
      "t": 88,
      "u": 89,
      "v": 90,
      "w": 91,
      "x": 92,
      "y": 93,
      "z": 94,
      "{": 95,
      "|": 96,
      "}": 97,
      "~": 98,
      "¡": 99,
      "¢": 100,
      "£": 101,
      "¤": 102,
      "¥": 103,
      "¦": 104,
      "§": 105,
      "¨": 106,
      "©": 107,
      "ª": 108,
      "«": 109,
      "¬": 110,
      "®": 111,
      "¯": 112,
      "°": 113,
      "±": 114,
      "²": 115,
      "³": 116,
      "´": 117,
      "µ": 118,
      "¶": 119,
      "·": 120,
      "¸": 121,
      "¹": 122,
      "º": 123,
      "»": 124,
      "¼": 125,
      "½": 126,
      "¾": 127,
      "¿": 128,
      "À": 129,
      "Á": 130,
      "Â": 131,
      "Ã": 132,
      "Ä": 133,
      "Å": 134,
      "Æ": 135,
      "Ç": 136,
      "È": 137,
      "É": 138,
      "Ê": 139,
      "Ë": 140,
      "Ì": 141,
      "Í": 142,
      "Î": 143,
      "Ï": 144,
      "Ð": 145,
      "Ñ": 146,
      "Ò": 147,
      "Ó": 148,
      "Ô": 149,
      "Õ": 150,
      "Ö": 151,
      "×": 152,
      "Ø": 153,
      "Ù": 154,
      "Ú": 155,
      "Û": 156,
      "Ü": 157,
      "Ý": 158,
      "Þ": 159,
      "ß": 160,
      "à": 161,
      "á": 162,
      "â": 163,
      "ã": 164,
      "ä": 165,
      "å": 166,
      "æ": 167,
      "ç": 168,
      "è": 169,
      "é": 170,
      "ê": 171,
      "ë": 172,
      "ì": 173,
      "í": 174,
      "î": 175,
      "ï": 176,
      "ð": 177,
      "ñ": 178,
      "ò": 179,
      "ó": 180,
      "ô": 181,
      "õ": 182,
      "ö": 183,
      "÷": 184,
      "ø": 185,
      "ù": 186,
      "ú": 187,
      "û": 188,
      "ü": 189,
      "ý": 190,
      "þ": 191,
      "ÿ": 192,
      "Ā": 193,
      "ā": 194,
      "Ă": 195,
      "ă": 196,
      "Ą": 197,
      "ą": 198,
      "Ć": 199,
      "ć": 200,
      "Ĉ": 201,
      "ĉ": 202,
      "Ċ": 203,
      "ċ": 204,
      "Č": 205,
      "č": 206,
      "Ď": 207,
      "ď": 208,
      "Đ": 209,
      "đ": 210,
      "Ē": 211,
      "ē": 212,
      "Ĕ": 213,
      "ĕ": 214,
      "Ė": 215,
      "ė": 216,
      "Ę": 217,
      "ę": 218,
      "Ě": 219,
      "ě": 220,
      "Ĝ": 221,
      "ĝ": 222,
      "Ğ": 223,
      "ğ": 224,
      "Ġ": 225,
      "ġ": 226,
      "Ģ": 227,
      "ģ": 228,
      "Ĥ": 229,
      "ĥ": 230,
      "Ħ": 231,
      "ħ": 232,
      "Ĩ": 233,
      "ĩ": 234,
      "Ī": 235,
      "ī": 236,
      "Ĭ": 237,
      "ĭ": 238,
      "Į": 239,
      "į": 240,
      "İ": 241,
      "ı": 242,
      "Ĳ": 243,
      "ĳ": 244,
      "Ĵ": 245,
      "ĵ": 246,
      "Ķ": 247,
      "ķ": 248,
      "ĸ": 249,
      "Ĺ": 250,
      "ĺ": 251,
      "Ļ": 252,
      "ļ": 253,
      "Ľ": 254,
      "ľ": 255,
      "Ŀ": 256,
      "ŀ": 257,
      "Ł": 258,
      "ł": 259,
      "Ń": 260,
      "Ġe": 261,
      "de": 262,
      "Ġde": 263,
      "os": 264,
      "Ġl": 265,
      "en": 266,
      "Ġp": 267,
      "Ġc": 268,
      "Ġs": 269,
      "er": 270,
      "ci": 271,
      "Ġa": 272,
      "es": 273,
      "on": 274,
      "ar": 275,
      "qu": 276,
      "or": 277,
      "as": 278,
      "Ġes": 279,
      "te": 280,
      "que": 281,
      "un": 282,
      "to": 283,
      "Ġm": 284,
      "Ġque": 285,
      "an": 286,
      "ti": 287,
      "Ã³": 288,
      "tr": 289,
      "ad": 290,
      "Ġla": 291,
      "in": 292,
      "Ġy": 293,
      "al": 294,
      "Ġen": 295,
      "Ġun": 296,
      "re": 297,
      "Ã³n": 298,
      "Ġel": 299,
      "Ġd": 300,
      "Ġn": 301,
      "ciÃ³n": 302,
      "ta": 303,
      "Ġv": 304,
      "čĊ": 305,
      "ic": 306,
      "is": 307,
      "Ġcon": 308,
      "Ġse": 309,
      "mp": 310,
      "Ã¡": 311,
      "Ġo": 312,
      "ÃŃ": 313,
      "Ġpr": 314,
      "Ġin": 315,
      "do": 316,
      "am": 317,
      "Ġh": 318,
      "Ġco": 319,
      "Ġlos": 320,
      "Ġre": 321,
      "Ã©": 322,
      "aciÃ³n": 323,
      "ien": 324,
      "Ġf": 325,
      "Ġpro": 326,
      "tos": 327,
      "Ġpar": 328,
      "xto": 329,
      "ec": 330,
      "cion": 331,
      "Ġuna": 332,
      "texto": 333,
      "id": 334,
      "Ġt": 335,
      "lo": 336,
      "ab": 337,
      "Ġlas": 338,
      "le": 339,
      "Ġpor": 340,
      "us": 341,
      "mo": 342,
      "ac": 343,
      "Ġno": 344,
      "Ġpara": 345,
      "ue": 346,
      "iz": 347,
      "Ġb": 348,
      "res": 349,
      "ter": 350,
      "Ġal": 351,
      "men": 352,
      "ma": 353,
      "Ġsi": 354,
      "mos": 355,
      "Ġlo": 356,
      "Ġcu": 357,
      "ces": 358,
      "Ġest": 359,
      "Ġdel": 360,
      "ol": 361,
      "ur": 362,
      "Ġme": 363,
      "di": 364,
      "Ġti": 365,
      "Ġper": 366,
      "ado": 367,
      "ciones": 368,
      "tiv": 369,
      "uc": 370,
      "Ġg": 371,
      "Ġtr": 372,
      "Ġten": 373,
      "je": 374,
      "bi": 375,
      "Ġdi": 376,
      "cu": 377,
      "Ġi": 378,
      "Ġto": 379,
      "ando": 380,
      "go": 381,
      "idad": 382,
      "Ġsu": 383,
      "ari": 384,
      "Ġcomp": 385,
      "Ġcomo": 386,
      "tic": 387,
      "ĠE": 388,
      "ada": 389,
      "Ġpue": 390,
      "ica": 391,
      "Ġser": 392,
      "Ġda": 393,
      "cia": 394,
      "Ġus": 395,
      "la": 396,
      "ador": 397,
      "tes": 398,
      "tro": 399,
      "ÃŃa": 400,
      "orm": 401,
      "Ġson": 402,
      "ten": 403,
      "Ãº": 404,
      "emos": 405,
      "amos": 406,
      "Ġdes": 407,
      "ode": 408,
      "den": 409,
      "ente": 410,
      "Ã¡s": 411,
      "Ġ1": 412,
      "Ġtien": 413,
      "gu": 414,
      "iste": 415,
      "qui": 416,
      "da": 417,
      "Ġdatos": 418,
      "des": 419,
      "era": 420,
      "Ġso": 421,
      "Ġha": 422,
      "gr": 423,
      "Ã±": 424,
      "ales": 425,
      "Ġac": 426,
      "Ġex": 427,
      "ĠestÃ¡": 428,
      "iento": 429,
      "tar": 430,
      "im": 431,
      "ir": 432,
      "Ġta": 433,
      "Ġhac": 434,
      "iv": 435,
      "ues": 436,
      "Ġemp": 437,
      "aj": 438,
      "ton": 439,
      "Ġle": 440,
      "tra": 441,
      "Ã©n": 442,
      "Ġdis": 443,
      "min": 444,
      "tor": 445,
      "tonces": 446,
      "Ġor": 447,
      "ados": 448,
      "Ġya": 449,
      "fic": 450,
      "Ġnos": 451,
      "Ġob": 452,
      "ici": 453,
      "tros": 454,
      "Ġinter": 455,
      "tan": 456,
      "Ġproces": 457,
      "Ġ(": 458,
      "Ġres": 459,
      "aliz": 460,
      "Ġap": 461,
      "rec": 462,
      "Ġesta": 463,
      "tu": 464,
      "tur": 465,
      "mente": 466,
      "Ġsiste": 467,
      "si": 468,
      "Ġinf": 469,
      "ĠC": 470,
      "Ġan": 471,
      "ul": 472,
      "ĠmÃ¡s": 473,
      "ib": 474,
      "ia": 475,
      "Ġdeb": 476,
      "Ġtiene": 477,
      "Ġyo": 478,
      "ĠL": 479,
      "Ġman": 480,
      "Ġop": 481,
      "ida": 482,
      "dad": 483,
      "truc": 484,
      "biÃ©n": 485,
      "ero": 486,
      "Ġva": 487,
      "ĠS": 488,
      "Ġeste": 489,
      "il": 490,
      "tre": 491,
      "tas": 492,
      "Ġpuede": 493,
      "Ġte": 494,
      "Ġdeci": 495,
      "Ġma": 496,
      "ce": 497,
      "Ġr": 498,
      "son": 499,
      "Ġtam": 500,
      "Ġuste": 501,
      "ĠA": 502,
      "eren": 503,
      "Ġinform": 504,
      "Ġperson": 505,
      "ĠtambiÃ©n": 506,
      "dos": 507,
      "Ġpero": 508,
      "Ġcom": 509,
      "les": 510,
      "amente": 511,
      "Ġempres": 512,
      "Ġpode": 513,
      "Ġporque": 514,
      "gram": 515,
      "ĠP": 516,
      "jemp": 517,
      "Ġtenemos": 518,
      "Ġins": 519,
      "eces": 520,
      "Ġentonces": 521,
      "Ġcons": 522,
      "Ġar": 523,
      "Ġtrab": 524,
      "Ġu": 525,
      "Ġver": 526,
      "Ġimp": 527,
      "Ġcl": 528,
      "Â¿": 529,
      "Ġtrabaj": 530,
      "jemplo": 531,
      "are": 532,
      "Ġ2": 533,
      "ig": 534,
      "til": 535,
      "Ġhacer": 536,
      "los": 537,
      "Ġhab": 538,
      "Ġsistema": 539,
      "Ġcuando": 540,
      "ra": 541,
      "se": 542,
      "orma": 543,
      "Ġeso": 544,
      "Ġejemplo": 545,
      "Ġvari": 546,
      "Ġhay": 547,
      "Ġqu": 548,
      "gan": 549,
      "ÃŃs": 550,
      "ĠD": 551,
      "ro": 552,
      "Ġca": 553,
      "Ġfun": 554,
      "tivo": 555,
      "ĠinformaciÃ³n": 556,
      "io": 557,
      "Ġ3": 558,
      "mor": 559,
      "duc": 560,
      "pos": 561,
      "Ġmis": 562,
      "po": 563,
      "Ġentre": 564,
      "Ġrec": 565,
      "it": 566,
      "ĠÂ¿": 567,
      "mas": 568,
      "Ġah": 569,
      "Ġej": 570,
      "tura": 571,
      "enta": 572,
      "Ġdic": 573,
      "Ġmen": 574,
      "Ġbas": 575,
      "Ġutil": 576,
      "ecu": 577,
      "gun": 578,
      "ĠI": 579,
      "Ġgr": 580,
      "feren": 581,
      "mb": 582,
      "Ġmi": 583,
      "tica": 584,
      "Ã©s": 585,
      "Ġcontr": 586,
      "tivos": 587,
      "Ġprogram": 588,
      "ble": 589,
      "no": 590,
      "Ġcada": 591,
      "quÃŃ": 592,
      "ores": 593,
      "Ġesp": 594,
      "Ġdecir": 595,
      "oy": 596,
      "Ġ5": 597,
      "Ġneces": 598,
      "Ġval": 599,
      "otros": 600,
      "Ġ4": 601,
      "ver": 602,
      "ico": 603,
      "ware": 604,
      "Ġreg": 605,
      "Ġcar": 606,
      "mi": 607,
      "Ġmode": 608,
      "der": 609,
      "emp": 610,
      "iÃ³n": 611,
      "Ġas": 612,
      "Ġnosotros": 613,
      "ans": 614,
      "Ġpo": 615,
      "Ġmemor": 616,
      "Ġutiliz": 617,
      "Ġvamos": 618,
      "amiento": 619,
      "Ġpre": 620,
      "Ġempresa": 621,
      "uch": 622,
      "el": 623,
      "Ġtrans": 624,
      "Ġgen": 625,
      "ez": 626,
      "almente": 627,
      "Ġfin": 628,
      "Ġobje": 629,
      "Ġtodo": 630,
      "gn": 631,
      "lar": 632,
      "Ġesto": 633,
      "co": 634,
      "Ġejecu": 635,
      "ga": 636,
      "ante": 637,
      "Ġsus": 638,
      "Ġpa": 639,
      "Ġorgan": 640,
      "Ġusted": 641,
      "Ġinstruc": 642,
      "ĠaquÃŃ": 643,
      "ora": 644,
      "ri": 645,
      "ĠcÃ³": 646,
      "Ġtra": 647,
      "mento": 648,
      "Ġpoder": 649,
      "Ġmemoria": 650,
      "lic": 651,
      "Ġesa": 652,
      "Ġmedi": 653,
      "Ġcor": 654,
      "ĠEn": 655,
      "Ġ6": 656,
      "um": 657,
      "Ġcontrol": 658,
      "unto": 659,
      "adas": 660,
      "ario": 661,
      "TE": 662,
      "ĠM": 663,
      "onde": 664,
      "idades": 665,
      "Ġmo": 666,
      "ĠEs": 667,
      "uy": 668,
      "Ġforma": 669,
      "Ġproduc": 670,
      "Ġmuch": 671,
      "iente": 672,
      "Ġsol": 673,
      "Ġtener": 674,
      "ticas": 675,
      "Ġdebe": 676,
      "con": 677,
      "Ġ8": 678,
      "cip": 679,
      "ft": 680,
      "Ġgener": 681,
      "Ġ9": 682,
      "Ġproceso": 683,
      "ier": 684,
      "Ġcas": 685,
      "Ġese": 686,
      "Ġcual": 687,
      "Ġj": 688,
      "Ġorganiz": 689,
      "Ġdirec": 690,
      "Ġparte": 691,
      "encia": 692,
      "Ġdiferen": 693,
      "ĠestÃ¡n": 694,
      "Ġpas": 695,
      "TO": 696,
      "Ã±o": 697,
      "ntro": 698,
      "Ġsin": 699,
      "ftware": 700,
      "aje": 701,
      "arr": 702,
      "Ġcos": 703,
      "able": 704,
      "ĠT": 705,
      "gar": 706,
      "Ġinc": 707,
      "fica": 708,
      "na": 709,
      "Ãºn": 710,
      "quier": 711,
      "ĠquÃ©": 712,
      "Ġcap": 713,
      "Ġprim": 714,
      "per": 715,
      "Ġ7": 716,
      "Ġdice": 717,
      "arrol": 718,
      "Ġmanera": 719,
      "Ġdos": 720,
      "Ġcomun": 721,
      "Ã¡l": 722,
      "Ġrep": 723,
      "Ġpos": 724,
      "Ġcam": 725,
      "tiva": 726,
      "miento": 727,
      "ones": 728,
      "Ġimpor": 729,
      "ido": 730,
      "Ġdonde": 731,
      "Ġcre": 732,
      "Ġniv": 733,
      "Ġtodos": 734,
      "Ġdentro": 735,
      "Ã¡n": 736,
      "Ġserv": 737,
      "das": 738,
      "laciÃ³n": 739,
      "Qu": 740,
      "Ġprop": 741,
      "Ġlle": 742,
      "Ġmej": 743,
      "Ġdesarrol": 744,
      "ÃŃn": 745,
      "Ġ10": 746,
      "Ġvoy": 747,
      "Ġesc": 748,
      "Ġnues": 749,
      "taciÃ³n": 750,
      "iendo": 751,
      "Ġrealiz": 752,
      "adores": 753,
      "Ġsob": 754,
      "tir": 755,
      "Ġbien": 756,
      "cio": 757,
      "Ġresp": 758,
      "Ġau": 759,
      "uen": 760,
      "Ġsoftware": 761,
      "Ġcono": 762,
      "fin": 763,
      "ific": 764,
      "XTO": 765,
      "TEXTO": 766,
      "ren": 767,
      "tras": 768,
      "Ġtengo": 769,
      "ĠLa": 770,
      "ientos": 771,
      "QuÃ©": 772,
      "las": 773,
      "Ġuno": 774,
      "incip": 775,
      "tante": 776,
      "urs": 777,
      "ĠU": 778,
      "log": 779,
      "Ġcompu": 780,
      "Ġopera": 781,
      "cional": 782,
      "Ġtipo": 783,
      "tal": 784,
      "vi": 785,
      "Ġregis": 786,
      "Ġprincip": 787,
      "mentos": 788,
      "aciones": 789,
      "Ġad": 790,
      "lam": 791,
      "Ġpersonas": 792,
      "ĠEl": 793,
      "cial": 794,
      "cep": 795,
      "lan": 796,
      "ĠnÃº": 797,
      "termin": 798,
      "Ġbus": 799,
      "Ġproble": 800,
      "tador": 801,
      "cias": 802,
      "ecto": 803,
      "Ġmejor": 804,
      "Ġpueden": 805,
      "titu": 806,
      "Ġele": 807,
      "Ġusu": 808,
      "uego": 809,
      "pen": 810,
      "tin": 811,
      "Ġclas": 812,
      "Ġsab": 813,
      "Ġestos": 814,
      "ĠR": 815,
      "Ġsea": 816,
      "Ġnivel": 817,
      "ho": 818,
      "Ġcambi": 819,
      "Ġservici": 820,
      "Ġsal": 821,
      "Ġvan": 822,
      "Ġtienen": 823,
      "dar": 824,
      "Ã©r": 825,
      "tec": 826,
      "Ġdetermin": 827,
      "Ġseg": 828,
      "Ġotro": 829,
      "Ġsobre": 830,
      "tico": 831,
      "Ġtrabajo": 832,
      "Ġustedes": 833,
      "Ġbase": 834,
      "Ġdefin": 835,
      "Ġcic": 836,
      "ve": 837,
      "Ġred": 838,
      "om": 839,
      "Ġing": 840,
      "Ġrela": 841,
      "fici": 842,
      "lec": 843,
      "Ġpermi": 844,
      "esti": 845,
      "Ġcaso": 846,
      "mac": 847,
      "Ġsign": 848,
      "Ġllam": 849,
      "me": 850,
      "Ġdo": 851,
      "Ġalmac": 852,
      "icaciones": 853,
      "arios": 854,
      "Ġmay": 855,
      "Ġrecurs": 856,
      "Ġrequ": 857,
      "ita": 858,
      "Ġab": 859,
      "Ġtiemp": 860,
      "Ġpres": 861,
      "Ġtan": 862,
      "ĠN": 863,
      "ĠahÃŃ": 864,
      "par": 865,
      "entes": 866,
      "Ġbuen": 867,
      "Ġorden": 868,
      "siÃ³n": 869,
      "Ġpersona": 870,
      "Ġvis": 871,
      "ĠO": 872,
      "Ġlen": 873,
      "Ġestruc": 874,
      "minis": 875,
      "Ġalgun": 876,
      "Ġluego": 877,
      "vis": 878,
      "Ġaplic": 879,
      "Ġvalor": 880,
      "icas": 881,
      "Ġsistemas": 882,
      "Ġalmacen": 883,
      "Ġven": 884,
      "icos": 885,
      "Ġsen": 886,
      "Ġexp": 887,
      "erc": 888,
      "Ġprograma": 889,
      "Ġproy": 890,
      "tidad": 891,
      "alidad": 892,
      "Ġhace": 893,
      "Ġtiempo": 894,
      "Ġlengu": 895,
      "Ġcomunic": 896,
      "ĠnÃºm": 897,
      "Ġvez": 898,
      "mpl": 899,
      "tado": 900,
      "ĠinstrucciÃ³n": 901,
      "Ġderec": 902,
      "ables": 903,
      "Ġmismo": 904,
      "Ġmodelo": 905,
      "cil": 906,
      "Ġdise": 907,
      "Ġmayor": 908,
      "mple": 909,
      "Ġcomputador": 910,
      "Ġciclo": 911,
      "Ġunidad": 912,
      "bil": 913,
      "Ġequi": 914,
      "Ġalgo": 915,
      "ibu": 916,
      "Ġmues": 917,
      "jo": 918,
      "tien": 919,
      "posi": 920,
      "Ġconj": 921,
      "udi": 922,
      "tores": 923,
      "gual": 924,
      "Ġinte": 925,
      "Ġotra": 926,
      "Ġpodemos": 927,
      "Ġespe": 928,
      "Ġmuy": 929,
      "ĠB": 930,
      "Ã³g": 931,
      "logÃŃa": 932,
      "alab": 933,
      "ĠIn": 934,
      "Ġgran": 935,
      "ven": 936,
      "asta": 937,
      "Ġahora": 938,
      "lig": 939,
      "Ġconcep": 940,
      "cuen": 941,
      "ĠasÃŃ": 942,
      "Ġrecursos": 943,
      "eros": 944,
      "Ġoper": 945,
      "ĠmÃ©": 946,
      "tribu": 947,
      "Ġactiv": 948,
      "Ġestado": 949,
      "Ġtec": 950,
      "ĠÃ¡": 951,
      "Ġimportante": 952,
      "Ġfu": 953,
      "Ġrepres": 954,
      "Ġadminis": 955,
      "ca": 956,
      "isis": 957,
      "Ġne": 958,
      "digo": 959,
      "cuer": 960,
      "Ġdesde": 961,
      "za": 962,
      "Ġpon": 963,
      "Ġay": 964,
      "isten": 965,
      "Ã¡c": 966,
      "Ġhabl": 967,
      "Ġesos": 968,
      "Ġpuedo": 969,
      "ior": 970,
      "mÃ¡": 971,
      "ĠV": 972,
      "ĠEntonces": 973,
      "ÃŃas": 974,
      "Ã¡lisis": 975,
      "tific": 976,
      "Ġcompon": 977,
      "Ġprocesos": 978,
      "val": 979,
      "Ġnorm": 980,
      "Ġconjunto": 981,
      "Ġhasta": 982,
      "ĠH": 983,
      "Ġpalab": 984,
      "pon": 985,
      "En": 986,
      "ientes": 987,
      "Ġcuenta": 988,
      "imiento": 989,
      "trar": 990,
      "Ġresul": 991,
      "ifica": 992,
      "Ġayu": 993,
      "Ġestas": 994,
      "Ġrequer": 995,
      "Ġqui": 996,
      "Ġincl": 997,
      "Ġestar": 998,
      "Ġecon": 999,
      "car": 1000,
      "Ġfuncion": 1001,
      "Ġsolu": 1002,
      "fec": 1003,
      "Ġplan": 1004,
      "ĠcomunicaciÃ³n": 1005,
      "acter": 1006,
      "ch": 1007,
      "du": 1008,
      "Ġve": 1009,
      "Ġcan": 1010,
      "uev": 1011,
      "Ġigual": 1012,
      "ĠcÃ³mo": 1013,
      "ĠÃ©": 1014,
      "ĠcÃ³digo": 1015,
      "ĠsÃŃ": 1016,
      "Ġfinan": 1017,
      "Ġinstrucciones": 1018,
      "Ġdiferentes": 1019,
      "Ġpe": 1020,
      "Ġdepen": 1021,
      "acciÃ³n": 1022,
      "Ġnuev": 1023,
      "ĠanÃ¡lisis": 1024,
      "ĠorganizaciÃ³n": 1025,
      "Ġdisposi": 1026,
      "abil": 1027,
      "),": 1028,
      "ito": 1029,
      "Ġsub": 1030,
      "Ġotros": 1031,
      "Ġref": 1032,
      "Ġdesarrollo": 1033,
      "Ġlenguaje": 1034,
      "Ġcapa": 1035,
      "Ã©c": 1036,
      "Ġanaliz": 1037,
      "Ġiden": 1038,
      "Ġtom": 1039,
      "ĠdirecciÃ³n": 1040,
      "Ġconf": 1041,
      "00": 1042,
      "Ġvariable": 1043,
      "tamente": 1044,
      "dr": 1045,
      "quitec": 1046,
      "Ġcaracter": 1047,
      "tados": 1048,
      "Ġsigu": 1049,
      "Ġtodas": 1050,
      "Ġconstitu": 1051,
      "Ġespeci": 1052,
      "bilidad": 1053,
      "ios": 1054,
      "ĠrelaciÃ³n": 1055,
      "Ġform": 1056,
      "err": 1057,
      "ĠG": 1058,
      "Ġmens": 1059,
      "Ġproblema": 1060,
      "endo": 1061,
      "Ġtipos": 1062,
      "Ġempresas": 1063,
      "Ġide": 1064,
      "Ġsegur": 1065,
      "ina": 1066,
      "ÃŃsticas": 1067,
      "dan": 1068,
      "Ġtrav": 1069,
      "ea": 1070,
      "Ġesas": 1071,
      "Ġind": 1072,
      "Ġproyecto": 1073,
      "ara": 1074,
      "ĠmÃ¡": 1075,
      "dades": 1076,
      "cidad": 1077,
      "ĠlÃŃn": 1078,
      "Ġveces": 1079,
      "Ġsimple": 1080,
      "ĠtravÃ©s": 1081,
      "quiere": 1082,
      "Ġmatr": 1083,
      "ĠmÃ©to": 1084,
      "Ġestudi": 1085,
      "ĠCon": 1086,
      "Es": 1087,
      "ĠY": 1088,
      "Ġestamos": 1089,
      "Ġellos": 1090,
      "Ġdeben": 1091,
      "lti": 1092,
      "Ãºlti": 1093,
      "ĠLos": 1094,
      "Ġcier": 1095,
      "tivas": 1096,
      "Ġfinanci": 1097,
      "Ġtanto": 1098,
      "ing": 1099,
      "tener": 1100,
      "Ġelementos": 1101,
      "Ġinici": 1102,
      "Ġtecno": 1103,
      "siones": 1104,
      "imientos": 1105,
      "Ġer": 1106,
      "Ġinver": 1107,
      "ĠPor": 1108,
      "Ġvalores": 1109,
      "iciÃ³n": 1110,
      "nos": 1111,
      "ĠnÃºmero": 1112,
      "Ġley": 1113,
      "Ġsegun": 1114,
      "Ġcomple": 1115,
      "Ġdocu": 1116,
      "alizaciÃ³n": 1117,
      "empre": 1118,
      "Ġsignifica": 1119,
      "Ġabs": 1120,
      "Ã©cn": 1121,
      "ĠfunciÃ³n": 1122,
      "Ġusuario": 1123,
      "Ġuso": 1124,
      "Ġlib": 1125,
      "arse": 1126,
      "ÃŃstica": 1127,
      "Ġet": 1128,
      "vid": 1129,
      "Ġsiempre": 1130,
      "Ġir": 1131,
      "Ġapl": 1132,
      "mbre": 1133,
      "ie": 1134,
      "mis": 1135,
      "Ġpol": 1136,
      "Ġinv": 1137,
      "Ġbueno": 1138,
      "Ġapren": 1139,
      "up": 1140,
      "uesto": 1141,
      "Ġvariables": 1142,
      "ĠejecuciÃ³n": 1143,
      "Ġcosas": 1144,
      "Ġarquitec": 1145,
      "uman": 1146,
      "Ġconoci": 1147,
      "ĠdiseÃ±o": 1148,
      "ĠÃ³": 1149,
      "Ġtab": 1150,
      "Ġingres": 1151,
      "Ġpunto": 1152,
      "Ġfac": 1153,
      "Ġalg": 1154,
      "Ġhan": 1155,
      "Ã±os": 1156,
      "Ġservicios": 1157,
      "ĠtÃ©cn": 1158,
      "Ġllev": 1159,
      "Ġconta": 1160,
      "Ġetc": 1161,
      "izaciÃ³n": 1162,
      "Ġidentific": 1163,
      "Ġemple": 1164,
      "ĠbÃ¡s": 1165,
      "Ġtoda": 1166,
      "Ġcen": 1167,
      "cios": 1168,
      "ĠÃ¡re": 1169,
      "cri": 1170,
      "Ġescri": 1171,
      "Ġrealizar": 1172,
      "ĠF": 1173,
      "Ġcumpl": 1174,
      "Ġgeneral": 1175,
      "ĠseÃ±": 1176,
      "Ġoperaciones": 1177,
      "ista": 1178,
      "man": 1179,
      "Ġecu": 1180,
      "Ġade": 1181,
      "Ġtrabajar": 1182,
      "ĠSe": 1183,
      "Ġpob": 1184,
      "fer": 1185,
      "Ġintegr": 1186,
      "Ġcomponentes": 1187,
      "ha": 1188,
      "Ġconsi": 1189,
      "cuencia": 1190,
      "Ġmomento": 1191,
      "ĠUn": 1192,
      "Ġestructura": 1193,
      "?,": 1194,
      "cir": 1195,
      "Ġmerc": 1196,
      "Ġhuman": 1197,
      "Ġdesp": 1198,
      "Ġproce": 1199,
      "Ġles": 1200,
      "erv": 1201,
      "Ġna": 1202,
      "ja": 1203,
      "Ġestad": 1204,
      "erram": 1205,
      "idos": 1206,
      "Ġregistro": 1207,
      "erramien": 1208,
      "Ġotras": 1209,
      "Ġcien": 1210,
      "ĠsÃ³": 1211,
      "Ġmane": 1212,
      "Ġdia": 1213,
      "Ġcontra": 1214,
      "tancia": 1215,
      "Ġmenos": 1216,
      "Ġrequerimientos": 1217,
      "ĠlÃ³g": 1218,
      "Ġobjetivo": 1219,
      "Ġejecutar": 1220,
      "Ġparti": 1221,
      "Ġsino": 1222,
      "Ġacuer": 1223,
      "Ġvien": 1224,
      "Ġtare": 1225,
      "abilidad": 1226,
      "Ġdin": 1227,
      "ĠaplicaciÃ³n": 1228,
      "antes": 1229,
      "Ġoblig": 1230,
      "Ġnuestro": 1231,
      "Ġpermite": 1232,
      "Ġservicio": 1233,
      "por": 1234,
      "Ġmun": 1235,
      "Ġprocesador": 1236,
      "Ġmedio": 1237,
      "Ġsuper": 1238,
      "Ġtal": 1239,
      "ias": 1240,
      "mientos": 1241,
      "ÃŃamos": 1242,
      "ible": 1243,
      "Ġvi": 1244,
      "Ġmucho": 1245,
      "Ġencuen": 1246,
      "Ġcondi": 1247,
      "Ġalguna": 1248,
      "Ġmediante": 1249,
      "ĠpolÃŃ": 1250,
      "xi": 1251,
      "Ġherramien": 1252,
      "Ġnego": 1253,
      "Ġentr": 1254,
      "uel": 1255,
      "Te": 1256,
      "Ġcliente": 1257,
      "Ġcantidad": 1258,
      "Ġseguridad": 1259,
      "Ġerr": 1260,
      "ens": 1261,
      "mul": 1262,
      "quel": 1263,
      "Ġrealmente": 1264,
      "Ġprimero": 1265,
      "Ġclase": 1266,
      "lado": 1267,
      "ciendo": 1268,
      "Ġelec": 1269,
      "ĠtecnologÃŃa": 1270,
      "Ġnuestra": 1271,
      "Ġcualquier": 1272,
      "Ġmon": 1273,
      "Ġabstr": 1274,
      "Ġpla": 1275,
      "Cu": 1276,
      "ba": 1277,
      "Ġaquel": 1278,
      "Ġmatriz": 1279,
      "ĠÃºlti": 1280,
      "Ġdur": 1281,
      "ticos": 1282,
      "Ġrelacion": 1283,
      "ĠÃ©l": 1284,
      "PU": 1285,
      "bir": 1286,
      "Ġexisten": 1287,
      "El": 1288,
      "Ġ=": 1289,
      "Ġcal": 1290,
      "Ġdar": 1291,
      "cular": 1292,
      "Ġnormas": 1293,
      "Texto": 1294,
      "tiene": 1295,
      "Ġprocedi": 1296,
      "tiz": 1297,
      "Ġsaber": 1298,
      "Ġ-": 1299,
      "tido": 1300,
      "Ġutilizar": 1301,
      "Ġmuestra": 1302,
      "Ġdispositivos": 1303,
      "ĠsÃ³lo": 1304,
      "itos": 1305,
      "ivos": 1306,
      "hos": 1307,
      "Ġsoci": 1308,
      "Ġmuchas": 1309,
      "Ġpalabra": 1310,
      "rar": 1311,
      "Ġarquitectura": 1312,
      "ĠpoblaciÃ³n": 1313,
      "Ġasi": 1314,
      "ĠmÃ¡qu": 1315,
      "ceso": 1316,
      "Ġadministr": 1317,
      "Ġactu": 1318,
      "Ġvida": 1319,
      "viamente": 1320,
      "Ġusuarios": 1321,
      "eb": 1322,
      "lemen": 1323,
      "Ġacuerdo": 1324,
      "et": 1325,
      "aria": 1326,
      "Ġimplemen": 1327,
      "Ġhaber": 1328,
      "Ġproblemas": 1329,
      "omÃŃa": 1330,
      "orta": 1331,
      "Ġdiagram": 1332,
      "Ġaplicaciones": 1333,
      "ros": 1334,
      "Ġfi": 1335,
      "Ġmensaje": 1336,
      "Ġatribu": 1337,
      "ital": 1338,
      "Ġhablamos": 1339,
      "Ġobjetos": 1340,
      "Ġderecho": 1341,
      "dific": 1342,
      "Ġexper": 1343,
      "Ġnecesita": 1344,
      "amen": 1345,
      "ĠCPU": 1346,
      "Ġllama": 1347,
      "Ġconcepto": 1348,
      "Ġsolo": 1349,
      "Ġhacia": 1350,
      "Ġexiste": 1351,
      "estiÃ³n": 1352,
      "iones": 1353,
      "Ġgru": 1354,
      "sa": 1355,
      "ulti": 1356,
      "Ġ100": 1357,
      "pe": 1358,
      "Ġdec": 1359,
      "olu": 1360,
      "fico": 1361,
      "zo": 1362,
      "Ġgu": 1363,
      "Ġcol": 1364,
      "ĠsoluciÃ³n": 1365,
      "fes": 1366,
      "Ġtres": 1367,
      "Ġrepresenta": 1368,
      "din": 1369,
      "lu": 1370,
      "Ġquiere": 1371,
      "Ġmic": 1372,
      "Ġprimer": 1373,
      "teg": 1374,
      "Ġbaj": 1375,
      "Ãºs": 1376,
      "Ġdistin": 1377,
      "idas": 1378,
      "az": 1379,
      "ard": 1380,
      "Ġder": 1381,
      "Ġactividades": 1382,
      "can": 1383,
      "form": 1384,
      "Ã³m": 1385,
      "Ġfal": 1386,
      "ientras": 1387,
      "ferencia": 1388,
      "Ġestructur": 1389,
      "ĠcaracterÃŃsticas": 1390,
      "Ġcur": 1391,
      "ator": 1392,
      "Ġfas": 1393,
      "ĠÃ¡rea": 1394,
      "Ġeval": 1395,
      "Ġconc": 1396,
      "Ġinteres": 1397,
      "pa": 1398,
      "Ġarch": 1399,
      "Ġproducto": 1400,
      "Ġderiv": 1401,
      "ras": 1402,
      "Ġter": 1403,
      "La": 1404,
      "pro": 1405,
      "Ġtama": 1406,
      "Ġestoy": 1407,
      "crip": 1408,
      "AR": 1409,
      "gen": 1410,
      "oci": 1411,
      "Ġcompren": 1412,
      "Ã©rmin": 1413,
      "Ġpues": 1414,
      "ĠtÃ©rmin": 1415,
      "Ġw": 1416,
      "Ġconten": 1417,
      "Ġrelaciones": 1418,
      "ĠlÃŃnea": 1419,
      "cionales": 1420,
      "Ġsegundo": 1421,
      "ĠprÃ¡c": 1422,
      "diendo": 1423,
      "Ġnorma": 1424,
      "Ġverdad": 1425,
      "ine": 1426,
      "Ġjur": 1427,
      "Ġdeterminar": 1428,
      "mÃ¡s": 1429,
      "Ġindi": 1430,
      "Ġmater": 1431,
      "Ġanalizar": 1432,
      "mÃ©": 1433,
      "Ġobviamente": 1434,
      "Ġpeque": 1435,
      "Ġsiguiente": 1436,
      "Ġasign": 1437,
      "Ġ/": 1438,
      "Ġpodr": 1439,
      "Ġmuchos": 1440,
      "Ġcompar": 1441,
      "Ġdecisiones": 1442,
      "Ġespa": 1443,
      "Ġexpres": 1444,
      "bier": 1445,
      "ectos": 1446,
      "Ġcompe": 1447,
      "Ġcomporta": 1448,
      "fo": 1449,
      "ĠLas": 1450,
      "Ġren": 1451,
      "Ġmisma": 1452,
      "ĠtamaÃ±o": 1453,
      "tando": 1454,
      "Ġcr": 1455,
      "Ġmin": 1456,
      "Ġpartir": 1457,
      "Ġincre": 1458,
      "Ġlec": 1459,
      "Ġregistros": 1460,
      "Ġcambio": 1461,
      "Por": 1462,
      "Ġtomar": 1463,
      "Ġespec": 1464,
      "cer": 1465,
      "Ġefec": 1466,
      "Ġfa": 1467,
      "Ġobjeto": 1468,
      "Ġprincipal": 1469,
      "omun": 1470,
      "erci": 1471,
      "Ġpropor": 1472,
      "Ġmercado": 1473,
      "ĠmÃ³": 1474,
      "Ġ11": 1475,
      "Ġproductos": 1476,
      "Ġcorrec": 1477,
      "Ġtareas": 1478,
      "op": 1479,
      "ons": 1480,
      "tÃŃ": 1481,
      "ĠaÃ±os": 1482,
      "Ġmientras": 1483,
      "Ġfre": 1484,
      "Ġcomputadora": 1485,
      "Ġinvesti": 1486,
      "jar": 1487,
      "Ġprodu": 1488,
      "ĠlÃ³gica": 1489,
      "ed": 1490,
      "edad": 1491,
      "ud": 1492,
      "Ġmulti": 1493,
      "Ġquer": 1494,
      "ĠprogramaciÃ³n": 1495,
      "ÃŃd": 1496,
      "dencia": 1497,
      "Ġfunciones": 1498,
      "ĠjurÃŃd": 1499,
      "ĠÃºn": 1500,
      "Ġincluy": 1501,
      "Ġconec": 1502,
      "Ġutiliza": 1503,
      "Ġprecio": 1504,
      "ĠeconÃ³m": 1505,
      "ÃŃan": 1506,
      "olver": 1507,
      "Ġacceso": 1508,
      "tantes": 1509,
      "ificaciÃ³n": 1510,
      "Ġrepresen": 1511,
      "Ġhemos": 1512,
      "Ġfinal": 1513,
      "gos": 1514,
      "ual": 1515,
      "orit": 1516,
      "tric": 1517,
      "ĠconstituciÃ³n": 1518,
      "ĠmÃ¡quina": 1519,
      "Ġmas": 1520,
      "tidades": 1521,
      "Ġinde": 1522,
      "terior": 1523,
      "Ġtenga": 1524,
      "Ġtransmi": 1525,
      "Ġevalu": 1526,
      "Ġni": 1527,
      "guir": 1528,
      "Ġoc": 1529,
      "terna": 1530,
      "Ġingen": 1531,
      "Ġsignific": 1532,
      "Ġinterna": 1533,
      "Ġmar": 1534,
      "Ġreci": 1535,
      "gaciÃ³n": 1536,
      "Ġentidad": 1537,
      "Ġhec": 1538,
      "Ġmenor": 1539,
      "Ġobjetivos": 1540,
      "ĠRe": 1541,
      "ĠeconomÃŃa": 1542,
      "Ġdinero": 1543,
      "Ġdeno": 1544,
      "ers": 1545,
      "Ġviene": 1546,
      "Ġnombre": 1547,
      "Ġestab": 1548,
      "Ġsolamente": 1549,
      "Ġcrear": 1550,
      "va": 1551,
      "Ġpi": 1552,
      "Ġsitu": 1553,
      "Ġcuen": 1554,
      "Ġfund": 1555,
      "imos": 1556,
      "ĠdÃŃa": 1557,
      "Ġpaso": 1558,
      "ĠoperaciÃ³n": 1559,
      "Ġherramientas": 1560,
      "Ġcomportamiento": 1561,
      "Ġresultado": 1562,
      "ĠadministraciÃ³n": 1563,
      "Ġatributos": 1564,
      "omunicaciones": 1565,
      "Ġoperativo": 1566,
      "Ġfactores": 1567,
      "Ġcentr": 1568,
      "rib": 1569,
      "ĠfÃŃs": 1570,
      "Ġtelec": 1571,
      "ĠpaÃŃs": 1572,
      "Ġauto": 1573,
      "Ġestra": 1574,
      "aba": 1575,
      "Ġclases": 1576,
      "Ġsencil": 1577,
      "Ġindivid": 1578,
      "Ġnum": 1579,
      "Ã¡les": 1580,
      "ivo": 1581,
      "Ġpersonal": 1582,
      "Ġ20": 1583,
      "Ġposi": 1584,
      "Ġequipo": 1585,
      "Ġobtener": 1586,
      "Ġ0": 1587,
      "itmÃ©": 1588,
      "eza": 1589,
      "Ġponer": 1590,
      "Ġalgorit": 1591,
      "Ġconsider": 1592,
      "dic": 1593,
      "cionar": 1594,
      "Ġdisc": 1595,
      "vers": 1596,
      "Ġllegar": 1597,
      "unque": 1598,
      "Ġprofes": 1599,
      "Ġ[": 1600,
      "Ġhacen": 1601,
      "Ġclar": 1602,
      "Ġmal": 1603,
      "Ġcorres": 1604,
      "Ġalmacenamiento": 1605,
      "Ġpun": 1606,
      "tim": 1607,
      "BR": 1608,
      "ĠCo": 1609,
      "acional": 1610,
      "Ġencon": 1611,
      "Ġflu": 1612,
      "Ġsir": 1613,
      "ĠaritmÃ©": 1614,
      "ĠproducciÃ³n": 1615,
      "ĠmÃ©todos": 1616,
      "Ġcapacidad": 1617,
      "ĠcondiciÃ³n": 1618,
      "Ġcalidad": 1619,
      "Ġencar": 1620,
      "ĠmÃ©todo": 1621,
      "Ġentrada": 1622,
      "ajes": 1623,
      "Ġpoco": 1624,
      "medi": 1625,
      "fac": 1626,
      "uer": 1627,
      "Ġfue": 1628,
      "Ġdebemos": 1629,
      "Ġderechos": 1630,
      "Ġtabla": 1631,
      "hora": 1632,
      "lante": 1633,
      "ĠgrÃ¡": 1634,
      "Ġgrandes": 1635,
      "eas": 1636,
      "Ġho": 1637,
      "ĠestÃ¡ndar": 1638,
      "Ġquiero": 1639,
      "Ġvelo": 1640,
      "diente": 1641,
      "Ġsecuencia": 1642,
      "Ã¡p": 1643,
      "ibles": 1644,
      "bo": 1645,
      "Ġcuan": 1646,
      "Ġtelecomunicaciones": 1647,
      "izar": 1648,
      "Ġhaciendo": 1649,
      "Ġbienes": 1650,
      "Ġprocedimientos": 1651,
      "Ġaudi": 1652,
      "ĠnÃºmeros": 1653,
      "proces": 1654,
      "ĠdecisiÃ³n": 1655,
      "Ġmate": 1656,
      "Ġcuentas": 1657,
      "ugar": 1658,
      "Ġdeman": 1659,
      "Ġ19": 1660,
      "Ġrestric": 1661,
      "Ġcomb": 1662,
      "ĠespecÃŃ": 1663,
      "ĠgestiÃ³n": 1664,
      "Ġprimera": 1665,
      "Ġrealiza": 1666,
      "Ġarchivos": 1667,
      "Ġestablec": 1668,
      "og": 1669,
      "Ġnada": 1670,
      "Ġcontiene": 1671,
      "Ġregu": 1672,
      "Ġproto": 1673,
      "ticamente": 1674,
      "Ġfundamen": 1675,
      "uÃ©s": 1676,
      "Ġsa": 1677,
      "Ġag": 1678,
      "Ġtoma": 1679,
      "ĠCu": 1680,
      "visiÃ³n": 1681,
      "ĠecuaciÃ³n": 1682,
      "ex": 1683,
      "tera": 1684,
      "Ġresultados": 1685,
      "gue": 1686,
      "ĠDE": 1687,
      "Ġpalabras": 1688,
      "Ġdenomin": 1689,
      "Ġdescrip": 1690,
      "Ġvarios": 1691,
      "Ãºsque": 1692,
      "gur": 1693,
      "Ġpens": 1694,
      "Ġenten": 1695,
      "Ġrespons": 1696,
      "Ġmicro": 1697,
      "eles": 1698,
      "istas": 1699,
      "ĠÃºltimo": 1700,
      "Ġera": 1701,
      "Ġsepar": 1702,
      "Ġindividu": 1703,
      "ĠmatemÃ¡": 1704,
      "Ġtu": 1705,
      "Ġgra": 1706,
      "culo": 1707,
      "tencia": 1708,
      "Ġprocesamiento": 1709,
      "ĠrÃ¡p": 1710,
      "ĠtÃ©cnicas": 1711,
      "Ġsociedad": 1712,
      "Ġtexto": 1713,
      "Ġconocimiento": 1714,
      "tales": 1715,
      "Ġsec": 1716,
      "Ã©sta": 1717,
      "Ġelemento": 1718,
      "Ġgrupo": 1719,
      "Ġlectura": 1720,
      "ion": 1721,
      "tad": 1722,
      "ĠacÃ¡": 1723,
      "Ġleg": 1724,
      "Ġdeber": 1725,
      "Ġclientes": 1726,
      "ĠUna": 1727,
      "esta": 1728,
      "mentar": 1729,
      "Ġpasa": 1730,
      "Ġnatur": 1731,
      "pre": 1732,
      "ular": 1733,
      "Ġmundo": 1734,
      "ardware": 1735,
      "argo": 1736,
      "ĠinformÃ¡": 1737,
      "Ġmuestre": 1738,
      "Ġidea": 1739,
      "Ã³mo": 1740,
      "Ġfr": 1741,
      "its": 1742,
      "Ġrespe": 1743,
      "ĠestadÃŃstica": 1744,
      "Ġindepen": 1745,
      "lus": 1746,
      "Ġdistribu": 1747,
      "Ġtema": 1748,
      "Ġideas": 1749,
      "Ġprue": 1750,
      "ĠinterÃ©s": 1751,
      "Ġdirecciones": 1752,
      "ĠW": 1753,
      "tran": 1754,
      "Ġof": 1755,
      "Ġhoy": 1756,
      "Ġcop": 1757,
      "Ġro": 1758,
      "igur": 1759,
      "Ġsalida": 1760,
      "ĠsegÃºn": 1761,
      "Ġpresen": 1762,
      "ĠdiseÃ±": 1763,
      "Ġactividad": 1764,
      "Ġale": 1765,
      "Ġ12": 1766,
      "Ġdesarrollar": 1767,
      "Ġayuda": 1768,
      "Ġsimplemente": 1769,
      "Ġcab": 1770,
      "Ġentidades": 1771,
      "Ġcompil": 1772,
      "Ġtrata": 1773,
      "ĠdespuÃ©s": 1774,
      "icamente": 1775,
      "ON": 1776,
      "ya": 1777,
      "Ġalterna": 1778,
      "ivers": 1779,
      "Ġmanten": 1780,
      "Ġdiferencia": 1781,
      "Ġcombin": 1782,
      "ĠbÃºsque": 1783,
      "Ġproducir": 1784,
      "EN": 1785,
      "Ġredes": 1786,
      "Ġpueda": 1787,
      "Ġhablar": 1788,
      "Ġvarias": 1789,
      "Ġmodelos": 1790,
      "Ġlugar": 1791,
      "Ġcapital": 1792,
      "Ġprincipio": 1793,
      "Ġdiagrama": 1794,
      "Ġmuestreo": 1795,
      "aÃ±": 1796,
      "reg": 1797,
      "mentaciÃ³n": 1798,
      "ĠseÃ±al": 1799,
      "IC": 1800,
      "cal": 1801,
      "Ġefici": 1802,
      "AN": 1803,
      "Ã³r": 1804,
      "menta": 1805,
      "ĠAn": 1806,
      "erencia": 1807,
      "ĠDe": 1808,
      "Ġaprender": 1809,
      "ĠsÃ©": 1810,
      "Ġ16": 1811,
      "Ġanal": 1812,
      "ĠpolÃŃticas": 1813,
      "Los": 1814,
      "Ġprob": 1815,
      "Ãºb": 1816,
      "Ġsentido": 1817,
      "Ġespacio": 1818,
      "gamos": 1819,
      "abor": 1820,
      "Ġdispon": 1821,
      "Ġprogramas": 1822,
      "ĠposiciÃ³n": 1823,
      "Ġfuer": 1824,
      "efici": 1825,
      "Ġpan": 1826,
      "ambiÃ©n": 1827,
      "ĠPro": 1828,
      "Ġjer": 1829,
      "Ġespecific": 1830,
      "net": 1831,
      "Ġmor": 1832,
      "olÃ³g": 1833,
      "Ġtransmis": 1834,
      "Ġindic": 1835,
      "cle": 1836,
      "zar": 1837,
      "dimiento": 1838,
      "Ġgo": 1839,
      "arias": 1840,
      "Ġorig": 1841,
      "Ġdicen": 1842,
      "Ġutilizan": 1843,
      "Ġdefinir": 1844,
      "Ġcentral": 1845,
      "AC": 1846,
      "istemas": 1847,
      "AM": 1848,
      "Ġ+": 1849,
      "Ġcir": 1850,
      "Ġlogr": 1851,
      "Ġopciones": 1852,
      "Ġ30": 1853,
      "Ġrecor": 1854,
      "Ġejerci": 1855,
      "Ġorganizaciones": 1856,
      "rig": 1857,
      "Ġsimul": 1858,
      "Ġdigo": 1859,
      "irtu": 1860,
      "Ġposible": 1861,
      "Ġniveles": 1862,
      "Ġunos": 1863,
      "Ġhi": 1864,
      "iencia": 1865,
      "Ġtemp": 1866,
      "tinu": 1867,
      "Ġconfi": 1868,
      "if": 1869,
      "Ġaunque": 1870,
      "Ġrecuer": 1871,
      "Ġantes": 1872,
      "logÃŃas": 1873,
      "Ġllevar": 1874,
      "Ġfase": 1875,
      "Ġsignificado": 1876,
      "Ġrestricciones": 1877,
      "Ġeta": 1878,
      "Ġli": 1879,
      "Ġpagar": 1880,
      "iere": 1881,
      "QL": 1882,
      "xtos": 1883,
      "aran": 1884,
      "enemos": 1885,
      "eran": 1886,
      "olos": 1887,
      "Ġorganizacional": 1888,
      "Ġnecesito": 1889,
      "Ġbits": 1890,
      "Ġempez": 1891,
      "Ġejecuta": 1892,
      "Ġinclus": 1893,
      "ĠlÃŃneas": 1894,
      "Ġvelocidad": 1895,
      "emb": 1896,
      "Ġvista": 1897,
      "Ġfuncionamiento": 1898,
      "Ġescribir": 1899,
      "Ġabstrac": 1900,
      "Ġlista": 1901,
      "ĠfÃ¡": 1902,
      "Ġtermin": 1903,
      "be": 1904,
      "tÃ¡n": 1905,
      "ĠserÃ¡": 1906,
      "Ġdato": 1907,
      "Ġweb": 1908,
      "Ġhecho": 1909,
      "OS": 1910,
      "Ġaten": 1911,
      "Ġban": 1912,
      "Ġsup": 1913,
      "ĠPara": 1914,
      "Ġsoluciones": 1915,
      "Ġrefle": 1916,
      "Ġleyes": 1917,
      "ula": 1918,
      "Ġata": 1919,
      "Ġamb": 1920,
      "Ġ18": 1921,
      "Ġpermiten": 1922,
      "Ġbajo": 1923,
      "Ġingenier": 1924,
      "Ġnatural": 1925,
      "Ġventa": 1926,
      "Ġ15": 1927,
      "Ġreglas": 1928,
      "ĠbÃºsqueda": 1929,
      "bles": 1930,
      "ÃŃo": 1931,
      "torno": 1932,
      "Ġasoci": 1933,
      "Ġnegocio": 1934,
      "Ġaleator": 1935,
      "Ġima": 1936,
      "ĠinteracciÃ³n": 1937,
      "Ġconocer": 1938,
      "Ġrequis": 1939,
      "Ġplazo": 1940,
      "Ġgobier": 1941,
      "Ġline": 1942,
      "ĠpÃºb": 1943,
      "todo": 1944,
      "anza": 1945,
      "ĠSi": 1946,
      "Ġprincipios": 1947,
      "Ġequipos": 1948,
      "ĠCuando": 1949,
      "tada": 1950,
      "Ġdepende": 1951,
      "Ġinicio": 1952,
      "Ġparticular": 1953,
      "CÃ³mo": 1954,
      "Ġalto": 1955,
      "Ġsuma": 1956,
      "Ġexter": 1957,
      "Ġcorr": 1958,
      "Ġintelig": 1959,
      "Ġerrores": 1960,
      "Ġfacil": 1961,
      "IN": 1962,
      "eo": 1963,
      "Ġcamin": 1964,
      "ĠalgÃºn": 1965,
      "Ġerror": 1966,
      "Ġunivers": 1967,
      "Ġgas": 1968,
      "Ġcosa": 1969,
      "Ġhablando": 1970,
      "ĠtÃ©cnica": 1971,
      "uir": 1972,
      "Ġch": 1973,
      "ono": 1974,
      "ana": 1975,
      "ĠcuÃ¡n": 1976,
      "ĠcomÃºn": 1977,
      "Ġconceptos": 1978,
      "Ã¡cter": 1979,
      "Ġdispositivo": 1980,
      "Ġidentificar": 1981,
      "lica": 1982,
      "Ġcuales": 1983,
      "uesta": 1984,
      "Ġmodelado": 1985,
      "Ġpasos": 1986,
      "Ġdurante": 1987,
      "AS": 1988,
      "Ġon": 1989,
      "Ġpregun": 1990,
      "Ġjus": 1991,
      "Entonces": 1992,
      "br": 1993,
      "Ġgaran": 1994,
      "ĠcompaÃ±": 1995,
      "Ġresolver": 1996,
      "Ġanterior": 1997,
      "ĠcarÃ¡cter": 1998,
      "Ġrespecto": 1999,
      "ĠabstracciÃ³n": 2000,
      "Ġfrecuencia": 2001,
      "procesador": 2002,
      "tis": 2003,
      "Ġdan": 2004,
      "ĠAhora": 2005,
      "Ġdependiendo": 2006,
      "Ġcambiar": 2007,
      "Ġsiguientes": 2008,
      "Ġindica": 2009,
      "Ġsem": 2010,
      "Ġrevis": 2011,
      "Ġdivers": 2012,
      "Ġcomprar": 2013,
      "Ġalmacenar": 2014,
      "Ġempleados": 2015,
      "Ġrendimiento": 2016,
      "Ġflujo": 2017,
      "ĠaritmÃ©tica": 2018,
      "imin": 2019,
      "Ġnuevo": 2020,
      "ĠademÃ¡s": 2021,
      "cen": 2022,
      "ciales": 2023,
      "Ġencu": 2024,
      "Ġ40": 2025,
      "oluciÃ³n": 2026,
      "Ġmateria": 2027,
      "Ġocur": 2028,
      "Ġauditor": 2029,
      "RE": 2030,
      "Ġdeu": 2031,
      "Ġmir": 2032,
      "Ġpartes": 2033,
      "Ġmed": 2034,
      "ĠEcu": 2035,
      "guien": 2036,
      "Ġcambios": 2037,
      "ĠtÃ©rminos": 2038,
      "ĠsituaciÃ³n": 2039,
      "mer": 2040,
      "Ġconv": 2041,
      "Ġvisto": 2042,
      "Ġalgunos": 2043,
      "Ġcontenido": 2044,
      "Ġmultip": 2045,
      "ima": 2046,
      "dera": 2047,
      "Ġblo": 2048,
      "Ġ50": 2049,
      "Ġcasos": 2050,
      "Ġnegocios": 2051,
      "Ġafec": 2052,
      "ĠmÃŃn": 2053,
      "ismo": 2054,
      "Ġseguir": 2055,
      "Ġdirig": 2056,
      "ducciÃ³n": 2057,
      "Ġnecesidad": 2058,
      "Ġimportancia": 2059,
      "ĠNo": 2060,
      "Ġciertas": 2061,
      "Ġclaro": 2062,
      "Ġrequisitos": 2063,
      "Ã³nde": 2064,
      "Ġdifer": 2065,
      "Ã±a": 2066,
      "Ġnecesi": 2067,
      "Ġtratar": 2068,
      "Ġayudar": 2069,
      "Ġfunciona": 2070,
      "Ġcontabilidad": 2071,
      "ep": 2072,
      "Ġhe": 2073,
      "Ġdebo": 2074,
      "Ġcosto": 2075,
      "ĠnÃºcle": 2076,
      "Ġciencia": 2077,
      "Ġexperiencia": 2078,
      "PI": 2079,
      "bas": 2080,
      "Ġinven": 2081,
      "Ġcamp": 2082,
      "AD": 2083,
      "Ġreal": 2084,
      "Ġalguien": 2085,
      "sea": 2086,
      "Ġtransac": 2087,
      "Ġpatr": 2088,
      "ĠsÃŃmb": 2089,
      "Ġx": 2090,
      "Ġvec": 2091,
      "Ġsocial": 2092,
      "Ġinterac": 2093,
      "iles": 2094,
      "Ġconstr": 2095,
      "Ġconsum": 2096,
      "Ġarti": 2097,
      "Ġbases": 2098,
      "Ġmejorar": 2099,
      "AL": 2100,
      "Ġobs": 2101,
      "ĠopciÃ³n": 2102,
      "Ġasp": 2103,
      "Ġdiferencial": 2104,
      "metros": 2105,
      "jas": 2106,
      "ice": 2107,
      "Ã¡m": 2108,
      "Ġpron": 2109,
      "Ġorien": 2110,
      "Ġinicial": 2111,
      "Ġproporcion": 2112,
      "ĠtransmisiÃ³n": 2113,
      "vo": 2114,
      "ĠacciÃ³n": 2115,
      "Ġquien": 2116,
      "Ġnecesario": 2117,
      "Ġfutur": 2118,
      "Ġvemos": 2119,
      "alizar": 2120,
      "Ġcomien": 2121,
      "Ġsubs": 2122,
      "Ġaquellos": 2123,
      "Ġsatis": 2124,
      "Ġdepar": 2125,
      "Ġmec": 2126,
      "Ġsupon": 2127,
      "Ġconsul": 2128,
      "Ġcumplir": 2129,
      "Ġcurs": 2130,
      "Ġdeparta": 2131,
      "van": 2132,
      "Ġlado": 2133,
      "Ġtotal": 2134,
      "ĠserÃŃa": 2135,
      "Ġprincipales": 2136,
      "Ġaplicar": 2137,
      "Ġdocumento": 2138,
      "Ġsopor": 2139,
      "Ġmiemb": 2140,
      "Ġnuestros": 2141,
      "Ġsaben": 2142,
      "Ġinversa": 2143,
      "Ġdemanda": 2144,
      "Ġinstitu": 2145,
      "Ġcumplimiento": 2146,
      "Ġofrec": 2147,
      "asa": 2148,
      "Ġprove": 2149,
      "tero": 2150,
      "ĠcuÃ¡l": 2151,
      "Ġconoce": 2152,
      "Ġdomin": 2153,
      "Ġestudio": 2154,
      "Ġencuesta": 2155,
      "Ġamor": 2156,
      "Ġentorno": 2157,
      "Ġapar": 2158,
      "Ġtrabaja": 2159,
      "Ġadministra": 2160,
      "Ġencontrar": 2161,
      "lamiento": 2162,
      "ach": 2163,
      "ĠestÃ©": 2164,
      "Ġestados": 2165,
      "ĠSo": 2166,
      "Ġcorrespon": 2167,
      "Ġmantenimiento": 2168,
      "OR": 2169,
      "ĠdÃ³nde": 2170,
      "Ã¡r": 2171,
      "Ġraz": 2172,
      "Ġdicho": 2173,
      "Ġfuente": 2174,
      "demos": 2175,
      "Ġsirve": 2176,
      "ĠlÃ©": 2177,
      "Ġmodo": 2178,
      "ĠseÃ±ales": 2179,
      "ĠlÃ©x": 2180,
      "Las": 2181,
      "Ġtienes": 2182,
      "Ġapro": 2183,
      "Ġhacerlo": 2184,
      "Ġ64": 2185,
      "Ġencuentran": 2186,
      "Ġintereses": 2187,
      "Ġampl": 2188,
      "Ġrequiere": 2189,
      "Ġtendr": 2190,
      "Ġutilizando": 2191,
      "Ġautor": 2192,
      "Ġoperativos": 2193,
      "ficial": 2194,
      "Ġentender": 2195,
      "Ġinvent": 2196,
      "Ã¼": 2197,
      "Ġinterpre": 2198,
      "Ġalgunas": 2199,
      "Ġproyectos": 2200,
      "Ġello": 2201,
      "torio": 2202,
      "ĠvisiÃ³n": 2203,
      "uelve": 2204,
      "ĠfÃ¡cil": 2205,
      "nas": 2206,
      "Ġactivos": 2207,
      "Ġargu": 2208,
      "Ġpasar": 2209,
      "Ġencuentra": 2210,
      "Ġelectr": 2211,
      "Ġejercicio": 2212,
      "Se": 2213,
      "ay": 2214,
      "Ġsac": 2215,
      "Ġunidades": 2216,
      "Ġreferencia": 2217,
      "ece": 2218,
      "Ġgus": 2219,
      "Ġdivid": 2220,
      "ĠmÃ¡xi": 2221,
      "Ġsupuesto": 2222,
      "Ġinteligencia": 2223,
      "Ġdiferente": 2224,
      "udo": 2225,
      "enefici": 2226,
      "Ġci": 2227,
      "Ġenvi": 2228,
      "Ġella": 2229,
      "Ġselec": 2230,
      "ĠdecÃŃa": 2231,
      "ĠinvestigaciÃ³n": 2232,
      "Ġcabo": 2233,
      "Ġobserv": 2234,
      "ip": 2235,
      "ies": 2236,
      "ial": 2237,
      "Ġdeco": 2238,
      "ĠvÃ©r": 2239,
      "Ġhago": 2240,
      "ĠÃ³r": 2241,
      "Ġalta": 2242,
      "ĠInter": 2243,
      "Ġtempor": 2244,
      "ĠEcuador": 2245,
      "Ġcla": 2246,
      "Ġcontinu": 2247,
      "Ġescal": 2248,
      "Ġfinanciero": 2249,
      "Ġhumanos": 2250,
      "Ġartificial": 2251,
      "Ġvirtu": 2252,
      "segur": 2253,
      "Ġservid": 2254,
      "Ġdesarroll": 2255,
      "tizar": 2256,
      "):": 2257,
      "jos": 2258,
      "uto": 2259,
      "erente": 2260,
      "ĠprÃ©sta": 2261,
      "Ġlocal": 2262,
      "Ġperio": 2263,
      "tividad": 2264,
      "bido": 2265,
      "tual": 2266,
      "ĠMBR": 2267,
      "Ġsolici": 2268,
      "Ġciertos": 2269,
      "Ġfinancieros": 2270,
      "ĠautomÃ¡": 2271,
      "ama": 2272,
      "Ġmetodo": 2273,
      "ill": 2274,
      "ĠSoftware": 2275,
      "cam": 2276,
      "lÃŃ": 2277,
      "Ġdimen": 2278,
      "ĠPero": 2279,
      "Ġcostos": 2280,
      "ĠTambiÃ©n": 2281,
      "Ġalgoritmo": 2282,
      "Ġimag": 2283,
      "Ġciu": 2284,
      "ort": 2285,
      "Ġsean": 2286,
      "Ġbenefici": 2287,
      "Ġcul": 2288,
      "Ġcompr": 2289,
      "Ġredu": 2290,
      "Ġparticip": 2291,
      "ĠobligaciÃ³n": 2292,
      "gado": 2293,
      "pas": 2294,
      "ĠJ": 2295,
      "Ġdetal": 2296,
      "ĠcÃ¡l": 2297,
      "Ġacu": 2298,
      "tel": 2299,
      "ano": 2300,
      "Ġcob": 2301,
      "Ġmantener": 2302,
      "Ġoptim": 2303,
      "ĠAl": 2304,
      "Ġgenerar": 2305,
      "ĠOr": 2306,
      "Ġlibro": 2307,
      "bol": 2308,
      "Ġofer": 2309,
      "Ġsola": 2310,
      "Ġliber": 2311,
      "Ġrepresentar": 2312,
      "Ġalternativas": 2313,
      "Ġuniversidad": 2314,
      "mula": 2315,
      "ĠX": 2316,
      "Ġje": 2317,
      "Ġfuncional": 2318,
      "Ġcarr": 2319,
      "Ġhumano": 2320,
      "Ġciudad": 2321,
      "Para": 2322,
      "iar": 2323,
      "Ġiz": 2324,
      "Ġlim": 2325,
      "inas": 2326,
      "Ġcontexto": 2327,
      "Ġintro": 2328,
      "Ġrecep": 2329,
      "Ġtextos": 2330,
      "ĠDa": 2331,
      "licaciÃ³n": 2332,
      "ificar": 2333,
      "ingÃ¼": 2334,
      "Ġcolum": 2335,
      "ĠtÃ©rmino": 2336,
      "ĠjurÃŃdico": 2337,
      "ĠComo": 2338,
      "Ġizquier": 2339,
      "ded": 2340,
      "Ġnodo": 2341,
      "dir": 2342,
      "Ġ14": 2343,
      "Ġcomer": 2344,
      "Ġ25": 2345,
      "ĠRAM": 2346,
      "ĠquiÃ©n": 2347,
      "ĠpolÃŃtica": 2348,
      "Ġderivada": 2349,
      "Ġfuturo": 2350,
      "rup": 2351,
      "Ġhardware": 2352,
      "Ġalcan": 2353,
      "Ġru": 2354,
      "Ġconsiste": 2355,
      "000": 2356,
      "ĠÃ³sea": 2357,
      "Ġlograr": 2358,
      "dial": 2359,
      "Ġdif": 2360,
      "Ġacep": 2361,
      "Ġexten": 2362,
      "Ġestable": 2363,
      "Ġra": 2364,
      "Ġ21": 2365,
      "Ġ60": 2366,
      "ĠÃ³p": 2367,
      "Ġvienen": 2368,
      "tizaciÃ³n": 2369,
      "ĠimplementaciÃ³n": 2370,
      "tÃ³n": 2371,
      "yo": 2372,
      "oso": 2373,
      "Ġenfo": 2374,
      "Ġgan": 2375,
      "ĠDes": 2376,
      "Ġtransform": 2377,
      "ĠdefiniciÃ³n": 2378,
      "ĠbÃ¡sicos": 2379,
      "Ġobligaciones": 2380,
      "ĠgrÃ¡fico": 2381,
      "Ġempezar": 2382,
      "ĠÃ©s": 2383,
      "Ġellas": 2384,
      "dido": 2385,
      "ĠSI": 2386,
      "Ġinstancia": 2387,
      "Ġ22": 2388,
      "Ġcualita": 2389,
      "Ġpresenta": 2390,
      "Ġrefiere": 2391,
      "forma": 2392,
      "Ġlargo": 2393,
      "eron": 2394,
      "tita": 2395,
      "Ġviv": 2396,
      "Ġpuedan": 2397,
      "Ġrad": 2398,
      "Ġcomunicaciones": 2399,
      "Ġmecan": 2400,
      "gis": 2401,
      "imo": 2402,
      "Ġher": 2403,
      "Ġhor": 2404,
      "Ġgente": 2405,
      "Ġ13": 2406,
      "Ġacciones": 2407,
      "Ġhabla": 2408,
      "Ġ32": 2409,
      "Ġbasa": 2410,
      "mbres": 2411,
      "ĠEste": 2412,
      "ĠTenemos": 2413,
      "ĠPorque": 2414,
      "Ġcircu": 2415,
      "OM": 2416,
      "iero": 2417,
      "Ġnodos": 2418,
      "Ġperten": 2419,
      "Ġdig": 2420,
      "Ġserie": 2421,
      "Ġbuses": 2422,
      "CuÃ¡l": 2423,
      "Ġguar": 2424,
      "Ġevaluar": 2425,
      "Ġprofesion": 2426,
      "Ġincluso": 2427,
      "ortun": 2428,
      "fecto": 2429,
      "Ġterc": 2430,
      "Ġacce": 2431,
      "Ġ28": 2432,
      "Ġnecesidades": 2433,
      "Ġescuch": 2434,
      "Ġnuevas": 2435,
      "Ġmensajes": 2436,
      "Ġjerar": 2437,
      "Ġagr": 2438,
      "Ġfab": 2439,
      "Ġcorto": 2440,
      "Ġpropio": 2441,
      "Ġsegunda": 2442,
      "Ġlleva": 2443,
      "CuÃ¡les": 2444,
      "Ġestructuras": 2445,
      "Ġcurva": 2446,
      "Ġqueremos": 2447,
      "Ġencarga": 2448,
      "ĠestÃ¡ndares": 2449,
      "ĠingenierÃŃa": 2450,
      "DD": 2451,
      "ĠlingÃ¼": 2452,
      "Ġpes": 2453,
      "terio": 2454,
      "jemplos": 2455,
      "Ġahor": 2456,
      "Ġbastante": 2457,
      "Ġcarpe": 2458,
      "Ġsabemos": 2459,
      "ĠfÃŃsica": 2460,
      "Ġmicroprocesador": 2461,
      "ĠelectrÃ³n": 2462,
      "Ġoferta": 2463,
      "zas": 2464,
      "Ġviendo": 2465,
      "Ġmismos": 2466,
      "Ġcalcular": 2467,
      "ĠlÃŃ": 2468,
      "Ġtasa": 2469,
      "Ġcua": 2470,
      "Ġapoy": 2471,
      "Ġtele": 2472,
      "Ġ23": 2473,
      "uye": 2474,
      "Ġpose": 2475,
      "Ġsoberan": 2476,
      "Ġeficiente": 2477,
      "lac": 2478,
      "Ġpuer": 2479,
      "ordin": 2480,
      "untos": 2481,
      "Ġbin": 2482,
      "tivamente": 2483,
      "Ġcompro": 2484,
      "tencias": 2485,
      "gra": 2486,
      "Ġoportun": 2487,
      "Ġvay": 2488,
      "Ġ48": 2489,
      "Ġmedios": 2490,
      "Ġmucha": 2491,
      "Ġju": 2492,
      "Ġcrea": 2493,
      "Ġescrib": 2494,
      "Ġmundial": 2495,
      "SI": 2496,
      "iÃ³": 2497,
      "ts": 2498,
      "ĠaÃ±o": 2499,
      "ĠdÃ©": 2500,
      "Ġcolo": 2501,
      "Ġrealidad": 2502,
      "cul": 2503,
      "Ġdisco": 2504,
      "Ġtrabajando": 2505,
      "Ġ27": 2506,
      "Ġcontrolar": 2507,
      "Ġregistrar": 2508,
      "Ġmanejar": 2509,
      "Ġbloque": 2510,
      "cambi": 2511,
      "Ġconduc": 2512,
      "ĠEx": 2513,
      "sito": 2514,
      "ĠSon": 2515,
      "Ġ37": 2516,
      "Ġ80": 2517,
      "Ġcomponente": 2518,
      "Ġherramienta": 2519,
      "ĠÃºnico": 2520,
      "Ġpruebas": 2521,
      "Ġgobierno": 2522,
      "ĠlÃ©xico": 2523,
      "diz": 2524,
      "tÃ©": 2525,
      "ĠmÃŃ": 2526,
      "alan": 2527,
      "Ġhu": 2528,
      "lex": 2529,
      "ĠdivisiÃ³n": 2530,
      "Ġactivo": 2531,
      "aja": 2532,
      "Ġ29": 2533,
      "Ġpreci": 2534,
      "ĠMe": 2535,
      "Ġciclos": 2536,
      "Ġgrande": 2537,
      "ĠpodrÃŃa": 2538,
      "Ġcopia": 2539,
      "cr": 2540,
      "lio": 2541,
      "mar": 2542,
      "pi": 2543,
      "ĠQ": 2544,
      "Ġemis": 2545,
      "ense": 2546,
      "Ġasegur": 2547,
      "Ġdado": 2548,
      "Ġfon": 2549,
      "Ġali": 2550,
      "Ġsig": 2551,
      "Ġintercambi": 2552,
      "Ġarreg": 2553,
      "Ġ44": 2554,
      "ĠmayorÃŃa": 2555,
      "ĠÃ¡reas": 2556,
      "Ġcuantita": 2557,
      "ĠprÃ©stamo": 2558,
      "Ġjerarqu": 2559,
      "Ġevi": 2560,
      "Ġconver": 2561,
      "iva": 2562,
      "Ġapor": 2563,
      "ĠartÃŃ": 2564,
      "Ġposibles": 2565,
      "Ġciencias": 2566,
      "Ġplata": 2567,
      "Ġconcre": 2568,
      "media": 2569,
      "Ġaspectos": 2570,
      "Ġfabr": 2571,
      "dez": 2572,
      "taciones": 2573,
      "ment": 2574,
      "Ġleer": 2575,
      "Ġsabe": 2576,
      "Ġderecha": 2577,
      "ĠcrÃ©": 2578,
      "Ġsatisfac": 2579,
      "Ġpuesto": 2580,
      "ques": 2581,
      "tion": 2582,
      "Ġsecuen": 2583,
      "Ġcuad": 2584,
      "Ġtrad": 2585,
      "Ġusa": 2586,
      "Ġhaga": 2587,
      "Ġobten": 2588,
      "Ġinternet": 2589,
      "Ġprocesadores": 2590,
      "ĠmisiÃ³n": 2591,
      "Ġmencion": 2592,
      "gnÃ©": 2593,
      "Ġmodific": 2594,
      "Ġ70": 2595,
      "Ġbuscar": 2596,
      "Ġfases": 2597,
      "Ġacumul": 2598,
      "fe": 2599,
      "pu": 2600,
      "so": 2601,
      "Ġavan": 2602,
      "iene": 2603,
      "Ġmeta": 2604,
      "Ġmedia": 2605,
      "Ġimportantes": 2606,
      "Ġsalir": 2607,
      "Ġnormalmente": 2608,
      "dulo": 2609,
      "Ġnueva": 2610,
      "Ġtarea": 2611,
      "Ġcompetencia": 2612,
      "Ġestablecer": 2613,
      "Ġtransacciones": 2614,
      "Ġizquierda": 2615,
      "ge": 2616,
      "cimiento": 2617,
      "onar": 2618,
      "Ġelimin": 2619,
      "Ġbalan": 2620,
      "culos": 2621,
      "Ġmodelar": 2622,
      "Ġprocedimiento": 2623,
      "Ġderivadas": 2624,
      "ĠjerarquÃŃa": 2625,
      "eras": 2626,
      "Ġcaden": 2627,
      "Ġ94": 2628,
      "Ġdefine": 2629,
      "Ġespecial": 2630,
      "Ãºltip": 2631,
      "Ġalgoritmos": 2632,
      "Ġpuntos": 2633,
      "ĠcrÃ©di": 2634,
      "Ġ|": 2635,
      "Ġinterf": 2636,
      "Ġrenta": 2637,
      "Ġhabil": 2638,
      "Ġ55": 2639,
      "Ġ66": 2640,
      "Ġpropie": 2641,
      "Ġingresar": 2642,
      "Ġcontable": 2643,
      "Ġelectro": 2644,
      "tegor": 2645,
      "Ġindependiente": 2646,
      "IS": 2647,
      "iores": 2648,
      "ms": 2649,
      "Ġ*": 2650,
      "Ġedad": 2651,
      "Ġadi": 2652,
      "lob": 2653,
      "ĠSistemas": 2654,
      "Ġverda": 2655,
      "Ġ45": 2656,
      "Ġprepar": 2657,
      "Ġ90": 2658,
      "Ġdirectamente": 2659,
      "Ġrepe": 2660,
      "Ġdocumentos": 2661,
      "Ġincluye": 2662,
      "Ġsencillo": 2663,
      "Ġregular": 2664,
      "Ġcarrera": 2665,
      "Ġfabric": 2666,
      "Ġk": 2667,
      "Ġev": 2668,
      "Ġinten": 2669,
      "ajo": 2670,
      "Ġrol": 2671,
      "Ġrecog": 2672,
      "Ġ51": 2673,
      "ĠEsta": 2674,
      "ĠcreaciÃ³n": 2675,
      "Ġindividuos": 2676,
      "ĠnÃºcleo": 2677,
      "In": 2678,
      "Ġplante": 2679,
      "Ġsur": 2680,
      "cido": 2681,
      "ĠmÃºltip": 2682,
      "Ġenv": 2683,
      "Ġprior": 2684,
      "Ġbib": 2685,
      "dap": 2686,
      "Ġinternos": 2687,
      "ĠPC": 2688,
      "Ġ43": 2689,
      "Ġpago": 2690,
      "ĠMAR": 2691,
      "Ġpone": 2692,
      "Ġecuaciones": 2693,
      "Ġdiagramas": 2694,
      "Ġcorrecto": 2695,
      "Ġfundamentales": 2696,
      "ĠanalÃŃ": 2697,
      "Ġnaturaleza": 2698,
      "Ġpronto": 2699,
      "Ġdepartamento": 2700,
      "Ġdecodific": 2701,
      "Ġbiblio": 2702,
      "Ġcach": 2703,
      "amil": 2704,
      "Ġsuje": 2705,
      "tancias": 2706,
      "Ġante": 2707,
      "Ġ57": 2708,
      "ting": 2709,
      "Ġvender": 2710,
      "ĠcientÃŃ": 2711,
      "Ġcamino": 2712,
      "Ġbibliotec": 2713,
      "ES": 2714,
      "ger": 2715,
      "Ġemb": 2716,
      "Ġmes": 2717,
      "Ġtransferencia": 2718,
      "colo": 2719,
      "Ġ81": 2720,
      "Ġcapaci": 2721,
      "Ġformas": 2722,
      "ĠinversiÃ³n": 2723,
      "Ġadecu": 2724,
      "Ġcontrato": 2725,
      "Ġdistintos": 2726,
      "Ġtransmitir": 2727,
      "itar": 2728,
      "anos": 2729,
      "Ġense": 2730,
      "ĠtÃº": 2731,
      "Ġ53": 2732,
      "ĠrealizaciÃ³n": 2733,
      "Ġtablas": 2734,
      "Ġestrateg": 2735,
      "Ġcuatro": 2736,
      "dizaje": 2737,
      "dro": 2738,
      "mbi": 2739,
      "ran": 2740,
      "Ġ,": 2741,
      "Ġcer": 2742,
      "ismos": 2743,
      "Ġfor": 2744,
      "Ġ17": 2745,
      "grama": 2746,
      "Ġ31": 2747,
      "Ġ36": 2748,
      "Ġcontrario": 2749,
      "Ġcomunica": 2750,
      "Ġ101": 2751,
      "Ġcomputadoras": 2752,
      "tiendo": 2753,
      "ĠdocumentaciÃ³n": 2754,
      "ĠevaluaciÃ³n": 2755,
      "Ġorigen": 2756,
      "Ġgastos": 2757,
      "blo": 2758,
      "Ġelabor": 2759,
      "istir": 2760,
      "ĠtÃŃ": 2761,
      "Ġgerente": 2762,
      "Ġempresari": 2763,
      "Ġ33": 2764,
      "Ġ35": 2765,
      "Ġ58": 2766,
      "Ġ99": 2767,
      "ĠTo": 2768,
      "ĠcomputaciÃ³n": 2769,
      "Ġllamado": 2770,
      "Ġalmacena": 2771,
      "Ġrequerimiento": 2772,
      "Ġconclus": 2773,
      "ĠexpresiÃ³n": 2774,
      "ĠmÃ³v": 2775,
      "Ġpantal": 2776,
      "Ġetapas": 2777,
      "ĠsemÃ¡n": 2778,
      "Ġmedida": 2779,
      "Ġdominio": 2780,
      "ĠamortizaciÃ³n": 2781,
      "LO": 2782,
      "Un": 2783,
      "lico": 2784,
      "ciar": 2785,
      "Ġesque": 2786,
      "ist": 2787,
      "Ġhil": 2788,
      "Ġherencia": 2789,
      "laz": 2790,
      "imon": 2791,
      "Ġmemorias": 2792,
      "Ġincor": 2793,
      "ĠclasificaciÃ³n": 2794,
      "ĠdinÃ¡m": 2795,
      "Ġsuperior": 2796,
      "Ġvimos": 2797,
      "Ġpila": 2798,
      "Ġdiscurs": 2799,
      "ĠsoberanÃŃa": 2800,
      "Ġcri": 2801,
      "ĠSO": 2802,
      "Ġconse": 2803,
      "Ġprogramador": 2804,
      "Ġregres": 2805,
      "Ġ93": 2806,
      "Ġventas": 2807,
      "Este": 2808,
      "Ġprotocolo": 2809,
      "ĠespecificaciÃ³n": 2810,
      "Ġdeudas": 2811,
      "yec": 2812,
      "Ġ$": 2813,
      "Ġmu": 2814,
      "Ġhacemos": 2815,
      "Ġpoderes": 2816,
      "ÃŃstico": 2817,
      "Ġ49": 2818,
      "Ġmodelamiento": 2819,
      "Ġsint": 2820,
      "Ġ73": 2821,
      "Ġllamada": 2822,
      "Ġgrupos": 2823,
      "ĠprÃ¡cticamente": 2824,
      "ĠÃºnica": 2825,
      "Ãĵ": 2826,
      "Ġadap": 2827,
      "Ġfil": 2828,
      "Ã±ad": 2829,
      "Ġ54": 2830,
      "Ġ71": 2831,
      "ĠpropÃ³": 2832,
      "Ġfinanciera": 2833,
      "Ġmanej": 2834,
      "Ġrecuerden": 2835,
      "Ġcampo": 2836,
      "Ġcomienza": 2837,
      "cos": 2838,
      "gada": 2839,
      "deo": 2840,
      "Ġcero": 2841,
      "ame": 2842,
      "Ġtales": 2843,
      "iza": 2844,
      "Ġcumple": 2845,
      "ĠtenÃŃa": 2846,
      "Ġusar": 2847,
      "istema": 2848,
      "ĠAr": 2849,
      "ĠDis": 2850,
      "Ġ52": 2851,
      "Ġ56": 2852,
      "Ġ65": 2853,
      "Ġ88": 2854,
      "Ġnuevos": 2855,
      "ĠtecnologÃŃas": 2856,
      "Ġingreso": 2857,
      "Ġduro": 2858,
      "ĠprÃ¡cticas": 2859,
      "her": 2860,
      "ibilidad": 2861,
      "tadas": 2862,
      "ys": 2863,
      "erÃŃa": 2864,
      "acle": 2865,
      "Ġ92": 2866,
      "Ġinvol": 2867,
      "ĠsÃŃmbolos": 2868,
      "Ġmiembros": 2869,
      "ĠcachÃ©": 2870,
      "MA": 2871,
      "ps": 2872,
      "ponde": 2873,
      "Ġejemplos": 2874,
      "quÃ©": 2875,
      "Ġcontador": 2876,
      "Ã¡g": 2877,
      "Ġinmedia": 2878,
      "Ġfamil": 2879,
      "Ġteniendo": 2880,
      "Ġgrado": 2881,
      "Ġgeneralmente": 2882,
      "Ġlenguajes": 2883,
      "Ġaplica": 2884,
      "Ġocurre": 2885,
      "Ġconsumid": 2886,
      "ĠrazÃ³n": 2887,
      "Ġreceptor": 2888,
      "ĠsintÃ¡c": 2889,
      "fi": 2890,
      "iales": 2891,
      "vor": 2892,
      "Ġdetec": 2893,
      "Ġdeud": 2894,
      "ĠfÃ³r": 2895,
      "ecen": 2896,
      "ecer": 2897,
      "cionamiento": 2898,
      "Ġries": 2899,
      "Ġcategor": 2900,
      "mbr": 2901,
      "Ġ41": 2902,
      "Ġeleg": 2903,
      "Ġayudan": 2904,
      "Ġcierto": 2905,
      "Ġaprendizaje": 2906,
      "Ġcentro": 2907,
      "Ġagre": 2908,
      "Ġpresentar": 2909,
      "Ġinterfaz": 2910,
      "ĠaÃ±ad": 2911,
      "echa": 2912,
      "ĠcuÃ¡les": 2913,
      "ficos": 2914,
      "Ġ47": 2915,
      "licar": 2916,
      "ĠTI": 2917,
      "Ġrespal": 2918,
      "Ġplano": 2919,
      "abilidades": 2920,
      "Ġconform": 2921,
      "ĠintegraciÃ³n": 2922,
      "Ġcomprender": 2923,
      "Ġfavor": 2924,
      "edores": 2925,
      "Ġcuanto": 2926,
      "merg": 2927,
      "Ġbiblioteca": 2928,
      "Ġefica": 2929,
      "Ġvol": 2930,
      "Ġacre": 2931,
      "Ġempi": 2932,
      "icio": 2933,
      "Ġ24": 2934,
      "Ġ95": 2935,
      "ĠHay": 2936,
      "Ġdistintas": 2937,
      "Ġprueba": 2938,
      "Ġlineal": 2939,
      "Ġacceder": 2940,
      "util": 2941,
      "ytes": 2942,
      "Ġcable": 2943,
      "mputo": 2944,
      "Ġpriv": 2945,
      "Ġreun": 2946,
      "magnÃ©": 2947,
      "turas": 2948,
      "ĠAc": 2949,
      "ĠAquÃŃ": 2950,
      "Ġgenera": 2951,
      "ĠgeneraciÃ³n": 2952,
      "ueno": 2953,
      "ĠOp": 2954,
      "Ġoperadores": 2955,
      "Ġconfigur": 2956,
      "olÃ³gico": 2957,
      "ĠelectromagnÃ©": 2958,
      "Ġinvoluc": 2959,
      "Con": 2960,
      "EX": 2961,
      "sÃŃ": 2962,
      "tadores": 2963,
      "ĠK": 2964,
      "ener": 2965,
      "Ġcin": 2966,
      "Ġvo": 2967,
      "Ġordin": 2968,
      "Ġintercon": 2969,
      "Ġano": 2970,
      "ĠLO": 2971,
      "Ġconstante": 2972,
      "Ġ82": 2973,
      "Ġ72": 2974,
      "Ġrealizan": 2975,
      "Ġdeterminado": 2976,
      "Ġadelante": 2977,
      "Ġsociales": 2978,
      "ĠmÃ³dulo": 2979,
      "exiÃ³n": 2980,
      "ĠdescripciÃ³n": 2981,
      "ĠrÃ¡pido": 2982,
      "ĠpÃºblico": 2983,
      "Ġjustamente": 2984,
      "ĠcrÃ©dito": 2985,
      "imonio": 2986,
      "itu": 2987,
      "ĠprÃ³": 2988,
      "ĠparÃ¡": 2989,
      "Ġconsu": 2990,
      "Ġ61": 2991,
      "Ġ84": 2992,
      "Ġadministrar": 2993,
      "genes": 2994,
      "Ġcorresponde": 2995,
      "Ġrecordemos": 2996,
      "Ġradio": 2997,
      "droid": 2998,
      "lib": 2999,
      "tÃº": 3000,
      "Ġdev": 3001,
      "Ġdemos": 3002,
      "erra": 3003,
      "Ġsegu": 3004,
      "Ġgig": 3005,
      "sion": 3006,
      "Ġub": 3007,
      "Ġ59": 3008,
      "Ġ46": 3009,
      "ĠgeneralizaciÃ³n": 3010,
      "Ġmejores": 3011,
      "Ġdefinido": 3012,
      "Ġbuena": 3013,
      "Ġmanejo": 3014,
      "ĠpaÃŃses": 3015,
      "medio": 3016,
      "Ġdenomina": 3017,
      "Ġresponsabilidad": 3018,
      "Ġjefe": 3019,
      "Ġemisor": 3020,
      "pora": 3021,
      "Ġemerg": 3022,
      "Ġesco": 3023,
      "uele": 3024,
      "Ġinterrup": 3025,
      "Ġ26": 3026,
      "Ġ78": 3027,
      "Ġcondiciones": 3028,
      "Ġaquellas": 3029,
      "ĠinformÃ¡tica": 3030,
      "ĠmÃ¡ximo": 3031,
      "ĠQue": 3032,
      "len": 3033,
      "Ġvul": 3034,
      "Ġrecu": 3035,
      "Ġfigur": 3036,
      "Ġproteg": 3037,
      "Ġestan": 3038,
      "Ġinstal": 3039,
      "Ġ34": 3040,
      "Ġ39": 3041,
      "Ġprecios": 3042,
      "Ġ62": 3043,
      "Ġproduce": 3044,
      "Ġplane": 3045,
      "Ġplanific": 3046,
      "ingÃºn": 3047,
      "Ġeran": 3048,
      "ĠbÃ¡sico": 3049,
      "Ġimplementar": 3050,
      "Ġfundamental": 3051,
      "Ġetapa": 3052,
      "Ġmiren": 3053,
      "Ġvector": 3054,
      "ĠData": 3055,
      "Ġrepeti": 3056,
      "Ġembargo": 3057,
      "ĠpropÃ³sito": 3058,
      "ĠprÃ³xi": 3059,
      "ciente": 3060,
      "Ġconven": 3061,
      "Ġtes": 3062,
      "Ġdese": 3063,
      "Ã±ar": 3064,
      "ÃŃsticos": 3065,
      "Ġ42": 3066,
      "Ġ63": 3067,
      "Ġ85": 3068,
      "Ġcreo": 3069,
      "ĠHD": 3070,
      "Ġconstituy": 3071,
      "Ġencontr": 3072,
      "ĠespecÃŃfico": 3073,
      "Ġaleatorio": 3074,
      "Ġservidor": 3075,
      "Ġhilos": 3076,
      "Si": 3077,
      "Ġcerr": 3078,
      "Ġesen": 3079,
      "und": 3080,
      "tima": 3081,
      "Ġentero": 3082,
      "Ġhora": 3083,
      "ĠnotaciÃ³n": 3084,
      "Ġresto": 3085,
      "tuar": 3086,
      "ilar": 3087,
      "Ġ38": 3088,
      "ĠIN": 3089,
      "Ġ69": 3090,
      "Ġ89": 3091,
      "ĠcaptaciÃ³n": 3092,
      "Ġmoni": 3093,
      "Ġefectivo": 3094,
      "Ġexternos": 3095,
      "Ġreducir": 3096,
      "Ġbalance": 3097,
      "LA": 3098,
      "colos": 3099,
      "ke": 3100,
      "tz": 3101,
      "xis": 3102,
      "Ġpudi": 3103,
      "Ġmill": 3104,
      "Ġqueda": 3105,
      "andos": 3106,
      "Ġentien": 3107,
      "Ġfecha": 3108,
      "lev": 3109,
      "uce": 3110,
      "icios": 3111,
      "Ġquiz": 3112,
      "Ġnecesarios": 3113,
      "ĠtransacciÃ³n": 3114,
      "ĠcÃ³mputo": 3115,
      "Ġ67": 3116,
      "Ġ91": 3117,
      "lamen": 3118,
      "Ġvisu": 3119,
      "Ġcomercial": 3120,
      "Ġdiscurso": 3121,
      "LE": 3122,
      "bien": 3123,
      "tÃ³": 3124,
      "ĠdemÃ¡s": 3125,
      "Ġdebido": 3126,
      "Ġreutil": 3127,
      "leg": 3128,
      "difica": 3129,
      "Ġdesti": 3130,
      "Ġdesemp": 3131,
      "Ġinfer": 3132,
      "Ġconstruc": 3133,
      "ĠmenÃº": 3134,
      "Ġmide": 3135,
      "Ġcardin": 3136,
      "Ġ83": 3137,
      "Ġ87": 3138,
      "Ġ98": 3139,
      "Ġ79": 3140,
      "Ġpropia": 3141,
      "Ġequilib": 3142,
      "ĠmatemÃ¡ticas": 3143,
      "dientes": 3144,
      "iÃ©n": 3145,
      "irec": 3146,
      "Ġedi": 3147,
      "Ġestim": 3148,
      "ĠningÃºn": 3149,
      "ich": 3150,
      "Ġprov": 3151,
      "Ġparal": 3152,
      "denes": 3153,
      "Ġreglamen": 3154,
      "Ġpredic": 3155,
      "Ġ68": 3156,
      "Ġ97": 3157,
      "Ġdeterminada": 3158,
      "Ġvended": 3159,
      "Ġoperando": 3160,
      "Ġintegridad": 3161,
      "Ġincrementar": 3162,
      "Ġpensar": 3163,
      "Ġcombinaciones": 3164,
      "ĠÃ³rdenes": 3165,
      "ĠdifÃŃ": 3166,
      "dul": 3167,
      "he": 3168,
      "Ġ]": 3169,
      "Ġcel": 3170,
      "adie": 3171,
      "Ġnadie": 3172,
      "Ġhiz": 3173,
      "Ġcuo": 3174,
      "Ġgesti": 3175,
      "Ġextra": 3176,
      "ĠLo": 3177,
      "Ġtrabajamos": 3178,
      "Ġcaus": 3179,
      "ĠIP": 3180,
      "Ġmire": 3181,
      "Ġpermitir": 3182,
      "Ġcolabor": 3183,
      "Ġrecibe": 3184,
      "Ġestablece": 3185,
      "Ġprotocolos": 3186,
      "ĠsimultÃ¡n": 3187,
      "Ġenviar": 3188,
      "ĠÃ©ste": 3189,
      "Ġhizo": 3190,
      "De": 3191,
      "RI": 3192,
      "Ġpus": 3193,
      "ĠpÃ¡g": 3194,
      "Ġsuel": 3195,
      "taxis": 3196,
      "Ġojo": 3197,
      "ack": 3198,
      "tesis": 3199,
      "Ġestaba": 3200,
      "ĠhabÃŃamos": 3201,
      "Ġcontroles": 3202,
      "Ġproductivos": 3203,
      "Ġ74": 3204,
      "Ġrespuesta": 3205,
      "Ġbusc": 3206,
      "Ġdefini": 3207,
      "ĠHardware": 3208,
      "Ġmaneja": 3209,
      "Ġactualiz": 3210,
      "Ġlibertad": 3211,
      "Ġevitar": 3212,
      "ĠartÃŃculo": 3213,
      "Ġsatisfacer": 3214,
      "Ġacumulador": 3215,
      "Ġcinco": 3216,
      "Ġrecuper": 3217,
      "SO": 3218,
      "th": 3219,
      "Ġcpu": 3220,
      "ĠvÃŃ": 3221,
      "Ġcodific": 3222,
      "Ġtras": 3223,
      "Ġinterre": 3224,
      "Ġvaya": 3225,
      "ĠServ": 3226,
      "Ġconstantes": 3227,
      "Ġformato": 3228,
      "Ġ86": 3229,
      "ĠIntel": 3230,
      "Ġespecifica": 3231,
      "Ġmatric": 3232,
      "Ġestudiantes": 3233,
      "Ġviaj": 3234,
      "ĠjurÃŃdica": 3235,
      "ĠeconÃ³mico": 3236,
      "Ġorigin": 3237,
      "Ġgusta": 3238,
      "mal": 3239,
      "rio": 3240,
      "ĠÃ©sta": 3241,
      "orÃŃa": 3242,
      "Ġdb": 3243,
      "Ġfo": 3244,
      "loj": 3245,
      "Ġigu": 3246,
      "ariamente": 3247,
      "Ġpod": 3248,
      "Ġcorre": 3249,
      "Ġtecn": 3250,
      "Ġingresos": 3251,
      "ĠbÃ¡sica": 3252,
      "Ġproporciona": 3253,
      "Ġclave": 3254,
      "ĠcÃ¡lculo": 3255,
      "Ġubic": 3256,
      "Pero": 3257,
      "TIC": 3258,
      "zon": 3259,
      "tices": 3260,
      "ticia": 3261,
      "Ġinal": 3262,
      "Ġsido": 3263,
      "grÃ¡": 3264,
      "Ã±as": 3265,
      "Ġhaya": 3266,
      "ĠMode": 3267,
      "Ġ75": 3268,
      "Ġoperador": 3269,
      "Ġquieren": 3270,
      "Ġfila": 3271,
      "Ġfallos": 3272,
      "ĠpequeÃ±a": 3273,
      "Ġcompetencias": 3274,
      "Ġsupone": 3275,
      "RO": 3276,
      "gÃ³": 3277,
      "rir": 3278,
      "ertura": 3279,
      "Ġam": 3280,
      "Ã³metros": 3281,
      "Ġsufici": 3282,
      "Ġdesi": 3283,
      "cel": 3284,
      "rag": 3285,
      "Ġtransis": 3286,
      "Ġ102": 3287,
      "cribir": 3288,
      "Ġconsidera": 3289,
      "ĠdiseÃ±ar": 3290,
      "Ġconducta": 3291,
      "Ġdeudor": 3292,
      "fos": 3293,
      "hÃŃ": 3294,
      "tÃ¡": 3295,
      "Ġemi": 3296,
      "Ġsuele": 3297,
      "Ġnu": 3298,
      "Ġconte": 3299,
      "Ġsigue": 3300,
      "Ġpers": 3301,
      "Ġtengan": 3302,
      "Ġusando": 3303,
      "Ġexac": 3304,
      "Ġimpres": 3305,
      "Ġmedir": 3306,
      "Ġgenerales": 3307,
      "ĠespecializaciÃ³n": 3308,
      "ĠmÃ¡quinas": 3309,
      "ĠpequeÃ±o": 3310,
      "edor": 3311,
      "Ġprobabilidad": 3312,
      "ĠdinÃ¡mica": 3313,
      "ĠfÃ³rmula": 3314,
      "ATE": 3315,
      "ML": 3316,
      "Re": 3317,
      "crib": 3318,
      "gres": 3319,
      "pec": 3320,
      "ĠÃº": 3321,
      "ĠÃŃn": 3322,
      "Ġsuce": 3323,
      "undan": 3324,
      "Ġentra": 3325,
      "Ġunas": 3326,
      "remos": 3327,
      "Ġdecirle": 3328,
      "Ġsalud": 3329,
      "ĠestadÃŃsticas": 3330,
      "ĠÃºltima": 3331,
      "Ġnecesitamos": 3332,
      "ĠcomprensiÃ³n": 3333,
      "ĠinformÃ¡tico": 3334,
      "Ġgarantizar": 3335,
      "ĠvÃ©rtices": 3336,
      "cron": 3337,
      "Ġcadena": 3338,
      "Ġpantalla": 3339,
      "Ġequilibrio": 3340,
      "Ġpen": 3341,
      "Ġsan": 3342,
      "Ġamen": 3343,
      "Ã³s": 3344,
      "adamente": 3345,
      "ĠtenÃŃamos": 3346,
      "Ġexc": 3347,
      "Ġvarianza": 3348,
      "Ġreco": 3349,
      "Ġesper": 3350,
      "ĠMO": 3351,
      "uentes": 3352,
      "Ã©ricos": 3353,
      "tienen": 3354,
      "Ġempleado": 3355,
      "Ġlegal": 3356,
      "ĠdeberÃŃa": 3357,
      "Ġdiversos": 3358,
      "Ġconstruir": 3359,
      "Ġinterpretar": 3360,
      "Co": 3361,
      "Ġdej": 3362,
      "one": 3363,
      "idaciÃ³n": 3364,
      "teriores": 3365,
      "dencias": 3366,
      "quiera": 3367,
      "ĠresoluciÃ³n": 3368,
      "Ġcomerci": 3369,
      "Ġinstancias": 3370,
      "Ġrecono": 3371,
      "Ġ96": 3372,
      "ĠTi": 3373,
      "Ġnega": 3374,
      "istencia": 3375,
      "mÃ¡genes": 3376,
      "Ġexperi": 3377,
      "ĠcrÃŃ": 3378,
      "Ġminis": 3379,
      "ĠRegis": 3380,
      "Ġprofesor": 3381,
      "ĠatenciÃ³n": 3382,
      "Ġlineales": 3383,
      "Ġcarpeta": 3384,
      "mbito": 3385,
      "Ġemergencia": 3386,
      "heur": 3387,
      "Ġdesigual": 3388,
      "RA": 3389,
      "ĠQuÃ©": 3390,
      "Ġfuentes": 3391,
      "Ġtic": 3392,
      "Ġtierra": 3393,
      "Ġgeren": 3394,
      "Ġanti": 3395,
      "Ġpap": 3396,
      "Ġcrean": 3397,
      "Ġllega": 3398,
      "quitectura": 3399,
      "ĠcaracterÃŃstica": 3400,
      "ĠprÃ¡ctica": 3401,
      "ĠeconÃ³mica": 3402,
      "ÃŃodo": 3403,
      "Ġautoridad": 3404,
      "ĠmÃºltiples": 3405,
      "ĠcategorÃŃas": 3406,
      "via": 3407,
      "trol": 3408,
      "Ġdando": 3409,
      "Ġcoordin": 3410,
      "Ġbo": 3411,
      "Ġsiti": 3412,
      "Ġtok": 3413,
      "Ġextre": 3414,
      "toria": 3415,
      "ulaciÃ³n": 3416,
      "Ġopin": 3417,
      "Ġprogramar": 3418,
      "Ġcontrola": 3419,
      "ieron": 3420,
      "Ġ76": 3421,
      "Ġnuestras": 3422,
      "Ġsale": 3423,
      "Ġinvertir": 3424,
      "Ġlibre": 3425,
      "Ġsupervis": 3426,
      "Ġquerer": 3427,
      "Ġincluyendo": 3428,
      "Ġpreguntas": 3429,
      "Ġconvier": 3430,
      "Ġcolumna": 3431,
      "Ġvendedores": 3432,
      "Ġdbms": 3433,
      "bor": 3434,
      "lÃ©": 3435,
      "rbol": 3436,
      "Ġaj": 3437,
      "tricas": 3438,
      "Ġpueblo": 3439,
      "Ġran": 3440,
      "ĠAp": 3441,
      "Ġutilidad": 3442,
      "Ġcore": 3443,
      "Ġsimplex": 3444,
      "ĠmÃ³dul": 3445,
      "Ġtransmite": 3446,
      "Ġingeniero": 3447,
      "Ġsirven": 3448,
      "Ġcompilador": 3449,
      "Ġconfiden": 3450,
      "Ġdividir": 3451,
      "Ġesquema": 3452,
      "ĠmÃ³dulos": 3453,
      "CI": 3454,
      "FS": 3455,
      "âĢ": 3456,
      "Ġquedar": 3457,
      "Ġvolver": 3458,
      "Ġsoy": 3459,
      "Ġprocesar": 3460,
      "Ġutilidades": 3461,
      "Ġ77": 3462,
      "Ġcambia": 3463,
      "ĠBueno": 3464,
      "cha": 3465,
      "Ġestudiar": 3466,
      "Ġcontables": 3467,
      "Ġnacional": 3468,
      "Ġgrafo": 3469,
      "ĠcombinaciÃ³n": 3470,
      "Ġvectores": 3471,
      "Ġperiodo": 3472,
      "Ġpesar": 3473,
      "Ġvayan": 3474,
      "Ġconvertir": 3475,
      "Ġplataforma": 3476,
      "Ġcuadr": 3477,
      "Ġmetaheur": 3478,
      "Ġconseguir": 3479,
      "ĠparÃ¡metros": 3480,
      "ĠdifÃŃcil": 3481,
      "fÃŃa": 3482,
      "lÃ©s": 3483,
      "traciÃ³n": 3484,
      "ÃŃg": 3485,
      "amb": 3486,
      "ech": 3487,
      "ecta": 3488,
      "Ġglob": 3489,
      "ĠimÃ¡genes": 3490,
      "Ġanu": 3491,
      "ĠIntro": 3492,
      "Ġutilizado": 3493,
      "Ġpaque": 3494,
      "Ã©rico": 3495,
      "Ġordenamiento": 3496,
      "ĠOb": 3497,
      "ĠIns": 3498,
      "ĠÃ¡mbito": 3499,
      "ĠCons": 3500,
      "ĠasignaciÃ³n": 3501,
      "Ġhogar": 3502,
      "Ġmoral": 3503,
      "Ġabstracto": 3504,
      "ĠmultiplicaciÃ³n": 3505,
      "Ã¡rqu": 3506,
      "Ġcobertura": 3507,
      "Ġroles": 3508,
      "Ġincorpor": 3509,
      "ĠaÃ±adir": 3510,
      "Ġmonitor": 3511,
      "Ġdesempe": 3512,
      "dica": 3513,
      "xim": 3514,
      "Ġeven": 3515,
      "estruc": 3516,
      "Ġende": 3517,
      "ĠdÃŃas": 3518,
      "Ġvin": 3519,
      "Ã¡tica": 3520,
      "Ġreales": 3521,
      "Ġtar": 3522,
      "aban": 3523,
      "Ġgeo": 3524,
      "Ġexig": 3525,
      "tarse": 3526,
      "irm": 3527,
      "uestos": 3528,
      "Ġdismin": 3529,
      "Ġinterfac": 3530,
      "ĠSQL": 3531,
      "Ġentregar": 3532,
      "ĠISO": 3533,
      "Ġpagos": 3534,
      "Ġcorpora": 3535,
      "Ġdeterminante": 3536,
      "Ġfuncionales": 3537,
      "Ġtoman": 3538,
      "ĠetcÃ©": 3539,
      "Ġefectos": 3540,
      "Ġfuerza": 3541,
      "ĠjerÃ¡rqu": 3542,
      "Ġrevisar": 3543,
      "Ġinstituciones": 3544,
      "Ġalcanzar": 3545,
      "Ġfigura": 3546,
      "SE": 3547,
      "talmente": 3548,
      "yte": 3549,
      "osiciÃ³n": 3550,
      "entro": 3551,
      "ern": 3552,
      "Ġincu": 3553,
      "Ġhar": 3554,
      "Ġsuces": 3555,
      "Ġusan": 3556,
      "quil": 3557,
      "Ġdistancia": 3558,
      "Ġresta": 3559,
      "alizado": 3560,
      "dose": 3561,
      "Ġutilizados": 3562,
      "Ġbusca": 3563,
      "Ġabajo": 3564,
      "Ġfuera": 3565,
      "Ġanalizador": 3566,
      "ĠpequeÃ±os": 3567,
      "Ġasigna": 3568,
      "Ġrepresentan": 3569,
      "ĠdiseÃ±ado": 3570,
      "ĠseÃ±ala": 3571,
      "ĠAndroid": 3572,
      "ACI": 3573,
      "ĠmÃŃnimo": 3574,
      "ĠautomÃ¡ticamente": 3575,
      "Ġprioridad": 3576,
      "ĠsintÃ¡ctico": 3577,
      "Ġeficaz": 3578,
      "Ġconsumo": 3579,
      "ĠetcÃ©tera": 3580,
      "mia": 3581,
      "Ġatr": 3582,
      "quis": 3583,
      "trico": 3584,
      "ingun": 3585,
      "Ġningun": 3586,
      "Ġincon": 3587,
      "Ġfich": 3588,
      "Ġcompra": 3589,
      "tice": 3590,
      "Ġdescrib": 3591,
      "Ġanteriores": 3592,
      "comp": 3593,
      "Ġredundan": 3594,
      "ĠNOS": 3595,
      "Ġequival": 3596,
      "ĠÃ¡rbol": 3597,
      "Ġfinanzas": 3598,
      "Ġrefer": 3599,
      "Ġfactor": 3600,
      "Ġrelacionado": 3601,
      "Ġinventarios": 3602,
      "Ġsacar": 3603,
      "ĠmetodologÃŃas": 3604,
      "Ġdestino": 3605,
      "Una": 3606,
      "ase": 3607,
      "tida": 3608,
      "Ġvuel": 3609,
      "econ": 3610,
      "Ġcompuesto": 3611,
      "Ġdescu": 3612,
      "quidez": 3613,
      "Ġsocio": 3614,
      "Ġmanu": 3615,
      "Ġtrabajan": 3616,
      "Ġentrevis": 3617,
      "Ġrepor": 3618,
      "ĠinglÃ©s": 3619,
      "Ġpresup": 3620,
      "ĠYo": 3621,
      "ĠeconÃ³micos": 3622,
      "ĠrÃ¡pida": 3623,
      "Ġcaminos": 3624,
      "ĠcuÃ¡nto": 3625,
      "Ġsubsistemas": 3626,
      "Ġamplia": 3627,
      "Ġinventario": 3628,
      "Ġagrup": 3629,
      "ite": 3630,
      "olo": 3631,
      "demia": 3632,
      "encias": 3633,
      "ustr": 3634,
      "Ġdigamos": 3635,
      "dente": 3636,
      "ĠoraciÃ³n": 3637,
      "Ġinterval": 3638,
      "Ġmain": 3639,
      "ĠPer": 3640,
      "ĠversiÃ³n": 3641,
      "Ġutilizada": 3642,
      "Ġorganizar": 3643,
      "Ġpasivo": 3644,
      "Ġrecurso": 3645,
      "ĠGu": 3646,
      "Ġindustr": 3647,
      "Ġatributo": 3648,
      "ĠrepresentaciÃ³n": 3649,
      "Ġincluyen": 3650,
      "Ġ201": 3651,
      "Ġresponsable": 3652,
      "Ġanteriormente": 3653,
      "Ġdeuda": 3654,
      "Ġnecesitan": 3655,
      "Ġproveedores": 3656,
      "Ġdimensiones": 3657,
      "ĠelectrÃ³nico": 3658,
      "Ġsecuenci": 3659,
      "ĠtÃŃp": 3660,
      "Ġgestionar": 3661,
      "Ġpier": 3662,
      "unca": 3663,
      "timo": 3664,
      "Ġnan": 3665,
      "Ġrelev": 3666,
      "Ġsim": 3667,
      "Ġsimb": 3668,
      "Ġcump": 3669,
      "ĠperÃŃodo": 3670,
      "ĠEjemplo": 3671,
      "Ġdesta": 3672,
      "ive": 3673,
      "ĠAd": 3674,
      "Ġimplica": 3675,
      "Ġmov": 3676,
      "Ġmejora": 3677,
      "Ġordenador": 3678,
      "ĠInform": 3679,
      "Ġconstitucional": 3680,
      "Ġecuator": 3681,
      "Ġincremento": 3682,
      "Ġmarca": 3683,
      "Ġsituaciones": 3684,
      "Ġfron": 3685,
      "Ġrespetar": 3686,
      "ĠdistribuciÃ³n": 3687,
      "ĠmÃŃnima": 3688,
      "ĠtendrÃ¡": 3689,
      "ĠdimensiÃ³n": 3690,
      "Ġganar": 3691,
      "Ġecuatori": 3692,
      "mon": 3693,
      "unci": 3694,
      "Ġenca": 3695,
      "Ġreloj": 3696,
      "Ġbr": 3697,
      "Ġsomos": 3698,
      "Ġacerc": 3699,
      "Ġentrega": 3700,
      "Ġrecon": 3701,
      "rido": 3702,
      "Ġcasa": 3703,
      "Ġjunto": 3704,
      "Ġconocimientos": 3705,
      "Ġidentificador": 3706,
      "Ġcompeti": 3707,
      "ĠminerÃŃa": 3708,
      "ĠestratÃ©": 3709,
      "Ġrob": 3710,
      "Ġataque": 3711,
      "ĠasociaciÃ³n": 3712,
      "brir": 3713,
      "Ġpatrimonio": 3714,
      "Ġproteger": 3715,
      "ĠtecnolÃ³g": 3716,
      "ĠIntroducciÃ³n": 3717,
      "ĠestratÃ©g": 3718,
      "Tenemos": 3719,
      "centa": 3720,
      "eamente": 3721,
      "ner": 3722,
      "Ġlan": 3723,
      "Ġpien": 3724,
      "Ġsiendo": 3725,
      "Ġabier": 3726,
      "Ġmos": 3727,
      "Ġentrar": 3728,
      "ĠallÃŃ": 3729,
      "Ġperif": 3730,
      "cula": 3731,
      "Ġseres": 3732,
      "Ġdescribir": 3733,
      "aliza": 3734,
      "ĠCar": 3735,
      "Ġpersonalidad": 3736,
      "ĠPr": 3737,
      "ĠhabÃŃa": 3738,
      "Ġmismas": 3739,
      "itado": 3740,
      "Ġproducen": 3741,
      "ÃŃnense": 3742,
      "Ġdeclar": 3743,
      "Ġarchivo": 3744,
      "ĠsimulaciÃ³n": 3745,
      "Ġmedidas": 3746,
      "ĠsÃŃmbolo": 3747,
      "Ġcorrespondiente": 3748,
      "Ġfuncionalidad": 3749,
      "Ġhoras": 3750,
      "Ġdigital": 3751,
      "Ġprofesional": 3752,
      "ĠlÃŃmi": 3753,
      "Ġapoyo": 3754,
      "Ġoportunidad": 3755,
      "Ġintercambio": 3756,
      "ĠHDFS": 3757,
      "ĠconstrucciÃ³n": 3758,
      "Ġcelular": 3759,
      "Ġcuota": 3760,
      "TambiÃ©n": 3761,
      "xito": 3762,
      "dero": 3763,
      "Ġdejar": 3764,
      "Ġflo": 3765,
      "Ġdij": 3766,
      "tical": 3767,
      "quito": 3768,
      "ĠÃ©xito": 3769,
      "Ġforman": 3770,
      "Ġcomplejo": 3771,
      "Ġinternacionales": 3772,
      "ĠComp": 3773,
      "ĠcuÃ¡ndo": 3774,
      "Ġdiversas": 3775,
      "Ġpatrones": 3776,
      "Ġofrecer": 3777,
      "Ġcultura": 3778,
      "Ġcircuito": 3779,
      "Ġposee": 3780,
      "Ġpuertos": 3781,
      "Ġalimentos": 3782,
      "Ġeliminar": 3783,
      "Ġmeses": 3784,
      "ĠsemÃ¡ntico": 3785,
      "Ġpapel": 3786,
      "ĠgeogrÃ¡": 3787,
      "ĠnanÃ³metros": 3788,
      "centaje": 3789,
      "BM": 3790,
      "DI": 3791,
      "cab": 3792,
      "gÃŃa": 3793,
      "junto": 3794,
      "ves": 3795,
      "ĠÃ": 3796,
      "Ġeduc": 3797,
      "Ġcaja": 3798,
      "Ġnunca": 3799,
      "Ġcolec": 3800,
      "Ġfen": 3801,
      "Ġtemas": 3802,
      "ĠteorÃŃa": 3803,
      "ecuer": 3804,
      "Ġnecesaria": 3805,
      "titud": 3806,
      "Ġdefinen": 3807,
      "Ġrelacional": 3808,
      "ĠYa": 3809,
      "Ġcorrectamente": 3810,
      "Ġsector": 3811,
      "Ġabstracta": 3812,
      "Ġambas": 3813,
      "ĠvÃ©rtice": 3814,
      "lÃŃci": 3815,
      "ĠimagÃŃnense": 3816,
      "Ġcompradores": 3817,
      "Ġparticipantes": 3818,
      "Ġpresupuesto": 3819,
      "Ġaqui": 3820,
      "Ġvuelve": 3821,
      "Ġcola": 3822,
      "ciona": 3823,
      "ilidad": 3824,
      "Ġpersonales": 3825,
      "QuiÃ©n": 3826,
      "Ġaumentar": 3827,
      "Ġllaman": 3828,
      "Ġponen": 3829,
      "ĠlÃ³gicas": 3830,
      "Ġpuntero": 3831,
      "Ġliquidez": 3832,
      "ĠauditorÃŃa": 3833,
      "Ġconsulta": 3834,
      "ĠoptimizaciÃ³n": 3835,
      "Ġcolocar": 3836,
      "Ġarreglo": 3837,
      "ĠcolaboraciÃ³n": 3838,
      "Ġconfidencial": 3839,
      "glo": 3840,
      "Ġquier": 3841,
      "Ġprima": 3842,
      "Ġfrag": 3843,
      "Ġprof": 3844,
      "Ġback": 3845,
      "Ġsonido": 3846,
      "ficas": 3847,
      "icidad": 3848,
      "Ġinterior": 3849,
      "Ġapun": 3850,
      "ĠtelÃ©": 3851,
      "Ġcarga": 3852,
      "Ġpoten": 3853,
      "ĠmediciÃ³n": 3854,
      "Ġconoz": 3855,
      "darizaciÃ³n": 3856,
      "ĠbÃ¡sicas": 3857,
      "Ġhumanas": 3858,
      "Cuando": 3859,
      "Ġnumero": 3860,
      "Ġpandemia": 3861,
      "Ġventajas": 3862,
      "Ġsoporte": 3863,
      "Ġdesarrolladores": 3864,
      "Ġsigno": 3865,
      "Ġconvierte": 3866,
      "Ġinterfaces": 3867,
      "ĠNOSQL": 3868,
      "Al": 3869,
      "Ahora": 3870,
      "Ex": 3871,
      "gados": 3872,
      "pÃ³": 3873,
      "Ġenter": 3874,
      "tades": 3875,
      "Ã¡mbr": 3876,
      "Ġsum": 3877,
      "Ġdescuen": 3878,
      "uestas": 3879,
      "Ġtambien": 3880,
      "ganizaciÃ³n": 3881,
      "Ġmod": 3882,
      "Ġdiferencias": 3883,
      "Ġsintaxis": 3884,
      "Ġsegmento": 3885,
      "Ġexpl": 3886,
      "ĠplanificaciÃ³n": 3887,
      "ducir": 3888,
      "Ġescritura": 3889,
      "Ġestructurado": 3890,
      "ĠpÃºblic": 3891,
      "Ġcampos": 3892,
      "Ġofrece": 3893,
      "ĠOracle": 3894,
      "Ġsujeto": 3895,
      "ĠmÃ³viles": 3896,
      "ĠOpera": 3897,
      "ĠinalÃ¡mbr": 3898,
      "Ġnube": 3899,
      "ĠÃŃndic": 3900,
      "DE": 3901,
      "jidad": 3902,
      "ut": 3903,
      "tring": 3904,
      "Ġente": 3905,
      "ĠdÃŃg": 3906,
      "Ġvac": 3907,
      "Ġporcentaje": 3908,
      "itales": 3909,
      "Ġbasado": 3910,
      "Ġpasivos": 3911,
      "Ġbuenas": 3912,
      "Ġveamos": 3913,
      "ĠControl": 3914,
      "ĠbÃ¡sicamente": 3915,
      "Ġelector": 3916,
      "amento": 3917,
      "ĠpequeÃ±as": 3918,
      "Ġindividuales": 3919,
      "Ġindependientes": 3920,
      "ĠcompilaciÃ³n": 3921,
      "Ġeficiencia": 3922,
      "ĠprÃ³xima": 3923,
      "Ġviajan": 3924,
      "ĠÃºtil": 3925,
      "Ġreconoci": 3926,
      "TA": 3927,
      "Ġden": 3928,
      "Ġllen": 3929,
      "enti": 3930,
      "Ġado": 3931,
      "Ġinci": 3932,
      "Ġsimpl": 3933,
      "Ġloc": 3934,
      "Ġlog": 3935,
      "Ġdata": 3936,
      "Ġanual": 3937,
      "Ġconsecu": 3938,
      "ĠIR": 3939,
      "Ġcapas": 3940,
      "Ġpropa": 3941,
      "Ġmayores": 3942,
      "cuencias": 3943,
      "Ġdesplaz": 3944,
      "Ġexistentes": 3945,
      "Ġbaja": 3946,
      "Ġterri": 3947,
      "Ġincrementa": 3948,
      "Ġfrecuencias": 3949,
      "Ġautoma": 3950,
      "Ġrespeto": 3951,
      "Ġcorriente": 3952,
      "Ġdirigido": 3953,
      "Ġimagin": 3954,
      "Ġcualitativa": 3955,
      "Ġmecanismo": 3956,
      "lace": 3957,
      "Ġestrategias": 3958,
      "istÃ³r": 3959,
      "Ġfamilia": 3960,
      "Ġiguales": 3961,
      "ĠTipos": 3962,
      "MD": 3963,
      "ap": 3964,
      "aya": 3965,
      "fa": 3966,
      "ocia": 3967,
      "san": 3968,
      "vÃŃa": 3969,
      "Ġdeja": 3970,
      "cida": 3971,
      "Ġvas": 3972,
      "Ġpromedio": 3973,
      "ĠEN": 3974,
      "ĠCO": 3975,
      "Ġmano": 3976,
      "Ġinser": 3977,
      "Ġorgani": 3978,
      "Ġdiferenciales": 3979,
      "Ġcoste": 3980,
      "mÃ¡tico": 3981,
      "Ġpedir": 3982,
      "ĠfÃŃsico": 3983,
      "Ġposibil": 3984,
      "Ġondas": 3985,
      "Ġinteractuar": 3986,
      "Ġmiembro": 3987,
      "Ġbeneficio": 3988,
      "Ġbeneficios": 3989,
      "Ġcolumnas": 3990,
      "Ġenfoque": 3991,
      "Ġjuz": 3992,
      "Ġvulner": 3993,
      "Ġgerentes": 3994,
      "#Â¿": 3995,
      "NOM": 3996,
      "ade": 3997,
      "lido": 3998,
      "Ġdep": 3999,
      "Ġcha": 4000,
      "tiles": 4001,
      "Ġlabor": 4002,
      "ĠhistÃ³r": 4003,
      "cionalmente": 4004,
      "aces": 4005,
      "ura": 4006,
      "Ġtengamos": 4007,
      "Ġdivi": 4008,
      "ivamente": 4009,
      "Ġinforma": 4010,
      "entajas": 4011,
      "ĠtodavÃŃa": 4012,
      "Ġactual": 4013,
      "BRE": 4014,
      "Ġdisponibilidad": 4015,
      "Ġafecta": 4016,
      "Ġargumenta": 4017,
      "Ġtemporal": 4018,
      "Ġprofesionales": 4019,
      "Ġcuantitativa": 4020,
      "Ġcapacidades": 4021,
      "Ġparale": 4022,
      "Ġsuficiente": 4023,
      "Ġajus": 4024,
      "Ġredundancia": 4025,
      "NOMBRE": 4026,
      "CP": 4027,
      "gas": 4028,
      "Ġais": 4029,
      "oner": 4030,
      "ĠfÃŃ": 4031,
      "Ġflex": 4032,
      "gulo": 4033,
      "Ġacces": 4034,
      "Ġacop": 4035,
      "ĠADD": 4036,
      "Ġmiden": 4037,
      "Ġnecesarias": 4038,
      "Ġprede": 4039,
      "Ġcasi": 4040,
      "Ġadquis": 4041,
      "tificado": 4042,
      "Ġestudiante": 4043,
      "Ġasignar": 4044,
      "Ġcompartir": 4045,
      "Ġclaramente": 4046,
      "ĠcompaÃ±ero": 4047,
      "ĠnÃºcleos": 4048,
      "Ġaprov": 4049,
      "Ġverdadera": 4050,
      "Ġacreedor": 4051,
      "itud": 4052,
      "LAP": 4053,
      "ĠvÃŃdeo": 4054,
      "Ġtics": 4055,
      "Ġincumpl": 4056,
      "AquÃŃ": 4057,
      "fuer": 4058,
      "tÃŃa": 4059,
      "ord": 4060,
      "Ġesfuer": 4061,
      "Ã³men": 4062,
      "alidades": 4063,
      "Ġdue": 4064,
      "ĠconexiÃ³n": 4065,
      "ĠestÃ©n": 4066,
      "Ġtopo": 4067,
      "Ġsumar": 4068,
      "Ġespera": 4069,
      "ĠvalidaciÃ³n": 4070,
      "Ġpaga": 4071,
      "ĠEsto": 4072,
      "Ġdireccionamiento": 4073,
      "Ġservir": 4074,
      "ĠllegÃ³": 4075,
      "Ġprincipalmente": 4076,
      "Ġsalen": 4077,
      "Ġproyec": 4078,
      "Ġigualdad": 4079,
      "ĠÃ©tica": 4080,
      "Ġcomplejidad": 4081,
      "Ġdocumen": 4082,
      "Ġcumplen": 4083,
      "ĠUnidad": 4084,
      "Ġmicros": 4085,
      "Ġposibilidad": 4086,
      "ĠespecÃŃfica": 4087,
      "Ġpresentan": 4088,
      "Ġfueron": 4089,
      "Ġfuerte": 4090,
      "Ġmecanismos": 4091,
      "Ġfilas": 4092,
      "ĠArquitectura": 4093,
      "Ġrespaldo": 4094,
      "ĠLOAD": 4095,
      "ĠinterrupciÃ³n": 4096,
      "Ġperspec": 4097,
      "Ġanualidad": 4098,
      "Ġcorporativa": 4099,
      "ĠperifÃ©ricos": 4100,
      "ĠfenÃ³men": 4101,
      "bamos": 4102,
      "fono": 4103,
      "cin": 4104,
      "Ġener": 4105,
      "Ġcontar": 4106,
      "izon": 4107,
      "Ġcuar": 4108,
      "Ġtotalmente": 4109,
      "Ġinterv": 4110,
      "Ġinforme": 4111,
      "seudo": 4112,
      "Ġcontribu": 4113,
      "Ġpoquito": 4114,
      "Ġmover": 4115,
      "Ã©ramos": 4116,
      "tecciÃ³n": 4117,
      "Ġpresente": 4118,
      "Ġpongo": 4119,
      "ĠVAN": 4120,
      "Ġidentidad": 4121,
      "Ġcomplejos": 4122,
      "Ġlibros": 4123,
      "Ġconocida": 4124,
      "Ġidentificadores": 4125,
      "Ġescrito": 4126,
      "mana": 4127,
      "Ġactualmente": 4128,
      "Ġminim": 4129,
      "Ġingenieros": 4130,
      "Ġcualitativas": 4131,
      "ĠlingÃ¼ÃŃstica": 4132,
      "Ġsurg": 4133,
      "Ġconsumidores": 4134,
      "Ġelegir": 4135,
      "Ġtesis": 4136,
      "Ġencontramos": 4137,
      "Ġtransistores": 4138,
      "Ġcomerciales": 4139,
      "ĠmetaheurÃŃstica": 4140,
      "Ġsimbol": 4141,
      "gador": 4142,
      "Ġpseudo": 4143,
      "trica": 4144,
      "Ġnic": 4145,
      "Ġcuyo": 4146,
      "Ġgerencia": 4147,
      "Ġtri": 4148,
      "ĠED": 4149,
      "Ġreserv": 4150,
      "Ġapp": 4151,
      "ĠCON": 4152,
      "ity": 4153,
      "Ġprogramadores": 4154,
      "Ġasocia": 4155,
      "Ġmotivo": 4156,
      "Ġcomunes": 4157,
      "Ġclasific": 4158,
      "ĠRecuer": 4159,
      "ĠBig": 4160,
      "Ġresulta": 4161,
      "Ġincluir": 4162,
      "Ġconflic": 4163,
      "Esta": 4164,
      "Ġmercan": 4165,
      "azas": 4166,
      "Ġsencilla": 4167,
      "Ġambos": 4168,
      "Ġambiente": 4169,
      "Ġnecesitar": 4170,
      "ĠcÃ¡lculos": 4171,
      "ĠMemor": 4172,
      "Ġasegurar": 4173,
      "Ġriesgos": 4174,
      "ĠconfiguraciÃ³n": 4175,
      "ĠpÃ¡gina": 4176,
      "Ġamig": 4177,
      "Ġministerio": 4178,
      "ĠGuaya": 4179,
      "ĠtopologÃŃa": 4180,
      "ĠenergÃŃa": 4181,
      "ĠGuayaquil": 4182,
      "vio": 4183,
      "eramento": 4184,
      "Ġaf": 4185,
      "ore": 4186,
      "Ġmando": 4187,
      "tru": 4188,
      "tral": 4189,
      "trando": 4190,
      "Ġconvers": 4191,
      "ĠserÃ¡n": 4192,
      "tarÃŃa": 4193,
      "rece": 4194,
      "Ġarrib": 4195,
      "Ġtrabaje": 4196,
      "Ġpreval": 4197,
      "ĠTCP": 4198,
      "Ġimportar": 4199,
      "Ġalmacenan": 4200,
      "Ġdepender": 4201,
      "ĠGener": 4202,
      "Ġcompleta": 4203,
      "Ġcontratar": 4204,
      "Ġmone": 4205,
      "Ġmaterias": 4206,
      "Ġocas": 4207,
      "Ġhechos": 4208,
      "Ġgracias": 4209,
      "Ġlegis": 4210,
      "Ġbanc": 4211,
      "ĠevoluciÃ³n": 4212,
      "Ġempresariales": 4213,
      "ĠconclusiÃ³n": 4214,
      "ĠsimultÃ¡neamente": 4215,
      "Ġeventos": 4216,
      "Ġsimilar": 4217,
      "Ġarriba": 4218,
      "SS": 4219,
      "TI": 4220,
      "To": 4221,
      "WAR": 4222,
      "gÃºn": 4223,
      "ileg": 4224,
      "ocu": 4225,
      "oft": 4226,
      "ĠsÃº": 4227,
      "ĠaÃºn": 4228,
      "tidos": 4229,
      "mpo": 4230,
      "Ġinyec": 4231,
      "Ġcoefici": 4232,
      "Ġrequi": 4233,
      "ĠdaÃ±": 4234,
      "Ġexistir": 4235,
      "turales": 4236,
      "ĠSTO": 4237,
      "ĠAPI": 4238,
      "Ġverificar": 4239,
      "Ġtrabajadores": 4240,
      "ray": 4241,
      "Ġcreado": 4242,
      "Ġpropios": 4243,
      "Ġescas": 4244,
      "Ġcomputadores": 4245,
      "Ġoperandos": 4246,
      "Ġdependencia": 4247,
      "Ġcapaz": 4248,
      "Ġfacul": 4249,
      "Ġcorrecta": 4250,
      "Ġregula": 4251,
      "guridad": 4252,
      "Ġpensamiento": 4253,
      "ĠmatemÃ¡tica": 4254,
      "ĠsecciÃ³n": 4255,
      "Ġindican": 4256,
      "Ġconfianza": 4257,
      "Ġcorrientes": 4258,
      "Ġrentabilidad": 4259,
      "Ġempieza": 4260,
      "ĠquizÃ¡s": 4261,
      "Ġamenazas": 4262,
      "Ġaprovech": 4263,
      "Ġincumplimiento": 4264,
      "jer": 4265,
      "lÃ¡": 4266,
      "lada": 4267,
      "pol": 4268,
      "Ġofici": 4269,
      "ienen": 4270,
      "Ġful": 4271,
      "Ġprogres": 4272,
      "usiÃ³n": 4273,
      "Ġperder": 4274,
      "adora": 4275,
      "Ġdescon": 4276,
      "Ġinterno": 4277,
      "ĠLuego": 4278,
      "Ġmanda": 4279,
      "Ġrama": 4280,
      "ĠEntre": 4281,
      "ĠMic": 4282,
      "Ġsaldo": 4283,
      "Ġtiempos": 4284,
      "ĠFOR": 4285,
      "Ġobligator": 4286,
      "Ġrelacionar": 4287,
      "ĠseparaciÃ³n": 4288,
      "Ġfacilitar": 4289,
      "ĠmÃ¡xima": 4290,
      "Ġservidores": 4291,
      "ĠmetodologÃŃa": 4292,
      "Ġbinaria": 4293,
      "Ġcuantitativas": 4294,
      "Ġaportar": 4295,
      "Ġempresarial": 4296,
      "Ġconclusiones": 4297,
      "Ġficheros": 4298,
      "Ġencaps": 4299,
      "Ġdepur": 4300,
      "Ejemplo": 4301,
      "cho": 4302,
      "Ġmac": 4303,
      "Ġdba": 4304,
      "Ġvig": 4305,
      "Ġconci": 4306,
      "Ġhici": 4307,
      "Ġnombres": 4308,
      "Ãºa": 4309,
      "Ġlee": 4310,
      "Ġmanip": 4311,
      "ĠAL": 4312,
      "Ġejerc": 4313,
      "ferencias": 4314,
      "Ġcargo": 4315,
      "ĠMA": 4316,
      "cipl": 4317,
      "Ġpasan": 4318,
      "Ġaumento": 4319,
      "tinas": 4320,
      "Ã©rica": 4321,
      "Ġconceptu": 4322,
      "Ġformado": 4323,
      "Ġgui": 4324,
      "Ġinteresante": 4325,
      "Ġfrente": 4326,
      "Ġdistribuido": 4327,
      "ĠinstituciÃ³n": 4328,
      "ĠfÃ¡cilmente": 4329,
      "Ġargumentos": 4330,
      "Ġhorizon": 4331,
      "Ġmodificar": 4332,
      "Ġdetectar": 4333,
      "Ġprivileg": 4334,
      "Ġmatrices": 4335,
      "Ġreconocer": 4336,
      "Ġextremo": 4337,
      "Ġentrevista": 4338,
      "ĠAdminis": 4339,
      "lla": 4340,
      "ru": 4341,
      "uo": 4342,
      "Ġsta": 4343,
      "tracciÃ³n": 4344,
      "indo": 4345,
      "Ġocu": 4346,
      "Ġretro": 4347,
      "idamente": 4348,
      "izan": 4349,
      "Ġcuid": 4350,
      "urr": 4351,
      "Ġexista": 4352,
      "Ġinferen": 4353,
      "Ġmaqu": 4354,
      "Ġtrabajos": 4355,
      "iga": 4356,
      "Ġvariabilidad": 4357,
      "Ġdicha": 4358,
      "Ġbasada": 4359,
      "Ġtranspor": 4360,
      "Ġrepar": 4361,
      "Ġescen": 4362,
      "Ġconocen": 4363,
      "ĠUML": 4364,
      "Ġcomputa": 4365,
      "Ġllamadas": 4366,
      "Ġsensi": 4367,
      "Esto": 4368,
      "Ġdiscos": 4369,
      "ĠgrÃ¡fica": 4370,
      "Ġdescriptiva": 4371,
      "Ġrecuerde": 4372,
      "Ġmira": 4373,
      "ĠlingÃ¼ÃŃsticas": 4374,
      "Ġtelef": 4375,
      "Ġdevuelve": 4376,
      "Ġesencial": 4377,
      "Ġexclus": 4378,
      "Ġtarje": 4379,
      "Ġninguna": 4380,
      "Ġenteros": 4381,
      "BDD": 4382,
      "itas": 4383,
      "iamente": 4384,
      "ĠelÃ©c": 4385,
      "terios": 4386,
      "Ġperf": 4387,
      "ĠperiÃ³": 4388,
      "Ġdio": 4389,
      "Ġdiario": 4390,
      "Ġaccion": 4391,
      "irse": 4392,
      "ĠCada": 4393,
      "Ġinformes": 4394,
      "Ġcome": 4395,
      "Ġinstru": 4396,
      "Ġhabi": 4397,
      "ĠDirec": 4398,
      "ĠDRA": 4399,
      "Ġorganismos": 4400,
      "Ġcualquiera": 4401,
      "ĠBBDD": 4402,
      "alabilidad": 4403,
      "Ġnormal": 4404,
      "Ġveo": 4405,
      "xiones": 4406,
      "Ġadministrador": 4407,
      "rosoft": 4408,
      "Ġinteresa": 4409,
      "Ġhomo": 4410,
      "Ġatender": 4411,
      "Ġcursos": 4412,
      "ĠÃ³rgan": 4413,
      "Ġhabilidades": 4414,
      "Ġmujer": 4415,
      "ÃĵN": 4416,
      "Ġrango": 4417,
      "ĠrobÃ³": 4418,
      "ĠMicrosoft": 4419,
      "lon": 4420,
      "namente": 4421,
      "tario": 4422,
      "Ġzon": 4423,
      "ĠcÃ¡m": 4424,
      "ancia": 4425,
      "inar": 4426,
      "Ġdamos": 4427,
      "Ġsex": 4428,
      "Ġhal": 4429,
      "Ġpromo": 4430,
      "Ġgana": 4431,
      "Ġdiciendo": 4432,
      "Ġcompuesta": 4433,
      "Ġdescomp": 4434,
      "Ġras": 4435,
      "Ġram": 4436,
      "Ġahi": 4437,
      "Ġnecesariamente": 4438,
      "uyen": 4439,
      "Ġjuego": 4440,
      "Ġdeterminantes": 4441,
      "Ġordenadores": 4442,
      "ĠarquitectÃ³n": 4443,
      "ĠFun": 4444,
      "ĠSeguridad": 4445,
      "Ġfij": 4446,
      "Ġproporcionar": 4447,
      "Ġagentes": 4448,
      "Ġhiper": 4449,
      "Ġaleatoria": 4450,
      "Ġgobiernos": 4451,
      "Ġsuponer": 4452,
      "ĠcontinuaciÃ³n": 4453,
      "ĠautomÃ¡tico": 4454,
      "ĠOrganizaciÃ³n": 4455,
      "Ġciudadanos": 4456,
      "Ġpropiedades": 4457,
      "Ġverdadero": 4458,
      "Ġendeud": 4459,
      "Ġposibilidades": 4460,
      "Ġmicroserv": 4461,
      "Ġperspectiva": 4462,
      "mpoco": 4463,
      "edades": 4464,
      "ieren": 4465,
      "ning": 4466,
      "orden": 4467,
      "tipo": 4468,
      "tiza": 4469,
      "isco": 4470,
      "Ġhex": 4471,
      "Ġtor": 4472,
      "izados": 4473,
      "Ġalter": 4474,
      "diÃ³": 4475,
      "Ġdivis": 4476,
      "Ġpuedes": 4477,
      "Ġtampoco": 4478,
      "ficamente": 4479,
      "Ġestaciones": 4480,
      "Ġdecimal": 4481,
      "ĠDentro": 4482,
      "Ġtranspar": 4483,
      "ĠMan": 4484,
      "Ġposterior": 4485,
      "ĠOtro": 4486,
      "Ġexplo": 4487,
      "ĠInte": 4488,
      "Ġquiera": 4489,
      "Ġfuncionar": 4490,
      "Ġdependencias": 4491,
      "ĠGra": 4492,
      "Ġaprendiendo": 4493,
      "ĠidentificaciÃ³n": 4494,
      "Ġnave": 4495,
      "Ġcalen": 4496,
      "Ġnormativa": 4497,
      "Ġpositivo": 4498,
      "Ġhombre": 4499,
      "Ġofre": 4500,
      "Ġfacilidad": 4501,
      "Ġjusticia": 4502,
      "Ġheur": 4503,
      "Ġconsultas": 4504,
      "Ġadministrativa": 4505,
      "Ġobservar": 4506,
      "ĠintroducciÃ³n": 4507,
      "Ġguardar": 4508,
      "Ġfondo": 4509,
      "Ġavanz": 4510,
      "Ġki": 4511,
      "Ġmillones": 4512,
      "Ġdescuento": 4513,
      "Ġadop": 4514,
      "Ġdesplazamiento": 4515,
      "Ġorganigrama": 4516,
      "DEN": 4517,
      "ava": 4518,
      "ck": 4519,
      "cemos": 4520,
      "Ġeur": 4521,
      "alor": 4522,
      "tamos": 4523,
      "amientos": 4524,
      "ĠprotecciÃ³n": 4525,
      "Ġdiga": 4526,
      "gular": 4527,
      "Ã±ol": 4528,
      "Ġand": 4529,
      "ĠAsÃŃ": 4530,
      "Ġ200": 4531,
      "ĠDia": 4532,
      "Ġpape": 4533,
      "Ġdesarrollado": 4534,
      "Ġrespon": 4535,
      "Ġdetermina": 4536,
      "Ġdeterminan": 4537,
      "ĠNorma": 4538,
      "ĠOLAP": 4539,
      "ĠBas": 4540,
      "ĠVamos": 4541,
      "Ġquitar": 4542,
      "Ġcontabil": 4543,
      "Ġmonop": 4544,
      "ĠespaÃ±ol": 4545,
      "Ġinvestiga": 4546,
      "Ġconsiderar": 4547,
      "Ġalternativa": 4548,
      "Ġespecificar": 4549,
      "ĠhipÃ³": 4550,
      "Ġimagen": 4551,
      "Ġseleccionar": 4552,
      "Ġtransformar": 4553,
      "ĠtransformaciÃ³n": 4554,
      "Ġhabilidad": 4555,
      "Ġevolu": 4556,
      "Ġinferior": 4557,
      "Ġrecuperar": 4558,
      "Ġdesigualdad": 4559,
      "Ġpaquetes": 4560,
      "ĠtelÃ©fono": 4561,
      "Ġterritorio": 4562,
      "Ġpapeles": 4563,
      "IF": 4564,
      "cÃ³": 4565,
      "jec": 4566,
      "ler": 4567,
      "lados": 4568,
      "line": 4569,
      "ĠZ": 4570,
      "ĠâĢ": 4571,
      "Ġqued": 4572,
      "anÃŃa": 4573,
      "inten": 4574,
      "reded": 4575,
      "Ġremo": 4576,
      "izado": 4577,
      "Ġalreded": 4578,
      "Ġperfec": 4579,
      "Ġitera": 4580,
      "Ġsuminis": 4581,
      "Ġdestin": 4582,
      "alizada": 4583,
      "ĠSu": 4584,
      "Ġimplan": 4585,
      "Ġregla": 4586,
      "Ġtrate": 4587,
      "Ġtrayec": 4588,
      "TEN": 4589,
      "ĠUN": 4590,
      "ĠRec": 4591,
      "Ġconceptual": 4592,
      "Ġconfirm": 4593,
      "arato": 4594,
      "Ġfacti": 4595,
      "Ġmercados": 4596,
      "ĠsÃ³lido": 4597,
      "Ġviol": 4598,
      "Ġrelaciona": 4599,
      "Ġconsideran": 4600,
      "bot": 4601,
      "Ġdemand": 4602,
      "Ġresponsabilidades": 4603,
      "ĠWAN": 4604,
      "ĠinteractÃº": 4605,
      "Ġtemporalmente": 4606,
      "ĠvirtualizaciÃ³n": 4607,
      "ĠpresentaciÃ³n": 4608,
      "Ġbinario": 4609,
      "ĠenvÃŃa": 4610,
      "ĠcientÃŃfico": 4611,
      "Ġestrategia": 4612,
      "Ġcriterio": 4613,
      "Ġreglamentos": 4614,
      "ĠModelo": 4615,
      "Ġincons": 4616,
      "ĠInformaciÃ³n": 4617,
      "Ġfrontera": 4618,
      "ĠinalÃ¡mbrico": 4619,
      "ĠdÃŃgitos": 4620,
      "Ġcoeficientes": 4621,
      "Ġrequieren": 4622,
      "Ġhorizontal": 4623,
      "ĠrobÃ³tica": 4624,
      "ĠhipÃ³tesis": 4625,
      "Ġalrededor": 4626,
      "EE": 4627,
      "LL": 4628,
      "embre": 4629,
      "iado": 4630,
      "oog": 4631,
      "umen": 4632,
      "wit": 4633,
      "Ġdemas": 4634,
      "osa": 4635,
      "ĠsÃŃn": 4636,
      "ork": 4637,
      "Ġmul": 4638,
      "inci": 4639,
      "Ġenci": 4640,
      "rea": 4641,
      "Ġdarse": 4642,
      "table": 4643,
      "Ġrem": 4644,
      "use": 4645,
      "Ġbar": 4646,
      "Ġexitos": 4647,
      "ĠClas": 4648,
      "illo": 4649,
      "ĠAX": 4650,
      "Ġbasados": 4651,
      "ĠutilizaciÃ³n": 4652,
      "Ġutilizamos": 4653,
      "Ġfinalmente": 4654,
      "TEL": 4655,
      "Ġconocemos": 4656,
      "ĠRes": 4657,
      "ĠalmacÃ©n": 4658,
      "Ġvende": 4659,
      "Ġmuestras": 4660,
      "ĠBI": 4661,
      "Ġinclu": 4662,
      "ĠestadÃŃstico": 4663,
      "Ġconectar": 4664,
      "ĠaritmÃ©ticas": 4665,
      "Ġindependencia": 4666,
      "Ġcabeza": 4667,
      "Ġindicar": 4668,
      "Ġinclusive": 4669,
      "Ġventaja": 4670,
      "Ġahorrar": 4671,
      "Ġcarpetas": 4672,
      "Ġcomprob": 4673,
      "ĠprecisiÃ³n": 4674,
      "hertz": 4675,
      "ĠagregaciÃ³n": 4676,
      "Ġinterconec": 4677,
      "Ġvectorial": 4678,
      "Ġreutiliz": 4679,
      "Ġedifici": 4680,
      "Ġbackup": 4681,
      "adeci": 4682,
      "Ġchat": 4683,
      "Ġejercer": 4684,
      "Ġhexadeci": 4685,
      "DB": 4686,
      "IR": 4687,
      "Pro": 4688,
      "SQL": 4689,
      "cada": 4690,
      "db": 4691,
      "rim": 4692,
      "Ġid": 4693,
      "Ġcerc": 4694,
      "ciaciÃ³n": 4695,
      "cientes": 4696,
      "Ġesti": 4697,
      "tidas": 4698,
      "Ġrev": 4699,
      "ueve": 4700,
      "Ġcubrir": 4701,
      "olec": 4702,
      "Ġdesv": 4703,
      "ĠSin": 4704,
      "ĠPunto": 4705,
      "ĠvariaciÃ³n": 4706,
      "Ġgenerando": 4707,
      "Ġdirecto": 4708,
      "Ã¡ndo": 4709,
      "metro": 4710,
      "Ġsentencia": 4711,
      "Entre": 4712,
      "Ġespeciales": 4713,
      "Ġseguramente": 4714,
      "Ġcompletamente": 4715,
      "Ġllevan": 4716,
      "ĠestadÃŃsticos": 4717,
      "ĠlÃ³gico": 4718,
      "ĠÃºltimos": 4719,
      "formas": 4720,
      "ĠpodrÃŃan": 4721,
      "Ġconectado": 4722,
      "Ġdisponible": 4723,
      "Ġorientado": 4724,
      "Ġescala": 4725,
      "ĠparticipaciÃ³n": 4726,
      "Ġahorita": 4727,
      "Ġpuerto": 4728,
      "Ġescribe": 4729,
      "Ġprecis": 4730,
      "Ġconcreto": 4731,
      "Ġadicionales": 4732,
      "ĠenseÃ±": 4733,
      "ĠmÃ³vil": 4734,
      "ĠDise": 4735,
      "Ġconsumidor": 4736,
      "Ġriesgo": 4737,
      "ĠelectromagnÃ©ticas": 4738,
      "Ġestandar": 4739,
      "Ġcardinalidad": 4740,
      "Ġcardinalidades": 4741,
      "Ġinterrela": 4742,
      "Como": 4743,
      "Ġcumpla": 4744,
      "Ġflotante": 4745,
      "Ġexplor": 4746,
      "Ġelectoral": 4747,
      "ĠsÃºper": 4748,
      "UE": 4749,
      "icia": 4750,
      "zado": 4751,
      "Ġemo": 4752,
      "Ġlis": 4753,
      "Ġciv": 4754,
      "cidos": 4755,
      "tifica": 4756,
      "Ġencab": 4757,
      "Ġseis": 4758,
      "Ã¡bamos": 4759,
      "Ġhis": 4760,
      "Ġcomen": 4761,
      "Ġcoment": 4762,
      "ace": 4763,
      "Ġbor": 4764,
      "Ġmega": 4765,
      "Ġges": 4766,
      "Ġiter": 4767,
      "dentes": 4768,
      "gua": 4769,
      "Ã±ana": 4770,
      "Ġresid": 4771,
      "Ġmantiene": 4772,
      "ĠmaÃ±ana": 4773,
      "ĠAMD": 4774,
      "Ġhablo": 4775,
      "Ġtransforma": 4776,
      "ĠEstos": 4777,
      "ĠOtra": 4778,
      "Ġcanal": 4779,
      "Ġcantidades": 4780,
      "Ġcaracteres": 4781,
      "Ġfinancieras": 4782,
      "Ġelecciones": 4783,
      "Ġexpertos": 4784,
      "Ġespectro": 4785,
      "Ġcompiladores": 4786,
      "Ġbancos": 4787,
      "Ġreflex": 4788,
      "Ġataques": 4789,
      "Ġcursor": 4790,
      "Ġsolicitar": 4791,
      "Ġlimita": 4792,
      "Ġcomprome": 4793,
      "ĠenseÃ±ar": 4794,
      "Ġcriterios": 4795,
      "Ġagregar": 4796,
      "EXTEN": 4797,
      "Regis": 4798,
      "Ġvincu": 4799,
      "ernel": 4800,
      "ĠOperativos": 4801,
      "Ġautomatiz": 4802,
      "ĠSTORE": 4803,
      "Ġsexo": 4804,
      "ĠDiagrama": 4805,
      "99": 4806,
      "PS": 4807,
      "ence": 4808,
      "ares": 4809,
      "adre": 4810,
      "Ġcoinci": 4811,
      "Ġalu": 4812,
      "adoop": 4813,
      "Ġsubir": 4814,
      "Ġdescen": 4815,
      "entemente": 4816,
      "tulo": 4817,
      "Ġinfl": 4818,
      "Ġanillo": 4819,
      "ĠLAN": 4820,
      "ĠSistema": 4821,
      "Ġconsisten": 4822,
      "Ġconserv": 4823,
      "Ġrecop": 4824,
      "ĠrectÃ¡n": 4825,
      "Ġgrad": 4826,
      "Ġproductividad": 4827,
      "Ġprimi": 4828,
      "Ġrespec": 4829,
      "tituciÃ³n": 4830,
      "Ġlengua": 4831,
      "ĠGoog": 4832,
      "ĠContiene": 4833,
      "ĠContinu": 4834,
      "Ġcierta": 4835,
      "Ġinversiones": 4836,
      "Ġfalta": 4837,
      "ĠcomparaciÃ³n": 4838,
      "Ġtuvi": 4839,
      "Ġgrafos": 4840,
      "Ġdistribuir": 4841,
      "Ġindicadores": 4842,
      "Ġempezamos": 4843,
      "Ġreflej": 4844,
      "Ġsubsistema": 4845,
      "ĠobservaciÃ³n": 4846,
      "Ġalcance": 4847,
      "grafÃŃa": 4848,
      "Ġtradi": 4849,
      "Ġinvolucr": 4850,
      "Ġsucede": 4851,
      "Ġtokens": 4852,
      "Ġreferimos": 4853,
      "ĠeducaciÃ³n": 4854,
      "ĠfÃŃj": 4855,
      "Ġamigos": 4856,
      "DO": 4857,
      "for": 4858,
      "ire": 4859,
      "itan": 4860,
      "iform": 4861,
      "Ġdemo": 4862,
      "Ġdefecto": 4863,
      "Ġlig": 4864,
      "onos": 4865,
      "Ġestre": 4866,
      "Ġmiles": 4867,
      "tique": 4868,
      "Ġdada": 4869,
      "Ġsemana": 4870,
      "ÃŃr": 4871,
      "Ġinno": 4872,
      "Ġpare": 4873,
      "ĠestÃ¡s": 4874,
      "digos": 4875,
      "Ġdific": 4876,
      "Ġiba": 4877,
      "Ġtoca": 4878,
      "mina": 4879,
      "Ġancho": 4880,
      "trucciones": 4881,
      "ĠPenti": 4882,
      "Ġaristas": 4883,
      "Ġvertical": 4884,
      "Ġasuntos": 4885,
      "ĠcÃ³digos": 4886,
      "Ġcorreg": 4887,
      "Ġbuscan": 4888,
      "Ġcambian": 4889,
      "Ġdoble": 4890,
      "ĠmÃ©tricas": 4891,
      "mÃ¡tica": 4892,
      "Ġtomando": 4893,
      "Ġintegral": 4894,
      "Ġnumer": 4895,
      "ĠespecÃŃficas": 4896,
      "Ġcopias": 4897,
      "ĠAnal": 4898,
      "Ġorientada": 4899,
      "Ġcurso": 4900,
      "Ġaparte": 4901,
      "ĠInterÃ©s": 4902,
      "Ġdetalle": 4903,
      "ĠDesarrol": 4904,
      "Ġhertz": 4905,
      "Ġposeen": 4906,
      "keting": 4907,
      "Ġsitios": 4908,
      "ĠopiniÃ³n": 4909,
      "ĠÃŃndice": 4910,
      "Ġesfuerzo": 4911,
      "ĠRecuerden": 4912,
      "Ġocasiones": 4913,
      "Ġinnov": 4914,
      "Ġdificul": 4915,
      "ĠPentium": 4916,
      "Sin": 4917,
      "dida": 4918,
      "imen": 4919,
      "rÃ¡": 4920,
      "samb": 4921,
      "tÃŃn": 4922,
      "ub": 4923,
      "uf": 4924,
      "virtu": 4925,
      "Ġetique": 4926,
      "Ġdetr": 4927,
      "erti": 4928,
      "cidades": 4929,
      "ong": 4930,
      "Ġenri": 4931,
      "rez": 4932,
      "Ġconglo": 4933,
      "Ġotor": 4934,
      "Ġfle": 4935,
      "Ġbla": 4936,
      "Ġperman": 4937,
      "Ġtenido": 4938,
      "Ġtendencia": 4939,
      "Ġcomplic": 4940,
      "Ġdesvi": 4941,
      "uls": 4942,
      "Ġgram": 4943,
      "Ġutilizadas": 4944,
      "Ġfinales": 4945,
      "lican": 4946,
      "Ġmodifica": 4947,
      "Ġgeneran": 4948,
      "Ġcualidades": 4949,
      "ĠsinÃ³n": 4950,
      "ĠUs": 4951,
      "Ġadj": 4952,
      "Ġusualmente": 4953,
      "ĠNe": 4954,
      "ĠNAC": 4955,
      "Ġalmacenada": 4956,
      "ĠexplÃŃci": 4957,
      "Ġformal": 4958,
      "Ġempleo": 4959,
      "ĠSegÃºn": 4960,
      "Ġmarketing": 4961,
      "procesadores": 4962,
      "Ġindividuo": 4963,
      "ĠWeb": 4964,
      "Ġejercicios": 4965,
      "Ġrefleja": 4966,
      "Ġbloques": 4967,
      "Ġcorrespondencia": 4968,
      "Ġseleccion": 4969,
      "Ġperiodos": 4970,
      "Ġcobrar": 4971,
      "ĠextensiÃ³n": 4972,
      "Ġplataformas": 4973,
      "ĠobtenciÃ³n": 4974,
      "ĠanalÃŃtica": 4975,
      "Ġcereb": 4976,
      "Ġpudiera": 4977,
      "Ġpredicciones": 4978,
      "ĠinterrelaciÃ³n": 4979,
      "ĠcrÃŃtico": 4980,
      "estructura": 4981,
      "economÃŃa": 4982,
      "Ġbrin": 4983,
      "Ġacerca": 4984,
      "Ġreconocimiento": 4985,
      "Ġanualidades": 4986,
      "Ġacoplamiento": 4987,
      "Ġasociaciones": 4988,
      "Ġmonopol": 4989,
      "ĠconfirmaciÃ³n": 4990,
      "Ġencabez": 4991,
      "Ġenrique": 4992,
      "Ġconglomer": 4993,
      "86": 4994,
      "gÃ©n": 4995,
      "hol": 4996,
      "rimin": 4997,
      "uta": 4998,
      "}]": 4999,
      "Ġ>": 5000,
      "Ġps": 5001,
      "Ġswit": 5002,
      "trib": 5003,
      "Ġprovo": 5004,
      "Ġparcial": 5005,
      "echo": 5006,
      "Ġcub": 5007,
      "ĠcuestiÃ³n": 5008,
      "Ġilus": 5009,
      "Ġexcep": 5010,
      "ivas": 5011,
      "Ġinfra": 5012,
      "ĠCic": 5013,
      "Ġarte": 5014,
      "Ġveremos": 5015,
      "Ġmenudo": 5016,
      "Ġincerti": 5017,
      "Ġcapaces": 5018,
      "Ġllegan": 5019,
      "Ġmejorando": 5020,
      "Ġrecursiva": 5021,
      "visor": 5022,
      "Ġexpan": 5023,
      "Ġsolucionar": 5024,
      "dumbre": 5025,
      "Ġespecializ": 5026,
      "ĠGestiÃ³n": 5027,
      "Ġestudia": 5028,
      "Ġabsolu": 5029,
      "miso": 5030,
      "Ġescritorio": 5031,
      "Ġpartida": 5032,
      "Ġplatos": 5033,
      "Ġrelacionada": 5034,
      "Ġprimeras": 5035,
      "Ġasignado": 5036,
      "Ġexpresiones": 5037,
      "Ġdiscrimin": 5038,
      "Ġmala": 5039,
      "ĠregulaciÃ³n": 5040,
      "Ġtratamiento": 5041,
      "Ġsolicita": 5042,
      "Ġdetalles": 5043,
      "ĠraÃŃ": 5044,
      "Ġpertenecen": 5045,
      "Ġdigitales": 5046,
      "ĠtelevisiÃ³n": 5047,
      "Ġdecodificador": 5048,
      "Ġfortal": 5049,
      "Ġregresar": 5050,
      "ĠTIR": 5051,
      "Ġordinaria": 5052,
      "Ġesenciales": 5053,
      "Ġpendiente": 5054,
      "ĠdesempeÃ±o": 5055,
      "Ġequivale": 5056,
      "Ġparalelo": 5057,
      "Ġmoneda": 5058,
      "ĠcalendarizaciÃ³n": 5059,
      "ĠBases": 5060,
      "ĠContinuando": 5061,
      "ĠDesarrollo": 5062,
      "Ġswitch": 5063,
      "Ġincertidumbre": 5064,
      "MI": 5065,
      "No": 5066,
      "cas": 5067,
      "col": 5068,
      "dicos": 5069,
      "didas": 5070,
      "ser": 5071,
      "Ġ{": 5072,
      "trado": 5073,
      "Ġinecu": 5074,
      "Ġhol": 5075,
      "Ġparame": 5076,
      "acto": 5077,
      "Ġperfecto": 5078,
      "Ġsonidos": 5079,
      "Ġdesac": 5080,
      "gro": 5081,
      "ivencia": 5082,
      "Ġdisper": 5083,
      "Ġdiscipl": 5084,
      "torios": 5085,
      "torias": 5086,
      "Ġinterven": 5087,
      "Ġdecidir": 5088,
      "Ġmaxim": 5089,
      "Ġconsciente": 5090,
      "ĠverificaciÃ³n": 5091,
      "ĠDI": 5092,
      "Ġpop": 5093,
      "Ġcontrolador": 5094,
      "ĠEstados": 5095,
      "Ġcomunidad": 5096,
      "Ġcrecimiento": 5097,
      "Ġpropias": 5098,
      "Ġescalabilidad": 5099,
      "Ġpermita": 5100,
      "Ġcomunican": 5101,
      "ĠVM": 5102,
      "Ġformar": 5103,
      "ĠConcep": 5104,
      "ĠdecÃŃamos": 5105,
      "Ġestructurada": 5106,
      "Ġcontenidos": 5107,
      "Ġexpresar": 5108,
      "Ġfrecu": 5109,
      "Ġinvestigador": 5110,
      "Ġconsiderado": 5111,
      "Ġvelocidades": 5112,
      "Ġsecund": 5113,
      "ularidad": 5114,
      "Ġcircular": 5115,
      "Ġbanco": 5116,
      "Ġasociada": 5117,
      "Ġexterno": 5118,
      "Ġdepartamentos": 5119,
      "Ġaparece": 5120,
      "Ġguarda": 5121,
      "Ġtercera": 5122,
      "Ġhubo": 5123,
      "Ġtraduc": 5124,
      "Ġpropiedad": 5125,
      "ĠdecodificaciÃ³n": 5126,
      "Ġanotar": 5127,
      "Ġseguimiento": 5128,
      "Ġentiende": 5129,
      "ĠcodificaciÃ³n": 5130,
      "ĠatrÃ¡s": 5131,
      "Ġecuatoriano": 5132,
      "Ġmostrar": 5133,
      "ĠdueÃ±o": 5134,
      "Ġintervienen": 5135,
      "Ġmacro": 5136,
      "ĠhomogÃ©n": 5137,
      "Ġresiduo": 5138,
      "ĠGoogle": 5139,
      "AsÃŃ": 5140,
      "has": 5141,
      "ux": 5142,
      "zan": 5143,
      "Ġefecto": 5144,
      "Ġdepos": 5145,
      "ciembre": 5146,
      "unta": 5147,
      "timos": 5148,
      "tina": 5149,
      "inux": 5150,
      "Ġenunci": 5151,
      "Ġdu": 5152,
      "Ġdy": 5153,
      "Ġol": 5154,
      "abytes": 5155,
      "Ġbi": 5156,
      "Ġtran": 5157,
      "Ġdiciembre": 5158,
      "guen": 5159,
      "Ġexcel": 5160,
      "Ġape": 5161,
      "simo": 5162,
      "Ġinsu": 5163,
      "Ġud": 5164,
      "Ġasim": 5165,
      "Ġejecutando": 5166,
      "Ġpostales": 5167,
      "Ġsignos": 5168,
      "Ġaplicando": 5169,
      "Ġcomunicar": 5170,
      "Ġcomunicarse": 5171,
      "Ġequita": 5172,
      "Ġteclado": 5173,
      "ĠUnidos": 5174,
      "Ġconcurr": 5175,
      "ĠjurÃŃdicas": 5176,
      "ĠeconÃ³micas": 5177,
      "Ġdiscre": 5178,
      "Ġseparado": 5179,
      "Ġcopiar": 5180,
      "Ġprobable": 5181,
      "Ġpregunta": 5182,
      "ĠcompaÃ±ÃŃa": 5183,
      "Ġdirigir": 5184,
      "Ġtransaccionales": 5185,
      "Ġproporcionan": 5186,
      "Ġoptimizar": 5187,
      "ĠÃ³ptimo": 5188,
      "yout": 5189,
      "Ġpertenece": 5190,
      "Ġespecialista": 5191,
      "ĠfabricaciÃ³n": 5192,
      "Ġplantear": 5193,
      "Ġvolun": 5194,
      "EXT": 5195,
      "Ġsuelen": 5196,
      "Ġespecificaciones": 5197,
      "ĠubicaciÃ³n": 5198,
      "Ġanticip": 5199,
      "Ġdescribe": 5200,
      "Ġintervalos": 5201,
      "Ġconfidencialidad": 5202,
      "Ġflexibles": 5203,
      "ĠdesviaciÃ³n": 5204,
      "ĠraÃŃz": 5205,
      "Ġdeposita": 5206,
      "Cada": 5207,
      "OP": 5208,
      "apa": 5209,
      "ear": 5210,
      "lador": 5211,
      "Ġceros": 5212,
      "ese": 5213,
      "onen": 5214,
      "Ġdx": 5215,
      "Ġconl": 5216,
      "Ã¡us": 5217,
      "ecre": 5218,
      "Ġaltamente": 5219,
      "ĠallÃ¡": 5220,
      "Ġmembres": 5221,
      "ucle": 5222,
      "Ġaco": 5223,
      "Ġacon": 5224,
      "icip": 5225,
      "Ġaparato": 5226,
      "Ġmanual": 5227,
      "Ġmanif": 5228,
      "Ġconsta": 5229,
      "ĠclÃ¡us": 5230,
      "ign": 5231,
      "ĠDSS": 5232,
      "Ġvale": 5233,
      "Ġasum": 5234,
      "Ġcostu": 5235,
      "Ġprimeros": 5236,
      "Ġimporta": 5237,
      "Ġdefinidas": 5238,
      "ĠNos": 5239,
      "ĠNEXT": 5240,
      "Ġnetamente": 5241,
      "Ġhablante": 5242,
      "Ġsubordin": 5243,
      "ĠformaciÃ³n": 5244,
      "Ġseguro": 5245,
      "Ġemplea": 5246,
      "Ġmunicip": 5247,
      "Ġrelacionados": 5248,
      "Ġmicr": 5249,
      "ĠpodrÃ¡": 5250,
      "board": 5251,
      "Ġseparados": 5252,
      "ĠProces": 5253,
      "Ġparticularidad": 5254,
      "Ġexternas": 5255,
      "ĠgarantÃŃa": 5256,
      "ĠcompaÃ±eros": 5257,
      "Ġclaves": 5258,
      "Ġfuncionalidades": 5259,
      "ĠDatos": 5260,
      "Ġvivir": 5261,
      "ĠcientÃŃfica": 5262,
      "Ġmanejan": 5263,
      "Ġescog": 5264,
      "Ġcerrado": 5265,
      "kehol": 5266,
      "ĠreutilizaciÃ³n": 5267,
      "Ġproviene": 5268,
      "ĠService": 5269,
      "Ġrecomen": 5270,
      "Ġtarjeta": 5271,
      "Ġperfil": 5272,
      "Ġresponder": 5273,
      "Ġchatbot": 5274,
      "ĠreflexiÃ³n": 5275,
      "ongitud": 5276,
      "Ġinfraestructura": 5277,
      "Ġenunciado": 5278,
      "keholder": 5279,
      "100": 5280,
      "AB": 5281,
      "PD": 5282,
      "ST": 5283,
      "dremos": 5284,
      "exiones": 5285,
      "pres": 5286,
      "Ãģ": 5287,
      "Ġdedic": 5288,
      "arlo": 5289,
      "Ġvolu": 5290,
      "Ġvice": 5291,
      "Ġparavirtu": 5292,
      "mentan": 5293,
      "olÃŃ": 5294,
      "Ġmez": 5295,
      "jetivos": 5296,
      "Ġdign": 5297,
      "guar": 5298,
      "Ġaca": 5299,
      "Ġletra": 5300,
      "Ġmoder": 5301,
      "Ġejecutan": 5302,
      "Ġmomentos": 5303,
      "Ġformatos": 5304,
      "Ġjudi": 5305,
      "Ġsincron": 5306,
      "Ã¡ndose": 5307,
      "Ġllegue": 5308,
      "Ġelev": 5309,
      "Ġpermitido": 5310,
      "ĠNorm": 5311,
      "Ġordenado": 5312,
      "Ġvendo": 5313,
      "Ġayud": 5314,
      "Ġplanifica": 5315,
      "Ġpele": 5316,
      "Ġrefieren": 5317,
      "Ġinversion": 5318,
      "Ġaquello": 5319,
      "Ġrelacionadas": 5320,
      "Ġactuar": 5321,
      "ĠpodrÃŃamos": 5322,
      "Ġlector": 5323,
      "Ġinternacional": 5324,
      "Ġrecibir": 5325,
      "Ġanalistas": 5326,
      "Ġtermina": 5327,
      "Ġcorrup": 5328,
      "Ġaspecto": 5329,
      "ĠpronÃ³s": 5330,
      "Ġsoportar": 5331,
      "ĠInternet": 5332,
      "Ġjefes": 5333,
      "Ġcircuitos": 5334,
      "ĠlÃŃder": 5335,
      "Ġvayamos": 5336,
      "ĠdÃ©bil": 5337,
      "Ġempiez": 5338,
      "ĠreuniÃ³n": 5339,
      "Ġreuniones": 5340,
      "ĠelectromagnÃ©tico": 5341,
      "ĠinterconexiÃ³n": 5342,
      "Ġinterrupciones": 5343,
      "Ġconstituyen": 5344,
      "Ġvisualizar": 5345,
      "Ġcontextos": 5346,
      "Ġrelevantes": 5347,
      "Ġmujeres": 5348,
      "Ġrasgos": 5349,
      "ĠinteractÃºan": 5350,
      "Ġhexadecimal": 5351,
      "Ġestrella": 5352,
      "Ġcerebro": 5353,
      "keholders": 5354,
      "Ġvolumen": 5355,
      "CU": 5356,
      "DPI": 5357,
      "ban": 5358,
      "fas": 5359,
      "ws": 5360,
      "work": 5361,
      "ĠQu": 5362,
      "Ġlados": 5363,
      "Ġplac": 5364,
      "Ġsos": 5365,
      "Ġsiente": 5366,
      "cidas": 5367,
      "arlos": 5368,
      "tipos": 5369,
      "adÃ©": 5370,
      "Ġdoy": 5371,
      "Ġnomin": 5372,
      "Ġblan": 5373,
      "mental": 5374,
      "Ġperj": 5375,
      "Ġtomo": 5376,
      "Ġusado": 5377,
      "Ġusada": 5378,
      "guimos": 5379,
      "gru": 5380,
      "ĠextracciÃ³n": 5381,
      "Ġorto": 5382,
      "ĠSE": 5383,
      "Ġarran": 5384,
      "Ġvariedad": 5385,
      "ĠquÃŃ": 5386,
      "itando": 5387,
      "migo": 5388,
      "Ġtransfer": 5389,
      "Ġfinalidad": 5390,
      "Ġtraer": 5391,
      "uyendo": 5392,
      "Ġorganiza": 5393,
      "Ġdirector": 5394,
      "Ġcreando": 5395,
      "Ã¡ngulo": 5396,
      "Ġdesarrolla": 5397,
      "Ġabre": 5398,
      "Ġconjuntos": 5399,
      "Ġponemos": 5400,
      "Ġsubcon": 5401,
      "Ġsubgru": 5402,
      "Ġanaliza": 5403,
      "Ġmensual": 5404,
      "Ġhumana": 5405,
      "Ġvideo": 5406,
      "Ġdecre": 5407,
      "luir": 5408,
      "Ġcomprensi": 5409,
      "Ġefectiva": 5410,
      "Ġmorales": 5411,
      "Ġtransmisor": 5412,
      "Ġhilo": 5413,
      "Ġtemperamento": 5414,
      "Ġrutas": 5415,
      "Ġestablecido": 5416,
      "Ġenfoca": 5417,
      "ĠTodas": 5418,
      "Ġfamiliar": 5419,
      "Ġinvolucra": 5420,
      "Ġdemostrar": 5421,
      "ĠplaneaciÃ³n": 5422,
      "ĠINF": 5423,
      "Ġsitio": 5424,
      "ACIÃĵN": 5425,
      "Ġprofun": 5426,
      "ĠvacÃŃa": 5427,
      "Ġstakeholders": 5428,
      "indows": 5429,
      "Ġaccionistas": 5430,
      "ĠÃ³rganos": 5431,
      "Ġencima": 5432,
      "Ġexitosa": 5433,
      "Ġedificio": 5434,
      "Ġencabezamiento": 5435,
      "Ġconglomerados": 5436,
      "adÃ©m": 5437,
      "))": 5438,
      "CT": 5439,
      "MEN": 5440,
      "ila": 5441,
      "rer": 5442,
      "tus": 5443,
      "uaciÃ³n": 5444,
      "Ġamp": 5445,
      "espa": 5446,
      "top": 5447,
      "tologÃŃa": 5448,
      "Ġensamb": 5449,
      "Ġuniform": 5450,
      "Ġvesti": 5451,
      "Ġcontienen": 5452,
      "Ġhos": 5453,
      "Ġreac": 5454,
      "izando": 5455,
      "mazon": 5456,
      "Ġsimula": 5457,
      "Ġmetas": 5458,
      "Ġdije": 5459,
      "ĠcomposiciÃ³n": 5460,
      "laza": 5461,
      "ĠacadÃ©m": 5462,
      "Ġestabilidad": 5463,
      "ĠsistemÃ¡tico": 5464,
      "ĠCRE": 5465,
      "ĠAR": 5466,
      "Ġcontrase": 5467,
      "ĠEso": 5468,
      "ĠTIC": 5469,
      "Ġincur": 5470,
      "ificado": 5471,
      "Ġadqui": 5472,
      "Ġdeterminados": 5473,
      "Ġtantas": 5474,
      "Ġvenido": 5475,
      "Ġnuevamente": 5476,
      "ĠtabÃº": 5477,
      "Ġingresa": 5478,
      "Ġingresan": 5479,
      "Ġpobre": 5480,
      "Ġsuperinten": 5481,
      "Ġpieza": 5482,
      "ĠnumÃ©rico": 5483,
      "Ġsectores": 5484,
      "ĠdeberÃ¡": 5485,
      "Ġdispone": 5486,
      "Ġdisponibles": 5487,
      "Ġaprob": 5488,
      "Ġaceptar": 5489,
      "ĠaceptaciÃ³n": 5490,
      "ĠÃ³ptima": 5491,
      "Ġcadenas": 5492,
      "Ġindependientemente": 5493,
      "Ġelaborar": 5494,
      "ĠDistribu": 5495,
      "Ġseguimos": 5496,
      "ĠinstalaciÃ³n": 5497,
      "Ġextraer": 5498,
      "Ġbuscando": 5499,
      "Ġbuscamos": 5500,
      "Ġcorreo": 5501,
      "ĠcoordinaciÃ³n": 5502,
      "ĠlÃŃmites": 5503,
      "ĠcolecciÃ³n": 5504,
      "Ġfacultad": 5505,
      "Ġhicieron": 5506,
      "Ġcuidado": 5507,
      "Ġmaquin": 5508,
      "ĠfÃŃjense": 5509,
      "ĠgramÃ¡tica": 5510,
      "ĠCREATE": 5511,
      "Ġsuperintendencia": 5512,
      "Ac": 5513,
      "lando": 5514,
      "tbol": 5515,
      "zos": 5516,
      "demÃ¡s": 5517,
      "Ġlongitud": 5518,
      "todos": 5519,
      "Ġsep": 5520,
      "Ġintr": 5521,
      "cionan": 5522,
      "Ġcuya": 5523,
      "Ġtome": 5524,
      "Ġsuf": 5525,
      "Ġexis": 5526,
      "Ġexposi": 5527,
      "ĠestÃ¡tico": 5528,
      "Ġresumen": 5529,
      "ĠCore": 5530,
      "ĠPues": 5531,
      "duce": 5532,
      "Ġrecolec": 5533,
      "Ġpreven": 5534,
      "Ġsusten": 5535,
      "Ġtratando": 5536,
      "uya": 5537,
      "Ġjue": 5538,
      "Ġ1000": 5539,
      "vias": 5540,
      "Ġredac": 5541,
      "Ġordenada": 5542,
      "ĠHadoop": 5543,
      "Ġcance": 5544,
      "Ġanalizando": 5545,
      "Ġindis": 5546,
      "Ġiniciales": 5547,
      "ĠseÃ±ores": 5548,
      "Ġentradas": 5549,
      "CuÃ¡n": 5550,
      "Ġexistencia": 5551,
      "Ġespacios": 5552,
      "Ġsignificados": 5553,
      "Ġmarco": 5554,
      "Ġmarcha": 5555,
      "ĠRela": 5556,
      "ĠDefin": 5557,
      "Ġliter": 5558,
      "Ġatac": 5559,
      "Ġquienes": 5560,
      "Ġsubsecre": 5561,
      "Ġcomercio": 5562,
      "Ġtercer": 5563,
      "ĠartÃŃculos": 5564,
      "Ġrentable": 5565,
      "Ġadecuada": 5566,
      "ĠTodo": 5567,
      "Ġcausas": 5568,
      "ĠrecuperaciÃ³n": 5569,
      "Ġnegativo": 5570,
      "Ġcuadrada": 5571,
      "ĠjerÃ¡rquico": 5572,
      "Ġsociocul": 5573,
      "Ġmainboard": 5574,
      "Ġfragmento": 5575,
      "Ġsumamente": 5576,
      "ĠENC": 5577,
      "ĠhistÃ³rico": 5578,
      "Ġdivide": 5579,
      "ĠadquisiciÃ³n": 5580,
      "Ġtransporte": 5581,
      "Ġcomputacional": 5582,
      "Ġdemandada": 5583,
      "Ġvoluntad": 5584,
      "Ġmezc": 5585,
      "AU": 5586,
      "RS": 5587,
      "UN": 5588,
      "ag": 5589,
      "cra": 5590,
      "eos": 5591,
      "ile": 5592,
      "Ġdef": 5593,
      "Ġdefec": 5594,
      "Ġpul": 5595,
      "ĠpÃ©r": 5596,
      "ĠpÃ¡r": 5597,
      "Ġconce": 5598,
      "Ġint": 5599,
      "Ġhice": 5600,
      "acer": 5601,
      "Ġbytes": 5602,
      "Ġbyte": 5603,
      "Ġmeg": 5604,
      "Ġtrib": 5605,
      "ĠtenÃŃan": 5606,
      "Ġtendremos": 5607,
      "bimos": 5608,
      "Ġhagan": 5609,
      "irus": 5610,
      "Ġlex": 5611,
      "Ġlevan": 5612,
      "ĠCh": 5613,
      "ĠCÃ³mo": 5614,
      "ĠLinux": 5615,
      "Ġmaes": 5616,
      "ĠAmazon": 5617,
      "Ġcomandos": 5618,
      "Ġimpacto": 5619,
      "Ġhacerse": 5620,
      "ĠDA": 5621,
      "Ġprevio": 5622,
      "elar": 5623,
      "Ġmoda": 5624,
      "Ġgenerados": 5625,
      "Ġdirecta": 5626,
      "ĠTen": 5627,
      "Ġdefiniendo": 5628,
      "Ġabrir": 5629,
      "Ġsens": 5630,
      "Ġeconom": 5631,
      "Ġidentifica": 5632,
      "Ġsegura": 5633,
      "Ġcomplement": 5634,
      "Ġarquitecturas": 5635,
      "Ġconocido": 5636,
      "Ġconocidas": 5637,
      "Ġadelan": 5638,
      "Ġintegrados": 5639,
      "Ġdesplace": 5640,
      "xibilidad": 5641,
      "Ġfija": 5642,
      "Ġtransmiten": 5643,
      "Ġpide": 5644,
      "Ġpuntu": 5645,
      "ĠmatemÃ¡tico": 5646,
      "ĠmatemÃ¡ticos": 5647,
      "ĠinformÃ¡ticos": 5648,
      "Ġafectar": 5649,
      "Ġconsumir": 5650,
      "Ġcomienzo": 5651,
      "Ġconsultar": 5652,
      "Ġcontinua": 5653,
      "ĠJava": 5654,
      "Ġruta": 5655,
      "ĠenvÃŃo": 5656,
      "ĠanalÃŃtico": 5657,
      "ĠSOA": 5658,
      "Ãĵsea": 5659,
      "Ġvoz": 5660,
      "Ġconveniente": 5661,
      "ĠpredicciÃ³n": 5662,
      "Ġpuse": 5663,
      "Ġoriginal": 5664,
      "ĠMOV": 5665,
      "Ġantigu": 5666,
      "ĠConstituciÃ³n": 5667,
      "Ġsucesivamente": 5668,
      "Ġrelevante": 5669,
      "ĠlÃŃmite": 5670,
      "Ġminimizar": 5671,
      "ĠcÃ¡mara": 5672,
      "Ġhipervisor": 5673,
      "cÃ³digo": 5674,
      "Ġprecisamente": 5675,
      "Ġrecopil": 5676,
      "Ġadjunta": 5677,
      "ĠpÃ¡rra": 5678,
      "Ġtribun": 5679,
      ".-": 5680,
      "ET": 5681,
      "ader": 5682,
      "ager": 5683,
      "fiere": 5684,
      "upar": 5685,
      "Ġ<": 5686,
      "Ġdejo": 5687,
      "Ġpub": 5688,
      "cience": 5689,
      "Ġaire": 5690,
      "estre": 5691,
      "aso": 5692,
      "Ġmil": 5693,
      "trador": 5694,
      "ines": 5695,
      "allo": 5696,
      "ĠvÃŃn": 5697,
      "Ġconson": 5698,
      "Ġcontener": 5699,
      "Ġconexiones": 5700,
      "Ġcoh": 5701,
      "Ġflec": 5702,
      "Ġmetada": 5703,
      "Ġobtienen": 5704,
      "Ġrit": 5705,
      "ĠPar": 5706,
      "Ġarmon": 5707,
      "Ġvariedades": 5708,
      "Ġhayan": 5709,
      "Ġcae": 5710,
      "itados": 5711,
      "Ġmencionar": 5712,
      "ĠregiÃ³n": 5713,
      "Ġpreten": 5714,
      "ĠgenÃ©": 5715,
      "ezas": 5716,
      "ĠEstas": 5717,
      "ĠEstÃ¡": 5718,
      "Ġsolid": 5719,
      "Ġrepente": 5720,
      "ĠcreÃ³": 5721,
      "Ġpropuestas": 5722,
      "ĠOR": 5723,
      "Ġalmacenados": 5724,
      "ĠÃ¡g": 5725,
      "ĠHar": 5726,
      "Ġrequerir": 5727,
      "Ġcompleto": 5728,
      "Ġmercader": 5729,
      "Ġproceder": 5730,
      "Ġviaja": 5731,
      "Ġmonto": 5732,
      "Ġactuales": 5733,
      "ĠquerÃŃa": 5734,
      "Ġconectados": 5735,
      "Ġsencill": 5736,
      "Ġestablecen": 5737,
      "gura": 5738,
      "Ġpensamos": 5739,
      "Ġnaturales": 5740,
      "Ġprobabil": 5741,
      "Ġgarantiza": 5742,
      "ĠmecÃ¡n": 5743,
      "Ġofrecen": 5744,
      "Ġcorresponden": 5745,
      "Ġapropi": 5746,
      "Ġdividido": 5747,
      "ĠselecciÃ³n": 5748,
      "Ġdetallado": 5749,
      "Ġextensiones": 5750,
      "osofÃŃa": 5751,
      "Ġescuchar": 5752,
      "Ġagrupar": 5753,
      "ĠelectrÃ³nicos": 5754,
      "Ġregulares": 5755,
      "Ġrecoge": 5756,
      "Inter": 5757,
      "Ġsujetos": 5758,
      "ĠfilosofÃŃa": 5759,
      "Ġaplicativo": 5760,
      "ĠRegistros": 5761,
      "ĠInstrucciones": 5762,
      "Ġreportar": 5763,
      "Ġintervalo": 5764,
      "Ġindustriales": 5765,
      "Ġabierta": 5766,
      "ĠgeogrÃ¡fica": 5767,
      "ĠsimbolizaciÃ³n": 5768,
      "ĠMemoria": 5769,
      "Ġobligatorio": 5770,
      "Ġretroal": 5771,
      "Ġzona": 5772,
      "Ġborr": 5773,
      "Ġgestor": 5774,
      "Ġcorregir": 5775,
      "ĠcorrupciÃ³n": 5776,
      "Ġmetadatos": 5777,
      "Ġritmo": 5778,
      "//": 5779,
      "LT": 5780,
      "OC": 5781,
      "WH": 5782,
      "ema": 5783,
      "lie": 5784,
      "luye": 5785,
      "licidad": 5786,
      "plex": 5787,
      "rc": 5788,
      "tarios": 5789,
      "Ġsrc": 5790,
      "arga": 5791,
      "tio": 5792,
      "Ġinicia": 5793,
      "ienda": 5794,
      "ĠfÃº": 5795,
      "Ġparece": 5796,
      "uela": 5797,
      "mentales": 5798,
      "Ġgama": 5799,
      "culas": 5800,
      "adoras": 5801,
      "Ġdesea": 5802,
      "Ġempa": 5803,
      "Ġoracle": 5804,
      "Ġobtiene": 5805,
      "Ġinternamente": 5806,
      "ĠAU": 5807,
      "Ġarray": 5808,
      "Ġverific": 5809,
      "ĠDMA": 5810,
      "mbrar": 5811,
      "mite": 5812,
      "ĠEstruc": 5813,
      "Ġcree": 5814,
      "Ġ103": 5815,
      "Ġllamar": 5816,
      "Ġdoc": 5817,
      "ĠprestaciÃ³n": 5818,
      "Ġprestaciones": 5819,
      "ĠVon": 5820,
      "Ġsubespa": 5821,
      "Ġiniciar": 5822,
      "Ġaquella": 5823,
      "ĠduraciÃ³n": 5824,
      "Ġimplementa": 5825,
      "Ġmaterial": 5826,
      "Ġniif": 5827,
      "Ġestrato": 5828,
      "Ġposiciones": 5829,
      "Ġpositivos": 5830,
      "ĠgrÃ¡ficos": 5831,
      "ĠespecÃŃficos": 5832,
      "teratura": 5833,
      "Ġlegales": 5834,
      "Ġlegalidad": 5835,
      "ĠDetermin": 5836,
      "Ġliteratura": 5837,
      "Ġasociados": 5838,
      "INE": 5839,
      "Ġgasto": 5840,
      "Ġonda": 5841,
      "Ġonline": 5842,
      "Ġheter": 5843,
      "Ġsoporta": 5844,
      "Ġrazon": 5845,
      "Ġamplio": 5846,
      "Ġdecodifica": 5847,
      "Ġintroducir": 5848,
      "Ġpeso": 5849,
      "bloque": 5850,
      "yste": 5851,
      "Ġconformada": 5852,
      "Ġdemostrando": 5853,
      "Ġconstituye": 5854,
      "ĠpÃ¡ginas": 5855,
      "Ġopiniones": 5856,
      "Ġvuelvo": 5857,
      "Ġmanuales": 5858,
      "ĠtecnolÃ³gica": 5859,
      "BMS": 5860,
      "Ġpotencial": 5861,
      "ĠpropagaciÃ³n": 5862,
      "ĠpseudocÃ³digo": 5863,
      "Ġlegisla": 5864,
      "WARE": 5865,
      "Ġguiados": 5866,
      "Ġkilo": 5867,
      "Ġlimitaciones": 5868,
      "uffer": 5869,
      "ĠCiclos": 5870,
      "ĠmembresÃŃa": 5871,
      "Ġdignidad": 5872,
      "Ġjudicial": 5873,
      "ĠfÃºtbol": 5874,
      "%,": 5875,
      "98": 5876,
      "IT": 5877,
      "MT": 5878,
      "VAL": 5879,
      "cun": 5880,
      "clas": 5881,
      "dx": 5882,
      "dis": 5883,
      "gre": 5884,
      "ifes": 5885,
      "imentaciÃ³n": 5886,
      "vieron": 5887,
      "Ġ)": 5888,
      "Ġav": 5889,
      "Ġenf": 5890,
      "Ġnucle": 5891,
      "mpor": 5892,
      "leva": 5893,
      "ĠporciÃ³n": 5894,
      "dening": 5895,
      "gulos": 5896,
      "Ġacto": 5897,
      "alizados": 5898,
      "ĠestaciÃ³n": 5899,
      "tural": 5900,
      "ulas": 5901,
      "Ġrig": 5902,
      "Ġimprim": 5903,
      "ĠDios": 5904,
      "ĠDocu": 5905,
      "Ġmental": 5906,
      "Ġsustitu": 5907,
      "Ġtratados": 5908,
      "Ġcaptar": 5909,
      "Ġclasificar": 5910,
      "Ġordenan": 5911,
      "Ġexpecta": 5912,
      "Ġintelec": 5913,
      "Ġoperar": 5914,
      "Ġpeor": 5915,
      "Ġemplear": 5916,
      "ĠsupervisiÃ³n": 5917,
      "ensa": 5918,
      "Ġcalcula": 5919,
      "Ġimplementado": 5920,
      "ortaciones": 5921,
      "peci": 5922,
      "peta": 5923,
      "Ġfalso": 5924,
      "Ġinvestigar": 5925,
      "Ġmultiprocesador": 5926,
      "Ġconecta": 5927,
      "ĠrÃ¡pidamente": 5928,
      "Ġfrac": 5929,
      "ONES": 5930,
      "Ġlugares": 5931,
      "Ġcircun": 5932,
      "Ġrecorrido": 5933,
      "Ġhijo": 5934,
      "ĠcompaÃ±ÃŃas": 5935,
      "Ġmultiplicar": 5936,
      "ORDEN": 5937,
      "ĠInterrup": 5938,
      "ĠciudadanÃŃa": 5939,
      "Ġlimitar": 5940,
      "Ġdifus": 5941,
      "Ġpertenencia": 5942,
      "ĠExisten": 5943,
      "Ġhubi": 5944,
      "Ġkernel": 5945,
      "Ġcertific": 5946,
      "Ġplanear": 5947,
      "Ġdefinitiva": 5948,
      "Ġglobal": 5949,
      "estructur": 5950,
      "Ġdescriben": 5951,
      "econÃ³m": 5952,
      "ĠtÃŃpicamente": 5953,
      "ĠCaracter": 5954,
      "ĠCarpeta": 5955,
      "ĠpÃºblicos": 5956,
      "ĠfenÃ³meno": 5957,
      "Ġencapsul": 5958,
      "Ġmicroservicios": 5959,
      "Pue": 5960,
      "ben": 5961,
      "ph": 5962,
      "yper": 5963,
      "zgo": 5964,
      "Ġprece": 5965,
      "erpo": 5966,
      "Ġalo": 5967,
      "arla": 5968,
      "Ġmol": 5969,
      "ĠlatÃŃn": 5970,
      "alo": 5971,
      "Ġomis": 5972,
      "amenta": 5973,
      "Ġcoma": 5974,
      "Ġretir": 5975,
      "ĠrevisiÃ³n": 5976,
      "Ġcubo": 5977,
      "Ġcuerpo": 5978,
      "ols": 5979,
      "dia": 5980,
      "Ġtitu": 5981,
      "erativo": 5982,
      "Ġacor": 5983,
      "tarlo": 5984,
      "Ġapre": 5985,
      "ĠPRO": 5986,
      "Ġvariar": 5987,
      "Ġquis": 5988,
      "ĠDWH": 5989,
      "Ġrecta": 5990,
      "Ġrecha": 5991,
      "gunos": 5992,
      "Ġvalios": 5993,
      "versa": 5994,
      "Ġcargar": 5995,
      "Ġcarnet": 5996,
      "Ġpoca": 5997,
      "Ġpotencia": 5998,
      "Ġtrae": 5999,
      "Ġcontrolado": 6000,
      "Ġdiferenciar": 6001,
      "Ġllegado": 6002,
      "Ġpresta": 6003,
      "ĠON": 6004,
      "ĠOSI": 6005,
      "Ġmuestral": 6006,
      "ligencia": 6007,
      "ĠFin": 6008,
      "Ġpobla": 6009,
      "Ġejecutarse": 6010,
      "ebe": 6011,
      "ĠguÃŃas": 6012,
      "ĠevalÃºa": 6013,
      "Ġconector": 6014,
      "Ġindividual": 6015,
      "Ġflujos": 6016,
      "ogÃ©n": 6017,
      "Ġdescriptivos": 6018,
      "Ġmicroprocesadores": 6019,
      "Ġseparando": 6020,
      "ĠProgram": 6021,
      "Ġliqu": 6022,
      "ĠfÃ¡br": 6023,
      "ĠpÃºblica": 6024,
      "Ġauditoria": 6025,
      "Ġconstru": 6026,
      "Ġadministrativos": 6027,
      "ĠtendrÃŃa": 6028,
      "Ġvirtual": 6029,
      "ĠrecepciÃ³n": 6030,
      "tÃ³no": 6031,
      "ĠfonolÃ³gico": 6032,
      "Ġescoger": 6033,
      "Ġinferir": 6034,
      "Ġparalel": 6035,
      "ĠMODE": 6036,
      "ĠestratÃ©gica": 6037,
      "Ġabierto": 6038,
      "ĠpÃºblicas": 6039,
      "Ġllena": 6040,
      "Ġconflicto": 6041,
      "Ġescenarios": 6042,
      "Ġofrecida": 6043,
      "Ġcivil": 6044,
      "Registro": 6045,
      "ĠdetrÃ¡s": 6046,
      "Ġholgura": 6047,
      "Ġdisciplina": 6048,
      "Ġredactar": 6049,
      "ĠretroalimentaciÃ³n": 6050,
      "ĠheterogÃ©n": 6051,
      "ĠfÃ¡brica": 6052,
      "64": 6053,
      "HE": 6054,
      "Lo": 6055,
      "MP": 6056,
      "RAM": 6057,
      "dÃº": 6058,
      "ique": 6059,
      "li": 6060,
      "yth": 6061,
      "Ġza": 6062,
      "Ġdedica": 6063,
      "Ġpivo": 6064,
      "Ġses": 6065,
      "quidad": 6066,
      "Ġdup": 6067,
      "amÃ¡": 6068,
      "ĠparÃ©n": 6069,
      "abora": 6070,
      "urante": 6071,
      "Ġdijo": 6072,
      "Ġusamos": 6073,
      "Ġusados": 6074,
      "trover": 6075,
      "Ãºcle": 6076,
      "Ġextrover": 6077,
      "Ġintermedio": 6078,
      "Ġresum": 6079,
      "tuito": 6080,
      "Ġdebajo": 6081,
      "Ġmandar": 6082,
      "Ġmaneras": 6083,
      "Ġdecimos": 6084,
      "ĠAm": 6085,
      "ĠAhÃŃ": 6086,
      "Ġconsistencia": 6087,
      "Ġvers": 6088,
      "ĠclÃ¡s": 6089,
      "Ġhable": 6090,
      "Ġquin": 6091,
      "ĠDBMS": 6092,
      "Ġbasan": 6093,
      "ĠII": 6094,
      "icologÃŃa": 6095,
      "ĠasÃŃn": 6096,
      "Ġtransfiere": 6097,
      "ĠTr": 6098,
      "ificada": 6099,
      "Ã©rpre": 6100,
      "estion": 6101,
      "Ġpresencia": 6102,
      "parar": 6103,
      "ĠBus": 6104,
      "Ġneur": 6105,
      "mÃ¡for": 6106,
      "Ġespecializado": 6107,
      "Ġmatrimonio": 6108,
      "Ġconsigo": 6109,
      "Ġviabilidad": 6110,
      "Ġcolor": 6111,
      "Ġfallo": 6112,
      "Ġfallas": 6113,
      "patos": 6114,
      "Ġcomprende": 6115,
      "Ġmateriales": 6116,
      "Ġ110": 6117,
      "ĠÃºnicamente": 6118,
      "ĠfÃŃsicos": 6119,
      "Ġestratificado": 6120,
      "ĠrestricciÃ³n": 6121,
      "exo": 6122,
      "Ġdenominan": 6123,
      "ĠdeberÃŃan": 6124,
      "ĠWindows": 6125,
      "Ġcompilar": 6126,
      "ĠAnÃ¡lisis": 6127,
      "Ġhipo": 6128,
      "Ġabstractos": 6129,
      "Ġreflejar": 6130,
      "Ġchip": 6131,
      "ĠNombre": 6132,
      "ĠinterpretaciÃ³n": 6133,
      "Ġescalable": 6134,
      "Ġculturales": 6135,
      "Ġmencionado": 6136,
      "Ġdecodificar": 6137,
      "Ġprovecho": 6138,
      "ĠmatriculaciÃ³n": 6139,
      "ROLL": 6140,
      "ATEL": 6141,
      "Ġrecogen": 6142,
      "Ġcuadrado": 6143,
      "ambre": 6144,
      "Ġincorporar": 6145,
      "Ġsecuenciador": 6146,
      "ĠtecnolÃ³gicos": 6147,
      "Ġdijimos": 6148,
      "Ġprofund": 6149,
      "Ġvulnerabilidades": 6150,
      "Ġajustar": 6151,
      "Ġcuarta": 6152,
      "Ġmercanc": 6153,
      "ĠALU": 6154,
      "ĠtelefÃ³n": 6155,
      "Ġ2008": 6156,
      "Ġtrayectoria": 6157,
      "Ġreutilizables": 6158,
      "Ġdesventajas": 6159,
      "ĠsinÃ³nimo": 6160,
      "ĠexplÃŃcitamente": 6161,
      "ĠexpansiÃ³n": 6162,
      "Ġarranque": 6163,
      "Ġtransferir": 6164,
      "Ġsubgrupos": 6165,
      "Ġdefectu": 6166,
      "ĠintÃ©rpre": 6167,
      "dÃºplex": 6168,
      "ython": 6169,
      "Ġzapatos": 6170,
      "Ġpivote": 6171,
      "ĠparÃ©ntesis": 6172,
      "Ãºcleo": 6173,
      "\"\"": 6174,
      ".)": 6175,
      "CROLL": 6176,
      "RIN": 6177,
      "UP": 6178,
      "cto": 6179,
      "cado": 6180,
      "pp": 6181,
      "zÃ³": 6182,
      "Ġlistas": 6183,
      "Ġatra": 6184,
      "Ġagua": 6185,
      "ona": 6186,
      "angular": 6187,
      "Ġentor": 6188,
      "ĠnÃ³": 6189,
      "Ġconferencia": 6190,
      "ÃŃx": 6191,
      "dio": 6192,
      "Ġperci": 6193,
      "lave": 6194,
      "Ġdescar": 6195,
      "Ġacab": 6196,
      "recto": 6197,
      "Ġinferencia": 6198,
      "ĠCD": 6199,
      "ĠCapa": 6200,
      "ĠPRIN": 6201,
      "Ġclara": 6202,
      "Ġprevias": 6203,
      "como": 6204,
      "Ġcorte": 6205,
      "Ġmodos": 6206,
      "ĠTiene": 6207,
      "Ġ104": 6208,
      "Ġoperativa": 6209,
      "Ġsenti": 6210,
      "Ġayude": 6211,
      "Ġcaracteriza": 6212,
      "Ġconstituido": 6213,
      "Ġformalmente": 6214,
      "Estos": 6215,
      "Ġaprende": 6216,
      "Ġidentifican": 6217,
      "Ġemplean": 6218,
      "Ġintegran": 6219,
      "Ġentran": 6220,
      "Ġcalcul": 6221,
      "Ġdistinto": 6222,
      "Ġasignan": 6223,
      "Ġexpresa": 6224,
      "ĠproporciÃ³n": 6225,
      "Ġconectan": 6226,
      "Ġencargada": 6227,
      "Ġalternativos": 6228,
      "Ġprobar": 6229,
      "Ġmoroso": 6230,
      "Ġlogra": 6231,
      "Ġwebinar": 6232,
      "Ġconvir": 6233,
      "Ġconvivencia": 6234,
      "Ġaparecer": 6235,
      "Ġaproxim": 6236,
      "Ġvirtuales": 6237,
      "Ġhere": 6238,
      "laces": 6239,
      "Ġsiglas": 6240,
      "Ġtradu": 6241,
      "Ġavances": 6242,
      "Ġadicional": 6243,
      "Ġfabricantes": 6244,
      "ĠanalÃŃticas": 6245,
      "Ġregreso": 6246,
      "Ġfavorable": 6247,
      "Ġgiga": 6248,
      "Ġquizas": 6249,
      "ĠsanciÃ³n": 6250,
      "Ġpaquete": 6251,
      "Ġpierde": 6252,
      "Ġmovimiento": 6253,
      "ĠfenÃ³menos": 6254,
      "Ġcontribuir": 6255,
      "Ġtriangular": 6256,
      "Ġescasos": 6257,
      "Ġinferencial": 6258,
      "Ġsensibles": 6259,
      "Ġinstrumento": 6260,
      "Ġpromover": 6261,
      "Ġevolucion": 6262,
      "Ġdemocra": 6263,
      "Ġcomplicado": 6264,
      "Ġmodificaciones": 6265,
      "ĠpsicologÃŃa": 6266,
      "Ġconlleva": 6267,
      "Ġentornos": 6268,
      "ĠPRINCI": 6269,
      "ER": 6270,
      "Hay": 6271,
      "RU": 6272,
      "Son": 6273,
      "Ya": 6274,
      "cando": 6275,
      "ego": 6276,
      "folÃ³gico": 6277,
      "gon": 6278,
      "taria": 6279,
      "vas": 6280,
      "xtual": 6281,
      "Ġulti": 6282,
      "deres": 6283,
      "Ġestima": 6284,
      "tres": 6285,
      "Ġeng": 6286,
      "Ġunir": 6287,
      "Ġunificado": 6288,
      "Ġves": 6289,
      "Ġconm": 6290,
      "Ġprac": 6291,
      "ĠreÃºn": 6292,
      "Ġreposi": 6293,
      "Ġfir": 6294,
      "Ġfirm": 6295,
      "cionados": 6296,
      "abyte": 6297,
      "mentando": 6298,
      "dible": 6299,
      "ticar": 6300,
      "Ġleemos": 6301,
      "Ġdisp": 6302,
      "sima": 6303,
      "ĠLe": 6304,
      "Ġmanifes": 6305,
      "ĠSer": 6306,
      "Ġimperativo": 6307,
      "Ġases": 6308,
      "ĠMientras": 6309,
      "ĠMIS": 6310,
      "Ġmotor": 6311,
      "ĠTasa": 6312,
      "Ġrepite": 6313,
      "Ġresponde": 6314,
      "Ġaumenta": 6315,
      "ĠautÃ³no": 6316,
      "ĠRE": 6317,
      "Ġsalidas": 6318,
      "Ġabar": 6319,
      "Ġsentencias": 6320,
      "ĠValor": 6321,
      "ĠformalizaciÃ³n": 6322,
      "ĠFu": 6323,
      "Ġdesplaza": 6324,
      "erramientas": 6325,
      "Ġsuperiores": 6326,
      "Ġmonet": 6327,
      "Ġrelacionales": 6328,
      "Ġutilizarla": 6329,
      "etch": 6330,
      "Ġbajos": 6331,
      "Ġfalsa": 6332,
      "Ġconcen": 6333,
      "Ġpuestos": 6334,
      "Ġrenego": 6335,
      "Ġminuto": 6336,
      "Ġpiden": 6337,
      "ĠsatÃ©": 6338,
      "Ġdescripciones": 6339,
      "ĠmorfolÃ³gico": 6340,
      "Ġconfiabilidad": 6341,
      "Ġterminal": 6342,
      "Ġasociado": 6343,
      "ĠSimple": 6344,
      "Ġchicos": 6345,
      "ĠmÃŃnimos": 6346,
      "Ġdirige": 6347,
      "Ġaparecen": 6348,
      "Ġreducido": 6349,
      "Ġterceros": 6350,
      "ĠExcel": 6351,
      "Ġhumo": 6352,
      "Ġmencionaba": 6353,
      "Ġfortuito": 6354,
      "Ġpantallas": 6355,
      "Ġinmediata": 6356,
      "Ġelegido": 6357,
      "Ġsueldo": 6358,
      "Ġcodificar": 6359,
      "Ġtransistor": 6360,
      "Ġagrupados": 6361,
      "Ġdestacar": 6362,
      "monos": 6363,
      "Ġconozca": 6364,
      "Ġlaboral": 6365,
      "Ġpredecir": 6366,
      "Ġconflictos": 6367,
      "Ġfull": 6368,
      "ĠClasificaciÃ³n": 6369,
      "Ġcomentarios": 6370,
      "Ġparametr": 6371,
      "ĠtraducciÃ³n": 6372,
      "Ġinsumos": 6373,
      "ĠparavirtualizaciÃ³n": 6374,
      "ĠpronÃ³sticos": 6375,
      "fasis": 6376,
      "Ġsubconjunto": 6377,
      "ĠmecÃ¡nica": 6378,
      "Ġborrador": 6379,
      "VALUE": 6380,
      "Ġexpectativas": 6381,
      "Ġrepositorio": 6382,
      "20": 6383,
      "AdemÃ¡s": 6384,
      "Me": 6385,
      "bu": 6386,
      "dle": 6387,
      "gando": 6388,
      "gadas": 6389,
      "Ġdeje": 6390,
      "engu": 6391,
      "Ġcables": 6392,
      "arch": 6393,
      "Ġmit": 6394,
      "inc": 6395,
      "Ġenorm": 6396,
      "Ġendu": 6397,
      "Ġentera": 6398,
      "Ġnar": 6399,
      "ĠvÃ¡l": 6400,
      "icon": 6401,
      "mpaÃ±": 6402,
      "Ġremi": 6403,
      "Ġretras": 6404,
      "ĠreducciÃ³n": 6405,
      "Ã©rez": 6406,
      "leo": 6407,
      "Ġbio": 6408,
      "ress": 6409,
      "Ġdibu": 6410,
      "Ġido": 6411,
      "Ġcompor": 6412,
      "Ġcompuestos": 6413,
      "Ġseria": 6414,
      "iral": 6415,
      "Ġlea": 6416,
      "ficaciÃ³n": 6417,
      "Ġinternas": 6418,
      "ĠCas": 6419,
      "ibra": 6420,
      "ĠStan": 6421,
      "ĠteÃ³r": 6422,
      "ĠAth": 6423,
      "ĠPÃ©rez": 6424,
      "Ġtrabajador": 6425,
      "itaria": 6426,
      "Ġmixtos": 6427,
      "Ġcontras": 6428,
      "Ġesperan": 6429,
      "Ġmodela": 6430,
      "Ġaster": 6431,
      "Ġejecutivo": 6432,
      "riÃ³": 6433,
      "Ġcascada": 6434,
      "Ġorganizado": 6435,
      "Ġdiferenci": 6436,
      "Ġprimaria": 6437,
      "Ġrepito": 6438,
      "Ġcredi": 6439,
      "Ġdesarrollan": 6440,
      "Ġ105": 6441,
      "Ġregistran": 6442,
      "Ġmejoras": 6443,
      "Ġaplican": 6444,
      "Ġvalorar": 6445,
      "ĠIngen": 6446,
      "Ġponiendo": 6447,
      "Ġplanificar": 6448,
      "Ġanalizadores": 6449,
      "ĠtomÃ©": 6450,
      "Ġcaracterizan": 6451,
      "Ġformul": 6452,
      "Estas": 6453,
      "Ġpolim": 6454,
      "Ġconocidos": 6455,
      "enso": 6456,
      "ĠactuaciÃ³n": 6457,
      "Ġfiable": 6458,
      "Ġestructurados": 6459,
      "Ġanalizarlo": 6460,
      "ĠpodrÃ¡n": 6461,
      "Ġcru": 6462,
      "Ġrecibo": 6463,
      "Ġ[{": 6464,
      "Ġgratu": 6465,
      "Ġsecre": 6466,
      "Ġdeberes": 6467,
      "ĠbÃºsquedas": 6468,
      "Ġeficientes": 6469,
      "Ġinteligente": 6470,
      "Ġpreguntar": 6471,
      "derazgo": 6472,
      "Ġprovee": 6473,
      "Ġintrodu": 6474,
      "SION": 6475,
      "Ġavance": 6476,
      "Ġbalances": 6477,
      "Ġeficacia": 6478,
      "Ġvulgar": 6479,
      "Ġcausa": 6480,
      "Ġtoken": 6481,
      "Ġasignatura": 6482,
      "Ġindustria": 6483,
      "Ġquieran": 6484,
      "Existen": 6485,
      "Ġmodularidad": 6486,
      "Ġconsecuencia": 6487,
      "Ġdividen": 6488,
      "Ġprevalecer": 6489,
      "ĠinyecciÃ³n": 6490,
      "Ġescasez": 6491,
      "Ġmanipular": 6492,
      "Ġinvestigaciones": 6493,
      "ĠquedÃ³": 6494,
      "ĠRecor": 6495,
      "Ġremun": 6496,
      "Ġestilo": 6497,
      "Ġiteraciones": 6498,
      "Ġdescentr": 6499,
      "Ġconsistente": 6500,
      "Ġflexibilidad": 6501,
      "Ġinecuaciones": 6502,
      "ĠdispersiÃ³n": 6503,
      "Ġconcurrencia": 6504,
      "ĠacompaÃ±": 6505,
      "Ġplaca": 6506,
      "ĠrecopilaciÃ³n": 6507,
      "Ġtribunal": 6508,
      "ĠÃ¡gil": 6509,
      "ĠEstructura": 6510,
      "clase": 6511,
      "Ġcircuns": 6512,
      "Ġtraducir": 6513,
      "Ġdemocracia": 6514,
      "Ġmitad": 6515,
      "ĠAthlon": 6516,
      "10": 6517,
      "40": 6518,
      "GE": 6519,
      "LAR": 6520,
      "PC": 6521,
      "cur": 6522,
      "idez": 6523,
      "jecu": 6524,
      "madamente": 6525,
      "ologÃŃa": 6526,
      "zca": 6527,
      "Ġur": 6528,
      "ĠÃ©n": 6529,
      "ĠÃĵsea": 6530,
      "Ġ\"\"": 6531,
      "Ġpudo": 6532,
      "cialmente": 6533,
      "esa": 6534,
      "ted": 6535,
      "ĠmÃŃo": 6536,
      "alea": 6537,
      "Ġenlaces": 6538,
      "Ġvital": 6539,
      "Ġconces": 6540,
      "ĠsemÃ¡for": 6541,
      "Ġinco": 6542,
      "Ġtas": 6543,
      "logo": 6544,
      "usto": 6545,
      "Ġba": 6546,
      "Ġsil": 6547,
      "ĠtrÃ¡": 6548,
      "Ġtendencias": 6549,
      "Ġtoler": 6550,
      "gran": 6551,
      "Ġexces": 6552,
      "Ġletras": 6553,
      "Ġinterbloque": 6554,
      "recer": 6555,
      "Ġmanos": 6556,
      "ĠScience": 6557,
      "illa": 6558,
      "Ġmapa": 6559,
      "Ġimplican": 6560,
      "Ġbasadas": 6561,
      "Ġutilice": 6562,
      "ĠIBM": 6563,
      "Ġpocas": 6564,
      "Ġpreviamente": 6565,
      "Ġpaz": 6566,
      "ĠMÃ©": 6567,
      "ĠpasÃ³": 6568,
      "Ġclasifica": 6569,
      "Ġsegmentos": 6570,
      "Ġrelativamente": 6571,
      "ĠpresiÃ³n": 6572,
      "ĠOP": 6573,
      "Ġexplicar": 6574,
      "venientes": 6575,
      "ĠÃ©ticos": 6576,
      "Ġrefiero": 6577,
      "Ġanalizado": 6578,
      "ĠtomÃ³": 6579,
      "ĠConjunto": 6580,
      "Esa": 6581,
      "Ġingrese": 6582,
      "Ġintegra": 6583,
      "Ġcontratos": 6584,
      "Ġcontraiga": 6585,
      "Ġacuerdos": 6586,
      "Ġencuentre": 6587,
      "Ġfijar": 6588,
      "Ãºscula": 6589,
      "Ġfalla": 6590,
      "proceso": 6591,
      "Ġ115": 6592,
      "Ġfundamenta": 6593,
      "ĠfÃŃsicas": 6594,
      "Ġencargados": 6595,
      "medios": 6596,
      "Ġhombres": 6597,
      "Ġprototipo": 6598,
      "Ġpensando": 6599,
      "Ġtuve": 6600,
      "ĠdeberÃ¡n": 6601,
      "Ġrecordar": 6602,
      "Ġsemestre": 6603,
      "Ġdiversidad": 6604,
      "Ġorientadas": 6605,
      "Ġtemporales": 6606,
      "Ġoportunidades": 6607,
      "Ġcreatividad": 6608,
      "ĠmodificaciÃ³n": 6609,
      "Ġadicionalmente": 6610,
      "Ġpreparar": 6611,
      "ĠtÃŃtulo": 6612,
      "Ġmutu": 6613,
      "Ġinmediatamente": 6614,
      "fijo": 6615,
      "Ġplaneta": 6616,
      "ĠpodÃŃa": 6617,
      "Ġexactamente": 6618,
      "Ġamena": 6619,
      "Ġdejando": 6620,
      "ĠRegistro": 6621,
      "Ġextremadamente": 6622,
      "Ġmonitoreo": 6623,
      "ĠharÃ¡": 6624,
      "Ġdescub": 6625,
      "Ġsecuencialmente": 6626,
      "Ġcumplan": 6627,
      "Ġpienso": 6628,
      "Ġquieres": 6629,
      "Ġconozcan": 6630,
      "Ġlocales": 6631,
      "Ġadquisi": 6632,
      "Ġpseudoalea": 6633,
      "Ġregulaciones": 6634,
      "Ġdesconoci": 6635,
      "ĠAdministraciÃ³n": 6636,
      "ĠAdministrador": 6637,
      "ĠGrafo": 6638,
      "Ġeuros": 6639,
      "Ġdemasiado": 6640,
      "Ġmonopolio": 6641,
      "Ġmanifies": 6642,
      "ĠclÃ¡usula": 6643,
      "ĠquÃŃm": 6644,
      "Ġmaquinarias": 6645,
      "ĠpÃ©rdida": 6646,
      "Ġintelectual": 6647,
      "ĠomisiÃ³n": 6648,
      "Ġapreciar": 6649,
      "ĠTrans": 6650,
      "ĠPRINCIPI": 6651,
      "ĠÃ©nfasis": 6652,
      "Ġincomple": 6653,
      "An": 6654,
      "SP": 6655,
      "dores": 6656,
      "didos": 6657,
      "dress": 6658,
      "tp": 6659,
      "ty": 6660,
      "utador": 6661,
      "var": 6662,
      "Ġpadre": 6663,
      "erimientos": 6664,
      "cito": 6665,
      "Ġaver": 6666,
      "Ġamigo": 6667,
      "onÃºcleo": 6668,
      "arÃŃa": 6669,
      "querimientos": 6670,
      "tedes": 6671,
      "tom": 6672,
      "ĠmamÃ¡": 6673,
      "anito": 6674,
      "Ġelim": 6675,
      "ĠvÃŃa": 6676,
      "icaciÃ³n": 6677,
      "mples": 6678,
      "Ġfras": 6679,
      "abits": 6680,
      "Ġaltos": 6681,
      "mentado": 6682,
      "Ġcuy": 6683,
      "biles": 6684,
      "ĠdaÃ±os": 6685,
      "tenible": 6686,
      "Ġactiva": 6687,
      "Ġdiscu": 6688,
      "icioso": 6689,
      "Ġresuel": 6690,
      "Ġaportaciones": 6691,
      "Ġinfin": 6692,
      "Ġanim": 6693,
      "ĠLA": 6694,
      "ceder": 6695,
      "Ġrop": 6696,
      "gramas": 6697,
      "Ġimpuls": 6698,
      "Ġpocos": 6699,
      "eler": 6700,
      "Ġejecute": 6701,
      "Ġtraen": 6702,
      "Ġtratan": 6703,
      "ĠEspeci": 6704,
      "Ġgenerador": 6705,
      "TORI": 6706,
      "peraciÃ³n": 6707,
      "ĠreplicaciÃ³n": 6708,
      "Ġ107": 6709,
      "Ġsobres": 6710,
      "Ġllamamos": 6711,
      "Ġtanta": 6712,
      "Ġtantos": 6713,
      "Ġvisibilidad": 6714,
      "Ġalguno": 6715,
      "Ġsentar": 6716,
      "Ġcompone": 6717,
      "Ġcomponen": 6718,
      "Ġsiguen": 6719,
      "Ġfinanciamiento": 6720,
      "Ġcomplejas": 6721,
      "Ġfijo": 6722,
      "Ġexperto": 6723,
      "Ġdistingue": 6724,
      "Ġnormativo": 6725,
      "Ġcomparten": 6726,
      "ĠcorrecciÃ³n": 6727,
      "Ġllegaron": 6728,
      "ĠprofesiÃ³n": 6729,
      "Ġmalicioso": 6730,
      "factura": 6731,
      "ĠrotaciÃ³n": 6732,
      "Ġconfiable": 6733,
      "Ġbanda": 6734,
      "Ġfacilita": 6735,
      "Ġche": 6736,
      "Ġmultiplic": 6737,
      "Ġconstruye": 6738,
      "Ġcomienzan": 6739,
      "Ġsupongamos": 6740,
      "Ġselecciona": 6741,
      "Ġcarreras": 6742,
      "Ġvive": 6743,
      "Ġcompromiso": 6744,
      "pidez": 6745,
      "Ġintens": 6746,
      "Ġcertificado": 6747,
      "Ġcomunicacional": 6748,
      "Ġelaborado": 6749,
      "Ġordinarias": 6750,
      "Ġconstituyente": 6751,
      "ĠmillÃ³n": 6752,
      "ĠsimultÃ¡nea": 6753,
      "Ġactualizaciones": 6754,
      "Ġigualmente": 6755,
      "Ġsuficientes": 6756,
      "crona": 6757,
      "Ġdesigualdades": 6758,
      "Ġsupervisado": 6759,
      "ĠObviamente": 6760,
      "Ġdisminuir": 6761,
      "ĠÃĹ": 6762,
      "Ġpropagan": 6763,
      "Ġvulnerabilidad": 6764,
      "ĠconversaciÃ³n": 6765,
      "Ġfulanito": 6766,
      "Ġconciencia": 6767,
      "Ġinferencias": 6768,
      "Ġendeudamiento": 6769,
      "Ġtransparente": 6770,
      "Ġcontabilizar": 6771,
      "ject": 6772,
      "Ġperfecta": 6773,
      "ĠimplantaciÃ³n": 6774,
      "ĠrectÃ¡ngulos": 6775,
      "Ġtradicionales": 6776,
      "Ġdiscriminar": 6777,
      "ĠNormas": 6778,
      "Ġampar": 6779,
      "Ġensamblador": 6780,
      "ĠDistribuidos": 6781,
      "Ġestimaciones": 6782,
      "Ġtasas": 6783,
      "Ġaveri": 6784,
      "Ġelimina": 6785,
      "Ġropaje": 6786,
      ")\"": 6787,
      "68": 6788,
      "DOS": 6789,
      "IIF": 6790,
      "TS": 6791,
      "aus": 6792,
      "code": 6793,
      "dico": 6794,
      "ede": 6795,
      "hz": 6796,
      "hen": 6797,
      "idente": 6798,
      "ml": 6799,
      "mÃ³": 6800,
      "mus": 6801,
      "ok": 6802,
      "pace": 6803,
      "viendo": 6804,
      "vard": 6805,
      "xil": 6806,
      "Ãį": 6807,
      "Ġprec": 6808,
      "Ġpel": 6809,
      "cina": 6810,
      "tia": 6811,
      "ticiÃ³n": 6812,
      "Ã³lar": 6813,
      "Ã³ven": 6814,
      "trÃ³": 6815,
      "ĠdÃ³lar": 6816,
      "ices": 6817,
      "Ġcongr": 6818,
      "Ġcontin": 6819,
      "Ġsemi": 6820,
      "ĠprohÃŃ": 6821,
      "ector": 6822,
      "idar": 6823,
      "Ġtus": 6824,
      "izada": 6825,
      "Ġbit": 6826,
      "Ġestu": 6827,
      "ola": 6828,
      "lazar": 6829,
      "Ġactores": 6830,
      "ĠestÃ¡tica": 6831,
      "iver": 6832,
      "Ġdistrib": 6833,
      "ĠinflaciÃ³n": 6834,
      "ĠCE": 6835,
      "Ġandroid": 6836,
      "Ġcatal": 6837,
      "Ġrector": 6838,
      "ĠIV": 6839,
      "Ġmigr": 6840,
      "Ġdecirlo": 6841,
      "elÃ©c": 6842,
      "Ġfines": 6843,
      "TER": 6844,
      "ĠMin": 6845,
      "ĠMulti": 6846,
      "ĠjÃ³ven": 6847,
      "TOEXTEN": 6848,
      "ĠTemp": 6849,
      "Ġcomunidades": 6850,
      "Ġimportan": 6851,
      "Ġauxil": 6852,
      "Ġoperacional": 6853,
      "Ġsabes": 6854,
      "Ġdeterminamos": 6855,
      "ĠInterna": 6856,
      "ĠmÃ©dica": 6857,
      "valor": 6858,
      "Ġfuncionando": 6859,
      "Ġvean": 6860,
      "Ġideal": 6861,
      "umann": 6862,
      "Ġtables": 6863,
      "Ġnaci": 6864,
      "Ġdinam": 6865,
      "Ġobliga": 6866,
      "ĠmonolÃŃ": 6867,
      "Ġexistente": 6868,
      "ĠutilizarÃ¡": 6869,
      "Ġnormativas": 6870,
      "Ġcomportamientos": 6871,
      "Ġefectuar": 6872,
      "omunicaciÃ³n": 6873,
      "Ġrecibido": 6874,
      "Ġencargado": 6875,
      "ĠmatemÃ¡ticamente": 6876,
      "iversidad": 6877,
      "Ġuniverso": 6878,
      "ĠpatrÃ³n": 6879,
      "ALES": 6880,
      "Ġadministrativo": 6881,
      "ĠprÃ©stamos": 6882,
      "Ġciudadano": 6883,
      "ĠÃ©stos": 6884,
      "ĠÃ©stas": 6885,
      "grafo": 6886,
      "Ġprecisa": 6887,
      "ĠalimentaciÃ³n": 6888,
      "Ġsecuencial": 6889,
      "Ġrecogida": 6890,
      "Intel": 6891,
      "Ġsurgen": 6892,
      "Ġsurge": 6893,
      "ĠcientÃŃficos": 6894,
      "Ġesquemas": 6895,
      "Ġinmediato": 6896,
      "ĠradioelÃ©c": 6897,
      "ĠplanificÃ³": 6898,
      "Ġentienden": 6899,
      "Ġreglamento": 6900,
      "Ġexactitud": 6901,
      "ĠRegister": 6902,
      "Ġsupervisar": 6903,
      "Ġmonitorear": 6904,
      "Ġdescubrir": 6905,
      "Ġcompetitiva": 6906,
      "QuiÃ©nes": 6907,
      "Ġaislada": 6908,
      "Ġdocumentado": 6909,
      "ĠtriÃ¡ngulo": 6910,
      "WARD": 6911,
      "Ġoficina": 6912,
      "rump": 6913,
      "Ġtelefon": 6914,
      "ĠdescomposiciÃ³n": 6915,
      "Ġposteriormente": 6916,
      "ĠIntegr": 6917,
      "ĠâĢĵ": 6918,
      "Ġiterativo": 6919,
      "Ġinconsisten": 6920,
      "EEE": 6921,
      "ĠDiseÃ±o": 6922,
      "Ġprimitivos": 6923,
      "ĠVMWARE": 6924,
      "Ġsecundaria": 6925,
      "ĠbiolÃ³g": 6926,
      "Ġexcelencia": 6927,
      "ĠNosotros": 6928,
      "ĠmicronÃºcleo": 6929,
      "ÃģTIC": 6930,
      "Ġviceversa": 6931,
      "ĠsincronizaciÃ³n": 6932,
      "Ġsolidario": 6933,
      "ĠHarvard": 6934,
      "Ġsubespacio": 6935,
      "Ġordenanzas": 6936,
      "ĠCaracterÃŃsticas": 6937,
      "Ġparalelismo": 6938,
      "ÃŃxeles": 6939,
      "music": 6940,
      "Ġcongruen": 6941,
      "ĠprohÃŃbe": 6942,
      "ĠjÃ³venes": 6943,
      "TOEXTEND": 6944,
      "ĠradioelÃ©ctrico": 6945,
      "14": 6946,
      "33": 6947,
      "Bueno": 6948,
      "FF": 6949,
      "LY": 6950,
      "OFF": 6951,
      "ZE": 6952,
      "dy": 6953,
      "licaciones": 6954,
      "ope": 6955,
      "puesta": 6956,
      "Ġos": 6957,
      "Ġeje": 6958,
      "deos": 6959,
      "enas": 6960,
      "Ġcib": 6961,
      "Ġcif": 6962,
      "Ġater": 6963,
      "oniendo": 6964,
      "Ġestr": 6965,
      "Ġestric": 6966,
      "tito": 6967,
      "adu": 6968,
      "Ġvio": 6969,
      "Ġconti": 6970,
      "ÃŃna": 6971,
      "amble": 6972,
      "Ġcogn": 6973,
      "Ġreemp": 6974,
      "Ġprom": 6975,
      "Ġprome": 6976,
      "Ġparecer": 6977,
      "eco": 6978,
      "Ġbon": 6979,
      "Ġbuffer": 6980,
      "Ġaltura": 6981,
      "dimen": 6982,
      "Ġdiv": 6983,
      "Ġdiariamente": 6984,
      "Ġsupre": 6985,
      "guiendo": 6986,
      "Ġacord": 6987,
      "Ġexterna": 6988,
      "Ġinters": 6989,
      "ĠCOM": 6990,
      "ibuye": 6991,
      "Ġrue": 6992,
      "Ġracional": 6993,
      "ĠAB": 6994,
      "ĠAs": 6995,
      "Ġempresario": 6996,
      "ĠDB": 6997,
      "ĠDurante": 6998,
      "Ġbasta": 6999,
      "Ġbastantes": 7000,
      "Ġgrie": 7001,
      "Ġgrama": 7002,
      "blemente": 7003,
      "Ġasamble": 7004,
      "Ġpodido": 7005,
      "Ġfinaliza": 7006,
      "Ġobjetiva": 7007,
      "Ġejecutiva": 7008,
      "Ġcorta": 7009,
      "Ġjuntos": 7010,
      "Ġimporte": 7011,
      "Ġpropone": 7012,
      "Ġllego": 7013,
      "Ġregistra": 7014,
      "ĠRu": 7015,
      "Ġllamados": 7016,
      "ĠNet": 7017,
      "Ġbuenos": 7018,
      "Ġordena": 7019,
      "Ġvisual": 7020,
      "ĠOMT": 7021,
      "Ġalmacenes": 7022,
      "ĠmÃ©trica": 7023,
      "Ġactivar": 7024,
      "Ġnegra": 7025,
      "Ġhablaba": 7026,
      "tificar": 7027,
      "Ġfuncionan": 7028,
      "che": 7029,
      "Ġreferente": 7030,
      "Ġestudiando": 7031,
      "Ġirse": 7032,
      "Ġinvitado": 7033,
      "Ġaprendido": 7034,
      "Ġhumanidad": 7035,
      "Ġclientela": 7036,
      "ĠdecÃŃan": 7037,
      "oluciones": 7038,
      "Ġguiar": 7039,
      "Ġdistinguir": 7040,
      "criptaciÃ³n": 7041,
      "Ġpuesta": 7042,
      "Ġjuris": 7043,
      "Ġrenun": 7044,
      "Ġsencillos": 7045,
      "Ġsencillas": 7046,
      "ĠnumÃ©rica": 7047,
      "Ġponerle": 7048,
      "Ġcombina": 7049,
      "Ġdenominado": 7050,
      "ĠdeberÃŃamos": 7051,
      "Ãºblica": 7052,
      "Ġterminar": 7053,
      "Ġpregunto": 7054,
      "brimiento": 7055,
      "Ġconviene": 7056,
      "base": 7057,
      "Ġamortizar": 7058,
      "ĠlÃ©xicos": 7059,
      "ĠtendrÃŃamos": 7060,
      "Ġrutinas": 7061,
      "Ġescucha": 7062,
      "Ġjuicio": 7063,
      "Ġasegurarse": 7064,
      "Ġsecuencias": 7065,
      "put": 7066,
      "ISTA": 7067,
      "Ġfabricar": 7068,
      "ĠenvÃŃan": 7069,
      "Ġcomunicativas": 7070,
      "Ġacreedores": 7071,
      "Ġvocab": 7072,
      "ĠrepeticiÃ³n": 7073,
      "ĠprÃ³ximo": 7074,
      "Ġesperando": 7075,
      "Ġdividirse": 7076,
      "Ġvuelta": 7077,
      "ĠsocioeconÃ³m": 7078,
      "Ġmovimientos": 7079,
      "ĠestratÃ©gicos": 7080,
      "Ġlanzar": 7081,
      "Ġdijeron": 7082,
      "Ġsurgido": 7083,
      "ĠCONATEL": 7084,
      "ĠdaÃ±ado": 7085,
      "ĠFORWARD": 7086,
      "Ġescenario": 7087,
      "Ġinstrumentos": 7088,
      "Ġramas": 7089,
      "ĠarquitectÃ³nicos": 7090,
      "ĠFunciÃ³n": 7091,
      "ĠInteligencia": 7092,
      "Ġinconsistencia": 7093,
      "Ġcoincide": 7094,
      "Ġespecializadas": 7095,
      "ĠmacroeconomÃŃa": 7096,
      "Ġmodern": 7097,
      "Ġinversionistas": 7098,
      "Ġempiezan": 7099,
      "Ġcomprensible": 7100,
      "Ġvestidos": 7101,
      "Ġsepan": 7102,
      "ĠrecolecciÃ³n": 7103,
      "CuÃ¡ntos": 7104,
      "Ġdefensa": 7105,
      "Ġlexema": 7106,
      "ĠpÃ¡rrafo": 7107,
      "ĠmercaderÃŃa": 7108,
      "Ġdifusa": 7109,
      "ĠMODELO": 7110,
      "Ġsentimientos": 7111,
      "Ġconvirtiendo": 7112,
      "enguaje": 7113,
      "Ġasterisco": 7114,
      "ĠsemÃ¡foro": 7115,
      "Ġsilicio": 7116,
      "Ġsentarme": 7117,
      "ĠimportantÃŃ": 7118,
      "Ġaterr": 7119,
      "Ġcogni": 7120,
      ")^": 7121,
      "CRE": 7122,
      "IL": 7123,
      "MAR": 7124,
      "SB": 7125,
      "aunque": 7126,
      "dra": 7127,
      "fismo": 7128,
      "hacer": 7129,
      "ija": 7130,
      "jan": 7131,
      "lim": 7132,
      "ug": 7133,
      "Ġpistas": 7134,
      "ciÃ³": 7135,
      "temos": 7136,
      "Ġmente": 7137,
      "inos": 7138,
      "Ġnac": 7139,
      "Ġconexo": 7140,
      "ÃŃdo": 7141,
      "Ġpru": 7142,
      "Ġcobr": 7143,
      "Ġcociente": 7144,
      "Ġrein": 7145,
      "iddle": 7146,
      "abe": 7147,
      "activa": 7148,
      "menes": 7149,
      "Ġsiquiera": 7150,
      "tividades": 7151,
      "cuÃ¡les": 7152,
      "Ġilim": 7153,
      "Ġusos": 7154,
      "trocin": 7155,
      "Ġtienda": 7156,
      "Ġhack": 7157,
      "Ġestatus": 7158,
      "ĠCor": 7159,
      "Ġdeba": 7160,
      "ĠmagnÃ©": 7161,
      "Ġrode": 7162,
      "ĠAh": 7163,
      "Ġverbo": 7164,
      "ĠclÃŃn": 7165,
      "ĠclÃºs": 7166,
      "tilla": 7167,
      "ĠhabrÃ¡": 7168,
      "Ġejer": 7169,
      "ĠID": 7170,
      "Ġgrup": 7171,
      "nodo": 7172,
      "Ġvalidez": 7173,
      "Ġcargos": 7174,
      "Ġprefer": 7175,
      "Ġejecuten": 7176,
      "Ġpatrocin": 7177,
      "Ġmediana": 7178,
      "Ġmotiv": 7179,
      "Ġmouse": 7180,
      "Ġdireccionar": 7181,
      "Ġrepro": 7182,
      "Ġrealizado": 7183,
      "ĠRo": 7184,
      "Ġdefinidos": 7185,
      "Ġpreserv": 7186,
      "Ġvisible": 7187,
      "Ġaplicado": 7188,
      "Ġaplicables": 7189,
      "Ġvencimiento": 7190,
      "Ġexplica": 7191,
      "ĠBY": 7192,
      "ĠconcepciÃ³n": 7193,
      "ĠmÃ©dicos": 7194,
      "Ġactivas": 7195,
      "ĠVF": 7196,
      "tificaciÃ³n": 7197,
      "ĠestarÃ¡": 7198,
      "Ġvea": 7199,
      "ĠvehÃŃ": 7200,
      "Ġcancha": 7201,
      "Ġsubray": 7202,
      "Ġreforma": 7203,
      "Ġtomado": 7204,
      "Eso": 7205,
      "Ġinvertido": 7206,
      "Ġsegundos": 7207,
      "Ġsignificativa": 7208,
      "ĠtÃ©cnicos": 7209,
      "cioso": 7210,
      "ĠpolÃŃtico": 7211,
      "Ġmono": 7212,
      "Ġduros": 7213,
      "Ġcalifica": 7214,
      "Ġfiallo": 7215,
      "ĠestructuraciÃ³n": 7216,
      "ĠtamaÃ±os": 7217,
      "Ġcontencioso": 7218,
      "ĠprÃ¡ctico": 7219,
      "Ġ112": 7220,
      "Ġconectores": 7221,
      "ĠreciÃ©n": 7222,
      "ĠRepres": 7223,
      "ĠfÃŃsicamente": 7224,
      "Ġestratos": 7225,
      "Ġresponsables": 7226,
      "Ġfran": 7227,
      "Ġtermino": 7228,
      "Ġsemicon": 7229,
      "Ġnecesitas": 7230,
      "Ġfuturos": 7231,
      "Ġsacan": 7232,
      "Ġdesarrollando": 7233,
      "ĠÃ³pticos": 7234,
      "ĠDesde": 7235,
      "Ġtercero": 7236,
      "Ġaccede": 7237,
      "Ġescribiendo": 7238,
      "Ġaporten": 7239,
      "Ġintentar": 7240,
      "ĠcapacitaciÃ³n": 7241,
      "Ġadecuados": 7242,
      "Ġconsejo": 7243,
      "fieren": 7244,
      "Ġescoge": 7245,
      "Ġeditar": 7246,
      "Ġfoco": 7247,
      "Ġpodamos": 7248,
      "ĠpodÃŃamos": 7249,
      "Ġdisminuye": 7250,
      "Ġninguno": 7251,
      "Ġcompetidores": 7252,
      "Ġpiensan": 7253,
      "ĠPrincip": 7254,
      "ĠdeclaraciÃ³n": 7255,
      "ĠÃŃndices": 7256,
      "Ġconsecuencias": 7257,
      "Ġargumentativos": 7258,
      "Ġclasifican": 7259,
      "Ġinyectar": 7260,
      "ĠmanipulaciÃ³n": 7261,
      "ĠconceptualizaciÃ³n": 7262,
      "Ġprivilegi": 7263,
      "Ġprivilegios": 7264,
      "ĠDirecciÃ³n": 7265,
      "ĠexplotaciÃ³n": 7266,
      "cket": 7267,
      "Ġfactibilidad": 7268,
      "Ġinterconectan": 7269,
      "EXTENTS": 7270,
      "ĠinnovaciÃ³n": 7271,
      "Ġetiquetas": 7272,
      "ĠexcepciÃ³n": 7273,
      "Ġmaximizar": 7274,
      "Ġtransi": 7275,
      "Ġaconte": 7276,
      "ĠortografÃŃa": 7277,
      "Ġsimulaciones": 7278,
      "ĠARP": 7279,
      "ĠTICS": 7280,
      "Ġpobreza": 7281,
      "ĠsubsecretarÃŃa": 7282,
      "ystem": 7283,
      "ĠaviÃ³n": 7284,
      "Ġquisi": 7285,
      "Ġrechazar": 7286,
      "Ġultimo": 7287,
      "ĠRecordemos": 7288,
      "Ġcircunstancias": 7289,
      "Ġpseudoaleatorios": 7290,
      "ĠPRINCIPIO": 7291,
      "Ġcheque": 7292,
      "ĠclÃºster": 7293,
      "Ġsemiconduc": 7294,
      "Aunque": 7295,
      "Des": 7296,
      "EC": 7297,
      "ILE": 7298,
      "NA": 7299,
      "VI": 7300,
      "bre": 7301,
      "figur": 7302,
      "gÃ¡n": 7303,
      "gimen": 7304,
      "lue": 7305,
      "ql": 7306,
      "sta": 7307,
      "Ġ:": 7308,
      "Ġlenta": 7309,
      "Ġafin": 7310,
      "Ġquedan": 7311,
      "Ã³gn": 7312,
      "truir": 7313,
      "Ġensa": 7314,
      "Ġenlace": 7315,
      "tabilidad": 7316,
      "Ġvirus": 7317,
      "Ġcoorden": 7318,
      "Ġredi": 7319,
      "Ã©monos": 7320,
      "Ã©gimen": 7321,
      "Ġfibra": 7322,
      "Ġpares": 7323,
      "izadas": 7324,
      "Ġaler": 7325,
      "Ġalum": 7326,
      "Ġsimples": 7327,
      "Ġdelante": 7328,
      "Ġmetro": 7329,
      "dicidad": 7330,
      "ĠtrÃ¡n": 7331,
      "ĠET": 7332,
      "ĠECU": 7333,
      "ĠEjecu": 7334,
      "Ġpuedas": 7335,
      "testad": 7336,
      "Ġexam": 7337,
      "Ġextin": 7338,
      "Ġexager": 7339,
      "imas": 7340,
      "imero": 7341,
      "Ġinterper": 7342,
      "Ġprocesada": 7343,
      "Ġresistir": 7344,
      "turar": 7345,
      "sificaciÃ³n": 7346,
      "ĠSecu": 7347,
      "ĠSCROLL": 7348,
      "ĠrÃ©gimen": 7349,
      "ĠAP": 7350,
      "ĠAudi": 7351,
      "Ġcomida": 7352,
      "ĠPlan": 7353,
      "Ġarista": 7354,
      "Ġversiones": 7355,
      "Ġimpos": 7356,
      "ĠimplÃŃci": 7357,
      "Ġhabitu": 7358,
      "Ġmenores": 7359,
      "ĠImple": 7360,
      "Ġpotestad": 7361,
      "ierÃŃa": 7362,
      "ĠincÃ³gn": 7363,
      "Ġcaptura": 7364,
      "Ġ106": 7365,
      "Ġrealizando": 7366,
      "Ġrespecta": 7367,
      "Ġautores": 7368,
      "ĠsaliÃ³": 7369,
      "Ġprestado": 7370,
      "ĠNacional": 7371,
      "Ġvistas": 7372,
      "Ġaplicarse": 7373,
      "ĠBlue": 7374,
      "ĠInc": 7375,
      "Ġactivity": 7376,
      "trarse": 7377,
      "Ġinicialmente": 7378,
      "Ġabstra": 7379,
      "ĠingresÃ³": 7380,
      "ĠSeguimos": 7381,
      "Ġentrante": 7382,
      "ĠmontÃ³n": 7383,
      "Ġdarle": 7384,
      "Ġadministradores": 7385,
      "Ġfijos": 7386,
      "ĠguÃŃa": 7387,
      "Ġrepresentaciones": 7388,
      "cripciÃ³n": 7389,
      "Ġcomparan": 7390,
      "Ġexpresan": 7391,
      "Ġfluir": 7392,
      "Ġaudio": 7393,
      "Ġagreg": 7394,
      "ionarios": 7395,
      "Ġrobo": 7396,
      "ĠdiseÃ±ados": 7397,
      "Ġespecificado": 7398,
      "ifi": 7399,
      "Ġliderazgo": 7400,
      "ĠcuÃ¡ntos": 7401,
      "ASE": 7402,
      "ĠontologÃŃa": 7403,
      "Ġinteracciones": 7404,
      "Ġsatisfa": 7405,
      "Ġproveedor": 7406,
      "Ġescalar": 7407,
      "ĠXP": 7408,
      "Ġizquierdo": 7409,
      "Ġganancia": 7410,
      "Ġhered": 7411,
      "Ġahorros": 7412,
      "Ġescribo": 7413,
      "ĠdÃ©biles": 7414,
      "ĠMetodo": 7415,
      "Ġarreglar": 7416,
      "ĠpreparaciÃ³n": 7417,
      "Ġadaptarse": 7418,
      "izacion": 7419,
      "Ġordinales": 7420,
      "ĠparÃ¡metro": 7421,
      "tÃºa": 7422,
      "Ġgigas": 7423,
      "Ġplanificado": 7424,
      "Ġentiendan": 7425,
      "ĠestimaciÃ³n": 7426,
      "Ġcuotas": 7427,
      "Ġviajar": 7428,
      "Ġoriginales": 7429,
      "Ġcorreos": 7430,
      "Ġemitir": 7431,
      "Ġnegativos": 7432,
      "viaciones": 7433,
      "Ġhogares": 7434,
      "Ġvincul": 7435,
      "Ġequivalente": 7436,
      "Ġmanufactura": 7437,
      "ĠPrimero": 7438,
      "Ġeduca": 7439,
      "Ġimagino": 7440,
      "Ġjuzgada": 7441,
      "ĠsurgiÃ³": 7442,
      "Toda": 7443,
      "ĠdepuraciÃ³n": 7444,
      "Ġvigencia": 7445,
      "Ġtransparencia": 7446,
      "Ġfactible": 7447,
      "Ġbarb": 7448,
      "Ġtransformaciones": 7449,
      "ĠConceptos": 7450,
      "ĠhomogÃ©nea": 7451,
      "Ġapela": 7452,
      "Ġcostumbre": 7453,
      "Ġsubordinado": 7454,
      "Ġblanco": 7455,
      "Ġsocioculturales": 7456,
      "Ġsensores": 7457,
      "iness": 7458,
      "Ġacorde": 7459,
      "Ġevolucionando": 7460,
      "Ġenglob": 7461,
      "Ġpolimor": 7462,
      "Ġremuner": 7463,
      "Ġpropaganda": 7464,
      "Ġcoordenadas": 7465,
      "ĠtrÃ¡nsito": 7466,
      "Ġinterperson": 7467,
      ".,": 7468,
      "12": 7469,
      "Direc": 7470,
      "HDPI": 7471,
      "MÃģTIC": 7472,
      "Pues": 7473,
      "bern": 7474,
      "ging": 7475,
      "ian": 7476,
      "lamos": 7477,
      "mbiÃ©n": 7478,
      "rame": 7479,
      "su": 7480,
      "utas": 7481,
      "uario": 7482,
      "yac": 7483,
      "Ġ'": 7484,
      "Ġeman": 7485,
      "Ġequidad": 7486,
      "del": 7487,
      "osticar": 7488,
      "Ġpac": 7489,
      "Ġplas": 7490,
      "Ġcrece": 7491,
      "ciles": 7492,
      "onente": 7493,
      "arning": 7494,
      "asar": 7495,
      "Ġmuer": 7496,
      "Ġmadre": 7497,
      "ancias": 7498,
      "ĠencriptaciÃ³n": 7499,
      "remo": 7500,
      "Ġdr": 7501,
      "Ġddr": 7502,
      "tambiÃ©n": 7503,
      "Ġvivo": 7504,
      "isiÃ³n": 7505,
      "ĠhÃ¡": 7506,
      "Ġcofac": 7507,
      "Ġrefin": 7508,
      "Ġfis": 7509,
      "idirec": 7510,
      "Ġnombr": 7511,
      "ueven": 7512,
      "Ġalf": 7513,
      "Ġaline": 7514,
      "urÃŃa": 7515,
      "ĠmemÃ©": 7516,
      "dimos": 7517,
      "dieron": 7518,
      "Ġgam": 7519,
      "ĠEval": 7520,
      "layout": 7521,
      "daciones": 7522,
      "tarnos": 7523,
      "Ġtax": 7524,
      "torial": 7525,
      "Ġobede": 7526,
      "Ġrestring": 7527,
      "tuales": 7528,
      "Ġdecidieron": 7529,
      "Ġverifica": 7530,
      "Ġimplicar": 7531,
      "Ġtrabajen": 7532,
      "Ġtrabajado": 7533,
      "Ġhacerle": 7534,
      "Ġhablan": 7535,
      "ĠDPI": 7536,
      "poca": 7537,
      "Ġrecom": 7538,
      "Ġdichos": 7539,
      "mbo": 7540,
      "mitir": 7541,
      "Ġpreocu": 7542,
      "elec": 7543,
      "Ġpautas": 7544,
      "ĠMa": 7545,
      "ĠEsos": 7546,
      "Ġpasando": 7547,
      "Ġcapta": 7548,
      "ĠrepÃºblica": 7549,
      "Ġpostu": 7550,
      "Ġcreada": 7551,
      "Ġ108": 7552,
      "Ġrealizadas": 7553,
      "ĠRES": 7554,
      "Ġsalga": 7555,
      "Ġpermitan": 7556,
      "Ġordenados": 7557,
      "Ġlentitud": 7558,
      "Ġaplicadas": 7559,
      "ĠexplicaciÃ³n": 7560,
      "Ã³gico": 7561,
      "ĠVal": 7562,
      "ĠHoy": 7563,
      "ĠÃ©poca": 7564,
      "Ġsubproceso": 7565,
      "drÃŃan": 7566,
      "Ġcaracteris": 7567,
      "Ġespecialmente": 7568,
      "Ġformando": 7569,
      "Ġformales": 7570,
      "Ġformular": 7571,
      "Ġestudios": 7572,
      "Ġcierre": 7573,
      "Ġlibres": 7574,
      "Ġlibrer": 7575,
      "Ġcentra": 7576,
      "Ġdiagn": 7577,
      "Ġacuerdan": 7578,
      "Ġcalce": 7579,
      "Ġactualizar": 7580,
      "Ġimplementaciones": 7581,
      "Ġfile": 7582,
      "Ġguard": 7583,
      "Ġbajar": 7584,
      "Ġterremo": 7585,
      "cript": 7586,
      "Ġexpresada": 7587,
      "Ġproporcional": 7588,
      "Ġindex": 7589,
      "Ġindefin": 7590,
      "Ġmargen": 7591,
      "Ġcuentan": 7592,
      "ĠconsideraciÃ³n": 7593,
      "dice": 7594,
      "Ġmalware": 7595,
      "Ġentend": 7596,
      "Ġframe": 7597,
      "ĠAnual": 7598,
      "ĠinclusiÃ³n": 7599,
      "Ġparticulares": 7600,
      "Ġchina": 7601,
      "ĠorientaciÃ³n": 7602,
      "Ġcursiva": 7603,
      "Ġguste": 7604,
      "Ġestablecidos": 7605,
      "Ġpresentamos": 7606,
      "ĠelectrÃ³nica": 7607,
      "Ġescriba": 7608,
      "SIZE": 7609,
      "Ġsigma": 7610,
      "Ġintercambiar": 7611,
      "ĠcrÃ©ditos": 7612,
      "Ġcomunicacionales": 7613,
      "ĠTodos": 7614,
      "Ġregresa": 7615,
      "Ġmanejando": 7616,
      "Ġinmediatos": 7617,
      "ĠdetecciÃ³n": 7618,
      "ĠcategorÃŃa": 7619,
      "ĠdevoluciÃ³n": 7620,
      "sionales": 7621,
      "LECT": 7622,
      "Ġestimadores": 7623,
      "ĠModelado": 7624,
      "Ġimpreso": 7625,
      "ĠÃºtiles": 7626,
      "Comp": 7627,
      "Ġnegativa": 7628,
      "ĠcrÃŃticas": 7629,
      "ĠmetaheurÃŃsticas": 7630,
      "Ġglobales": 7631,
      "ACIONES": 7632,
      "Ġinconvenientes": 7633,
      "ĠagrupaciÃ³n": 7634,
      "Ġdeclaraciones": 7635,
      "globa": 7636,
      "Ġfragmentos": 7637,
      "ĠinserciÃ³n": 7638,
      "ĠMemory": 7639,
      "Ġbancarias": 7640,
      "Ġfacultades": 7641,
      "ĠarquitectÃ³nico": 7642,
      "Ġmicroservicio": 7643,
      "ĠUNI": 7644,
      "Ġestandarizar": 7645,
      "Ġhistoria": 7646,
      "Ġautomatizado": 7647,
      "ĠrectÃ¡ngulo": 7648,
      "Ġrespectivamente": 7649,
      "Ġinvolucradas": 7650,
      "ĠAnaly": 7651,
      "Ġenriquecer": 7652,
      "Ġfortale": 7653,
      "Ġdiscretas": 7654,
      "ĠQuito": 7655,
      "Ġfamiliares": 7656,
      "ĠINFOR": 7657,
      "ĠDefiniciÃ³n": 7658,
      "Ġflecha": 7659,
      "ĠprobabilÃŃsticos": 7660,
      "ĠAUDI": 7661,
      "ĠclÃ¡sica": 7662,
      "Ġprofundidad": 7663,
      "ĠintÃ©rprete": 7664,
      "UPTEL": 7665,
      "Ġdispuestos": 7666,
      "Ġrenegociar": 7667,
      "Ġnarra": 7668,
      "ĠteÃ³rica": 7669,
      "Ġamenaza": 7670,
      "Ġruedas": 7671,
      "ĠRutinas": 7672,
      "Ġquisiera": 7673,
      "ĠlibrerÃŃas": 7674,
      ").-": 7675,
      "Cons": 7676,
      "Debe": 7677,
      "EY": 7678,
      "GO": 7679,
      "GSI": 7680,
      "MBR": 7681,
      "Per": 7682,
      "Que": 7683,
      "axi": 7684,
      "emas": 7685,
      "gin": 7686,
      "nan": 7687,
      "sas": 7688,
      "ww": 7689,
      "Ġdemor": 7690,
      "Ġlic": 7691,
      "Ġsql": 7692,
      "eses": 7693,
      "orama": 7694,
      "quemos": 7695,
      "una": 7696,
      "Ġquehacer": 7697,
      "trac": 7698,
      "ino": 7699,
      "Ġnul": 7700,
      "ĠvÃŃas": 7701,
      "ise": 7702,
      "istro": 7703,
      "ÃŃtulo": 7704,
      "Ġinj": 7705,
      "ĠhÃŃ": 7706,
      "Ġcog": 7707,
      "Ġcoaxi": 7708,
      "Ġreduc": 7709,
      "Ã©tica": 7710,
      "Ġprovis": 7711,
      "Ġtera": 7712,
      "uso": 7713,
      "Ġnotas": 7714,
      "Ġblog": 7715,
      "Ġalar": 7716,
      "Ġaltas": 7717,
      "Ġloco": 7718,
      "Ġcompac": 7719,
      "ticales": 7720,
      "Ġseries": 7721,
      "ĠdaÃ±o": 7722,
      "Ãºan": 7723,
      "Ġdesemb": 7724,
      "dese": 7725,
      "Ġexterior": 7726,
      "ividad": 7727,
      "Ã©ndo": 7728,
      "ficar": 7729,
      "Ġobvio": 7730,
      "Ġrestar": 7731,
      "ĠapÃ³s": 7732,
      "Ġinflu": 7733,
      "ĠComunicaciones": 7734,
      "ulario": 7735,
      "ĠLan": 7736,
      "ĠSea": 7737,
      "ĠPue": 7738,
      "Ġconsistir": 7739,
      "Ġarbi": 7740,
      "ĠDonde": 7741,
      "moria": 7742,
      "gunas": 7743,
      "ĠIEEE": 7744,
      "Ġcarros": 7745,
      "Ġprevia": 7746,
      "Ġcontroladores": 7747,
      "ĠMon": 7748,
      "Ġproductores": 7749,
      "Ġjun": 7750,
      "ĠTAB": 7751,
      "ĠcapÃŃtulo": 7752,
      "Ġcamis": 7753,
      "Ġcreadas": 7754,
      "Ġlleven": 7755,
      "Ġ109": 7756,
      "Ġsobrec": 7757,
      "Ġauten": 7758,
      "renunci": 7759,
      "ĠUtil": 7760,
      "Ġadyac": 7761,
      "Ġcambiantes": 7762,
      "Ġdefinida": 7763,
      "Ġrelativa": 7764,
      "mega": 7765,
      "Ġrecursivas": 7766,
      "Ġpresidente": 7767,
      "paraciÃ³n": 7768,
      "Ġalmacenadas": 7769,
      "Ġvenir": 7770,
      "Ġequivo": 7771,
      "ĠHab": 7772,
      "Ġsiguiendo": 7773,
      "Ġconstituidos": 7774,
      "ĠGaus": 7775,
      "Ġirrenunci": 7776,
      "Ġdesplie": 7777,
      "Ġentren": 7778,
      "mulas": 7779,
      "Ġcalcu": 7780,
      "Ġactualidad": 7781,
      "Ġestructurar": 7782,
      "Ġinteresadas": 7783,
      "Ġcomprenden": 7784,
      "Ġcomprendido": 7785,
      "Ġcris": 7786,
      "ĠjurÃŃdicos": 7787,
      "ĠRequerimientos": 7788,
      "Ġpiezas": 7789,
      "ĠnumÃ©ricos": 7790,
      "Ġconsiderada": 7791,
      "Ġconsideramos": 7792,
      "Ġmalicios": 7793,
      "uerto": 7794,
      "Ġhoja": 7795,
      "Ġ199": 7796,
      "ĠrÃ¡pidos": 7797,
      "ĠfrÃŃo": 7798,
      "Ġdistribuidas": 7799,
      "ENAD": 7800,
      "registro": 7801,
      "Ġanalista": 7802,
      "Ġindicando": 7803,
      "tÃ¡ndose": 7804,
      "Ġexternamente": 7805,
      "ĠcomÃºnmente": 7806,
      "AST": 7807,
      "ADENAD": 7808,
      "Ġsoportan": 7809,
      "Ġinstituto": 7810,
      "Ġproveer": 7811,
      "ache": 7812,
      "ĠtendrÃ¡n": 7813,
      "Ġoptimizando": 7814,
      "ĠXML": 7815,
      "Ġrutina": 7816,
      "Ġrapidez": 7817,
      "Ġganancias": 7818,
      "ĠlÃŃderes": 7819,
      "Ġeficientemente": 7820,
      "Ġbinarios": 7821,
      "Ġbloquear": 7822,
      "Ġobtenida": 7823,
      "Ġobtenidos": 7824,
      "Ġrecogido": 7825,
      "ĠfÃ³rmulas": 7826,
      "Ġprivado": 7827,
      "ĠestandarizaciÃ³n": 7828,
      "Ġinstalar": 7829,
      "Ġmillon": 7830,
      "ĠServicios": 7831,
      "Ġamd": 7832,
      "ĠexperimentaciÃ³n": 7833,
      "ĠApache": 7834,
      "âĢĻ": 7835,
      "ĠObjetivos": 7836,
      "ĠtÃŃpico": 7837,
      "Ġprotegerse": 7838,
      "Ġsumando": 7839,
      "ĠvacÃŃo": 7840,
      "ĠIRQ": 7841,
      "sandra": 7842,
      "ĠhistÃ³ricos": 7843,
      "ĠdueÃ±os": 7844,
      "Ġconversar": 7845,
      "Ġaprovechar": 7846,
      "Ġexclusivo": 7847,
      "Ġdivisar": 7848,
      "Ġadoptar": 7849,
      "Ġtrayectorias": 7850,
      "Ġemociones": 7851,
      "Ġvinculado": 7852,
      "Ġvinculante": 7853,
      "ĠNeumann": 7854,
      "Ġilustra": 7855,
      "Ġfrecuente": 7856,
      "Ġduda": 7857,
      "Ġacaparar": 7858,
      "Ġnominal": 7859,
      "ĠcontraseÃ±as": 7860,
      "ĠENCADENAD": 7861,
      "Ġmegabits": 7862,
      "ĠInterrupciones": 7863,
      "Ġtitular": 7864,
      "Ġmodelaje": 7865,
      "Ġconcesionarios": 7866,
      "Ġmanifiestan": 7867,
      "Ġaveriguar": 7868,
      "Ġsemiestructur": 7869,
      "ĠIVA": 7870,
      "Ġvocabulario": 7871,
      "Ġhackers": 7872,
      "ĠRocket": 7873,
      "Ġimposible": 7874,
      "Ġmuere": 7875,
      "Ġterremoto": 7876,
      "ĠapÃ³stro": 7877,
      "ĠGauss": 7878,
      ");": 7879,
      "As": 7880,
      "CD": 7881,
      "CPU": 7882,
      "Luego": 7883,
      "LIC": 7884,
      "Ob": 7885,
      "Su": 7886,
      "USE": 7887,
      "XX": 7888,
      "ata": 7889,
      "hip": 7890,
      "iamos": 7891,
      "ow": 7892,
      "rado": 7893,
      "sor": 7894,
      "uter": 7895,
      "uts": 7896,
      "wn": 7897,
      "Ġis": 7898,
      "Ġdele": 7899,
      "Ġdeducir": 7900,
      "Ġlin": 7901,
      "Ġpad": 7902,
      "Ġplen": 7903,
      "Ġsp": 7904,
      "Ġatien": 7905,
      "Ġaval": 7906,
      "Ġambi": 7907,
      "Ġarea": 7908,
      "est": 7909,
      "onada": 7910,
      "aras": 7911,
      "quen": 7912,
      "orn": 7913,
      "Ġesencia": 7914,
      "tex": 7915,
      "tidi": 7916,
      "tren": 7917,
      "trans": 7918,
      "inter": 7919,
      "inform": 7920,
      "Ġenum": 7921,
      "Ġdra": 7922,
      "mputador": 7923,
      "Ġcoger": 7924,
      "Ġcodifica": 7925,
      "Ġcotidi": 7926,
      "Ġrece": 7927,
      "Ġfl": 7928,
      "Ġprote": 7929,
      "Ġparser": 7930,
      "Ġbarr": 7931,
      "Ġcuestion": 7932,
      "dimientos": 7933,
      "tive": 7934,
      "Ġtengas": 7935,
      "bito": 7936,
      "Ġsug": 7937,
      "ĠEST": 7938,
      "Ãºmenes": 7939,
      "Ġdesen": 7940,
      "Ġhagamos": 7941,
      "Ã±Ã³n": 7942,
      "Ġlejos": 7943,
      "Ġintermedios": 7944,
      "Ġresal": 7945,
      "Ġapare": 7946,
      "tuando": 7947,
      "ĠCR": 7948,
      "ĠSTA": 7949,
      "ĠSelec": 7950,
      "ille": 7951,
      "illas": 7952,
      "Ġtextual": 7953,
      "Ġdecide": 7954,
      "Ġinformar": 7955,
      "ĠPOS": 7956,
      "Ġinstan": 7957,
      "Ġarro": 7958,
      "Ġ2000": 7959,
      "rays": 7960,
      "ĠDo": 7961,
      "vertencia": 7962,
      "Ġregiones": 7963,
      "Ġcarro": 7964,
      "Ġtransfieren": 7965,
      "ezcan": 7966,
      "Ġejecutivos": 7967,
      "Ġorganismo": 7968,
      "licando": 7969,
      "umna": 7970,
      "ĠMal": 7971,
      "Ġdirectivos": 7972,
      "TOS": 7973,
      "ĠTener": 7974,
      "Ġcreciente": 7975,
      "Ġrealizados": 7976,
      "Ġrespuestas": 7977,
      "Ġadvertencia": 7978,
      "pens": 7979,
      "ĠNO": 7980,
      "Ġvisibles": 7981,
      "Ġvendiendo": 7982,
      "Ġexpor": 7983,
      "Ġexpro": 7984,
      "ĠBÃºsque": 7985,
      "istentes": 7986,
      "valores": 7987,
      "ĠHyper": 7988,
      "ĠestarÃŃa": 7989,
      "Ġdependiente": 7990,
      "Ġrefor": 7991,
      "Ġabsur": 7992,
      "Ġcenso": 7993,
      "Ġescritos": 7994,
      "ĠFlex": 7995,
      "Ġintegrante": 7996,
      "Ġconside": 7997,
      "Ġconsigue": 7998,
      "ĠUniversidad": 7999,
      "Ġdiaposi": 8000,
      "Ġencuentro": 8001,
      "Ġrelacionan": 8002,
      "ĠactualizaciÃ³n": 8003,
      "Ġfiabilidad": 8004,
      "ĠcolÃ©rico": 8005,
      "Ġrepresentativa": 8006,
      "Ġprimeramente": 8007,
      "Ġcompartido": 8008,
      "Ġcompartida": 8009,
      "Ġcompetir": 8010,
      "Porque": 8011,
      "Ġ114": 8012,
      "Ġproduzca": 8013,
      "edora": 8014,
      "Ġmultidimen": 8015,
      "Ġrecientemente": 8016,
      "ĠtelecomunicaciÃ³n": 8017,
      "Ġnumeros": 8018,
      "Ġconsiderando": 8019,
      "dicciÃ³n": 8020,
      "Ġbienestar": 8021,
      "Ġdemandar": 8022,
      "ĠespecÃŃficamente": 8023,
      "ĠDEL": 8024,
      "Ġentendible": 8025,
      "Ġseparables": 8026,
      "Ġtuvo": 8027,
      "ĠinformÃ¡ticas": 8028,
      "Ġrouter": 8029,
      "Ġrecuerdo": 8030,
      "Ġasociadas": 8031,
      "ING": 8032,
      "Ġgastar": 8033,
      "REUSE": 8034,
      "Ġmultiplicidad": 8035,
      "Ġrazones": 8036,
      "Ġinterpreta": 8037,
      "Ġelectricidad": 8038,
      "Ġescalonada": 8039,
      "Ġperiodicidad": 8040,
      "ĠcomprÃ©": 8041,
      "Ġguardan": 8042,
      "Ġescuchado": 8043,
      "Ġescriben": 8044,
      "ĠExiste": 8045,
      "crono": 8046,
      "Ġconcreta": 8047,
      "Ġconcretos": 8048,
      "Ġsatisface": 8049,
      "Ġrepetir": 8050,
      "Ġkil": 8051,
      "Ġrecoger": 8052,
      "Ġplantea": 8053,
      "ĠenseÃ±a": 8054,
      "ĠsemÃ¡ntica": 8055,
      "LOB": 8056,
      "ysis": 8057,
      "Ġrepetidos": 8058,
      "Ġdestina": 8059,
      "Ġpush": 8060,
      "Ġpuso": 8061,
      "Ġfoto": 8062,
      "Ġsucediendo": 8063,
      "Ġsanitaria": 8064,
      "Ġesperar": 8065,
      "Ġdejaba": 8066,
      "Ġ2019": 8067,
      "ĠÃī": 8068,
      "Ġpotente": 8069,
      "Ġelectorales": 8070,
      "apital": 8071,
      "Ġargumentativo": 8072,
      "Ġflexible": 8073,
      "Ġcontribuido": 8074,
      "Ġtrabajemos": 8075,
      "Ġprevalece": 8076,
      "politan": 8077,
      "Ġocup": 8078,
      "Ġcomputacionales": 8079,
      "Ġexclusivamente": 8080,
      "ĠelÃ©ctrico": 8081,
      "Ġhallar": 8082,
      "Ġtorre": 8083,
      "Ġkilob": 8084,
      "Ġremota": 8085,
      "Ġdestinadas": 8086,
      "ĠSupon": 8087,
      "Ġmultiv": 8088,
      "Ġreutilizable": 8089,
      "ĠrevoluciÃ³n": 8090,
      "Ġlistado": 8091,
      "Ġcomprometer": 8092,
      "Ġgradu": 8093,
      "Ġdificultades": 8094,
      "Ġseleccionado": 8095,
      "Ġpopular": 8096,
      "Ġolvid": 8097,
      "Ġprobablemente": 8098,
      "Ġcostumbres": 8099,
      "ĠProcess": 8100,
      "Ġayudando": 8101,
      "Ġnominales": 8102,
      "Ġuniforme": 8103,
      "ĠacadÃ©mica": 8104,
      "Ġindispens": 8105,
      "ĠDATA": 8106,
      "Ġantiguos": 8107,
      "ĠvÃŃnculo": 8108,
      "ĠParti": 8109,
      "Ġsencillito": 8110,
      "Ġenfren": 8111,
      "Ġalojar": 8112,
      "Ġperciben": 8113,
      "Ġpractica": 8114,
      "ĠtrÃ¡fico": 8115,
      "ĠfundamentaciÃ³n": 8116,
      "Ġcuyas": 8117,
      "Ġosea": 8118,
      "ÃŃnate": 8119,
      "Ġrenuncia": 8120,
      "ĠsocioeconÃ³mica": 8121,
      "Ġpolimorfismo": 8122,
      "ĠhÃ¡bito": 8123,
      "ĠINFORMÃģTIC": 8124,
      "Ġinfluencia": 8125,
      "Ġenumer": 8126,
      "ĠSTATIC": 8127,
      "ĠBÃºsqueda": 8128,
      "->": 8129,
      "500": 8130,
      "?:": 8131,
      "AV": 8132,
      "CM": 8133,
      "Dentro": 8134,
      "MO": 8135,
      "YN": 8136,
      "][": 8137,
      "fras": 8138,
      "gorit": 8139,
      "ht": 8140,
      "lad": 8141,
      "mÃ¡n": 8142,
      "ners": 8143,
      "rue": 8144,
      "riendo": 8145,
      "tners": 8146,
      "zco": 8147,
      "Ġ&": 8148,
      "osos": 8149,
      "osas": 8150,
      "Ġllave": 8151,
      "Ġpiz": 8152,
      "Ġcuel": 8153,
      "Ġstring": 8154,
      "Ġquede": 8155,
      "anda": 8156,
      "tiÃ³": 8157,
      "tricos": 8158,
      "Ġene": 8159,
      "Ġenco": 8160,
      "Ġenfer": 8161,
      "Ġencam": 8162,
      "ĠuniÃ³n": 8163,
      "Ġvieron": 8164,
      "Ã¡ticas": 8165,
      "ÃŃgen": 8166,
      "amer": 8167,
      "Ġhambre": 8168,
      "Ġretorno": 8169,
      "Ã©trico": 8170,
      "Ġfetch": 8171,
      "Ġpartners": 8172,
      "cionario": 8173,
      "idurÃŃa": 8174,
      "Ġportal": 8175,
      "ĠporquÃ©": 8176,
      "ĠportÃ¡": 8177,
      "usuario": 8178,
      "Ġnota": 8179,
      "Ġdelim": 8180,
      "Ġmeter": 8181,
      "Ġmetida": 8182,
      "Ġgal": 8183,
      "ĠdiÃ¡": 8184,
      "ĠEL": 8185,
      "ĠEX": 8186,
      "Ġdestre": 8187,
      "Ġsocios": 8188,
      "Ġacog": 8189,
      "Ġaceler": 8190,
      "Ġresuelve": 8191,
      "Ġresoluciones": 8192,
      "alizando": 8193,
      "tum": 8194,
      "ĠCam": 8195,
      "ĠCol": 8196,
      "ĠCisco": 8197,
      "Ġanid": 8198,
      "ĠLine": 8199,
      "Ġmand": 8200,
      "ĠSÃŃ": 8201,
      "ĠSata": 8202,
      "Ġteor": 8203,
      "ĠAS": 8204,
      "ĠPas": 8205,
      "Ġclic": 8206,
      "ĠDer": 8207,
      "ĠDual": 8208,
      "Ġrecur": 8209,
      "itadas": 8210,
      "ĠIT": 8211,
      "ĠIBR": 8212,
      "now": 8213,
      "Ġpagado": 8214,
      "Ġpacientes": 8215,
      "licados": 8216,
      "ĠMuch": 8217,
      "ĠMIN": 8218,
      "ĠmuchÃŃ": 8219,
      "Ġcualific": 8220,
      "Ġdirectiva": 8221,
      "Ġcaptur": 8222,
      "Ġprimada": 8223,
      "Ġcreer": 8224,
      "logy": 8225,
      "ĠsabidurÃŃa": 8226,
      "ticomputador": 8227,
      "ĠredacciÃ³n": 8228,
      "omici": 8229,
      "lectura": 8230,
      "Ġabono": 8231,
      "ĠNIC": 8232,
      "ĠOk": 8233,
      "ĠOn": 8234,
      "Ġvenimos": 8235,
      "Ġrepresente": 8236,
      "Ġayer": 8237,
      "Ġhablado": 8238,
      "ĠHasta": 8239,
      "Ġplanes": 8240,
      "Ġpedidos": 8241,
      "Ġtomada": 8242,
      "Ġleyendo": 8243,
      "Ġdocumentar": 8244,
      "Ġtabular": 8245,
      "Ġllevado": 8246,
      "Ġcontacto": 8247,
      "Ġempleando": 8248,
      "Ġescrita": 8249,
      "Ġnacionales": 8250,
      "Ġtalen": 8251,
      "ĠÃºltimas": 8252,
      "Ġimplementados": 8253,
      "Ġguerra": 8254,
      "Ġcolabora": 8255,
      "Ġdistinta": 8256,
      "ĠevalÃºan": 8257,
      "bieron": 8258,
      "Ġefectivamente": 8259,
      "Ġ113": 8260,
      "opera": 8261,
      "Ġproducidos": 8262,
      "Ġdenota": 8263,
      "Ġestaban": 8264,
      "Ġclaros": 8265,
      "Ġpunta": 8266,
      "Ġauditado": 8267,
      "Ġdenominar": 8268,
      "Ġdenominada": 8269,
      "Ġpensamientos": 8270,
      "Ġrespeten": 8271,
      "ĠseÃ±alan": 8272,
      "Ġprobabilidades": 8273,
      "ĠProce": 8274,
      "Ġmorir": 8275,
      "olÃ³gica": 8276,
      "Ġaleatorios": 8277,
      "Ġrequisito": 8278,
      "INCRE": 8279,
      "Ġchi": 8280,
      "ĠcompaÃ±era": 8281,
      "Ġcambiarlo": 8282,
      "Ġrevisiones": 8283,
      "Ġocurr": 8284,
      "READ": 8285,
      "ĠEcuaciÃ³n": 8286,
      "Ġmultiplica": 8287,
      "Ġafectan": 8288,
      "Ġinteractuando": 8289,
      "Ġconstruyen": 8290,
      "Ġorientados": 8291,
      "Ġargumento": 8292,
      "ĠclaÃºs": 8293,
      "Ġvirtudes": 8294,
      "Ġdesarrolladas": 8295,
      "tella": 8296,
      "Ġliberal": 8297,
      "ĠratÃ³n": 8298,
      "Ġescuchando": 8299,
      "graph": 8300,
      "Ġoportuna": 8301,
      "Ġarreglos": 8302,
      "Ġavanzar": 8303,
      "ĠmÃºltiple": 8304,
      "Ġpriorit": 8305,
      "Ġadecuado": 8306,
      "LOOP": 8307,
      "Ġincorpora": 8308,
      "Ġmanejamos": 8309,
      "hernet": 8310,
      "Ġinvolucran": 8311,
      "ĠdemostraciÃ³n": 8312,
      "Ġvectoriales": 8313,
      "Ġdesean": 8314,
      "Ġmonitores": 8315,
      "Ġpudieran": 8316,
      "Ġprovin": 8317,
      "Ġsueldos": 8318,
      "Ġtraslad": 8319,
      "ĠServicio": 8320,
      "ĠimpresiÃ³n": 8321,
      "cronas": 8322,
      "ĠMOOC": 8323,
      "Ġexperimento": 8324,
      "Ġcoordinan": 8325,
      "Ġbotella": 8326,
      "Ġhardening": 8327,
      "ĠfactorizaciÃ³n": 8328,
      "Ġdescubrimiento": 8329,
      "Ġentrevistas": 8330,
      "ĠPermite": 8331,
      "Ġpierden": 8332,
      "ĠgeogrÃ¡ficamente": 8333,
      "Ġdens": 8334,
      "Ġincidentes": 8335,
      "ĠEDOS": 8336,
      "Ġreservadas": 8337,
      "ĠGeneralmente": 8338,
      "Todo": 8339,
      "Ġocupa": 8340,
      "ĠcÃ¡maras": 8341,
      "ĠendeudÃ©": 8342,
      "ĠheurÃŃsticos": 8343,
      "Ġavanzando": 8344,
      "Ġavanzada": 8345,
      "Ġeurope": 8346,
      "Ġandina": 8347,
      "Ġiterativa": 8348,
      "ĠcercanÃŃa": 8349,
      "ĠSintaxis": 8350,
      "Ġmegaher": 8351,
      "ĠenseÃ±aron": 8352,
      "Ġprimitivo": 8353,
      "Ġreflejan": 8354,
      "Ġtradicional": 8355,
      "ĠintervenciÃ³n": 8356,
      "Ġintervenir": 8357,
      "Ġequitativa": 8358,
      "Ġaconse": 8359,
      "Ġrecomendaciones": 8360,
      "Ġelevado": 8361,
      "Ġpelea": 8362,
      "Ġprofunda": 8363,
      "Ġhosp": 8364,
      "ĠcontraseÃ±a": 8365,
      "ĠexposiciÃ³n": 8366,
      "Ġliterario": 8367,
      "Ġatacantes": 8368,
      "Ġmezclar": 8369,
      "Ġmaestro": 8370,
      "Ġeconomistas": 8371,
      "Ġadelantado": 8372,
      "Ġconsonante": 8373,
      "ĠDeterminar": 8374,
      "Ġrazonamiento": 8375,
      "Ġlegislativo": 8376,
      "Ġkilova": 8377,
      "Ġversus": 8378,
      "ĠmercancÃŃas": 8379,
      "ĠServer": 8380,
      "Ġinterbloqueo": 8381,
      "ĠjurisdicciÃ³n": 8382,
      "ĠimportantÃŃsimo": 8383,
      "ĠvehÃŃculo": 8384,
      "Ġensayo": 8385,
      "Ġalumnos": 8386,
      "Ġcofactores": 8387,
      "Ġcaracteristicas": 8388,
      "Ġsobrecarga": 8389,
      "Ġpizza": 8390,
      "Ġenferm": 8391,
      "++": 8392,
      "11": 8393,
      "198": 8394,
      "50": 8395,
      "AP": 8396,
      "Base": 8397,
      "COM": 8398,
      "FAU": 8399,
      "Gener": 8400,
      "LES": 8401,
      "LINE": 8402,
      "Man": 8403,
      "TP": 8404,
      "TR": 8405,
      "Yo": 8406,
      "dpi": 8407,
      "ide": 8408,
      "ladas": 8409,
      "lite": 8410,
      "mun": 8411,
      "ole": 8412,
      "utos": 8413,
      "uera": 8414,
      "vemos": 8415,
      "vel": 8416,
      "zada": 8417,
      "Ġeres": 8418,
      "Ġegres": 8419,
      "ostu": 8420,
      "ĠlÃ¡": 8421,
      "Ġluch": 8422,
      "Ġpal": 8423,
      "Ġpie": 8424,
      "Ġce": 8425,
      "Ġcaj": 8426,
      "Ġcientos": 8427,
      "Ġcita": 8428,
      "esto": 8429,
      "ĠmÃºs": 8430,
      "Ġmadu": 8431,
      "tions": 8432,
      "tamiento": 8433,
      "ÃŃgenes": 8434,
      "Ġintan": 8435,
      "Ġcolas": 8436,
      "Ġcoprocesador": 8437,
      "ĠpartÃŃ": 8438,
      "cionada": 8439,
      "ĠtÃ¡c": 8440,
      "lez": 8441,
      "usiones": 8442,
      "Ġnociones": 8443,
      "Ġbur": 8444,
      "terales": 8445,
      "ĠsimÃ©": 8446,
      "uras": 8447,
      "Ġmetodos": 8448,
      "Ġpertin": 8449,
      "Ġgol": 8450,
      "Ġtroy": 8451,
      "ĠdirÃ¡": 8452,
      "Ġif": 8453,
      "Ġcompras": 8454,
      "ĠER": 8455,
      "ĠserÃŃan": 8456,
      "Ġdesa": 8457,
      "Ġdesorden": 8458,
      "Ã¡stica": 8459,
      "Ã±ador": 8460,
      "Ġactos": 8461,
      "Ġacostu": 8462,
      "ĠleÃŃ": 8463,
      "Ġoraciones": 8464,
      "Ġinterrump": 8465,
      "Ġprocesa": 8466,
      "Ġresol": 8467,
      "Ġrestruc": 8468,
      "alizaciones": 8469,
      "ĠCL": 8470,
      "ĠLINE": 8471,
      "Ġopcional": 8472,
      "Ġmagn": 8473,
      "ĠAt": 8474,
      "Ġinformal": 8475,
      "Ġinstante": 8476,
      "Ġverb": 8477,
      "Ġclima": 8478,
      "Ġvariantes": 8479,
      "ĠDon": 8480,
      "Ġcay": 8481,
      "entaja": 8482,
      "Ġdichas": 8483,
      "ĠbasÃ¡ndose": 8484,
      "vertidas": 8485,
      "ĠpagÃ³": 8486,
      "ĠEstu": 8487,
      "Ġproductivo": 8488,
      "Ġorganizan": 8489,
      "ĠTra": 8490,
      "Ġpropiamente": 8491,
      "ĠUSB": 8492,
      "Ġregistrado": 8493,
      "lantes": 8494,
      "ĠNU": 8495,
      "ĠOmega": 8496,
      "ĠvendrÃŃan": 8497,
      "Ġexponen": 8498,
      "Ġexponente": 8499,
      "Ġlenguas": 8500,
      "ĠVen": 8501,
      "Ġveci": 8502,
      "ĠpetrÃ³": 8503,
      "ability": 8504,
      "Ġsubje": 8505,
      "ĠGP": 8506,
      "Ġmensaj": 8507,
      "Ġsignificativo": 8508,
      "Ġidentificado": 8509,
      "Ġintegrado": 8510,
      "jate": 8511,
      "Ġejecutarlo": 8512,
      "Ġencuentren": 8513,
      "xionar": 8514,
      "Ġimplementan": 8515,
      "Ġgubern": 8516,
      "canz": 8517,
      "ĠderivaciÃ³n": 8518,
      "Ġindirec": 8519,
      "Ġpodria": 8520,
      "Ġcomparable": 8521,
      "Ġminutos": 8522,
      "Ġincremente": 8523,
      "Ġlecturas": 8524,
      "ĠÃºnicas": 8525,
      "Ġautovalores": 8526,
      "Ġsencillez": 8527,
      "Ġprofesores": 8528,
      "ĠaritmÃ©tico": 8529,
      "Ġdescriptivo": 8530,
      "ĠmicroeconomÃŃa": 8531,
      "Ġseparar": 8532,
      "Ġdistribuidos": 8533,
      "Ġrombo": 8534,
      "Ġpresentando": 8535,
      "ENE": 8536,
      "ENTO": 8537,
      "ĠsÃ©p": 8538,
      "ĠProto": 8539,
      "Ġrecorrer": 8540,
      "Ġposiblemente": 8541,
      "Ġreflexionar": 8542,
      "Ġaleatoriamente": 8543,
      "Ġrevistas": 8544,
      "Ġencues": 8545,
      "Ġocurrido": 8546,
      "Ġafecten": 8547,
      "Ġrealice": 8548,
      "Ġorienta": 8549,
      "Ġproporcionados": 8550,
      "Ġgustan": 8551,
      "ips": 8552,
      "Ġdesarrollador": 8553,
      "ĠsolicitÃ³": 8554,
      "ĠAlgunos": 8555,
      "Ġacepta": 8556,
      "Ġestablecidas": 8557,
      "Ġtransformado": 8558,
      "Ġviven": 8559,
      "Ġcoloc": 8560,
      "Ġ27000": 8561,
      "ĠconversiÃ³n": 8562,
      "ĠaportaciÃ³n": 8563,
      "Ġcuadro": 8564,
      "Ġespecialistas": 8565,
      "ISC": 8566,
      "Ġregularmente": 8567,
      "Ġadecuadamente": 8568,
      "Ġelaborados": 8569,
      "Ġaplicativos": 8570,
      "Ġrespald": 8571,
      "Ġrespaldos": 8572,
      "Ġprivada": 8573,
      "Ġreunir": 8574,
      "ĠKEY": 8575,
      "Ġteste": 8576,
      "Ġdeseos": 8577,
      "ĠpudiÃ©ramos": 8578,
      "Ġvisuales": 8579,
      "Ġcolaborar": 8580,
      "Ġcorrela": 8581,
      "Ġinalcanz": 8582,
      "Ġconsideraciones": 8583,
      "Ġemita": 8584,
      "Ġnulo": 8585,
      "Ġimpresora": 8586,
      "Ġsangre": 8587,
      "Ġesperado": 8588,
      "Ġexige": 8589,
      "Ġmanualmente": 8590,
      "Ġencaden": 8591,
      "ĠÃģ": 8592,
      "ĠimaginÃ©monos": 8593,
      "Ġargumentativa": 8594,
      "ĠfÃŃjate": 8595,
      "Ġaccesos": 8596,
      "Ġesfuerzos": 8597,
      "Ġcuarto": 8598,
      "Ġmercantiles": 8599,
      "Ġoficinas": 8600,
      "Ġsensible": 8601,
      "ĠperiÃ³dicos": 8602,
      "Ġhabiamos": 8603,
      "Ġfijarse": 8604,
      "ĠviolaciÃ³n": 8605,
      "Ġdemasi": 8606,
      "Ġremueve": 8607,
      "Ġidio": 8608,
      "Ġdesventaja": 8609,
      "ĠenseÃ±an": 8610,
      "ĠDiseÃ±ador": 8611,
      "Ġcompromete": 8612,
      "Ġtuvimos": 8613,
      "ĠUstedes": 8614,
      "Ġcubre": 8615,
      "Ġasume": 8616,
      "Ġdedican": 8617,
      "MENSION": 8618,
      "Ġjuegan": 8619,
      "ĠDATOS": 8620,
      "ĠTengo": 8621,
      "Ġcomplementarios": 8622,
      "Ġconsonancia": 8623,
      "olsos": 8624,
      "ĠAmÃ©rica": 8625,
      "Ġhipotec": 8626,
      "ĠCDMA": 8627,
      "gonal": 8628,
      "Ġconmu": 8629,
      "Ġabarca": 8630,
      "ĠsatÃ©lite": 8631,
      "archivo": 8632,
      "Ġendure": 8633,
      "Ġbioinform": 8634,
      "ĠsecretarÃŃa": 8635,
      "ĠdescentralizaciÃ³n": 8636,
      "Ġmutua": 8637,
      "ĠdÃ³lares": 8638,
      "iversi": 8639,
      "ĠTemperamento": 8640,
      "Ġinconsistencias": 8641,
      "ĠbiolÃ³gicos": 8642,
      "ĠNetwork": 8643,
      "iddleware": 8644,
      "ĠreproducciÃ³n": 8645,
      "ĠMetodologÃŃa": 8646,
      "Ġtaxon": 8647,
      "Ġframework": 8648,
      "Ġcoaxial": 8649,
      "Ġdespliegue": 8650,
      "ĠENCADENADA": 8651,
      "Ġsemiestructurados": 8652,
      "Ġsugiere": 8653,
      "ĠProcessing": 8654,
      "Ġrecurrir": 8655,
      "FAULT": 8656,
      "Ġmadurez": 8657,
      "Ġintang": 8658,
      "Ġburgu": 8659,
      "ĠpetrÃ³leo": 8660,
      "Ġgubernamen": 8661,
      "ĠbioinformÃ¡tica": 8662,
      "''": 8663,
      "BX": 8664,
      "WS": 8665,
      "ati": 8666,
      "api": 8667,
      "dÃŃa": 8668,
      "emen": 8669,
      "glos": 8670,
      "gÃ¼": 8671,
      "juntos": 8672,
      "limin": 8673,
      "nb": 8674,
      "oth": 8675,
      "pma": 8676,
      "sen": 8677,
      "uz": 8678,
      "uales": 8679,
      "Ġdeterior": 8680,
      "Ġdeleg": 8681,
      "Ġpid": 8682,
      "ĠpÃŃxeles": 8683,
      "Ġsys": 8684,
      "eramente": 8685,
      "ervi": 8686,
      "ciencia": 8687,
      "estral": 8688,
      "arnos": 8689,
      "tooth": 8690,
      "Ġlamenta": 8691,
      "Ġdadas": 8692,
      "Ġnervi": 8693,
      "taba": 8694,
      "icar": 8695,
      "istic": 8696,
      "Ġsepa": 8697,
      "Ġhas": 8698,
      "Ġhum": 8699,
      "Ġcoleg": 8700,
      "Ġretribu": 8701,
      "Ġreduce": 8702,
      "echos": 8703,
      "Ġnoticia": 8704,
      "izamos": 8705,
      "mentador": 8706,
      "Ġmetal": 8707,
      "Ġperdido": 8708,
      "Ġtrip": 8709,
      "Ġtop": 8710,
      "Ġcompila": 8711,
      "Ġusb": 8712,
      "Ġdeseo": 8713,
      "Ġdesviaciones": 8714,
      "odemos": 8715,
      "dens": 8716,
      "Ġtiende": 8717,
      "gualmente": 8718,
      "eraciones": 8719,
      "Ġacaba": 8720,
      "ĠactÃº": 8721,
      "Ġtable": 8722,
      "Ġempu": 8723,
      "Ġdistor": 8724,
      "tore": 8725,
      "ĠorgÃ¡n": 8726,
      "Ġinterferencia": 8727,
      "Ġresistencia": 8728,
      "ĠCos": 8729,
      "ĠCuen": 8730,
      "ĠCom": 8731,
      "ĠCapital": 8732,
      "Ġandar": 8733,
      "ĠLISTA": 8734,
      "ĠString": 8735,
      "ĠSGSI": 8736,
      "Ġestemos": 8737,
      "ĠPAR": 8738,
      "Ġutp": 8739,
      "Ġhabr": 8740,
      "Ġhabido": 8741,
      "Ġquad": 8742,
      "ĠDeb": 8743,
      "Ġdiccionario": 8744,
      "ĠIgualmente": 8745,
      "Ġmiti": 8746,
      "Ġmipma": 8747,
      "Ġespiral": 8748,
      "Ġregion": 8749,
      "Ġcara": 8750,
      "Ġasis": 8751,
      "Ġprelimin": 8752,
      "gaciones": 8753,
      "Ġpauta": 8754,
      "Ġpaciencia": 8755,
      "rija": 8756,
      "Ġproductor": 8757,
      "Ġjugar": 8758,
      "Ġorganizados": 8759,
      "ĠdiferenciaciÃ³n": 8760,
      "ĠTec": 8761,
      "Ġcreemos": 8762,
      "Ġpropuesta": 8763,
      "Ġautos": 8764,
      "lash": 8765,
      "ĠtipologÃŃa": 8766,
      "Ġmejore": 8767,
      "memoria": 8768,
      "Ġdown": 8769,
      "Ġordenar": 8770,
      "ĠordenaciÃ³n": 8771,
      "Ġexponer": 8772,
      "Ġconju": 8773,
      "ĠBo": 8774,
      "ĠBien": 8775,
      "ĠBlo": 8776,
      "ĠVector": 8777,
      "ĠnormalizaciÃ³n": 8778,
      "ĠHemos": 8779,
      "ĠHerramientas": 8780,
      "ĠHow": 8781,
      "001": 8782,
      "Ġseguros": 8783,
      "ĠConsi": 8784,
      "ĠirÃ¡": 8785,
      "Ġinvier": 8786,
      "Ġllevarse": 8787,
      "Ġcentros": 8788,
      "ĠseÃ±as": 8789,
      "Ġtrabajarlo": 8790,
      "ĠSegun": 8791,
      "Ġintegrarse": 8792,
      "Ġdespren": 8793,
      "Ġmonta": 8794,
      "ped": 8795,
      "Ġrepresentatividad": 8796,
      "Ġcontenida": 8797,
      "Ġcontenga": 8798,
      "Ġindique": 8799,
      "Ġcomparar": 8800,
      "Ġcomparaciones": 8801,
      "ĠminÃºscula": 8802,
      "Ġproporcionales": 8803,
      "Ġrepresentada": 8804,
      "ĠniÃ±o": 8805,
      "Ġrecib": 8806,
      "ĠReal": 8807,
      "ĠpiÃ±Ã³n": 8808,
      "Ġcentran": 8809,
      "Ġpositiva": 8810,
      "ĠgrÃ¡ficamente": 8811,
[...]
